
#ifndef A2_DW_ALL_INT8_H
#define A2_DW_ALL_INT8_H

#include <cstdint>

alignas(16) const unsigned char A2_DW_All_INT8[] = {
  0x20, 0x00, 0x00, 0x00, 0x54, 0x46, 0x4c, 0x33, 0x00, 0x00, 0x00, 0x00,
  0x14, 0x00, 0x20, 0x00, 0x1c, 0x00, 0x18, 0x00, 0x14, 0x00, 0x10, 0x00,
  0x0c, 0x00, 0x00, 0x00, 0x08, 0x00, 0x04, 0x00, 0x14, 0x00, 0x00, 0x00,
  0x1c, 0x00, 0x00, 0x00, 0x98, 0x00, 0x00, 0x00, 0x18, 0x01, 0x00, 0x00,
  0x20, 0x16, 0x00, 0x00, 0x30, 0x16, 0x00, 0x00, 0xcc, 0x43, 0x00, 0x00,
  0x03, 0x00, 0x00, 0x00, 0x01, 0x00, 0x00, 0x00, 0x10, 0x00, 0x00, 0x00,
  0x00, 0x00, 0x0a, 0x00, 0x10, 0x00, 0x0c, 0x00, 0x08, 0x00, 0x04, 0x00,
  0x0a, 0x00, 0x00, 0x00, 0x0c, 0x00, 0x00, 0x00, 0x1c, 0x00, 0x00, 0x00,
  0x3c, 0x00, 0x00, 0x00, 0x0f, 0x00, 0x00, 0x00, 0x73, 0x65, 0x72, 0x76,
  0x69, 0x6e, 0x67, 0x5f, 0x64, 0x65, 0x66, 0x61, 0x75, 0x6c, 0x74, 0x00,
  0x01, 0x00, 0x00, 0x00, 0x04, 0x00, 0x00, 0x00, 0x68, 0xff, 0xff, 0xff,
  0x21, 0x00, 0x00, 0x00, 0x04, 0x00, 0x00, 0x00, 0x08, 0x00, 0x00, 0x00,
  0x6f, 0x75, 0x74, 0x70, 0x75, 0x74, 0x5f, 0x30, 0x00, 0x00, 0x00, 0x00,
  0x01, 0x00, 0x00, 0x00, 0x04, 0x00, 0x00, 0x00, 0xb6, 0xe9, 0xff, 0xff,
  0x04, 0x00, 0x00, 0x00, 0x0c, 0x00, 0x00, 0x00, 0x6b, 0x65, 0x72, 0x61,
  0x73, 0x5f, 0x74, 0x65, 0x6e, 0x73, 0x6f, 0x72, 0x00, 0x00, 0x00, 0x00,
  0x03, 0x00, 0x00, 0x00, 0x5c, 0x00, 0x00, 0x00, 0x2c, 0x00, 0x00, 0x00,
  0x04, 0x00, 0x00, 0x00, 0xb8, 0xff, 0xff, 0xff, 0x25, 0x00, 0x00, 0x00,
  0x04, 0x00, 0x00, 0x00, 0x13, 0x00, 0x00, 0x00, 0x43, 0x4f, 0x4e, 0x56,
  0x45, 0x52, 0x53, 0x49, 0x4f, 0x4e, 0x5f, 0x4d, 0x45, 0x54, 0x41, 0x44,
  0x41, 0x54, 0x41, 0x00, 0xdc, 0xff, 0xff, 0xff, 0x24, 0x00, 0x00, 0x00,
  0x04, 0x00, 0x00, 0x00, 0x13, 0x00, 0x00, 0x00, 0x6d, 0x69, 0x6e, 0x5f,
  0x72, 0x75, 0x6e, 0x74, 0x69, 0x6d, 0x65, 0x5f, 0x76, 0x65, 0x72, 0x73,
  0x69, 0x6f, 0x6e, 0x00, 0x08, 0x00, 0x0c, 0x00, 0x08, 0x00, 0x04, 0x00,
  0x08, 0x00, 0x00, 0x00, 0x23, 0x00, 0x00, 0x00, 0x04, 0x00, 0x00, 0x00,
  0x13, 0x00, 0x00, 0x00, 0x6d, 0x69, 0x6e, 0x5f, 0x72, 0x75, 0x6e, 0x74,
  0x69, 0x6d, 0x65, 0x5f, 0x76, 0x65, 0x72, 0x73, 0x69, 0x6f, 0x6e, 0x00,
  0x26, 0x00, 0x00, 0x00, 0x04, 0x15, 0x00, 0x00, 0xfc, 0x14, 0x00, 0x00,
  0xe4, 0x14, 0x00, 0x00, 0xbc, 0x14, 0x00, 0x00, 0x8c, 0x13, 0x00, 0x00,
  0xbc, 0x12, 0x00, 0x00, 0xac, 0x0c, 0x00, 0x00, 0x1c, 0x0c, 0x00, 0x00,
  0xec, 0x0a, 0x00, 0x00, 0x5c, 0x0a, 0x00, 0x00, 0x4c, 0x07, 0x00, 0x00,
  0xdc, 0x06, 0x00, 0x00, 0xf4, 0x05, 0x00, 0x00, 0x84, 0x05, 0x00, 0x00,
  0xf4, 0x03, 0x00, 0x00, 0xa4, 0x03, 0x00, 0x00, 0x04, 0x03, 0x00, 0x00,
  0xb4, 0x02, 0x00, 0x00, 0x24, 0x02, 0x00, 0x00, 0xf4, 0x01, 0x00, 0x00,
  0x9c, 0x01, 0x00, 0x00, 0x6c, 0x01, 0x00, 0x00, 0x14, 0x01, 0x00, 0x00,
  0x0c, 0x01, 0x00, 0x00, 0x04, 0x01, 0x00, 0x00, 0xfc, 0x00, 0x00, 0x00,
  0xf4, 0x00, 0x00, 0x00, 0xec, 0x00, 0x00, 0x00, 0xe4, 0x00, 0x00, 0x00,
  0xdc, 0x00, 0x00, 0x00, 0xd4, 0x00, 0x00, 0x00, 0xcc, 0x00, 0x00, 0x00,
  0xc4, 0x00, 0x00, 0x00, 0xbc, 0x00, 0x00, 0x00, 0xb4, 0x00, 0x00, 0x00,
  0x94, 0x00, 0x00, 0x00, 0x74, 0x00, 0x00, 0x00, 0x04, 0x00, 0x00, 0x00,
  0xf2, 0xea, 0xff, 0xff, 0x04, 0x00, 0x00, 0x00, 0x60, 0x00, 0x00, 0x00,
  0x0c, 0x00, 0x00, 0x00, 0x08, 0x00, 0x0e, 0x00, 0x08, 0x00, 0x04, 0x00,
  0x08, 0x00, 0x00, 0x00, 0x10, 0x00, 0x00, 0x00, 0x28, 0x00, 0x00, 0x00,
  0x00, 0x00, 0x06, 0x00, 0x08, 0x00, 0x04, 0x00, 0x06, 0x00, 0x00, 0x00,
  0x04, 0x00, 0x00, 0x00, 0x01, 0x00, 0x00, 0x00, 0xeb, 0x03, 0x00, 0x00,
  0x0c, 0x00, 0x18, 0x00, 0x14, 0x00, 0x10, 0x00, 0x0c, 0x00, 0x04, 0x00,
  0x0c, 0x00, 0x00, 0x00, 0xcc, 0x6f, 0x6d, 0x11, 0xb3, 0x2d, 0x7f, 0x50,
  0x02, 0x00, 0x00, 0x00, 0x02, 0x00, 0x00, 0x00, 0x04, 0x00, 0x00, 0x00,
  0x06, 0x00, 0x00, 0x00, 0x32, 0x2e, 0x31, 0x39, 0x2e, 0x30, 0x00, 0x00,
  0x5e, 0xeb, 0xff, 0xff, 0x04, 0x00, 0x00, 0x00, 0x10, 0x00, 0x00, 0x00,
  0x00, 0x00, 0x00, 0x00, 0x00, 0x00, 0x00, 0x00, 0x00, 0x00, 0x00, 0x00,
  0x00, 0x00, 0x00, 0x00, 0x7a, 0xeb, 0xff, 0xff, 0x04, 0x00, 0x00, 0x00,
  0x10, 0x00, 0x00, 0x00, 0x31, 0x2e, 0x31, 0x34, 0x2e, 0x30, 0x00, 0x00,
  0x00, 0x00, 0x00, 0x00, 0x00, 0x00, 0x00, 0x00, 0x58, 0xbf, 0xff, 0xff,
  0x5c, 0xbf, 0xff, 0xff, 0x60, 0xbf, 0xff, 0xff, 0x64, 0xbf, 0xff, 0xff,
  0x68, 0xbf, 0xff, 0xff, 0x6c, 0xbf, 0xff, 0xff, 0x70, 0xbf, 0xff, 0xff,
  0x74, 0xbf, 0xff, 0xff, 0x78, 0xbf, 0xff, 0xff, 0x7c, 0xbf, 0xff, 0xff,
  0x80, 0xbf, 0xff, 0xff, 0x84, 0xbf, 0xff, 0xff, 0xc6, 0xeb, 0xff, 0xff,
  0x04, 0x00, 0x00, 0x00, 0x48, 0x00, 0x00, 0x00, 0x55, 0xf3, 0x81, 0x79,
  0x84, 0x8b, 0xad, 0xcd, 0xb7, 0x40, 0x21, 0x95, 0x81, 0xe7, 0x15, 0x43,
  0xd4, 0x69, 0x81, 0xd1, 0x0d, 0xea, 0xe0, 0xc2, 0x29, 0x81, 0xa6, 0x66,
  0xda, 0x9a, 0xf3, 0x81, 0x06, 0x0f, 0x9e, 0xfb, 0x99, 0x75, 0x81, 0x18,
  0x25, 0x7b, 0x8b, 0x51, 0x7d, 0x0a, 0xf7, 0x74, 0x81, 0x89, 0x09, 0x89,
  0x5e, 0x78, 0x7f, 0x0b, 0x6c, 0xb5, 0x4f, 0xfd, 0x7f, 0xd9, 0x29, 0x87,
  0x5e, 0xcf, 0x70, 0x21, 0xbd, 0x68, 0x61, 0x7f, 0x1a, 0xec, 0xff, 0xff,
  0x04, 0x00, 0x00, 0x00, 0x20, 0x00, 0x00, 0x00, 0xd1, 0xc7, 0x00, 0x00,
  0xa0, 0x06, 0x00, 0x00, 0xbe, 0x06, 0x01, 0x00, 0x6d, 0x8d, 0x00, 0x00,
  0x37, 0xab, 0xff, 0xff, 0x08, 0x1a, 0x00, 0x00, 0x05, 0x2f, 0xff, 0xff,
  0xe6, 0x43, 0xff, 0xff, 0x46, 0xec, 0xff, 0xff, 0x04, 0x00, 0x00, 0x00,
  0x48, 0x00, 0x00, 0x00, 0x7f, 0x02, 0x2b, 0x36, 0x58, 0x81, 0x3b, 0x16,
  0x97, 0x9a, 0xb7, 0xdd, 0x2e, 0x1c, 0xfa, 0x81, 0x51, 0x62, 0x81, 0x1d,
  0x5d, 0x5d, 0x0b, 0x70, 0x27, 0x6f, 0xe2, 0xc8, 0x2b, 0xfe, 0xc9, 0xf0,
  0x77, 0x78, 0xc7, 0x81, 0x81, 0xb8, 0xb0, 0xf1, 0xcb, 0x7f, 0xf0, 0x55,
  0x3e, 0x4b, 0x81, 0x93, 0xb9, 0xb8, 0x3e, 0x43, 0x7e, 0x09, 0x5f, 0x43,
  0x1c, 0x79, 0x22, 0xd4, 0x30, 0xdb, 0xa8, 0xe2, 0x19, 0x29, 0x25, 0xd3,
  0x71, 0xd9, 0x6a, 0x2d, 0x9a, 0xec, 0xff, 0xff, 0x04, 0x00, 0x00, 0x00,
  0x20, 0x00, 0x00, 0x00, 0x07, 0xf5, 0xff, 0xff, 0x3b, 0xfb, 0xff, 0xff,
  0xd0, 0x08, 0x00, 0x00, 0x0a, 0x05, 0x00, 0x00, 0xaf, 0xe6, 0xff, 0xff,
  0x85, 0x05, 0x00, 0x00, 0x45, 0x04, 0x00, 0x00, 0x92, 0x03, 0x00, 0x00,
  0xc6, 0xec, 0xff, 0xff, 0x04, 0x00, 0x00, 0x00, 0x80, 0x00, 0x00, 0x00,
  0x55, 0xed, 0xa1, 0x24, 0xa6, 0x40, 0x81, 0xc5, 0xe9, 0x12, 0x07, 0x7f,
  0xa9, 0x4c, 0x7f, 0x94, 0xd3, 0xf0, 0x56, 0x81, 0xb2, 0xda, 0x5a, 0xd3,
  0xa7, 0x01, 0x5c, 0xb4, 0x2f, 0x81, 0xd3, 0x70, 0xdd, 0x02, 0x18, 0xd9,
  0x7f, 0x2a, 0x5d, 0x0c, 0x5e, 0x7f, 0xf7, 0x1c, 0xc9, 0x40, 0xb7, 0x33,
  0x81, 0xc2, 0x9c, 0x8a, 0x59, 0x09, 0xda, 0xb7, 0xd0, 0x81, 0xc5, 0xa9,
  0x9c, 0x8c, 0xdd, 0xe9, 0x8d, 0xa0, 0x25, 0x15, 0xe4, 0xdd, 0x36, 0x81,
  0xbf, 0x40, 0x6d, 0xb9, 0x81, 0xff, 0x07, 0xfe, 0x9b, 0x54, 0x8a, 0x4c,
  0xb3, 0xdd, 0x81, 0x46, 0x31, 0x1c, 0x91, 0x0d, 0x7f, 0xb4, 0x0b, 0x43,
  0xd6, 0x43, 0x2f, 0x7f, 0xf0, 0xd2, 0xe4, 0x01, 0x7f, 0xe4, 0xea, 0xe8,
  0xe6, 0x98, 0x06, 0x07, 0x10, 0x72, 0x5c, 0x55, 0x5e, 0xd2, 0xbd, 0x7f,
  0xc6, 0x3e, 0x3b, 0xf1, 0x67, 0xad, 0x7f, 0x31, 0x52, 0xed, 0xff, 0xff,
  0x04, 0x00, 0x00, 0x00, 0x40, 0x00, 0x00, 0x00, 0xb9, 0x0c, 0x00, 0x00,
  0x83, 0xfa, 0xff, 0xff, 0xad, 0x0c, 0x00, 0x00, 0x06, 0x06, 0x00, 0x00,
  0x0e, 0xf1, 0xff, 0xff, 0x08, 0xf2, 0xff, 0xff, 0x76, 0x19, 0x00, 0x00,
  0x4d, 0x23, 0x00, 0x00, 0x47, 0x13, 0x00, 0x00, 0x2a, 0x09, 0x00, 0x00,
  0xcf, 0x12, 0x00, 0x00, 0x27, 0xf6, 0xff, 0xff, 0xff, 0xf8, 0xff, 0xff,
  0x7d, 0x04, 0x00, 0x00, 0x2e, 0xe8, 0xff, 0xff, 0x03, 0xee, 0xff, 0xff,
  0x9e, 0xed, 0xff, 0xff, 0x04, 0x00, 0x00, 0x00, 0x90, 0x00, 0x00, 0x00,
  0x52, 0x07, 0x2b, 0x18, 0x44, 0x42, 0x51, 0x70, 0x91, 0x32, 0xd8, 0x23,
  0xd2, 0xd2, 0x1a, 0xad, 0xb0, 0x04, 0x7f, 0x04, 0xf5, 0xe4, 0x4d, 0x7f,
  0x81, 0xdf, 0x6e, 0xd1, 0x7f, 0x1f, 0x4d, 0x05, 0xf0, 0xac, 0x45, 0x6b,
  0xd2, 0xd5, 0x43, 0x48, 0xee, 0xba, 0x2b, 0x23, 0xf4, 0x1c, 0x81, 0xc8,
  0x5a, 0x81, 0xba, 0xeb, 0x7f, 0xb3, 0x31, 0x3c, 0xca, 0x7f, 0x59, 0x46,
  0x4b, 0x7f, 0x20, 0xa7, 0xc0, 0x0f, 0xe0, 0x49, 0xe2, 0xde, 0xef, 0x57,
  0xbe, 0x63, 0xc2, 0x3f, 0x79, 0x1a, 0x98, 0x0f, 0x44, 0xbd, 0xc1, 0x7f,
  0xb1, 0x7f, 0xf2, 0x6d, 0xe0, 0x21, 0x0b, 0x7f, 0xaa, 0x1c, 0xc7, 0x72,
  0xee, 0x25, 0xe6, 0x40, 0x18, 0xf6, 0x23, 0xca, 0xf8, 0xce, 0x7f, 0xf5,
  0x5a, 0x0b, 0xa6, 0xad, 0x87, 0xd8, 0xbd, 0x4d, 0xf3, 0x3a, 0x3c, 0x40,
  0x2d, 0x8f, 0xe1, 0x2e, 0x1b, 0x3b, 0xef, 0x81, 0x7f, 0x50, 0x62, 0x19,
  0xb5, 0xd8, 0x81, 0x03, 0x0b, 0x5c, 0x04, 0xdf, 0xdb, 0x46, 0xa7, 0x60,
  0x3a, 0xee, 0xff, 0xff, 0x04, 0x00, 0x00, 0x00, 0x40, 0x00, 0x00, 0x00,
  0x63, 0xfb, 0xff, 0xff, 0xf6, 0x0a, 0x00, 0x00, 0x1b, 0xfc, 0xff, 0xff,
  0x26, 0xe5, 0xff, 0xff, 0xcf, 0xfd, 0xff, 0xff, 0x46, 0xfc, 0xff, 0xff,
  0x01, 0xf2, 0xff, 0xff, 0xde, 0xdc, 0xff, 0xff, 0x15, 0x1c, 0x00, 0x00,
  0x61, 0xf6, 0xff, 0xff, 0xb9, 0xf2, 0xff, 0xff, 0x23, 0xf0, 0xff, 0xff,
  0x18, 0xf2, 0xff, 0xff, 0x09, 0xf2, 0xff, 0xff, 0xe6, 0x17, 0x00, 0x00,
  0xa7, 0x08, 0x00, 0x00, 0x86, 0xee, 0xff, 0xff, 0x04, 0x00, 0x00, 0x00,
  0x80, 0x01, 0x00, 0x00, 0x19, 0x0d, 0x9c, 0x10, 0x46, 0x01, 0xb5, 0xfe,
  0x14, 0xe0, 0x0e, 0x16, 0x7f, 0xe1, 0x18, 0x02, 0xa0, 0x51, 0x2d, 0x3e,
  0xe0, 0xec, 0xe9, 0x47, 0x08, 0x70, 0xe4, 0x7f, 0xc7, 0x36, 0x37, 0xd2,
  0x6e, 0xc1, 0x0f, 0x02, 0x9e, 0xe7, 0xab, 0xac, 0x4b, 0x81, 0xb4, 0x29,
  0x48, 0xfb, 0x16, 0x18, 0x88, 0x23, 0x6c, 0x16, 0xd2, 0x24, 0x2f, 0x4e,
  0x09, 0xc1, 0x07, 0x11, 0x05, 0xfa, 0x7f, 0x0c, 0x2c, 0xc3, 0x25, 0xe0,
  0x3b, 0xbb, 0x26, 0xe8, 0x07, 0xb2, 0x2a, 0x5d, 0x49, 0x96, 0x7f, 0xb6,
  0x81, 0x3e, 0xf8, 0xac, 0xf9, 0xb8, 0x53, 0xd5, 0xaf, 0x00, 0x05, 0x13,
  0x35, 0xc6, 0x5f, 0xbc, 0xa6, 0xe6, 0x81, 0xb3, 0xb3, 0xe3, 0x04, 0x6c,
  0x9b, 0x5a, 0xf9, 0x06, 0x05, 0x89, 0x5f, 0x9f, 0xb2, 0x19, 0xdd, 0xbb,
  0x2f, 0x03, 0x85, 0x36, 0xbd, 0xa1, 0x12, 0xda, 0x81, 0xf9, 0x36, 0x6f,
  0x3c, 0x21, 0x31, 0xed, 0x08, 0xe4, 0x3e, 0xef, 0x55, 0x46, 0x31, 0x81,
  0xcf, 0xd0, 0xfb, 0x7a, 0xa3, 0x09, 0x0f, 0x41, 0xfd, 0xf6, 0x29, 0x56,
  0x60, 0x81, 0xae, 0xda, 0xc8, 0x3a, 0xbc, 0x33, 0x46, 0x6f, 0xcf, 0x9d,
  0x4b, 0xbe, 0xb2, 0xd1, 0x27, 0x7f, 0x6c, 0x0d, 0x6d, 0xd6, 0x69, 0x0f,
  0x24, 0x0c, 0xfe, 0xa1, 0xde, 0x43, 0xc8, 0xc9, 0xee, 0x27, 0x61, 0x92,
  0xc3, 0x4e, 0x5f, 0x81, 0xd5, 0x46, 0xed, 0xd9, 0x98, 0xe0, 0xb9, 0xc5,
  0x69, 0x01, 0x34, 0x97, 0xe4, 0x65, 0x81, 0x07, 0x77, 0x3f, 0x3f, 0x21,
  0xee, 0xfe, 0x91, 0xcc, 0x85, 0x55, 0x1a, 0x59, 0xd4, 0x73, 0x81, 0x38,
  0xd7, 0xae, 0xe4, 0xd5, 0xcd, 0xa5, 0x36, 0x11, 0x43, 0x5d, 0x2d, 0x7f,
  0xfd, 0x0a, 0x18, 0xb3, 0xfe, 0x48, 0x9a, 0x75, 0x1f, 0x05, 0x9e, 0x7f,
  0x69, 0xf3, 0xf4, 0xfa, 0x97, 0xda, 0x72, 0xc7, 0x35, 0xa4, 0xfb, 0xb9,
  0x81, 0xcc, 0xae, 0xf9, 0x83, 0xe3, 0x3f, 0x93, 0x4b, 0x7d, 0x66, 0xc9,
  0x9f, 0xb5, 0x14, 0x56, 0x81, 0xd3, 0xfd, 0xce, 0xf8, 0xe1, 0x5a, 0x21,
  0xdc, 0x86, 0x20, 0x5b, 0xfc, 0x03, 0xa5, 0x7f, 0xc0, 0xf1, 0x5f, 0xe7,
  0xaa, 0xf2, 0x83, 0xb9, 0xbc, 0xf7, 0xd1, 0x39, 0x24, 0x58, 0x20, 0xb5,
  0xd7, 0xab, 0x6f, 0xed, 0x38, 0xed, 0x10, 0x94, 0x1a, 0x73, 0x48, 0x81,
  0xe7, 0x81, 0x5f, 0xd0, 0x18, 0x21, 0xe8, 0x4e, 0xd1, 0xc2, 0x16, 0xfa,
  0xf7, 0x13, 0xcb, 0xa5, 0x12, 0x47, 0xd1, 0x69, 0x53, 0xc8, 0x4c, 0xc9,
  0xc4, 0x7f, 0x7f, 0x53, 0x43, 0x7f, 0x16, 0x62, 0xe4, 0x0f, 0xa2, 0xa8,
  0xc8, 0xf4, 0x25, 0x8d, 0x82, 0xbd, 0x11, 0x00, 0x57, 0x81, 0x30, 0x40,
  0xe1, 0x99, 0xa9, 0x0c, 0xf9, 0x7f, 0xb2, 0x07, 0x04, 0xa1, 0x03, 0xa3,
  0x33, 0xa2, 0x34, 0x13, 0x12, 0xf0, 0xff, 0xff, 0x04, 0x00, 0x00, 0x00,
  0x60, 0x00, 0x00, 0x00, 0xc4, 0xff, 0xff, 0xff, 0xbf, 0xea, 0xff, 0xff,
  0x3c, 0x10, 0x00, 0x00, 0x69, 0xed, 0xff, 0xff, 0xe6, 0xf9, 0xff, 0xff,
  0x89, 0x0e, 0x00, 0x00, 0x7b, 0x19, 0x00, 0x00, 0x3c, 0x1a, 0x00, 0x00,
  0xd4, 0xed, 0xff, 0xff, 0x99, 0xfb, 0xff, 0xff, 0xe1, 0xe6, 0xff, 0xff,
  0xae, 0x0d, 0x00, 0x00, 0x70, 0x10, 0x00, 0x00, 0x46, 0xfd, 0xff, 0xff,
  0xb0, 0xf7, 0xff, 0xff, 0x6b, 0xeb, 0xff, 0xff, 0x4a, 0x12, 0x00, 0x00,
  0x25, 0x13, 0x00, 0x00, 0xf0, 0x15, 0x00, 0x00, 0xb9, 0xf6, 0xff, 0xff,
  0x3a, 0x12, 0x00, 0x00, 0xab, 0xd1, 0xff, 0xff, 0x63, 0x21, 0x00, 0x00,
  0xb8, 0x0f, 0x00, 0x00, 0x7e, 0xf0, 0xff, 0xff, 0x04, 0x00, 0x00, 0x00,
  0xd8, 0x00, 0x00, 0x00, 0x2b, 0x01, 0x23, 0x1b, 0x3e, 0xf5, 0x41, 0x7f,
  0xe6, 0x70, 0xff, 0x7f, 0xb0, 0x86, 0x5d, 0xbd, 0x4e, 0xe2, 0x32, 0x32,
  0xa4, 0x1c, 0x81, 0x19, 0x40, 0x3a, 0xf7, 0x2e, 0x5f, 0x3b, 0xdd, 0x56,
  0x5a, 0x41, 0x23, 0xd9, 0xee, 0x81, 0xae, 0xc2, 0x39, 0xeb, 0x1d, 0xdc,
  0x6d, 0xec, 0x15, 0x68, 0x33, 0x2e, 0x1d, 0x1b, 0x88, 0xf4, 0x41, 0x4e,
  0x45, 0x69, 0xeb, 0xbc, 0x7f, 0x52, 0xbf, 0x48, 0x1c, 0x16, 0xf5, 0xc7,
  0xa2, 0x2c, 0x0c, 0x5b, 0x39, 0x33, 0x81, 0xf6, 0x58, 0x20, 0x26, 0xcc,
  0x2c, 0x7f, 0x3d, 0x09, 0x40, 0xf0, 0xbf, 0x0d, 0x0e, 0x7f, 0x24, 0xb3,
  0x75, 0x00, 0xc8, 0x63, 0x73, 0x3f, 0xa6, 0x39, 0x54, 0x47, 0xa2, 0xf1,
  0xfb, 0xd8, 0xed, 0xd8, 0xde, 0x9d, 0x81, 0x2b, 0x7f, 0x4c, 0xe9, 0x7f,
  0xa0, 0xdc, 0x90, 0x78, 0x07, 0x81, 0xa3, 0x56, 0x1a, 0x0c, 0xd4, 0xa6,
  0x74, 0x94, 0x9d, 0x93, 0x44, 0x4c, 0x62, 0xdb, 0x92, 0x1e, 0x81, 0x55,
  0x81, 0xd5, 0xd2, 0x7f, 0x1f, 0x2f, 0xdb, 0x31, 0xec, 0x32, 0x81, 0x5b,
  0x7c, 0xfa, 0x81, 0xc2, 0xc5, 0x6f, 0x04, 0x81, 0xe0, 0x34, 0x22, 0xc7,
  0x3f, 0x3a, 0x38, 0x16, 0x7f, 0x33, 0xca, 0x2a, 0x3e, 0x7f, 0xd5, 0x5d,
  0x7f, 0x59, 0xe9, 0xd2, 0xcb, 0x40, 0x22, 0xdd, 0x26, 0x18, 0xf5, 0x60,
  0xc4, 0xda, 0x2c, 0x41, 0x71, 0xb7, 0xd7, 0x7f, 0x81, 0x5d, 0x27, 0x6b,
  0x5c, 0xfb, 0x4e, 0xf9, 0xbf, 0xd8, 0xee, 0x9a, 0x14, 0x29, 0xc2, 0x67,
  0x53, 0x81, 0x47, 0x10, 0x62, 0xf1, 0xff, 0xff, 0x04, 0x00, 0x00, 0x00,
  0x60, 0x00, 0x00, 0x00, 0x56, 0xe7, 0xff, 0xff, 0x1c, 0xfa, 0xff, 0xff,
  0xfb, 0x1a, 0x00, 0x00, 0x63, 0xe6, 0xff, 0xff, 0xb1, 0xf1, 0xff, 0xff,
  0x48, 0xe7, 0xff, 0xff, 0xd2, 0x09, 0x00, 0x00, 0x62, 0xdf, 0xff, 0xff,
  0x0c, 0xe9, 0xff, 0xff, 0xce, 0xea, 0xff, 0xff, 0x0f, 0x05, 0x00, 0x00,
  0x03, 0x10, 0x00, 0x00, 0x93, 0x01, 0x00, 0x00, 0x53, 0xff, 0xff, 0xff,
  0x8c, 0x04, 0x00, 0x00, 0xd9, 0x0c, 0x00, 0x00, 0x37, 0xf2, 0xff, 0xff,
  0x95, 0xe7, 0xff, 0xff, 0x9f, 0x05, 0x00, 0x00, 0xb4, 0xf5, 0xff, 0xff,
  0x8a, 0x07, 0x00, 0x00, 0x47, 0x05, 0x00, 0x00, 0x1f, 0x0c, 0x00, 0x00,
  0xa6, 0xe1, 0xff, 0xff, 0xce, 0xf1, 0xff, 0xff, 0x04, 0x00, 0x00, 0x00,
  0x00, 0x03, 0x00, 0x00, 0x42, 0x34, 0x58, 0xb0, 0x1d, 0x1a, 0xa9, 0x81,
  0xc0, 0xf2, 0xc3, 0x38, 0x0c, 0xf3, 0xa3, 0xba, 0xeb, 0xc9, 0xf3, 0xc4,
  0x29, 0x3d, 0x01, 0xfd, 0xe3, 0x1b, 0xb6, 0x20, 0x31, 0xf1, 0x4a, 0xc6,
  0x03, 0xf0, 0xea, 0xcc, 0x17, 0x06, 0x81, 0x00, 0x30, 0xff, 0x16, 0xe7,
  0x0b, 0x16, 0x17, 0xe2, 0x43, 0xce, 0x3e, 0x32, 0xca, 0x66, 0xf7, 0x59,
  0xb2, 0xeb, 0x4d, 0xda, 0x21, 0x3f, 0xa7, 0xea, 0x55, 0x7f, 0xb2, 0xba,
  0xef, 0x65, 0xcd, 0x40, 0xc9, 0x67, 0x0a, 0x37, 0x18, 0x03, 0xa7, 0x07,
  0x30, 0xf4, 0x7f, 0xf9, 0x47, 0x2f, 0x38, 0xbd, 0x3e, 0x12, 0xdc, 0x27,
  0xcb, 0xc1, 0x0d, 0x48, 0xfb, 0x04, 0x7c, 0x0c, 0xf8, 0xc2, 0x40, 0xde,
  0xf1, 0xa4, 0x27, 0x51, 0x54, 0x43, 0xec, 0x81, 0xdf, 0x8e, 0xc3, 0x69,
  0x30, 0x08, 0x78, 0x2b, 0x79, 0xfd, 0xa6, 0x2a, 0xf7, 0xa5, 0x55, 0x81,
  0xd2, 0x45, 0xcc, 0x22, 0x2a, 0x2f, 0xdd, 0x0d, 0x17, 0xe9, 0xd6, 0xf3,
  0x3f, 0x29, 0xe4, 0x0f, 0x46, 0xf6, 0xe1, 0x88, 0x20, 0xa7, 0xec, 0x81,
  0x0f, 0x0e, 0xbc, 0x37, 0x1c, 0xa6, 0xb5, 0xbc, 0xbd, 0xd9, 0x3a, 0x07,
  0xe2, 0x41, 0xc7, 0xd9, 0x16, 0x1b, 0xa4, 0x32, 0x07, 0xdc, 0x1d, 0x05,
  0xcf, 0xb8, 0x81, 0xf0, 0x09, 0x44, 0xd4, 0xf5, 0x2b, 0x18, 0xb3, 0xc8,
  0xea, 0xf9, 0xd4, 0xff, 0xc0, 0x3b, 0x4b, 0x30, 0x81, 0x0c, 0xf9, 0xee,
  0xe1, 0xc9, 0xc2, 0x28, 0x6e, 0xed, 0x68, 0xd5, 0x23, 0x22, 0xa0, 0x76,
  0xdc, 0x44, 0x50, 0xde, 0xe8, 0x1c, 0x2b, 0xcd, 0x17, 0xf8, 0xc1, 0x19,
  0x13, 0xf7, 0x06, 0xbc, 0xf0, 0x29, 0xd7, 0x36, 0x20, 0x81, 0x42, 0xd5,
  0x23, 0x59, 0xcf, 0xe0, 0x4e, 0xef, 0x81, 0x34, 0xe5, 0x0c, 0x08, 0xa4,
  0x07, 0xaf, 0x2f, 0x29, 0xd5, 0xa2, 0x9e, 0xde, 0x1f, 0x01, 0xf7, 0x13,
  0xd3, 0xbb, 0xd7, 0x62, 0x15, 0xd7, 0xda, 0x11, 0x8e, 0xf3, 0xb7, 0xba,
  0xbc, 0xfb, 0xf6, 0xbb, 0xf6, 0x7c, 0x3d, 0xd4, 0x28, 0x81, 0xd4, 0xbd,
  0xf9, 0x36, 0x37, 0xd6, 0x00, 0xdf, 0x3b, 0x42, 0xcf, 0x12, 0xbf, 0x49,
  0xf4, 0x0d, 0xe1, 0xff, 0x05, 0xfc, 0xde, 0x41, 0x14, 0x1e, 0x9c, 0x20,
  0x2f, 0x81, 0xf5, 0xd9, 0xd0, 0xdd, 0x34, 0x00, 0x18, 0x10, 0xe0, 0x45,
  0xd5, 0x08, 0x1a, 0xe6, 0xd5, 0xa2, 0xea, 0xff, 0x47, 0x14, 0xfc, 0xed,
  0x1a, 0xd1, 0x81, 0x96, 0x30, 0x28, 0xce, 0xcf, 0xc0, 0xd9, 0x9d, 0x48,
  0xd5, 0x69, 0x01, 0xdf, 0x1a, 0x24, 0x2d, 0xdd, 0x1b, 0x62, 0xbd, 0x46,
  0x7f, 0x12, 0x45, 0x30, 0xce, 0x35, 0xa6, 0x69, 0xe4, 0x4d, 0x81, 0xf1,
  0xd3, 0xf2, 0x36, 0xe5, 0x39, 0x29, 0xa8, 0x9d, 0xae, 0xce, 0x4f, 0x61,
  0xd1, 0x75, 0x35, 0xdf, 0xf1, 0xf0, 0x26, 0x2e, 0x06, 0x7f, 0x21, 0x24,
  0x45, 0xf2, 0x0f, 0x1c, 0x16, 0x1c, 0xe0, 0xfb, 0x00, 0x82, 0x34, 0xd4,
  0xdd, 0xfc, 0xfd, 0xe9, 0xd0, 0x04, 0x35, 0xdc, 0x4f, 0x75, 0xb8, 0x6a,
  0x77, 0x5e, 0xaa, 0x81, 0xcb, 0xd7, 0xbd, 0xe4, 0xac, 0xd7, 0x6a, 0x56,
  0xb0, 0xca, 0xe4, 0x3f, 0x52, 0xa7, 0x09, 0x20, 0xeb, 0x0d, 0x59, 0xc4,
  0xfa, 0xc2, 0xbf, 0x29, 0x27, 0x63, 0xd1, 0x60, 0x2e, 0x13, 0x35, 0xb1,
  0xd2, 0x35, 0x81, 0x19, 0xce, 0xcb, 0x60, 0xdd, 0x81, 0xc1, 0xeb, 0xa1,
  0xf4, 0xec, 0x1a, 0x27, 0x0a, 0x45, 0xcf, 0xe3, 0xd3, 0xd0, 0x0a, 0x60,
  0x61, 0x9b, 0x8a, 0xac, 0xcd, 0x7f, 0xa6, 0xc9, 0x20, 0xae, 0x15, 0x07,
  0xde, 0x17, 0x28, 0x49, 0x39, 0x4e, 0xe0, 0xfa, 0x34, 0xf3, 0x9d, 0x10,
  0x11, 0x6c, 0x32, 0x6f, 0xf9, 0x81, 0x30, 0x25, 0xeb, 0xc3, 0xe2, 0xa3,
  0xfd, 0xe0, 0xa4, 0xd8, 0xee, 0x18, 0x19, 0xf6, 0x02, 0x22, 0x7e, 0x2f,
  0xa8, 0x03, 0xac, 0xe3, 0x02, 0x9b, 0x6f, 0x3f, 0xf8, 0xfa, 0xcf, 0xd3,
  0xf1, 0xce, 0xcc, 0x81, 0x14, 0x0f, 0x07, 0xfc, 0xf0, 0x56, 0x10, 0xd1,
  0x3e, 0x21, 0xe0, 0xba, 0xd4, 0xf6, 0x65, 0x97, 0xe8, 0xe1, 0x06, 0xda,
  0x05, 0xb0, 0x0a, 0x30, 0x5d, 0x21, 0x40, 0x7f, 0x06, 0xae, 0xed, 0xce,
  0x1f, 0x87, 0x14, 0xb4, 0x3c, 0xf8, 0xd0, 0x44, 0x37, 0x1b, 0xc0, 0x36,
  0xfb, 0x22, 0x21, 0xe8, 0x81, 0xcb, 0x09, 0x48, 0x4a, 0x24, 0x52, 0x43,
  0x3b, 0x9d, 0x29, 0xa6, 0x02, 0x13, 0x16, 0xe6, 0x46, 0xdc, 0x81, 0x09,
  0x19, 0xcf, 0xe0, 0xf1, 0x22, 0xca, 0x2f, 0x11, 0xea, 0x06, 0x0e, 0x14,
  0xed, 0x2b, 0xf9, 0xe1, 0x81, 0xe7, 0xdc, 0x83, 0x2d, 0x76, 0xed, 0x02,
  0xdf, 0xf6, 0x23, 0xeb, 0x1d, 0xf7, 0xd2, 0x14, 0xed, 0xef, 0x44, 0xf0,
  0x12, 0x1e, 0xf1, 0xc3, 0x18, 0xd9, 0xf7, 0x51, 0x05, 0xfd, 0x9e, 0xd3,
  0xaa, 0xec, 0xe5, 0x09, 0x17, 0xe7, 0xec, 0x22, 0x8c, 0x15, 0xe8, 0x81,
  0xbf, 0x15, 0x22, 0xd0, 0xa7, 0xdf, 0x0b, 0xdd, 0x2a, 0xf8, 0x3b, 0x0e,
  0x4e, 0x07, 0x57, 0xbe, 0x28, 0xfe, 0xd0, 0x1f, 0x81, 0x34, 0xf0, 0xcc,
  0x35, 0x1a, 0xee, 0x08, 0x36, 0x38, 0x16, 0x98, 0xfd, 0xa2, 0x4a, 0x2e,
  0xec, 0x35, 0x81, 0x04, 0x2f, 0x3f, 0x47, 0xff, 0x0f, 0x24, 0x22, 0x4d,
  0x13, 0x87, 0x18, 0x21, 0xf4, 0x2b, 0xff, 0x14, 0xf7, 0x42, 0xee, 0xba,
  0xb7, 0x0e, 0xe6, 0x42, 0xec, 0x0f, 0xda, 0x7f, 0x2a, 0x44, 0xfc, 0x28,
  0x1e, 0xd9, 0x3b, 0xd7, 0x81, 0x13, 0x07, 0x04, 0xe0, 0x23, 0xce, 0x11,
  0xe0, 0x64, 0x1f, 0x03, 0x1e, 0x21, 0x4b, 0xea, 0x5b, 0x03, 0x7a, 0xe0,
  0x3f, 0xd6, 0x50, 0x65, 0xda, 0xf4, 0xff, 0xff, 0x04, 0x00, 0x00, 0x00,
  0x80, 0x00, 0x00, 0x00, 0xea, 0x0e, 0x00, 0x00, 0x9c, 0x0c, 0x00, 0x00,
  0x6e, 0xe5, 0xff, 0xff, 0xf5, 0xf8, 0xff, 0xff, 0x94, 0xea, 0xff, 0xff,
  0x16, 0x06, 0x00, 0x00, 0xcb, 0x22, 0x00, 0x00, 0xb4, 0x17, 0x00, 0x00,
  0xff, 0xf5, 0xff, 0xff, 0x6f, 0x01, 0x00, 0x00, 0x9b, 0x14, 0x00, 0x00,
  0xf5, 0x20, 0x00, 0x00, 0xe2, 0x04, 0x00, 0x00, 0xfc, 0x22, 0x00, 0x00,
  0x7a, 0xe9, 0xff, 0xff, 0x5e, 0xff, 0xff, 0xff, 0xe6, 0xf0, 0xff, 0xff,
  0x7e, 0xf0, 0xff, 0xff, 0xaa, 0xfa, 0xff, 0xff, 0x51, 0x1f, 0x00, 0x00,
  0xfc, 0xf7, 0xff, 0xff, 0x12, 0x11, 0x00, 0x00, 0xb8, 0x0a, 0x00, 0x00,
  0xc0, 0x07, 0x00, 0x00, 0x84, 0xf3, 0xff, 0xff, 0x5f, 0x06, 0x00, 0x00,
  0xd3, 0x0d, 0x00, 0x00, 0xc8, 0x1d, 0x00, 0x00, 0x71, 0x02, 0x00, 0x00,
  0x96, 0xe9, 0xff, 0xff, 0x22, 0xef, 0xff, 0xff, 0xcf, 0xe7, 0xff, 0xff,
  0x66, 0xf5, 0xff, 0xff, 0x04, 0x00, 0x00, 0x00, 0x20, 0x01, 0x00, 0x00,
  0x01, 0xad, 0x03, 0x15, 0x20, 0x52, 0x2d, 0x3e, 0x17, 0xc3, 0x24, 0x55,
  0xf9, 0x03, 0x59, 0xc7, 0x2c, 0xda, 0x20, 0x81, 0x1e, 0x3d, 0x4f, 0x81,
  0x5e, 0xe8, 0xdf, 0x3f, 0x74, 0x65, 0xf3, 0xa3, 0x78, 0x36, 0x3f, 0x0a,
  0x2e, 0x42, 0x7f, 0x1e, 0x21, 0xdd, 0x25, 0x2e, 0xb1, 0x58, 0x7f, 0x6d,
  0x81, 0xda, 0x92, 0xda, 0x81, 0x42, 0xf6, 0x70, 0x7f, 0xd1, 0x96, 0xce,
  0x3c, 0xf8, 0x35, 0xf5, 0xdc, 0xc8, 0xfa, 0x74, 0x81, 0x3f, 0x78, 0x30,
  0xf8, 0x49, 0x29, 0xd0, 0xa0, 0xe7, 0x26, 0x95, 0x75, 0xfb, 0x7f, 0x9e,
  0x93, 0x81, 0x2e, 0x18, 0xcf, 0x2c, 0x09, 0xef, 0x7f, 0x31, 0xb4, 0x81,
  0x64, 0x13, 0x03, 0x51, 0x39, 0x5c, 0x15, 0x37, 0x7f, 0xcc, 0x14, 0x59,
  0xd7, 0x16, 0xf4, 0xfe, 0xec, 0x68, 0x9f, 0x2c, 0x04, 0x05, 0x5c, 0xa4,
  0x2c, 0x2a, 0x7d, 0x5d, 0xd2, 0x4d, 0x5c, 0xcf, 0x5b, 0x67, 0x7f, 0x7f,
  0x51, 0x29, 0x5f, 0x66, 0x10, 0xdd, 0x10, 0x47, 0xe3, 0x5e, 0x07, 0x04,
  0xa9, 0x18, 0xf8, 0x01, 0x0b, 0x56, 0xd4, 0xcc, 0xfa, 0x29, 0xe2, 0xc8,
  0xf3, 0xf9, 0x1b, 0xe0, 0x7a, 0x15, 0x05, 0x0e, 0xc0, 0x7f, 0x20, 0x6b,
  0x77, 0x81, 0x1a, 0x7f, 0x7f, 0xc4, 0x18, 0xe2, 0x08, 0x7f, 0x70, 0xf5,
  0xaf, 0xbe, 0x4c, 0x34, 0x00, 0x1a, 0x7f, 0x12, 0xb2, 0x4a, 0x7f, 0x02,
  0xe3, 0x51, 0x28, 0xee, 0xe5, 0x5a, 0x74, 0x21, 0xe3, 0x30, 0xa7, 0x6d,
  0xe3, 0xf0, 0x4c, 0x16, 0x0b, 0x2b, 0x20, 0xdd, 0x1a, 0x17, 0x7f, 0x31,
  0x59, 0xbf, 0xa1, 0xda, 0x7f, 0x7f, 0x17, 0x95, 0x7f, 0x7f, 0x73, 0xf3,
  0xe6, 0xb5, 0x5f, 0x1e, 0x13, 0x66, 0x81, 0xe1, 0x93, 0x7f, 0x4e, 0x7f,
  0xa0, 0x3c, 0xc5, 0x1a, 0x86, 0x60, 0x0f, 0x67, 0x60, 0x81, 0x15, 0xd4,
  0x39, 0xf5, 0x53, 0x07, 0xc3, 0xf4, 0x8b, 0x1b, 0xd6, 0x0a, 0x58, 0x7f,
  0xd4, 0x53, 0xe0, 0x2c, 0x86, 0xc7, 0x11, 0xe2, 0x60, 0x39, 0x53, 0x0e,
  0xe7, 0xb5, 0x58, 0x54, 0xdd, 0x21, 0x3b, 0x81, 0x75, 0x85, 0x10, 0xd4,
  0x92, 0xf6, 0xff, 0xff, 0x04, 0x00, 0x00, 0x00, 0x80, 0x00, 0x00, 0x00,
  0x71, 0xea, 0xff, 0xff, 0x96, 0xe9, 0xff, 0xff, 0xfa, 0xed, 0xff, 0xff,
  0x3d, 0xe3, 0xff, 0xff, 0xcf, 0xfe, 0xff, 0xff, 0xae, 0xda, 0xff, 0xff,
  0x49, 0xd2, 0xff, 0xff, 0x6f, 0xec, 0xff, 0xff, 0x54, 0xf0, 0xff, 0xff,
  0x5a, 0x00, 0x00, 0x00, 0x11, 0xfd, 0xff, 0xff, 0x97, 0xe2, 0xff, 0xff,
  0xd2, 0x1a, 0x00, 0x00, 0xd6, 0xf0, 0xff, 0xff, 0x06, 0xe3, 0xff, 0xff,
  0x26, 0xfe, 0xff, 0xff, 0x39, 0xfd, 0xff, 0xff, 0xd7, 0xf1, 0xff, 0xff,
  0x05, 0xf4, 0xff, 0xff, 0xaa, 0x0c, 0x00, 0x00, 0xc2, 0x15, 0x00, 0x00,
  0x59, 0xfc, 0xff, 0xff, 0x6d, 0xeb, 0xff, 0xff, 0x6d, 0xf3, 0xff, 0xff,
  0x5b, 0xe2, 0xff, 0xff, 0x77, 0x04, 0x00, 0x00, 0xf3, 0xfd, 0xff, 0xff,
  0x82, 0x05, 0x00, 0x00, 0xef, 0xe9, 0xff, 0xff, 0x49, 0xf4, 0xff, 0xff,
  0xda, 0xeb, 0xff, 0xff, 0x87, 0x1f, 0x00, 0x00, 0x1e, 0xf7, 0xff, 0xff,
  0x04, 0x00, 0x00, 0x00, 0x00, 0x06, 0x00, 0x00, 0xf5, 0x5c, 0xe8, 0xff,
  0x39, 0x0a, 0x10, 0x2a, 0xfb, 0xcf, 0x24, 0x03, 0x1f, 0x58, 0xb6, 0xf1,
  0xe0, 0x49, 0x08, 0xe4, 0x08, 0xd5, 0x2e, 0xdd, 0x3c, 0xcc, 0x2f, 0x1c,
  0x0c, 0xfc, 0x02, 0x7f, 0xc3, 0x48, 0xd4, 0x03, 0x7f, 0x25, 0x0f, 0x52,
  0x33, 0x11, 0xbf, 0xd3, 0x2c, 0x2e, 0x02, 0x4f, 0x2b, 0x5a, 0xed, 0x14,
  0xdc, 0xf8, 0x43, 0xe3, 0xce, 0xcc, 0x35, 0xc0, 0xfe, 0x15, 0x26, 0x42,
  0x42, 0xd7, 0x0f, 0xc3, 0x0a, 0x05, 0xdb, 0xeb, 0x45, 0x16, 0x0b, 0x3c,
  0x52, 0x2c, 0x55, 0x3f, 0x11, 0xf6, 0x04, 0x34, 0xd1, 0x7f, 0x19, 0xde,
  0xae, 0x63, 0x5c, 0xd2, 0x1a, 0x4b, 0xa5, 0x25, 0x4d, 0xe9, 0xe1, 0xda,
  0xcf, 0x45, 0x1f, 0xd3, 0xe6, 0xcf, 0x47, 0xd0, 0x3d, 0x7f, 0xd7, 0xfc,
  0x5f, 0xf4, 0x1f, 0xcc, 0x21, 0x2a, 0xf1, 0xf3, 0xd0, 0x15, 0x26, 0x21,
  0x7c, 0x3c, 0xe6, 0x40, 0x2d, 0xe0, 0xa8, 0x15, 0xde, 0x48, 0x1f, 0xd0,
  0xe0, 0xf7, 0xe2, 0xf2, 0x4f, 0x4f, 0xf7, 0xfd, 0x7f, 0xfe, 0x09, 0xc0,
  0xfc, 0x21, 0xdc, 0x50, 0xf6, 0x29, 0xf8, 0x35, 0x2b, 0xef, 0xdc, 0xf7,
  0xc8, 0x5a, 0x30, 0xdb, 0xf4, 0xff, 0xd3, 0x7d, 0xb4, 0x32, 0xee, 0xf5,
  0x14, 0x21, 0x98, 0xd4, 0x16, 0x0c, 0xfc, 0xea, 0x81, 0xce, 0x36, 0xdf,
  0x5c, 0x08, 0xef, 0x4f, 0xda, 0x2b, 0x1e, 0x57, 0x4f, 0x34, 0xba, 0xc7,
  0xc7, 0xc1, 0x70, 0xff, 0xf3, 0xa8, 0x4b, 0x08, 0x03, 0x7f, 0x16, 0xbc,
  0x01, 0xe3, 0x4f, 0x90, 0x5b, 0x4b, 0xfd, 0xef, 0xd6, 0x2c, 0x0b, 0xec,
  0x2a, 0x27, 0xd8, 0x43, 0xd8, 0xde, 0xf2, 0x02, 0x7f, 0x2c, 0xd5, 0x20,
  0x2f, 0x32, 0xc0, 0xf4, 0x46, 0xd8, 0x0c, 0x64, 0x20, 0x0b, 0xe3, 0x34,
  0xc5, 0x07, 0x18, 0x11, 0xb7, 0xd4, 0x1d, 0xa2, 0xec, 0xca, 0xf8, 0xdd,
  0xbe, 0x22, 0xea, 0xda, 0x34, 0xe6, 0xfc, 0x7f, 0xbf, 0xf5, 0xd3, 0xf7,
  0x05, 0x01, 0xdd, 0x49, 0x08, 0x38, 0xe9, 0x1b, 0x81, 0xf3, 0x38, 0xfb,
  0xcb, 0xe6, 0x06, 0x12, 0xed, 0x28, 0x46, 0xf8, 0xde, 0xe6, 0x31, 0x1a,
  0xe2, 0xa0, 0xed, 0xfe, 0xc4, 0x0f, 0x7f, 0x56, 0x8a, 0xad, 0xc6, 0xe5,
  0x1b, 0xf1, 0x1e, 0x01, 0xe7, 0xf7, 0xfe, 0xf9, 0xfb, 0x3e, 0xa9, 0x6b,
  0x27, 0x37, 0x20, 0xee, 0xda, 0x2d, 0xf5, 0xf0, 0x3d, 0x23, 0x1d, 0x38,
  0xdf, 0x17, 0xfa, 0x18, 0xfb, 0x28, 0x07, 0x19, 0xd2, 0x52, 0xeb, 0x18,
  0xb8, 0x26, 0x6a, 0xc3, 0xd5, 0x1b, 0x43, 0x04, 0x0d, 0x23, 0x1c, 0x7f,
  0xf1, 0x02, 0x06, 0x68, 0xf9, 0xd3, 0xda, 0x3c, 0xad, 0xb7, 0xf8, 0xe8,
  0x25, 0xd0, 0x1c, 0x1d, 0x4d, 0x1f, 0x2a, 0xa4, 0x12, 0xc2, 0xb4, 0x57,
  0x7f, 0xca, 0x49, 0x14, 0x00, 0xe5, 0x12, 0x8a, 0xd9, 0x7f, 0xf1, 0xd8,
  0x2d, 0x20, 0xfd, 0x39, 0x02, 0xed, 0xd9, 0xd1, 0x24, 0x33, 0xc4, 0x26,
  0x4c, 0x59, 0x0d, 0xf8, 0xfa, 0xd3, 0x11, 0xf6, 0x04, 0xce, 0xf3, 0xf6,
  0xf3, 0x48, 0x1b, 0x35, 0x14, 0xf6, 0x3e, 0x64, 0xbe, 0x06, 0xc3, 0x25,
  0xae, 0x2d, 0x62, 0x34, 0xe3, 0xea, 0xc9, 0xf1, 0x01, 0xb6, 0x3b, 0x81,
  0xeb, 0xc9, 0xd2, 0x42, 0x38, 0x12, 0xfe, 0x6b, 0x04, 0xc6, 0x54, 0xa7,
  0xeb, 0xda, 0xf9, 0x33, 0xfa, 0xdb, 0xd1, 0xfd, 0xbb, 0x09, 0x4d, 0x39,
  0x8a, 0xa8, 0xa2, 0xf0, 0x32, 0xd1, 0xe5, 0x24, 0x81, 0xe3, 0xde, 0x1d,
  0xea, 0x17, 0xa5, 0x41, 0x13, 0xfe, 0x2e, 0xc6, 0x33, 0xdc, 0x60, 0xfe,
  0x0a, 0xb7, 0xdb, 0xf4, 0x1d, 0x7f, 0xaa, 0x51, 0xd8, 0xe1, 0x5f, 0xe7,
  0xe0, 0xba, 0x58, 0xbf, 0x04, 0x58, 0xc2, 0x48, 0x01, 0x45, 0x23, 0xe3,
  0xf0, 0xa1, 0xd7, 0xd1, 0x2a, 0xc8, 0x43, 0xfc, 0xe8, 0x08, 0x15, 0xcb,
  0xcf, 0xed, 0x7f, 0x3a, 0xa6, 0x0a, 0xe5, 0xdf, 0xdf, 0xf1, 0x4a, 0xaf,
  0xf5, 0x02, 0x1c, 0xe9, 0xee, 0x1a, 0xca, 0x59, 0x2b, 0xff, 0x3d, 0x2e,
  0x37, 0xe0, 0x21, 0x1e, 0xca, 0xc3, 0xea, 0x07, 0xd7, 0x44, 0x60, 0x51,
  0xe4, 0xbc, 0xfb, 0xf3, 0x13, 0xc5, 0x30, 0xcc, 0xf8, 0xd1, 0x94, 0x7f,
  0x26, 0x44, 0xd0, 0x2d, 0x11, 0xaa, 0x0a, 0x8c, 0x15, 0x02, 0x44, 0x02,
  0xe6, 0xcb, 0xbb, 0x65, 0xad, 0x5c, 0x81, 0xe9, 0xe2, 0xe7, 0x57, 0xf0,
  0xc7, 0xf3, 0x32, 0xf6, 0xa9, 0x19, 0x3b, 0xf3, 0x38, 0xf1, 0x0d, 0x00,
  0xc4, 0xc8, 0x36, 0xd5, 0x41, 0xea, 0x1d, 0xdf, 0xff, 0xc5, 0x1c, 0xf3,
  0x08, 0xe8, 0x0e, 0x2b, 0x0f, 0x06, 0x4b, 0xe0, 0xd0, 0x06, 0x4c, 0xcb,
  0x7f, 0x52, 0x08, 0x03, 0x1d, 0x37, 0x25, 0xf0, 0xec, 0xde, 0xc4, 0xe6,
  0x43, 0xe9, 0x5a, 0xee, 0xd9, 0xb9, 0x23, 0xcd, 0xe8, 0xd3, 0x7f, 0x42,
  0xbb, 0x05, 0xf4, 0xce, 0xe2, 0xce, 0x56, 0xa9, 0x5f, 0x4d, 0xdb, 0xf2,
  0x30, 0x5f, 0xe2, 0x18, 0x3b, 0xef, 0xff, 0xfb, 0xf7, 0xb9, 0xfa, 0x3c,
  0xe6, 0xb9, 0x00, 0xdf, 0xd3, 0xfd, 0x6c, 0x23, 0xd9, 0xcb, 0xb3, 0x01,
  0x32, 0xba, 0xf4, 0x0e, 0xa4, 0xd9, 0xd1, 0x45, 0xe3, 0x15, 0xb5, 0x46,
  0x3b, 0x19, 0x33, 0x81, 0x0a, 0xdb, 0x13, 0xbb, 0xdc, 0x0d, 0x20, 0xd0,
  0x43, 0x11, 0x1f, 0x47, 0x14, 0xf2, 0x08, 0x33, 0xf5, 0xdc, 0x12, 0x4b,
  0x17, 0x44, 0x33, 0xc7, 0xad, 0x7f, 0x24, 0x08, 0x3a, 0x6d, 0xdc, 0x1c,
  0xdb, 0x01, 0x22, 0x1e, 0x7f, 0x38, 0x0c, 0xf4, 0x1d, 0x26, 0xb7, 0xdb,
  0x29, 0xfe, 0x6d, 0x45, 0x44, 0x3c, 0x05, 0xec, 0x3e, 0x34, 0x0c, 0x07,
  0x45, 0xd1, 0x43, 0xea, 0xe3, 0xc6, 0xf5, 0xf3, 0xfc, 0x5e, 0xe9, 0x05,
  0x2e, 0x39, 0x2e, 0x20, 0xdb, 0xe7, 0xe5, 0xf4, 0xec, 0x53, 0xad, 0xd9,
  0xe0, 0x2f, 0x0e, 0xe1, 0xb7, 0xf5, 0x30, 0xc4, 0xd7, 0xcf, 0x2a, 0x1f,
  0x26, 0x44, 0x16, 0x7f, 0xf1, 0xe1, 0xee, 0x33, 0x7f, 0x2f, 0xd7, 0x0d,
  0x06, 0x13, 0xc0, 0xf6, 0x52, 0xd8, 0xf7, 0x40, 0x42, 0x00, 0xeb, 0x33,
  0xb0, 0x09, 0xdb, 0x36, 0xe3, 0xcd, 0x20, 0xb6, 0xe5, 0xd5, 0xf5, 0xef,
  0xfb, 0xbe, 0x1b, 0x01, 0x7f, 0x12, 0xe6, 0xdc, 0x51, 0x34, 0x9f, 0xef,
  0x42, 0x06, 0x56, 0x65, 0x38, 0xe3, 0x15, 0x1f, 0x3b, 0x5f, 0x0b, 0x3a,
  0xee, 0x09, 0x62, 0xb7, 0xdd, 0xfb, 0xb4, 0xfd, 0x41, 0x33, 0x27, 0xe2,
  0x0a, 0xf3, 0x5f, 0xe2, 0x14, 0xcb, 0x2a, 0x35, 0xf9, 0x45, 0xf9, 0xca,
  0xcd, 0x19, 0x2e, 0xc6, 0x7f, 0x4a, 0x1f, 0xe2, 0x0f, 0x01, 0x21, 0xc9,
  0xfa, 0xed, 0xe0, 0x39, 0xda, 0xe6, 0x3d, 0xcd, 0x7f, 0x0b, 0xee, 0xf5,
  0x45, 0x43, 0xd1, 0xd3, 0x57, 0x08, 0x44, 0x40, 0x3a, 0x05, 0x21, 0x17,
  0x46, 0x51, 0x28, 0x23, 0x58, 0xe4, 0x3f, 0xa0, 0xd3, 0xd7, 0xbc, 0xee,
  0xd2, 0x68, 0xb6, 0xdb, 0x18, 0x35, 0x30, 0x46, 0x1d, 0xd4, 0x0a, 0xcd,
  0xe0, 0x49, 0xc2, 0xf4, 0x71, 0x7f, 0xe7, 0xf0, 0xfa, 0xc8, 0x2e, 0xf3,
  0x19, 0xa7, 0xfd, 0x20, 0xd3, 0x0e, 0x0e, 0x20, 0xd5, 0x47, 0x17, 0xe8,
  0x01, 0xd3, 0xe7, 0x7f, 0xfa, 0x21, 0xd3, 0xfe, 0xf7, 0x13, 0xee, 0x3a,
  0xed, 0x3f, 0xf4, 0x1e, 0xc9, 0x08, 0x43, 0xef, 0x04, 0xef, 0x1b, 0xf7,
  0xe7, 0x30, 0xfd, 0xfe, 0x33, 0x52, 0x0f, 0xdf, 0x01, 0xe8, 0x79, 0xdc,
  0xef, 0xa4, 0x25, 0x17, 0x9f, 0x5f, 0xc8, 0xbc, 0xa1, 0xde, 0x6b, 0x81,
  0x3e, 0x3d, 0x19, 0xf7, 0x26, 0xf7, 0x1c, 0xf5, 0x1b, 0x1a, 0xec, 0x58,
  0xd4, 0xc0, 0xfc, 0xd1, 0x7f, 0xe7, 0x0b, 0xf9, 0x67, 0x31, 0xe9, 0xe9,
  0x41, 0xf9, 0x13, 0x7d, 0x2e, 0x02, 0xe6, 0x3c, 0xf5, 0x28, 0x28, 0x22,
  0xab, 0x05, 0x33, 0xad, 0xea, 0x1b, 0xf6, 0xf9, 0xce, 0x16, 0xf2, 0xd2,
  0x42, 0xd2, 0x15, 0x4d, 0x15, 0x23, 0xfe, 0x28, 0x17, 0x03, 0xef, 0x4b,
  0xf0, 0x71, 0xe5, 0x41, 0x81, 0x26, 0x75, 0xb2, 0xdf, 0x1c, 0x3f, 0xcd,
  0x2e, 0x31, 0x00, 0x78, 0xeb, 0x6a, 0x8f, 0xa9, 0x09, 0x36, 0x65, 0x06,
  0xd7, 0x89, 0x0a, 0xaf, 0xe1, 0x72, 0xec, 0xd5, 0x15, 0x10, 0x23, 0x8f,
  0x14, 0xca, 0xff, 0xf3, 0x10, 0xad, 0xfd, 0x52, 0x50, 0x3a, 0x7f, 0x6b,
  0x16, 0xe8, 0x2f, 0xf4, 0xd6, 0xea, 0x00, 0xdb, 0x05, 0x0b, 0x55, 0x39,
  0xaf, 0x01, 0x10, 0xf6, 0xdd, 0xd8, 0x2d, 0xf7, 0x31, 0x4a, 0xdc, 0xf7,
  0xd8, 0x7f, 0x0c, 0x19, 0x3b, 0x27, 0xd0, 0xf9, 0x55, 0xec, 0x10, 0xe7,
  0xed, 0xf3, 0x19, 0xeb, 0x15, 0xd7, 0xfd, 0x3b, 0xd9, 0x0e, 0x0f, 0xcd,
  0xc6, 0xf5, 0x4f, 0xcf, 0x7f, 0x7f, 0x0c, 0xfb, 0x0e, 0x52, 0x26, 0x06,
  0xf7, 0x0d, 0xd3, 0xeb, 0x12, 0x07, 0x21, 0x3a, 0x64, 0x1d, 0xce, 0xc6,
  0xdb, 0x58, 0xb4, 0x14, 0x43, 0xa8, 0x2d, 0x23, 0x3e, 0xd7, 0x2f, 0x0e,
  0xe6, 0x10, 0xc4, 0x7f, 0x12, 0x05, 0x1f, 0xc5, 0xdc, 0x97, 0xb5, 0x9f,
  0xfe, 0xee, 0xe2, 0x47, 0x10, 0x15, 0xc4, 0xe8, 0xb4, 0x4f, 0x02, 0x34,
  0xd7, 0x93, 0xb8, 0x11, 0x1b, 0xb9, 0xed, 0x2a, 0x91, 0xca, 0xad, 0x7f,
  0xde, 0x19, 0xbe, 0x01, 0xe6, 0xb7, 0x1b, 0x8f, 0xe4, 0xfb, 0x08, 0xc8,
  0x07, 0x1d, 0xe2, 0xed, 0x1c, 0x57, 0x12, 0x64, 0x1b, 0xf6, 0x20, 0x59,
  0xd6, 0xf3, 0xee, 0x7f, 0x04, 0x17, 0x63, 0xbf, 0xbd, 0x3a, 0x24, 0xf5,
  0x29, 0x50, 0x0a, 0x24, 0x45, 0xb3, 0x53, 0xfb, 0xd2, 0xc4, 0x18, 0xda,
  0xe0, 0xdc, 0x4d, 0x52, 0x8b, 0x13, 0x1c, 0xf0, 0x9e, 0x27, 0x7c, 0x81,
  0x49, 0x37, 0xe8, 0x0c, 0x48, 0x49, 0xee, 0x40, 0x2d, 0xda, 0xf7, 0x24,
  0xf1, 0xf2, 0x01, 0xd4, 0xc9, 0x14, 0x06, 0xf1, 0x40, 0x22, 0x34, 0x7f,
  0xcc, 0xdb, 0xf8, 0xbc, 0xe2, 0x1f, 0xfc, 0x33, 0xed, 0x20, 0x15, 0xcb,
  0xdd, 0x17, 0xe9, 0xfc, 0x60, 0x2f, 0xc2, 0x1d, 0x1f, 0xf0, 0xdf, 0x37,
  0xee, 0x02, 0x12, 0xd2, 0xb9, 0xb9, 0x6c, 0xe8, 0xf3, 0xf0, 0xb8, 0xe0,
  0x4a, 0xb8, 0xf1, 0xdd, 0x81, 0xe0, 0xe6, 0x53, 0xf2, 0xe3, 0xf5, 0x3a,
  0x5f, 0x14, 0x39, 0xae, 0x03, 0xfc, 0x05, 0x2a, 0xf0, 0xfa, 0xef, 0xf8,
  0xba, 0x42, 0x11, 0x26, 0xdf, 0xa8, 0xc5, 0x0d, 0x1e, 0xc6, 0x11, 0xf2,
  0xc0, 0xca, 0xa1, 0x7f, 0x12, 0x16, 0xed, 0x09, 0xfe, 0xb4, 0xee, 0x87,
  0x42, 0xf6, 0x02, 0xd1, 0xea, 0xe7, 0x1e, 0xdd, 0x1d, 0xe3, 0x38, 0x41,
  0xee, 0x24, 0x24, 0xd5, 0x0c, 0x10, 0x28, 0xea, 0xfd, 0x7f, 0x13, 0xf1,
  0xd5, 0x5f, 0x1c, 0xeb, 0x08, 0x47, 0xc8, 0x11, 0xa5, 0x35, 0x06, 0xee,
  0x1a, 0xb2, 0x0f, 0x6f, 0xd9, 0xed, 0x23, 0x6e, 0x88, 0xfd, 0xab, 0xfc,
  0xc1, 0x79, 0x27, 0x47, 0x92, 0x24, 0x2c, 0xb6, 0xb9, 0x32, 0xdb, 0x13,
  0x6d, 0x7f, 0xfd, 0x4e, 0xd2, 0xf7, 0x4d, 0xca, 0x01, 0x9b, 0xf9, 0x7f,
  0xf5, 0x49, 0xe8, 0x04, 0xf2, 0x0a, 0x29, 0x3e, 0xeb, 0x11, 0xee, 0x15,
  0xa5, 0x25, 0x56, 0x10, 0xe1, 0x4b, 0x22, 0x05, 0xdb, 0x2b, 0x05, 0x1a,
  0xea, 0x04, 0x07, 0xef, 0x04, 0x2e, 0x18, 0xd4, 0x51, 0x22, 0x2e, 0x7f,
  0xcf, 0xe6, 0xf4, 0xc6, 0xfd, 0x1f, 0x06, 0x32, 0xf1, 0x28, 0x26, 0xca,
  0xa3, 0x39, 0xfb, 0xe2, 0x4c, 0x4f, 0xe7, 0x10, 0x2a, 0xfd, 0xff, 0xff,
  0x04, 0x00, 0x00, 0x00, 0xc0, 0x00, 0x00, 0x00, 0xe4, 0xe4, 0xff, 0xff,
  0x32, 0xe6, 0xff, 0xff, 0xb9, 0xd9, 0xff, 0xff, 0xf9, 0xe1, 0xff, 0xff,
  0xcd, 0xf7, 0xff, 0xff, 0x2a, 0xfc, 0xff, 0xff, 0x1e, 0xec, 0xff, 0xff,
  0x3c, 0x0b, 0x00, 0x00, 0x01, 0x06, 0x00, 0x00, 0x26, 0x0d, 0x00, 0x00,
  0x63, 0xdd, 0xff, 0xff, 0x93, 0x11, 0x00, 0x00, 0x8a, 0xef, 0xff, 0xff,
  0x0e, 0x12, 0x00, 0x00, 0x33, 0x2e, 0x00, 0x00, 0xa5, 0x05, 0x00, 0x00,
  0xf5, 0xfd, 0xff, 0xff, 0x8b, 0x18, 0x00, 0x00, 0xf0, 0x13, 0x00, 0x00,
  0x3d, 0xf1, 0xff, 0xff, 0x71, 0xf7, 0xff, 0xff, 0x20, 0x24, 0x00, 0x00,
  0xcd, 0xdb, 0xff, 0xff, 0x9e, 0xe8, 0xff, 0xff, 0x28, 0xee, 0xff, 0xff,
  0x4b, 0x0c, 0x00, 0x00, 0xf8, 0xe6, 0xff, 0xff, 0x8a, 0xe5, 0xff, 0xff,
  0xa4, 0xe8, 0xff, 0xff, 0x76, 0xf9, 0xff, 0xff, 0x8b, 0xf4, 0xff, 0xff,
  0x8b, 0xf3, 0xff, 0xff, 0x82, 0xf1, 0xff, 0xff, 0x97, 0xdd, 0xff, 0xff,
  0xdd, 0xf6, 0xff, 0xff, 0x1b, 0xf4, 0xff, 0xff, 0xcc, 0xeb, 0xff, 0xff,
  0x6b, 0x14, 0x00, 0x00, 0xe5, 0x37, 0x00, 0x00, 0xd2, 0xda, 0xff, 0xff,
  0x1c, 0xf5, 0xff, 0xff, 0xec, 0xf6, 0xff, 0xff, 0x79, 0x1c, 0x00, 0x00,
  0x2b, 0x2c, 0x00, 0x00, 0xb0, 0xe9, 0xff, 0xff, 0x8b, 0xef, 0xff, 0xff,
  0x6f, 0xee, 0xff, 0xff, 0x2d, 0xec, 0xff, 0xff, 0xf6, 0xfd, 0xff, 0xff,
  0x04, 0x00, 0x00, 0x00, 0x20, 0x01, 0x00, 0x00, 0x9a, 0xe4, 0xd8, 0xcd,
  0x21, 0xd7, 0xad, 0x00, 0x04, 0x58, 0x9b, 0xfb, 0xd7, 0x4f, 0x73, 0x26,
  0xfd, 0x63, 0x05, 0x8b, 0xf4, 0x7f, 0xd2, 0xcb, 0xb7, 0x18, 0xba, 0xa6,
  0xe1, 0xba, 0xcf, 0x94, 0xf0, 0xd5, 0xde, 0x1c, 0x9a, 0x3b, 0x7c, 0xe4,
  0xd5, 0x1f, 0x49, 0x7c, 0xd8, 0xf2, 0xf8, 0x0d, 0xc4, 0x4b, 0x55, 0xc9,
  0xe3, 0xc9, 0xa0, 0x73, 0x32, 0xaa, 0x1a, 0xc3, 0xf9, 0x8b, 0xce, 0x1c,
  0xaa, 0xa7, 0x17, 0xe6, 0xad, 0x99, 0x18, 0x3e, 0xed, 0x48, 0x67, 0xfa,
  0x56, 0xab, 0x28, 0x9b, 0x7f, 0x61, 0x8d, 0xea, 0xeb, 0x1a, 0xf5, 0x67,
  0x9e, 0x42, 0x93, 0xd3, 0x1d, 0xf9, 0x3c, 0x57, 0xfa, 0xed, 0x27, 0x1b,
  0x0d, 0xef, 0x2f, 0x93, 0xf6, 0x45, 0x12, 0xa2, 0xfa, 0xe7, 0xfd, 0xcf,
  0x54, 0xcc, 0xc0, 0x02, 0x3f, 0xfa, 0x21, 0xa2, 0x36, 0x92, 0x84, 0x26,
  0x81, 0xbe, 0xd7, 0x43, 0xce, 0x2b, 0x12, 0x47, 0x23, 0x8b, 0xb6, 0x1b,
  0x3e, 0x53, 0x13, 0xaf, 0x3f, 0x3b, 0x03, 0x41, 0xd0, 0xbd, 0x0d, 0xb9,
  0x03, 0xe9, 0x1a, 0xb3, 0xa9, 0xf9, 0xaa, 0x02, 0x91, 0x56, 0x9f, 0x67,
  0x33, 0x48, 0x46, 0x78, 0x53, 0x9f, 0xe1, 0x46, 0xa2, 0xdd, 0x3d, 0x37,
  0x6e, 0xa5, 0xa3, 0x53, 0xf0, 0xa0, 0xb7, 0x57, 0x6b, 0x3c, 0xf2, 0xde,
  0x6a, 0x96, 0xb8, 0x2a, 0x26, 0x81, 0xec, 0xa2, 0x1a, 0x3c, 0x1d, 0x53,
  0x76, 0xb9, 0x66, 0xf3, 0xd4, 0x83, 0xd7, 0x09, 0x29, 0xae, 0x8b, 0x9a,
  0xf8, 0xcc, 0x9e, 0xde, 0xe9, 0xe6, 0xe6, 0x47, 0x3e, 0x54, 0x53, 0x32,
  0x3f, 0x40, 0x99, 0x47, 0x4c, 0xe5, 0x59, 0xcd, 0xdf, 0x1e, 0xd1, 0x8a,
  0xdc, 0xbe, 0x57, 0xf1, 0x39, 0x97, 0x81, 0xe1, 0x3c, 0x54, 0x81, 0xb2,
  0xdc, 0x5e, 0xc7, 0xff, 0x7e, 0x11, 0x1a, 0x0e, 0x62, 0x48, 0x28, 0xb8,
  0x0d, 0xb4, 0x55, 0xcb, 0xbc, 0xb5, 0x9f, 0x49, 0x4b, 0x06, 0xa2, 0x1b,
  0x2d, 0x4f, 0x54, 0x2c, 0xd7, 0x35, 0x24, 0x96, 0xbb, 0xbe, 0xfa, 0xd7,
  0xea, 0xa0, 0xf8, 0xf8, 0xa2, 0x1f, 0x24, 0x99, 0x22, 0xff, 0xff, 0xff,
  0x04, 0x00, 0x00, 0x00, 0x18, 0x00, 0x00, 0x00, 0xbe, 0x01, 0x00, 0x00,
  0x27, 0xfe, 0xff, 0xff, 0xf8, 0xfd, 0xff, 0xff, 0x45, 0xff, 0xff, 0xff,
  0x37, 0x02, 0x00, 0x00, 0x34, 0x01, 0x00, 0x00, 0x46, 0xff, 0xff, 0xff,
  0x04, 0x00, 0x00, 0x00, 0x08, 0x00, 0x00, 0x00, 0x01, 0x00, 0x00, 0x00,
  0x02, 0x00, 0x00, 0x00, 0x1c, 0xd3, 0xff, 0xff, 0x20, 0xd3, 0xff, 0xff,
  0x0f, 0x00, 0x00, 0x00, 0x4d, 0x4c, 0x49, 0x52, 0x20, 0x43, 0x6f, 0x6e,
  0x76, 0x65, 0x72, 0x74, 0x65, 0x64, 0x2e, 0x00, 0x01, 0x00, 0x00, 0x00,
  0x14, 0x00, 0x00, 0x00, 0x00, 0x00, 0x0e, 0x00, 0x18, 0x00, 0x14, 0x00,
  0x10, 0x00, 0x0c, 0x00, 0x08, 0x00, 0x04, 0x00, 0x0e, 0x00, 0x00, 0x00,
  0x14, 0x00, 0x00, 0x00, 0x1c, 0x00, 0x00, 0x00, 0x70, 0x03, 0x00, 0x00,
  0x74, 0x03, 0x00, 0x00, 0x78, 0x03, 0x00, 0x00, 0x04, 0x00, 0x00, 0x00,
  0x6d, 0x61, 0x69, 0x6e, 0x00, 0x00, 0x00, 0x00, 0x0c, 0x00, 0x00, 0x00,
  0x0c, 0x03, 0x00, 0x00, 0xa4, 0x02, 0x00, 0x00, 0x54, 0x02, 0x00, 0x00,
  0x0c, 0x02, 0x00, 0x00, 0xbc, 0x01, 0x00, 0x00, 0x74, 0x01, 0x00, 0x00,
  0x34, 0x01, 0x00, 0x00, 0xec, 0x00, 0x00, 0x00, 0xac, 0x00, 0x00, 0x00,
  0x78, 0x00, 0x00, 0x00, 0x40, 0x00, 0x00, 0x00, 0x04, 0x00, 0x00, 0x00,
  0x96, 0xfd, 0xff, 0xff, 0x1c, 0x00, 0x00, 0x00, 0x00, 0x00, 0x00, 0x09,
  0x1c, 0x00, 0x00, 0x00, 0x20, 0x00, 0x00, 0x00, 0x04, 0x00, 0x00, 0x00,
  0x00, 0x00, 0x06, 0x00, 0x08, 0x00, 0x04, 0x00, 0x06, 0x00, 0x00, 0x00,
  0x00, 0x00, 0x80, 0x3f, 0x01, 0x00, 0x00, 0x00, 0x21, 0x00, 0x00, 0x00,
  0x01, 0x00, 0x00, 0x00, 0x20, 0x00, 0x00, 0x00, 0x5e, 0xfe, 0xff, 0xff,
  0x14, 0x00, 0x00, 0x00, 0x00, 0x00, 0x00, 0x08, 0x10, 0x00, 0x00, 0x00,
  0x14, 0x00, 0x00, 0x00, 0x03, 0x00, 0x00, 0x00, 0xf8, 0xd3, 0xff, 0xff,
  0x01, 0x00, 0x00, 0x00, 0x20, 0x00, 0x00, 0x00, 0x03, 0x00, 0x00, 0x00,
  0x1f, 0x00, 0x00, 0x00, 0x03, 0x00, 0x00, 0x00, 0x02, 0x00, 0x00, 0x00,
  0x92, 0xfe, 0xff, 0xff, 0x14, 0x00, 0x00, 0x00, 0x00, 0x00, 0x00, 0x1b,
  0x10, 0x00, 0x00, 0x00, 0x14, 0x00, 0x00, 0x00, 0x02, 0x00, 0x00, 0x00,
  0x2c, 0xd4, 0xff, 0xff, 0x01, 0x00, 0x00, 0x00, 0x1f, 0x00, 0x00, 0x00,
  0x02, 0x00, 0x00, 0x00, 0x1e, 0x00, 0x00, 0x00, 0x01, 0x00, 0x00, 0x00,
  0xce, 0xfd, 0xff, 0xff, 0x10, 0x00, 0x00, 0x00, 0x00, 0x00, 0x00, 0x01,
  0x18, 0x00, 0x00, 0x00, 0x1c, 0x00, 0x00, 0x00, 0xc0, 0xfd, 0xff, 0xff,
  0x00, 0x00, 0x00, 0x03, 0x01, 0x00, 0x00, 0x00, 0x01, 0x00, 0x00, 0x00,
  0x01, 0x00, 0x00, 0x00, 0x1e, 0x00, 0x00, 0x00, 0x03, 0x00, 0x00, 0x00,
  0x1d, 0x00, 0x00, 0x00, 0x05, 0x00, 0x00, 0x00, 0x04, 0x00, 0x00, 0x00,
  0xfe, 0xfe, 0xff, 0xff, 0x14, 0x00, 0x00, 0x00, 0x00, 0x00, 0x00, 0x02,
  0x20, 0x00, 0x00, 0x00, 0x24, 0x00, 0x00, 0x00, 0x01, 0x00, 0x00, 0x00,
  0x5e, 0xfe, 0xff, 0xff, 0x00, 0x00, 0x00, 0x03, 0x01, 0x00, 0x00, 0x00,
  0x02, 0x00, 0x00, 0x00, 0x02, 0x00, 0x00, 0x00, 0x01, 0x00, 0x00, 0x00,
  0x1d, 0x00, 0x00, 0x00, 0x03, 0x00, 0x00, 0x00, 0x1c, 0x00, 0x00, 0x00,
  0x07, 0x00, 0x00, 0x00, 0x06, 0x00, 0x00, 0x00, 0x4e, 0xfe, 0xff, 0xff,
  0x10, 0x00, 0x00, 0x00, 0x00, 0x00, 0x00, 0x01, 0x18, 0x00, 0x00, 0x00,
  0x1c, 0x00, 0x00, 0x00, 0x40, 0xfe, 0xff, 0xff, 0x00, 0x00, 0x00, 0x03,
  0x01, 0x00, 0x00, 0x00, 0x01, 0x00, 0x00, 0x00, 0x01, 0x00, 0x00, 0x00,
  0x1c, 0x00, 0x00, 0x00, 0x03, 0x00, 0x00, 0x00, 0x1b, 0x00, 0x00, 0x00,
  0x09, 0x00, 0x00, 0x00, 0x08, 0x00, 0x00, 0x00, 0x7e, 0xff, 0xff, 0xff,
  0x14, 0x00, 0x00, 0x00, 0x00, 0x00, 0x00, 0x02, 0x20, 0x00, 0x00, 0x00,
  0x24, 0x00, 0x00, 0x00, 0x01, 0x00, 0x00, 0x00, 0xde, 0xfe, 0xff, 0xff,
  0x00, 0x00, 0x00, 0x03, 0x01, 0x00, 0x00, 0x00, 0x02, 0x00, 0x00, 0x00,
  0x02, 0x00, 0x00, 0x00, 0x01, 0x00, 0x00, 0x00, 0x1b, 0x00, 0x00, 0x00,
  0x03, 0x00, 0x00, 0x00, 0x1a, 0x00, 0x00, 0x00, 0x0b, 0x00, 0x00, 0x00,
  0x0a, 0x00, 0x00, 0x00, 0xce, 0xfe, 0xff, 0xff, 0x10, 0x00, 0x00, 0x00,
  0x00, 0x00, 0x00, 0x01, 0x18, 0x00, 0x00, 0x00, 0x1c, 0x00, 0x00, 0x00,
  0xc0, 0xfe, 0xff, 0xff, 0x00, 0x00, 0x00, 0x03, 0x01, 0x00, 0x00, 0x00,
  0x01, 0x00, 0x00, 0x00, 0x01, 0x00, 0x00, 0x00, 0x1a, 0x00, 0x00, 0x00,
  0x03, 0x00, 0x00, 0x00, 0x19, 0x00, 0x00, 0x00, 0x0d, 0x00, 0x00, 0x00,
  0x0c, 0x00, 0x00, 0x00, 0x00, 0x00, 0x0e, 0x00, 0x18, 0x00, 0x14, 0x00,
  0x10, 0x00, 0x0c, 0x00, 0x0b, 0x00, 0x04, 0x00, 0x0e, 0x00, 0x00, 0x00,
  0x14, 0x00, 0x00, 0x00, 0x00, 0x00, 0x00, 0x02, 0x20, 0x00, 0x00, 0x00,
  0x24, 0x00, 0x00, 0x00, 0x01, 0x00, 0x00, 0x00, 0x6e, 0xff, 0xff, 0xff,
  0x00, 0x00, 0x00, 0x03, 0x01, 0x00, 0x00, 0x00, 0x02, 0x00, 0x00, 0x00,
  0x02, 0x00, 0x00, 0x00, 0x01, 0x00, 0x00, 0x00, 0x19, 0x00, 0x00, 0x00,
  0x03, 0x00, 0x00, 0x00, 0x18, 0x00, 0x00, 0x00, 0x0f, 0x00, 0x00, 0x00,
  0x0e, 0x00, 0x00, 0x00, 0x5e, 0xff, 0xff, 0xff, 0x10, 0x00, 0x00, 0x00,
  0x00, 0x00, 0x00, 0x01, 0x18, 0x00, 0x00, 0x00, 0x1c, 0x00, 0x00, 0x00,
  0x50, 0xff, 0xff, 0xff, 0x00, 0x00, 0x00, 0x03, 0x01, 0x00, 0x00, 0x00,
  0x01, 0x00, 0x00, 0x00, 0x01, 0x00, 0x00, 0x00, 0x18, 0x00, 0x00, 0x00,
  0x03, 0x00, 0x00, 0x00, 0x17, 0x00, 0x00, 0x00, 0x11, 0x00, 0x00, 0x00,
  0x10, 0x00, 0x00, 0x00, 0x00, 0x00, 0x0e, 0x00, 0x1a, 0x00, 0x14, 0x00,
  0x10, 0x00, 0x0c, 0x00, 0x0b, 0x00, 0x04, 0x00, 0x0e, 0x00, 0x00, 0x00,
  0x24, 0x00, 0x00, 0x00, 0x00, 0x00, 0x00, 0x02, 0x30, 0x00, 0x00, 0x00,
  0x34, 0x00, 0x00, 0x00, 0x01, 0x00, 0x00, 0x00, 0x00, 0x00, 0x0e, 0x00,
  0x14, 0x00, 0x00, 0x00, 0x10, 0x00, 0x0c, 0x00, 0x08, 0x00, 0x07, 0x00,
  0x0e, 0x00, 0x00, 0x00, 0x00, 0x00, 0x00, 0x03, 0x01, 0x00, 0x00, 0x00,
  0x02, 0x00, 0x00, 0x00, 0x02, 0x00, 0x00, 0x00, 0x01, 0x00, 0x00, 0x00,
  0x17, 0x00, 0x00, 0x00, 0x03, 0x00, 0x00, 0x00, 0x16, 0x00, 0x00, 0x00,
  0x13, 0x00, 0x00, 0x00, 0x12, 0x00, 0x00, 0x00, 0x00, 0x00, 0x0e, 0x00,
  0x14, 0x00, 0x00, 0x00, 0x10, 0x00, 0x0c, 0x00, 0x0b, 0x00, 0x04, 0x00,
  0x0e, 0x00, 0x00, 0x00, 0x1c, 0x00, 0x00, 0x00, 0x00, 0x00, 0x00, 0x01,
  0x24, 0x00, 0x00, 0x00, 0x28, 0x00, 0x00, 0x00, 0x0c, 0x00, 0x10, 0x00,
  0x00, 0x00, 0x0c, 0x00, 0x08, 0x00, 0x07, 0x00, 0x0c, 0x00, 0x00, 0x00,
  0x00, 0x00, 0x00, 0x03, 0x01, 0x00, 0x00, 0x00, 0x01, 0x00, 0x00, 0x00,
  0x01, 0x00, 0x00, 0x00, 0x16, 0x00, 0x00, 0x00, 0x03, 0x00, 0x00, 0x00,
  0x00, 0x00, 0x00, 0x00, 0x15, 0x00, 0x00, 0x00, 0x14, 0x00, 0x00, 0x00,
  0x01, 0x00, 0x00, 0x00, 0x21, 0x00, 0x00, 0x00, 0x01, 0x00, 0x00, 0x00,
  0x00, 0x00, 0x00, 0x00, 0x22, 0x00, 0x00, 0x00, 0x5c, 0x29, 0x00, 0x00,
  0x00, 0x29, 0x00, 0x00, 0x48, 0x28, 0x00, 0x00, 0xa4, 0x27, 0x00, 0x00,
  0x10, 0x25, 0x00, 0x00, 0x6c, 0x22, 0x00, 0x00, 0x98, 0x20, 0x00, 0x00,
  0x9c, 0x1e, 0x00, 0x00, 0xb0, 0x1c, 0x00, 0x00, 0xcc, 0x1a, 0x00, 0x00,
  0x58, 0x19, 0x00, 0x00, 0xd0, 0x17, 0x00, 0x00, 0x58, 0x16, 0x00, 0x00,
  0xd4, 0x14, 0x00, 0x00, 0xc0, 0x13, 0x00, 0x00, 0x98, 0x12, 0x00, 0x00,
  0x80, 0x11, 0x00, 0x00, 0x5c, 0x10, 0x00, 0x00, 0xa8, 0x0f, 0x00, 0x00,
  0xe0, 0x0e, 0x00, 0x00, 0x28, 0x0e, 0x00, 0x00, 0x64, 0x0d, 0x00, 0x00,
  0x50, 0x0c, 0x00, 0x00, 0xc4, 0x0a, 0x00, 0x00, 0xa8, 0x09, 0x00, 0x00,
  0x1c, 0x08, 0x00, 0x00, 0x00, 0x07, 0x00, 0x00, 0x74, 0x05, 0x00, 0x00,
  0x58, 0x04, 0x00, 0x00, 0xcc, 0x02, 0x00, 0x00, 0xb0, 0x01, 0x00, 0x00,
  0x1c, 0x01, 0x00, 0x00, 0x80, 0x00, 0x00, 0x00, 0x04, 0x00, 0x00, 0x00,
  0x42, 0xd7, 0xff, 0xff, 0x00, 0x00, 0x00, 0x01, 0x18, 0x00, 0x00, 0x00,
  0x20, 0x00, 0x00, 0x00, 0x3c, 0x00, 0x00, 0x00, 0x22, 0x00, 0x00, 0x00,
  0x00, 0x00, 0x00, 0x09, 0x50, 0x00, 0x00, 0x00, 0x02, 0x00, 0x00, 0x00,
  0xff, 0xff, 0xff, 0xff, 0x06, 0x00, 0x00, 0x00, 0x24, 0xd7, 0xff, 0xff,
  0x08, 0x00, 0x00, 0x00, 0x10, 0x00, 0x00, 0x00, 0x01, 0x00, 0x00, 0x00,
  0x80, 0xff, 0xff, 0xff, 0xff, 0xff, 0xff, 0xff, 0x01, 0x00, 0x00, 0x00,
  0x00, 0x00, 0x80, 0x3b, 0x1b, 0x00, 0x00, 0x00, 0x53, 0x74, 0x61, 0x74,
  0x65, 0x66, 0x75, 0x6c, 0x50, 0x61, 0x72, 0x74, 0x69, 0x74, 0x69, 0x6f,
  0x6e, 0x65, 0x64, 0x43, 0x61, 0x6c, 0x6c, 0x5f, 0x31, 0x3a, 0x30, 0x00,
  0x02, 0x00, 0x00, 0x00, 0x01, 0x00, 0x00, 0x00, 0x06, 0x00, 0x00, 0x00,
  0xba, 0xd7, 0xff, 0xff, 0x00, 0x00, 0x00, 0x01, 0x18, 0x00, 0x00, 0x00,
  0x20, 0x00, 0x00, 0x00, 0x3c, 0x00, 0x00, 0x00, 0x21, 0x00, 0x00, 0x00,
  0x00, 0x00, 0x00, 0x09, 0x70, 0x00, 0x00, 0x00, 0x02, 0x00, 0x00, 0x00,
  0xff, 0xff, 0xff, 0xff, 0x06, 0x00, 0x00, 0x00, 0x9c, 0xd7, 0xff, 0xff,
  0x08, 0x00, 0x00, 0x00, 0x10, 0x00, 0x00, 0x00, 0x01, 0x00, 0x00, 0x00,
  0x09, 0x00, 0x00, 0x00, 0x00, 0x00, 0x00, 0x00, 0x01, 0x00, 0x00, 0x00,
  0xe7, 0x4c, 0xc7, 0x3d, 0x38, 0x00, 0x00, 0x00, 0x66, 0x75, 0x6e, 0x63,
  0x74, 0x69, 0x6f, 0x6e, 0x61, 0x6c, 0x5f, 0x31, 0x2f, 0x64, 0x65, 0x6e,
  0x73, 0x65, 0x5f, 0x31, 0x2f, 0x4d, 0x61, 0x74, 0x4d, 0x75, 0x6c, 0x3b,
  0x66, 0x75, 0x6e, 0x63, 0x74, 0x69, 0x6f, 0x6e, 0x61, 0x6c, 0x5f, 0x31,
  0x2f, 0x64, 0x65, 0x6e, 0x73, 0x65, 0x5f, 0x31, 0x2f, 0x42, 0x69, 0x61,
  0x73, 0x41, 0x64, 0x64, 0x00, 0x00, 0x00, 0x00, 0x02, 0x00, 0x00, 0x00,
  0x01, 0x00, 0x00, 0x00, 0x06, 0x00, 0x00, 0x00, 0x52, 0xd8, 0xff, 0xff,
  0x00, 0x00, 0x00, 0x01, 0x18, 0x00, 0x00, 0x00, 0x20, 0x00, 0x00, 0x00,
  0x40, 0x00, 0x00, 0x00, 0x20, 0x00, 0x00, 0x00, 0x00, 0x00, 0x00, 0x09,
  0x68, 0x00, 0x00, 0x00, 0x02, 0x00, 0x00, 0x00, 0xff, 0xff, 0xff, 0xff,
  0x30, 0x00, 0x00, 0x00, 0x34, 0xd8, 0xff, 0xff, 0x08, 0x00, 0x00, 0x00,
  0x14, 0x00, 0x00, 0x00, 0x01, 0x00, 0x00, 0x00, 0x80, 0xff, 0xff, 0xff,
  0xff, 0xff, 0xff, 0xff, 0x00, 0x00, 0x00, 0x00, 0x01, 0x00, 0x00, 0x00,
  0x4c, 0x89, 0x90, 0x3c, 0x2c, 0x00, 0x00, 0x00, 0x66, 0x75, 0x6e, 0x63,
  0x74, 0x69, 0x6f, 0x6e, 0x61, 0x6c, 0x5f, 0x31, 0x2f, 0x67, 0x6c, 0x6f,
  0x62, 0x61, 0x6c, 0x5f, 0x61, 0x76, 0x65, 0x72, 0x61, 0x67, 0x65, 0x5f,
  0x70, 0x6f, 0x6f, 0x6c, 0x69, 0x6e, 0x67, 0x32, 0x64, 0x5f, 0x31, 0x2f,
  0x4d, 0x65, 0x61, 0x6e, 0x00, 0x00, 0x00, 0x00, 0x02, 0x00, 0x00, 0x00,
  0x01, 0x00, 0x00, 0x00, 0x30, 0x00, 0x00, 0x00, 0xe2, 0xd8, 0xff, 0xff,
  0x00, 0x00, 0x00, 0x01, 0x18, 0x00, 0x00, 0x00, 0x28, 0x00, 0x00, 0x00,
  0x44, 0x00, 0x00, 0x00, 0x1f, 0x00, 0x00, 0x00, 0x00, 0x00, 0x00, 0x09,
  0xe8, 0x00, 0x00, 0x00, 0x04, 0x00, 0x00, 0x00, 0xff, 0xff, 0xff, 0xff,
  0x06, 0x00, 0x00, 0x00, 0x06, 0x00, 0x00, 0x00, 0x30, 0x00, 0x00, 0x00,
  0xcc, 0xd8, 0xff, 0xff, 0x08, 0x00, 0x00, 0x00, 0x10, 0x00, 0x00, 0x00,
  0x01, 0x00, 0x00, 0x00, 0x80, 0xff, 0xff, 0xff, 0xff, 0xff, 0xff, 0xff,
  0x01, 0x00, 0x00, 0x00, 0xc1, 0xc0, 0xc0, 0x3c, 0xa8, 0x00, 0x00, 0x00,
  0x66, 0x75, 0x6e, 0x63, 0x74, 0x69, 0x6f, 0x6e, 0x61, 0x6c, 0x5f, 0x31,
  0x2f, 0x72, 0x65, 0x5f, 0x6c, 0x75, 0x5f, 0x38, 0x5f, 0x31, 0x2f, 0x52,
  0x65, 0x6c, 0x75, 0x36, 0x3b, 0x66, 0x75, 0x6e, 0x63, 0x74, 0x69, 0x6f,
  0x6e, 0x61, 0x6c, 0x5f, 0x31, 0x2f, 0x62, 0x61, 0x74, 0x63, 0x68, 0x5f,
  0x6e, 0x6f, 0x72, 0x6d, 0x61, 0x6c, 0x69, 0x7a, 0x61, 0x74, 0x69, 0x6f,
  0x6e, 0x5f, 0x38, 0x5f, 0x31, 0x2f, 0x62, 0x61, 0x74, 0x63, 0x68, 0x6e,
  0x6f, 0x72, 0x6d, 0x2f, 0x61, 0x64, 0x64, 0x5f, 0x31, 0x3b, 0x66, 0x75,
  0x6e, 0x63, 0x74, 0x69, 0x6f, 0x6e, 0x61, 0x6c, 0x5f, 0x31, 0x2f, 0x63,
  0x6f, 0x6e, 0x76, 0x32, 0x64, 0x5f, 0x34, 0x5f, 0x31, 0x2f, 0x63, 0x6f,
  0x6e, 0x76, 0x6f, 0x6c, 0x75, 0x74, 0x69, 0x6f, 0x6e, 0x3b, 0x66, 0x75,
  0x6e, 0x63, 0x74, 0x69, 0x6f, 0x6e, 0x61, 0x6c, 0x5f, 0x31, 0x2f, 0x62,
  0x61, 0x74, 0x63, 0x68, 0x5f, 0x6e, 0x6f, 0x72, 0x6d, 0x61, 0x6c, 0x69,
  0x7a, 0x61, 0x74, 0x69, 0x6f, 0x6e, 0x5f, 0x38, 0x5f, 0x31, 0x2f, 0x62,
  0x61, 0x74, 0x63, 0x68, 0x6e, 0x6f, 0x72, 0x6d, 0x2f, 0x73, 0x75, 0x62,
  0x00, 0x00, 0x00, 0x00, 0x04, 0x00, 0x00, 0x00, 0x01, 0x00, 0x00, 0x00,
  0x06, 0x00, 0x00, 0x00, 0x06, 0x00, 0x00, 0x00, 0x30, 0x00, 0x00, 0x00,
  0xfa, 0xd9, 0xff, 0xff, 0x00, 0x00, 0x00, 0x01, 0x18, 0x00, 0x00, 0x00,
  0x28, 0x00, 0x00, 0x00, 0x44, 0x00, 0x00, 0x00, 0x1e, 0x00, 0x00, 0x00,
  0x00, 0x00, 0x00, 0x09, 0x58, 0x01, 0x00, 0x00, 0x04, 0x00, 0x00, 0x00,
  0xff, 0xff, 0xff, 0xff, 0x06, 0x00, 0x00, 0x00, 0x06, 0x00, 0x00, 0x00,
  0x20, 0x00, 0x00, 0x00, 0xe4, 0xd9, 0xff, 0xff, 0x08, 0x00, 0x00, 0x00,
  0x10, 0x00, 0x00, 0x00, 0x01, 0x00, 0x00, 0x00, 0x80, 0xff, 0xff, 0xff,
  0xff, 0xff, 0xff, 0xff, 0x01, 0x00, 0x00, 0x00, 0xc1, 0xc0, 0xc0, 0x3c,
  0x18, 0x01, 0x00, 0x00, 0x66, 0x75, 0x6e, 0x63, 0x74, 0x69, 0x6f, 0x6e,
  0x61, 0x6c, 0x5f, 0x31, 0x2f, 0x72, 0x65, 0x5f, 0x6c, 0x75, 0x5f, 0x37,
  0x5f, 0x31, 0x2f, 0x52, 0x65, 0x6c, 0x75, 0x36, 0x3b, 0x66, 0x75, 0x6e,
  0x63, 0x74, 0x69, 0x6f, 0x6e, 0x61, 0x6c, 0x5f, 0x31, 0x2f, 0x62, 0x61,
  0x74, 0x63, 0x68, 0x5f, 0x6e, 0x6f, 0x72, 0x6d, 0x61, 0x6c, 0x69, 0x7a,
  0x61, 0x74, 0x69, 0x6f, 0x6e, 0x5f, 0x37, 0x5f, 0x31, 0x2f, 0x62, 0x61,
  0x74, 0x63, 0x68, 0x6e, 0x6f, 0x72, 0x6d, 0x2f, 0x61, 0x64, 0x64, 0x5f,
  0x31, 0x3b, 0x66, 0x75, 0x6e, 0x63, 0x74, 0x69, 0x6f, 0x6e, 0x61, 0x6c,
  0x5f, 0x31, 0x2f, 0x62, 0x61, 0x74, 0x63, 0x68, 0x5f, 0x6e, 0x6f, 0x72,
  0x6d, 0x61, 0x6c, 0x69, 0x7a, 0x61, 0x74, 0x69, 0x6f, 0x6e, 0x5f, 0x37,
  0x5f, 0x31, 0x2f, 0x62, 0x61, 0x74, 0x63, 0x68, 0x6e, 0x6f, 0x72, 0x6d,
  0x2f, 0x6d, 0x75, 0x6c, 0x5f, 0x31, 0x3b, 0x66, 0x75, 0x6e, 0x63, 0x74,
  0x69, 0x6f, 0x6e, 0x61, 0x6c, 0x5f, 0x31, 0x2f, 0x64, 0x65, 0x70, 0x74,
  0x68, 0x77, 0x69, 0x73, 0x65, 0x5f, 0x63, 0x6f, 0x6e, 0x76, 0x32, 0x64,
  0x5f, 0x33, 0x5f, 0x31, 0x2f, 0x64, 0x65, 0x70, 0x74, 0x68, 0x77, 0x69,
  0x73, 0x65, 0x3b, 0x66, 0x75, 0x6e, 0x63, 0x74, 0x69, 0x6f, 0x6e, 0x61,
  0x6c, 0x5f, 0x31, 0x2f, 0x62, 0x61, 0x74, 0x63, 0x68, 0x5f, 0x6e, 0x6f,
  0x72, 0x6d, 0x61, 0x6c, 0x69, 0x7a, 0x61, 0x74, 0x69, 0x6f, 0x6e, 0x5f,
  0x37, 0x5f, 0x31, 0x2f, 0x62, 0x61, 0x74, 0x63, 0x68, 0x6e, 0x6f, 0x72,
  0x6d, 0x2f, 0x6d, 0x75, 0x6c, 0x3b, 0x66, 0x75, 0x6e, 0x63, 0x74, 0x69,
  0x6f, 0x6e, 0x61, 0x6c, 0x5f, 0x31, 0x2f, 0x62, 0x61, 0x74, 0x63, 0x68,
  0x5f, 0x6e, 0x6f, 0x72, 0x6d, 0x61, 0x6c, 0x69, 0x7a, 0x61, 0x74, 0x69,
  0x6f, 0x6e, 0x5f, 0x37, 0x5f, 0x31, 0x2f, 0x62, 0x61, 0x74, 0x63, 0x68,
  0x6e, 0x6f, 0x72, 0x6d, 0x2f, 0x73, 0x75, 0x62, 0x00, 0x00, 0x00, 0x00,
  0x04, 0x00, 0x00, 0x00, 0x01, 0x00, 0x00, 0x00, 0x06, 0x00, 0x00, 0x00,
  0x06, 0x00, 0x00, 0x00, 0x20, 0x00, 0x00, 0x00, 0x82, 0xdb, 0xff, 0xff,
  0x00, 0x00, 0x00, 0x01, 0x18, 0x00, 0x00, 0x00, 0x28, 0x00, 0x00, 0x00,
  0x44, 0x00, 0x00, 0x00, 0x1d, 0x00, 0x00, 0x00, 0x00, 0x00, 0x00, 0x09,
  0xe8, 0x00, 0x00, 0x00, 0x04, 0x00, 0x00, 0x00, 0xff, 0xff, 0xff, 0xff,
  0x0c, 0x00, 0x00, 0x00, 0x0c, 0x00, 0x00, 0x00, 0x20, 0x00, 0x00, 0x00,
  0x6c, 0xdb, 0xff, 0xff, 0x08, 0x00, 0x00, 0x00, 0x10, 0x00, 0x00, 0x00,
  0x01, 0x00, 0x00, 0x00, 0x80, 0xff, 0xff, 0xff, 0xff, 0xff, 0xff, 0xff,
  0x01, 0x00, 0x00, 0x00, 0xc1, 0xc0, 0xc0, 0x3c, 0xa8, 0x00, 0x00, 0x00,
  0x66, 0x75, 0x6e, 0x63, 0x74, 0x69, 0x6f, 0x6e, 0x61, 0x6c, 0x5f, 0x31,
  0x2f, 0x72, 0x65, 0x5f, 0x6c, 0x75, 0x5f, 0x36, 0x5f, 0x31, 0x2f, 0x52,
  0x65, 0x6c, 0x75, 0x36, 0x3b, 0x66, 0x75, 0x6e, 0x63, 0x74, 0x69, 0x6f,
  0x6e, 0x61, 0x6c, 0x5f, 0x31, 0x2f, 0x62, 0x61, 0x74, 0x63, 0x68, 0x5f,
  0x6e, 0x6f, 0x72, 0x6d, 0x61, 0x6c, 0x69, 0x7a, 0x61, 0x74, 0x69, 0x6f,
  0x6e, 0x5f, 0x36, 0x5f, 0x31, 0x2f, 0x62, 0x61, 0x74, 0x63, 0x68, 0x6e,
  0x6f, 0x72, 0x6d, 0x2f, 0x61, 0x64, 0x64, 0x5f, 0x31, 0x3b, 0x66, 0x75,
  0x6e, 0x63, 0x74, 0x69, 0x6f, 0x6e, 0x61, 0x6c, 0x5f, 0x31, 0x2f, 0x63,
  0x6f, 0x6e, 0x76, 0x32, 0x64, 0x5f, 0x33, 0x5f, 0x31, 0x2f, 0x63, 0x6f,
  0x6e, 0x76, 0x6f, 0x6c, 0x75, 0x74, 0x69, 0x6f, 0x6e, 0x3b, 0x66, 0x75,
  0x6e, 0x63, 0x74, 0x69, 0x6f, 0x6e, 0x61, 0x6c, 0x5f, 0x31, 0x2f, 0x62,
  0x61, 0x74, 0x63, 0x68, 0x5f, 0x6e, 0x6f, 0x72, 0x6d, 0x61, 0x6c, 0x69,
  0x7a, 0x61, 0x74, 0x69, 0x6f, 0x6e, 0x5f, 0x36, 0x5f, 0x31, 0x2f, 0x62,
  0x61, 0x74, 0x63, 0x68, 0x6e, 0x6f, 0x72, 0x6d, 0x2f, 0x73, 0x75, 0x62,
  0x00, 0x00, 0x00, 0x00, 0x04, 0x00, 0x00, 0x00, 0x01, 0x00, 0x00, 0x00,
  0x0c, 0x00, 0x00, 0x00, 0x0c, 0x00, 0x00, 0x00, 0x20, 0x00, 0x00, 0x00,
  0x9a, 0xdc, 0xff, 0xff, 0x00, 0x00, 0x00, 0x01, 0x18, 0x00, 0x00, 0x00,
  0x28, 0x00, 0x00, 0x00, 0x44, 0x00, 0x00, 0x00, 0x1c, 0x00, 0x00, 0x00,
  0x00, 0x00, 0x00, 0x09, 0x58, 0x01, 0x00, 0x00, 0x04, 0x00, 0x00, 0x00,
  0xff, 0xff, 0xff, 0xff, 0x0c, 0x00, 0x00, 0x00, 0x0c, 0x00, 0x00, 0x00,
  0x18, 0x00, 0x00, 0x00, 0x84, 0xdc, 0xff, 0xff, 0x08, 0x00, 0x00, 0x00,
  0x10, 0x00, 0x00, 0x00, 0x01, 0x00, 0x00, 0x00, 0x80, 0xff, 0xff, 0xff,
  0xff, 0xff, 0xff, 0xff, 0x01, 0x00, 0x00, 0x00, 0xc1, 0xc0, 0xc0, 0x3c,
  0x18, 0x01, 0x00, 0x00, 0x66, 0x75, 0x6e, 0x63, 0x74, 0x69, 0x6f, 0x6e,
  0x61, 0x6c, 0x5f, 0x31, 0x2f, 0x72, 0x65, 0x5f, 0x6c, 0x75, 0x5f, 0x35,
  0x5f, 0x31, 0x2f, 0x52, 0x65, 0x6c, 0x75, 0x36, 0x3b, 0x66, 0x75, 0x6e,
  0x63, 0x74, 0x69, 0x6f, 0x6e, 0x61, 0x6c, 0x5f, 0x31, 0x2f, 0x62, 0x61,
  0x74, 0x63, 0x68, 0x5f, 0x6e, 0x6f, 0x72, 0x6d, 0x61, 0x6c, 0x69, 0x7a,
  0x61, 0x74, 0x69, 0x6f, 0x6e, 0x5f, 0x35, 0x5f, 0x31, 0x2f, 0x62, 0x61,
  0x74, 0x63, 0x68, 0x6e, 0x6f, 0x72, 0x6d, 0x2f, 0x61, 0x64, 0x64, 0x5f,
  0x31, 0x3b, 0x66, 0x75, 0x6e, 0x63, 0x74, 0x69, 0x6f, 0x6e, 0x61, 0x6c,
  0x5f, 0x31, 0x2f, 0x62, 0x61, 0x74, 0x63, 0x68, 0x5f, 0x6e, 0x6f, 0x72,
  0x6d, 0x61, 0x6c, 0x69, 0x7a, 0x61, 0x74, 0x69, 0x6f, 0x6e, 0x5f, 0x35,
  0x5f, 0x31, 0x2f, 0x62, 0x61, 0x74, 0x63, 0x68, 0x6e, 0x6f, 0x72, 0x6d,
  0x2f, 0x6d, 0x75, 0x6c, 0x5f, 0x31, 0x3b, 0x66, 0x75, 0x6e, 0x63, 0x74,
  0x69, 0x6f, 0x6e, 0x61, 0x6c, 0x5f, 0x31, 0x2f, 0x64, 0x65, 0x70, 0x74,
  0x68, 0x77, 0x69, 0x73, 0x65, 0x5f, 0x63, 0x6f, 0x6e, 0x76, 0x32, 0x64,
  0x5f, 0x32, 0x5f, 0x31, 0x2f, 0x64, 0x65, 0x70, 0x74, 0x68, 0x77, 0x69,
  0x73, 0x65, 0x3b, 0x66, 0x75, 0x6e, 0x63, 0x74, 0x69, 0x6f, 0x6e, 0x61,
  0x6c, 0x5f, 0x31, 0x2f, 0x62, 0x61, 0x74, 0x63, 0x68, 0x5f, 0x6e, 0x6f,
  0x72, 0x6d, 0x61, 0x6c, 0x69, 0x7a, 0x61, 0x74, 0x69, 0x6f, 0x6e, 0x5f,
  0x35, 0x5f, 0x31, 0x2f, 0x62, 0x61, 0x74, 0x63, 0x68, 0x6e, 0x6f, 0x72,
  0x6d, 0x2f, 0x6d, 0x75, 0x6c, 0x3b, 0x66, 0x75, 0x6e, 0x63, 0x74, 0x69,
  0x6f, 0x6e, 0x61, 0x6c, 0x5f, 0x31, 0x2f, 0x62, 0x61, 0x74, 0x63, 0x68,
  0x5f, 0x6e, 0x6f, 0x72, 0x6d, 0x61, 0x6c, 0x69, 0x7a, 0x61, 0x74, 0x69,
  0x6f, 0x6e, 0x5f, 0x35, 0x5f, 0x31, 0x2f, 0x62, 0x61, 0x74, 0x63, 0x68,
  0x6e, 0x6f, 0x72, 0x6d, 0x2f, 0x73, 0x75, 0x62, 0x00, 0x00, 0x00, 0x00,
  0x04, 0x00, 0x00, 0x00, 0x01, 0x00, 0x00, 0x00, 0x0c, 0x00, 0x00, 0x00,
  0x0c, 0x00, 0x00, 0x00, 0x18, 0x00, 0x00, 0x00, 0x22, 0xde, 0xff, 0xff,
  0x00, 0x00, 0x00, 0x01, 0x18, 0x00, 0x00, 0x00, 0x28, 0x00, 0x00, 0x00,
  0x44, 0x00, 0x00, 0x00, 0x1b, 0x00, 0x00, 0x00, 0x00, 0x00, 0x00, 0x09,
  0xe8, 0x00, 0x00, 0x00, 0x04, 0x00, 0x00, 0x00, 0xff, 0xff, 0xff, 0xff,
  0x18, 0x00, 0x00, 0x00, 0x18, 0x00, 0x00, 0x00, 0x18, 0x00, 0x00, 0x00,
  0x0c, 0xde, 0xff, 0xff, 0x08, 0x00, 0x00, 0x00, 0x10, 0x00, 0x00, 0x00,
  0x01, 0x00, 0x00, 0x00, 0x80, 0xff, 0xff, 0xff, 0xff, 0xff, 0xff, 0xff,
  0x01, 0x00, 0x00, 0x00, 0xc1, 0xc0, 0xc0, 0x3c, 0xa8, 0x00, 0x00, 0x00,
  0x66, 0x75, 0x6e, 0x63, 0x74, 0x69, 0x6f, 0x6e, 0x61, 0x6c, 0x5f, 0x31,
  0x2f, 0x72, 0x65, 0x5f, 0x6c, 0x75, 0x5f, 0x34, 0x5f, 0x31, 0x2f, 0x52,
  0x65, 0x6c, 0x75, 0x36, 0x3b, 0x66, 0x75, 0x6e, 0x63, 0x74, 0x69, 0x6f,
  0x6e, 0x61, 0x6c, 0x5f, 0x31, 0x2f, 0x62, 0x61, 0x74, 0x63, 0x68, 0x5f,
  0x6e, 0x6f, 0x72, 0x6d, 0x61, 0x6c, 0x69, 0x7a, 0x61, 0x74, 0x69, 0x6f,
  0x6e, 0x5f, 0x34, 0x5f, 0x31, 0x2f, 0x62, 0x61, 0x74, 0x63, 0x68, 0x6e,
  0x6f, 0x72, 0x6d, 0x2f, 0x61, 0x64, 0x64, 0x5f, 0x31, 0x3b, 0x66, 0x75,
  0x6e, 0x63, 0x74, 0x69, 0x6f, 0x6e, 0x61, 0x6c, 0x5f, 0x31, 0x2f, 0x63,
  0x6f, 0x6e, 0x76, 0x32, 0x64, 0x5f, 0x32, 0x5f, 0x31, 0x2f, 0x63, 0x6f,
  0x6e, 0x76, 0x6f, 0x6c, 0x75, 0x74, 0x69, 0x6f, 0x6e, 0x3b, 0x66, 0x75,
  0x6e, 0x63, 0x74, 0x69, 0x6f, 0x6e, 0x61, 0x6c, 0x5f, 0x31, 0x2f, 0x62,
  0x61, 0x74, 0x63, 0x68, 0x5f, 0x6e, 0x6f, 0x72, 0x6d, 0x61, 0x6c, 0x69,
  0x7a, 0x61, 0x74, 0x69, 0x6f, 0x6e, 0x5f, 0x34, 0x5f, 0x31, 0x2f, 0x62,
  0x61, 0x74, 0x63, 0x68, 0x6e, 0x6f, 0x72, 0x6d, 0x2f, 0x73, 0x75, 0x62,
  0x00, 0x00, 0x00, 0x00, 0x04, 0x00, 0x00, 0x00, 0x01, 0x00, 0x00, 0x00,
  0x18, 0x00, 0x00, 0x00, 0x18, 0x00, 0x00, 0x00, 0x18, 0x00, 0x00, 0x00,
  0x3a, 0xdf, 0xff, 0xff, 0x00, 0x00, 0x00, 0x01, 0x18, 0x00, 0x00, 0x00,
  0x28, 0x00, 0x00, 0x00, 0x44, 0x00, 0x00, 0x00, 0x1a, 0x00, 0x00, 0x00,
  0x00, 0x00, 0x00, 0x09, 0x58, 0x01, 0x00, 0x00, 0x04, 0x00, 0x00, 0x00,
  0xff, 0xff, 0xff, 0xff, 0x18, 0x00, 0x00, 0x00, 0x18, 0x00, 0x00, 0x00,
  0x10, 0x00, 0x00, 0x00, 0x24, 0xdf, 0xff, 0xff, 0x08, 0x00, 0x00, 0x00,
  0x10, 0x00, 0x00, 0x00, 0x01, 0x00, 0x00, 0x00, 0x80, 0xff, 0xff, 0xff,
  0xff, 0xff, 0xff, 0xff, 0x01, 0x00, 0x00, 0x00, 0xc1, 0xc0, 0xc0, 0x3c,
  0x18, 0x01, 0x00, 0x00, 0x66, 0x75, 0x6e, 0x63, 0x74, 0x69, 0x6f, 0x6e,
  0x61, 0x6c, 0x5f, 0x31, 0x2f, 0x72, 0x65, 0x5f, 0x6c, 0x75, 0x5f, 0x33,
  0x5f, 0x31, 0x2f, 0x52, 0x65, 0x6c, 0x75, 0x36, 0x3b, 0x66, 0x75, 0x6e,
  0x63, 0x74, 0x69, 0x6f, 0x6e, 0x61, 0x6c, 0x5f, 0x31, 0x2f, 0x62, 0x61,
  0x74, 0x63, 0x68, 0x5f, 0x6e, 0x6f, 0x72, 0x6d, 0x61, 0x6c, 0x69, 0x7a,
  0x61, 0x74, 0x69, 0x6f, 0x6e, 0x5f, 0x33, 0x5f, 0x31, 0x2f, 0x62, 0x61,
  0x74, 0x63, 0x68, 0x6e, 0x6f, 0x72, 0x6d, 0x2f, 0x61, 0x64, 0x64, 0x5f,
  0x31, 0x3b, 0x66, 0x75, 0x6e, 0x63, 0x74, 0x69, 0x6f, 0x6e, 0x61, 0x6c,
  0x5f, 0x31, 0x2f, 0x62, 0x61, 0x74, 0x63, 0x68, 0x5f, 0x6e, 0x6f, 0x72,
  0x6d, 0x61, 0x6c, 0x69, 0x7a, 0x61, 0x74, 0x69, 0x6f, 0x6e, 0x5f, 0x33,
  0x5f, 0x31, 0x2f, 0x62, 0x61, 0x74, 0x63, 0x68, 0x6e, 0x6f, 0x72, 0x6d,
  0x2f, 0x6d, 0x75, 0x6c, 0x5f, 0x31, 0x3b, 0x66, 0x75, 0x6e, 0x63, 0x74,
  0x69, 0x6f, 0x6e, 0x61, 0x6c, 0x5f, 0x31, 0x2f, 0x64, 0x65, 0x70, 0x74,
  0x68, 0x77, 0x69, 0x73, 0x65, 0x5f, 0x63, 0x6f, 0x6e, 0x76, 0x32, 0x64,
  0x5f, 0x31, 0x5f, 0x32, 0x2f, 0x64, 0x65, 0x70, 0x74, 0x68, 0x77, 0x69,
  0x73, 0x65, 0x3b, 0x66, 0x75, 0x6e, 0x63, 0x74, 0x69, 0x6f, 0x6e, 0x61,
  0x6c, 0x5f, 0x31, 0x2f, 0x62, 0x61, 0x74, 0x63, 0x68, 0x5f, 0x6e, 0x6f,
  0x72, 0x6d, 0x61, 0x6c, 0x69, 0x7a, 0x61, 0x74, 0x69, 0x6f, 0x6e, 0x5f,
  0x33, 0x5f, 0x31, 0x2f, 0x62, 0x61, 0x74, 0x63, 0x68, 0x6e, 0x6f, 0x72,
  0x6d, 0x2f, 0x6d, 0x75, 0x6c, 0x3b, 0x66, 0x75, 0x6e, 0x63, 0x74, 0x69,
  0x6f, 0x6e, 0x61, 0x6c, 0x5f, 0x31, 0x2f, 0x62, 0x61, 0x74, 0x63, 0x68,
  0x5f, 0x6e, 0x6f, 0x72, 0x6d, 0x61, 0x6c, 0x69, 0x7a, 0x61, 0x74, 0x69,
  0x6f, 0x6e, 0x5f, 0x33, 0x5f, 0x31, 0x2f, 0x62, 0x61, 0x74, 0x63, 0x68,
  0x6e, 0x6f, 0x72, 0x6d, 0x2f, 0x73, 0x75, 0x62, 0x00, 0x00, 0x00, 0x00,
  0x04, 0x00, 0x00, 0x00, 0x01, 0x00, 0x00, 0x00, 0x18, 0x00, 0x00, 0x00,
  0x18, 0x00, 0x00, 0x00, 0x10, 0x00, 0x00, 0x00, 0xc2, 0xe0, 0xff, 0xff,
  0x00, 0x00, 0x00, 0x01, 0x18, 0x00, 0x00, 0x00, 0x28, 0x00, 0x00, 0x00,
  0x44, 0x00, 0x00, 0x00, 0x19, 0x00, 0x00, 0x00, 0x00, 0x00, 0x00, 0x09,
  0xe8, 0x00, 0x00, 0x00, 0x04, 0x00, 0x00, 0x00, 0xff, 0xff, 0xff, 0xff,
  0x30, 0x00, 0x00, 0x00, 0x30, 0x00, 0x00, 0x00, 0x10, 0x00, 0x00, 0x00,
  0xac, 0xe0, 0xff, 0xff, 0x08, 0x00, 0x00, 0x00, 0x10, 0x00, 0x00, 0x00,
  0x01, 0x00, 0x00, 0x00, 0x80, 0xff, 0xff, 0xff, 0xff, 0xff, 0xff, 0xff,
  0x01, 0x00, 0x00, 0x00, 0xc1, 0xc0, 0xc0, 0x3c, 0xa8, 0x00, 0x00, 0x00,
  0x66, 0x75, 0x6e, 0x63, 0x74, 0x69, 0x6f, 0x6e, 0x61, 0x6c, 0x5f, 0x31,
  0x2f, 0x72, 0x65, 0x5f, 0x6c, 0x75, 0x5f, 0x32, 0x5f, 0x31, 0x2f, 0x52,
  0x65, 0x6c, 0x75, 0x36, 0x3b, 0x66, 0x75, 0x6e, 0x63, 0x74, 0x69, 0x6f,
  0x6e, 0x61, 0x6c, 0x5f, 0x31, 0x2f, 0x62, 0x61, 0x74, 0x63, 0x68, 0x5f,
  0x6e, 0x6f, 0x72, 0x6d, 0x61, 0x6c, 0x69, 0x7a, 0x61, 0x74, 0x69, 0x6f,
  0x6e, 0x5f, 0x32, 0x5f, 0x31, 0x2f, 0x62, 0x61, 0x74, 0x63, 0x68, 0x6e,
  0x6f, 0x72, 0x6d, 0x2f, 0x61, 0x64, 0x64, 0x5f, 0x31, 0x3b, 0x66, 0x75,
  0x6e, 0x63, 0x74, 0x69, 0x6f, 0x6e, 0x61, 0x6c, 0x5f, 0x31, 0x2f, 0x63,
  0x6f, 0x6e, 0x76, 0x32, 0x64, 0x5f, 0x31, 0x5f, 0x32, 0x2f, 0x63, 0x6f,
  0x6e, 0x76, 0x6f, 0x6c, 0x75, 0x74, 0x69, 0x6f, 0x6e, 0x3b, 0x66, 0x75,
  0x6e, 0x63, 0x74, 0x69, 0x6f, 0x6e, 0x61, 0x6c, 0x5f, 0x31, 0x2f, 0x62,
  0x61, 0x74, 0x63, 0x68, 0x5f, 0x6e, 0x6f, 0x72, 0x6d, 0x61, 0x6c, 0x69,
  0x7a, 0x61, 0x74, 0x69, 0x6f, 0x6e, 0x5f, 0x32, 0x5f, 0x31, 0x2f, 0x62,
  0x61, 0x74, 0x63, 0x68, 0x6e, 0x6f, 0x72, 0x6d, 0x2f, 0x73, 0x75, 0x62,
  0x00, 0x00, 0x00, 0x00, 0x04, 0x00, 0x00, 0x00, 0x01, 0x00, 0x00, 0x00,
  0x30, 0x00, 0x00, 0x00, 0x30, 0x00, 0x00, 0x00, 0x10, 0x00, 0x00, 0x00,
  0xda, 0xe1, 0xff, 0xff, 0x00, 0x00, 0x00, 0x01, 0x18, 0x00, 0x00, 0x00,
  0x28, 0x00, 0x00, 0x00, 0x48, 0x00, 0x00, 0x00, 0x18, 0x00, 0x00, 0x00,
  0x00, 0x00, 0x00, 0x09, 0x58, 0x01, 0x00, 0x00, 0x04, 0x00, 0x00, 0x00,
  0xff, 0xff, 0xff, 0xff, 0x30, 0x00, 0x00, 0x00, 0x30, 0x00, 0x00, 0x00,
  0x08, 0x00, 0x00, 0x00, 0xc4, 0xe1, 0xff, 0xff, 0x08, 0x00, 0x00, 0x00,
  0x14, 0x00, 0x00, 0x00, 0x01, 0x00, 0x00, 0x00, 0x80, 0xff, 0xff, 0xff,
  0xff, 0xff, 0xff, 0xff, 0x00, 0x00, 0x00, 0x00, 0x01, 0x00, 0x00, 0x00,
  0xc1, 0xc0, 0xc0, 0x3c, 0x16, 0x01, 0x00, 0x00, 0x66, 0x75, 0x6e, 0x63,
  0x74, 0x69, 0x6f, 0x6e, 0x61, 0x6c, 0x5f, 0x31, 0x2f, 0x72, 0x65, 0x5f,
  0x6c, 0x75, 0x5f, 0x31, 0x5f, 0x32, 0x2f, 0x52, 0x65, 0x6c, 0x75, 0x36,
  0x3b, 0x66, 0x75, 0x6e, 0x63, 0x74, 0x69, 0x6f, 0x6e, 0x61, 0x6c, 0x5f,
  0x31, 0x2f, 0x62, 0x61, 0x74, 0x63, 0x68, 0x5f, 0x6e, 0x6f, 0x72, 0x6d,
  0x61, 0x6c, 0x69, 0x7a, 0x61, 0x74, 0x69, 0x6f, 0x6e, 0x5f, 0x31, 0x5f,
  0x32, 0x2f, 0x62, 0x61, 0x74, 0x63, 0x68, 0x6e, 0x6f, 0x72, 0x6d, 0x2f,
  0x61, 0x64, 0x64, 0x5f, 0x31, 0x3b, 0x66, 0x75, 0x6e, 0x63, 0x74, 0x69,
  0x6f, 0x6e, 0x61, 0x6c, 0x5f, 0x31, 0x2f, 0x62, 0x61, 0x74, 0x63, 0x68,
  0x5f, 0x6e, 0x6f, 0x72, 0x6d, 0x61, 0x6c, 0x69, 0x7a, 0x61, 0x74, 0x69,
  0x6f, 0x6e, 0x5f, 0x31, 0x5f, 0x32, 0x2f, 0x62, 0x61, 0x74, 0x63, 0x68,
  0x6e, 0x6f, 0x72, 0x6d, 0x2f, 0x6d, 0x75, 0x6c, 0x5f, 0x31, 0x3b, 0x66,
  0x75, 0x6e, 0x63, 0x74, 0x69, 0x6f, 0x6e, 0x61, 0x6c, 0x5f, 0x31, 0x2f,
  0x64, 0x65, 0x70, 0x74, 0x68, 0x77, 0x69, 0x73, 0x65, 0x5f, 0x63, 0x6f,
  0x6e, 0x76, 0x32, 0x64, 0x5f, 0x31, 0x2f, 0x64, 0x65, 0x70, 0x74, 0x68,
  0x77, 0x69, 0x73, 0x65, 0x3b, 0x66, 0x75, 0x6e, 0x63, 0x74, 0x69, 0x6f,
  0x6e, 0x61, 0x6c, 0x5f, 0x31, 0x2f, 0x62, 0x61, 0x74, 0x63, 0x68, 0x5f,
  0x6e, 0x6f, 0x72, 0x6d, 0x61, 0x6c, 0x69, 0x7a, 0x61, 0x74, 0x69, 0x6f,
  0x6e, 0x5f, 0x31, 0x5f, 0x32, 0x2f, 0x62, 0x61, 0x74, 0x63, 0x68, 0x6e,
  0x6f, 0x72, 0x6d, 0x2f, 0x6d, 0x75, 0x6c, 0x3b, 0x66, 0x75, 0x6e, 0x63,
  0x74, 0x69, 0x6f, 0x6e, 0x61, 0x6c, 0x5f, 0x31, 0x2f, 0x62, 0x61, 0x74,
  0x63, 0x68, 0x5f, 0x6e, 0x6f, 0x72, 0x6d, 0x61, 0x6c, 0x69, 0x7a, 0x61,
  0x74, 0x69, 0x6f, 0x6e, 0x5f, 0x31, 0x5f, 0x32, 0x2f, 0x62, 0x61, 0x74,
  0x63, 0x68, 0x6e, 0x6f, 0x72, 0x6d, 0x2f, 0x73, 0x75, 0x62, 0x00, 0x00,
  0x04, 0x00, 0x00, 0x00, 0x01, 0x00, 0x00, 0x00, 0x30, 0x00, 0x00, 0x00,
  0x30, 0x00, 0x00, 0x00, 0x08, 0x00, 0x00, 0x00, 0x62, 0xe3, 0xff, 0xff,
  0x00, 0x00, 0x00, 0x01, 0x18, 0x00, 0x00, 0x00, 0x28, 0x00, 0x00, 0x00,
  0x44, 0x00, 0x00, 0x00, 0x17, 0x00, 0x00, 0x00, 0x00, 0x00, 0x00, 0x09,
  0xe0, 0x00, 0x00, 0x00, 0x04, 0x00, 0x00, 0x00, 0xff, 0xff, 0xff, 0xff,
  0x60, 0x00, 0x00, 0x00, 0x60, 0x00, 0x00, 0x00, 0x08, 0x00, 0x00, 0x00,
  0x4c, 0xe3, 0xff, 0xff, 0x08, 0x00, 0x00, 0x00, 0x10, 0x00, 0x00, 0x00,
  0x01, 0x00, 0x00, 0x00, 0x80, 0xff, 0xff, 0xff, 0xff, 0xff, 0xff, 0xff,
  0x01, 0x00, 0x00, 0x00, 0xc1, 0xc0, 0xc0, 0x3c, 0xa1, 0x00, 0x00, 0x00,
  0x66, 0x75, 0x6e, 0x63, 0x74, 0x69, 0x6f, 0x6e, 0x61, 0x6c, 0x5f, 0x31,
  0x2f, 0x72, 0x65, 0x5f, 0x6c, 0x75, 0x5f, 0x31, 0x2f, 0x52, 0x65, 0x6c,
  0x75, 0x36, 0x3b, 0x66, 0x75, 0x6e, 0x63, 0x74, 0x69, 0x6f, 0x6e, 0x61,
  0x6c, 0x5f, 0x31, 0x2f, 0x62, 0x61, 0x74, 0x63, 0x68, 0x5f, 0x6e, 0x6f,
  0x72, 0x6d, 0x61, 0x6c, 0x69, 0x7a, 0x61, 0x74, 0x69, 0x6f, 0x6e, 0x5f,
  0x31, 0x2f, 0x62, 0x61, 0x74, 0x63, 0x68, 0x6e, 0x6f, 0x72, 0x6d, 0x2f,
  0x61, 0x64, 0x64, 0x5f, 0x31, 0x3b, 0x66, 0x75, 0x6e, 0x63, 0x74, 0x69,
  0x6f, 0x6e, 0x61, 0x6c, 0x5f, 0x31, 0x2f, 0x63, 0x6f, 0x6e, 0x76, 0x32,
  0x64, 0x5f, 0x31, 0x2f, 0x63, 0x6f, 0x6e, 0x76, 0x6f, 0x6c, 0x75, 0x74,
  0x69, 0x6f, 0x6e, 0x3b, 0x66, 0x75, 0x6e, 0x63, 0x74, 0x69, 0x6f, 0x6e,
  0x61, 0x6c, 0x5f, 0x31, 0x2f, 0x62, 0x61, 0x74, 0x63, 0x68, 0x5f, 0x6e,
  0x6f, 0x72, 0x6d, 0x61, 0x6c, 0x69, 0x7a, 0x61, 0x74, 0x69, 0x6f, 0x6e,
  0x5f, 0x31, 0x2f, 0x62, 0x61, 0x74, 0x63, 0x68, 0x6e, 0x6f, 0x72, 0x6d,
  0x2f, 0x73, 0x75, 0x62, 0x31, 0x00, 0x00, 0x00, 0x04, 0x00, 0x00, 0x00,
  0x01, 0x00, 0x00, 0x00, 0x60, 0x00, 0x00, 0x00, 0x60, 0x00, 0x00, 0x00,
  0x08, 0x00, 0x00, 0x00, 0xca, 0xe4, 0xff, 0xff, 0x00, 0x00, 0x00, 0x01,
  0x14, 0x00, 0x00, 0x00, 0x88, 0x00, 0x00, 0x00, 0x16, 0x00, 0x00, 0x00,
  0x00, 0x00, 0x00, 0x09, 0x94, 0x00, 0x00, 0x00, 0x44, 0xe4, 0xff, 0xff,
  0x08, 0x00, 0x00, 0x00, 0x4c, 0x00, 0x00, 0x00, 0x08, 0x00, 0x00, 0x00,
  0x00, 0x00, 0x00, 0x00, 0x00, 0x00, 0x00, 0x00, 0x00, 0x00, 0x00, 0x00,
  0x00, 0x00, 0x00, 0x00, 0x00, 0x00, 0x00, 0x00, 0x00, 0x00, 0x00, 0x00,
  0x00, 0x00, 0x00, 0x00, 0x00, 0x00, 0x00, 0x00, 0x00, 0x00, 0x00, 0x00,
  0x00, 0x00, 0x00, 0x00, 0x00, 0x00, 0x00, 0x00, 0x00, 0x00, 0x00, 0x00,
  0x00, 0x00, 0x00, 0x00, 0x00, 0x00, 0x00, 0x00, 0x00, 0x00, 0x00, 0x00,
  0x00, 0x00, 0x00, 0x00, 0x00, 0x00, 0x00, 0x00, 0x08, 0x00, 0x00, 0x00,
  0x26, 0x24, 0x4c, 0x3c, 0xe3, 0xc3, 0x18, 0x3d, 0x9a, 0x3d, 0x1a, 0x3c,
  0x7b, 0xcd, 0x93, 0x3c, 0x0a, 0x76, 0xc1, 0x3c, 0x19, 0x79, 0xbd, 0x3c,
  0x2b, 0xc7, 0x42, 0x3c, 0xec, 0xa6, 0x4d, 0x3c, 0x13, 0x00, 0x00, 0x00,
  0x74, 0x66, 0x6c, 0x2e, 0x70, 0x73, 0x65, 0x75, 0x64, 0x6f, 0x5f, 0x71,
  0x63, 0x6f, 0x6e, 0x73, 0x74, 0x31, 0x39, 0x00, 0x04, 0x00, 0x00, 0x00,
  0x08, 0x00, 0x00, 0x00, 0x03, 0x00, 0x00, 0x00, 0x03, 0x00, 0x00, 0x00,
  0x01, 0x00, 0x00, 0x00, 0x8a, 0xe5, 0xff, 0xff, 0x00, 0x00, 0x00, 0x01,
  0x14, 0x00, 0x00, 0x00, 0x88, 0x00, 0x00, 0x00, 0x15, 0x00, 0x00, 0x00,
  0x00, 0x00, 0x00, 0x02, 0x94, 0x00, 0x00, 0x00, 0x04, 0xe5, 0xff, 0xff,
  0x08, 0x00, 0x00, 0x00, 0x4c, 0x00, 0x00, 0x00, 0x08, 0x00, 0x00, 0x00,
  0x00, 0x00, 0x00, 0x00, 0x00, 0x00, 0x00, 0x00, 0x00, 0x00, 0x00, 0x00,
  0x00, 0x00, 0x00, 0x00, 0x00, 0x00, 0x00, 0x00, 0x00, 0x00, 0x00, 0x00,
  0x00, 0x00, 0x00, 0x00, 0x00, 0x00, 0x00, 0x00, 0x00, 0x00, 0x00, 0x00,
  0x00, 0x00, 0x00, 0x00, 0x00, 0x00, 0x00, 0x00, 0x00, 0x00, 0x00, 0x00,
  0x00, 0x00, 0x00, 0x00, 0x00, 0x00, 0x00, 0x00, 0x00, 0x00, 0x00, 0x00,
  0x00, 0x00, 0x00, 0x00, 0x00, 0x00, 0x00, 0x00, 0x08, 0x00, 0x00, 0x00,
  0x18, 0xf1, 0x4c, 0x38, 0x41, 0x5d, 0x19, 0x39, 0x73, 0xd8, 0x1a, 0x38,
  0xdd, 0x61, 0x94, 0x38, 0x43, 0x38, 0xc2, 0x38, 0x51, 0x37, 0xbe, 0x38,
  0xb6, 0x8a, 0x43, 0x38, 0x62, 0x75, 0x4e, 0x38, 0x13, 0x00, 0x00, 0x00,
  0x74, 0x66, 0x6c, 0x2e, 0x70, 0x73, 0x65, 0x75, 0x64, 0x6f, 0x5f, 0x71,
  0x63, 0x6f, 0x6e, 0x73, 0x74, 0x31, 0x38, 0x00, 0x01, 0x00, 0x00, 0x00,
  0x08, 0x00, 0x00, 0x00, 0x3e, 0xe6, 0xff, 0xff, 0x00, 0x00, 0x00, 0x01,
  0x14, 0x00, 0x00, 0x00, 0x8c, 0x00, 0x00, 0x00, 0x14, 0x00, 0x00, 0x00,
  0x00, 0x00, 0x00, 0x09, 0x98, 0x00, 0x00, 0x00, 0x72, 0xf0, 0xff, 0xff,
  0x03, 0x00, 0x00, 0x00, 0x08, 0x00, 0x00, 0x00, 0x4c, 0x00, 0x00, 0x00,
  0x08, 0x00, 0x00, 0x00, 0x00, 0x00, 0x00, 0x00, 0x00, 0x00, 0x00, 0x00,
  0x00, 0x00, 0x00, 0x00, 0x00, 0x00, 0x00, 0x00, 0x00, 0x00, 0x00, 0x00,
  0x00, 0x00, 0x00, 0x00, 0x00, 0x00, 0x00, 0x00, 0x00, 0x00, 0x00, 0x00,
  0x00, 0x00, 0x00, 0x00, 0x00, 0x00, 0x00, 0x00, 0x00, 0x00, 0x00, 0x00,
  0x00, 0x00, 0x00, 0x00, 0x00, 0x00, 0x00, 0x00, 0x00, 0x00, 0x00, 0x00,
  0x00, 0x00, 0x00, 0x00, 0x00, 0x00, 0x00, 0x00, 0x00, 0x00, 0x00, 0x00,
  0x08, 0x00, 0x00, 0x00, 0xe3, 0xa6, 0x2f, 0x3c, 0x03, 0x70, 0x16, 0x3c,
  0x37, 0x4e, 0x3d, 0x3c, 0x9d, 0xf9, 0x7c, 0x3c, 0x83, 0x02, 0xa5, 0x3b,
  0xc8, 0x1f, 0x42, 0x3c, 0x3e, 0x42, 0x9d, 0x3c, 0x70, 0xbd, 0x9f, 0x3c,
  0x13, 0x00, 0x00, 0x00, 0x74, 0x66, 0x6c, 0x2e, 0x70, 0x73, 0x65, 0x75,
  0x64, 0x6f, 0x5f, 0x71, 0x63, 0x6f, 0x6e, 0x73, 0x74, 0x31, 0x37, 0x00,
  0x04, 0x00, 0x00, 0x00, 0x01, 0x00, 0x00, 0x00, 0x03, 0x00, 0x00, 0x00,
  0x03, 0x00, 0x00, 0x00, 0x08, 0x00, 0x00, 0x00, 0x02, 0xe7, 0xff, 0xff,
  0x00, 0x00, 0x00, 0x01, 0x14, 0x00, 0x00, 0x00, 0x84, 0x00, 0x00, 0x00,
  0x13, 0x00, 0x00, 0x00, 0x00, 0x00, 0x00, 0x02, 0x90, 0x00, 0x00, 0x00,
  0x7c, 0xe6, 0xff, 0xff, 0x08, 0x00, 0x00, 0x00, 0x48, 0x00, 0x00, 0x00,
  0x08, 0x00, 0x00, 0x00, 0x00, 0x00, 0x00, 0x00, 0x00, 0x00, 0x00, 0x00,
  0x00, 0x00, 0x00, 0x00, 0x00, 0x00, 0x00, 0x00, 0x00, 0x00, 0x00, 0x00,
  0x00, 0x00, 0x00, 0x00, 0x00, 0x00, 0x00, 0x00, 0x00, 0x00, 0x00, 0x00,
  0x00, 0x00, 0x00, 0x00, 0x00, 0x00, 0x00, 0x00, 0x00, 0x00, 0x00, 0x00,
  0x00, 0x00, 0x00, 0x00, 0x00, 0x00, 0x00, 0x00, 0x00, 0x00, 0x00, 0x00,
  0x00, 0x00, 0x00, 0x00, 0x00, 0x00, 0x00, 0x00, 0x08, 0x00, 0x00, 0x00,
  0x6c, 0x41, 0x84, 0x39, 0x8f, 0x8a, 0x62, 0x39, 0x33, 0x89, 0x8e, 0x39,
  0xb0, 0x79, 0xbe, 0x39, 0x41, 0x7c, 0xf8, 0x38, 0x00, 0x2a, 0x92, 0x39,
  0x2d, 0xd0, 0xec, 0x39, 0xb5, 0x8c, 0xf0, 0x39, 0x13, 0x00, 0x00, 0x00,
  0x74, 0x66, 0x6c, 0x2e, 0x70, 0x73, 0x65, 0x75, 0x64, 0x6f, 0x5f, 0x71,
  0x63, 0x6f, 0x6e, 0x73, 0x74, 0x31, 0x36, 0x00, 0x01, 0x00, 0x00, 0x00,
  0x08, 0x00, 0x00, 0x00, 0xb2, 0xe7, 0xff, 0xff, 0x00, 0x00, 0x00, 0x01,
  0x14, 0x00, 0x00, 0x00, 0xe8, 0x00, 0x00, 0x00, 0x12, 0x00, 0x00, 0x00,
  0x00, 0x00, 0x00, 0x09, 0xf4, 0x00, 0x00, 0x00, 0x2c, 0xe7, 0xff, 0xff,
  0x08, 0x00, 0x00, 0x00, 0x8c, 0x00, 0x00, 0x00, 0x10, 0x00, 0x00, 0x00,
  0x00, 0x00, 0x00, 0x00, 0x00, 0x00, 0x00, 0x00, 0x00, 0x00, 0x00, 0x00,
  0x00, 0x00, 0x00, 0x00, 0x00, 0x00, 0x00, 0x00, 0x00, 0x00, 0x00, 0x00,
  0x00, 0x00, 0x00, 0x00, 0x00, 0x00, 0x00, 0x00, 0x00, 0x00, 0x00, 0x00,
  0x00, 0x00, 0x00, 0x00, 0x00, 0x00, 0x00, 0x00, 0x00, 0x00, 0x00, 0x00,
  0x00, 0x00, 0x00, 0x00, 0x00, 0x00, 0x00, 0x00, 0x00, 0x00, 0x00, 0x00,
  0x00, 0x00, 0x00, 0x00, 0x00, 0x00, 0x00, 0x00, 0x00, 0x00, 0x00, 0x00,
  0x00, 0x00, 0x00, 0x00, 0x00, 0x00, 0x00, 0x00, 0x00, 0x00, 0x00, 0x00,
  0x00, 0x00, 0x00, 0x00, 0x00, 0x00, 0x00, 0x00, 0x00, 0x00, 0x00, 0x00,
  0x00, 0x00, 0x00, 0x00, 0x00, 0x00, 0x00, 0x00, 0x00, 0x00, 0x00, 0x00,
  0x00, 0x00, 0x00, 0x00, 0x00, 0x00, 0x00, 0x00, 0x00, 0x00, 0x00, 0x00,
  0x00, 0x00, 0x00, 0x00, 0x00, 0x00, 0x00, 0x00, 0x00, 0x00, 0x00, 0x00,
  0x10, 0x00, 0x00, 0x00, 0x72, 0xd9, 0xfe, 0x3b, 0xd4, 0x3c, 0x40, 0x3c,
  0x76, 0x86, 0x12, 0x3c, 0x6d, 0x55, 0x12, 0x3c, 0xa2, 0x6b, 0x0c, 0x3c,
  0x18, 0x1d, 0xd9, 0x3b, 0xea, 0xa5, 0xe0, 0x3b, 0x87, 0x77, 0xd8, 0x3b,
  0xe4, 0x79, 0xcb, 0x3b, 0xf1, 0x9f, 0x1c, 0x3c, 0xbd, 0xc0, 0x10, 0x3c,
  0x09, 0xda, 0x00, 0x3c, 0xba, 0xc7, 0x33, 0x3c, 0x85, 0x28, 0xe1, 0x3b,
  0x13, 0x37, 0x03, 0x3c, 0x6b, 0x1c, 0xcf, 0x3b, 0x13, 0x00, 0x00, 0x00,
  0x74, 0x66, 0x6c, 0x2e, 0x70, 0x73, 0x65, 0x75, 0x64, 0x6f, 0x5f, 0x71,
  0x63, 0x6f, 0x6e, 0x73, 0x74, 0x31, 0x35, 0x00, 0x04, 0x00, 0x00, 0x00,
  0x10, 0x00, 0x00, 0x00, 0x01, 0x00, 0x00, 0x00, 0x01, 0x00, 0x00, 0x00,
  0x08, 0x00, 0x00, 0x00, 0xd2, 0xe8, 0xff, 0xff, 0x00, 0x00, 0x00, 0x01,
  0x14, 0x00, 0x00, 0x00, 0xe8, 0x00, 0x00, 0x00, 0x11, 0x00, 0x00, 0x00,
  0x00, 0x00, 0x00, 0x02, 0xf4, 0x00, 0x00, 0x00, 0x4c, 0xe8, 0xff, 0xff,
  0x08, 0x00, 0x00, 0x00, 0x8c, 0x00, 0x00, 0x00, 0x10, 0x00, 0x00, 0x00,
  0x00, 0x00, 0x00, 0x00, 0x00, 0x00, 0x00, 0x00, 0x00, 0x00, 0x00, 0x00,
  0x00, 0x00, 0x00, 0x00, 0x00, 0x00, 0x00, 0x00, 0x00, 0x00, 0x00, 0x00,
  0x00, 0x00, 0x00, 0x00, 0x00, 0x00, 0x00, 0x00, 0x00, 0x00, 0x00, 0x00,
  0x00, 0x00, 0x00, 0x00, 0x00, 0x00, 0x00, 0x00, 0x00, 0x00, 0x00, 0x00,
  0x00, 0x00, 0x00, 0x00, 0x00, 0x00, 0x00, 0x00, 0x00, 0x00, 0x00, 0x00,
  0x00, 0x00, 0x00, 0x00, 0x00, 0x00, 0x00, 0x00, 0x00, 0x00, 0x00, 0x00,
  0x00, 0x00, 0x00, 0x00, 0x00, 0x00, 0x00, 0x00, 0x00, 0x00, 0x00, 0x00,
  0x00, 0x00, 0x00, 0x00, 0x00, 0x00, 0x00, 0x00, 0x00, 0x00, 0x00, 0x00,
  0x00, 0x00, 0x00, 0x00, 0x00, 0x00, 0x00, 0x00, 0x00, 0x00, 0x00, 0x00,
  0x00, 0x00, 0x00, 0x00, 0x00, 0x00, 0x00, 0x00, 0x00, 0x00, 0x00, 0x00,
  0x00, 0x00, 0x00, 0x00, 0x00, 0x00, 0x00, 0x00, 0x00, 0x00, 0x00, 0x00,
  0x10, 0x00, 0x00, 0x00, 0xf9, 0xe2, 0x3f, 0x39, 0x5e, 0xbe, 0x90, 0x39,
  0x58, 0xa6, 0x5c, 0x39, 0x80, 0x5c, 0x5c, 0x39, 0xe8, 0x74, 0x53, 0x39,
  0x4c, 0x79, 0x23, 0x39, 0x95, 0x25, 0x29, 0x39, 0xa2, 0xfc, 0x22, 0x39,
  0xa0, 0x34, 0x19, 0x39, 0xc6, 0xdb, 0x6b, 0x39, 0x17, 0xfb, 0x59, 0x39,
  0x17, 0x09, 0x42, 0x39, 0x29, 0x5d, 0x87, 0x39, 0xec, 0x87, 0x29, 0x39,
  0x35, 0x98, 0x45, 0x39, 0x42, 0xf1, 0x1b, 0x39, 0x13, 0x00, 0x00, 0x00,
  0x74, 0x66, 0x6c, 0x2e, 0x70, 0x73, 0x65, 0x75, 0x64, 0x6f, 0x5f, 0x71,
  0x63, 0x6f, 0x6e, 0x73, 0x74, 0x31, 0x34, 0x00, 0x01, 0x00, 0x00, 0x00,
  0x10, 0x00, 0x00, 0x00, 0xe6, 0xe9, 0xff, 0xff, 0x00, 0x00, 0x00, 0x01,
  0x14, 0x00, 0x00, 0x00, 0xec, 0x00, 0x00, 0x00, 0x10, 0x00, 0x00, 0x00,
  0x00, 0x00, 0x00, 0x09, 0xf8, 0x00, 0x00, 0x00, 0x1a, 0xf4, 0xff, 0xff,
  0x03, 0x00, 0x00, 0x00, 0x08, 0x00, 0x00, 0x00, 0x8c, 0x00, 0x00, 0x00,
  0x10, 0x00, 0x00, 0x00, 0x00, 0x00, 0x00, 0x00, 0x00, 0x00, 0x00, 0x00,
  0x00, 0x00, 0x00, 0x00, 0x00, 0x00, 0x00, 0x00, 0x00, 0x00, 0x00, 0x00,
  0x00, 0x00, 0x00, 0x00, 0x00, 0x00, 0x00, 0x00, 0x00, 0x00, 0x00, 0x00,
  0x00, 0x00, 0x00, 0x00, 0x00, 0x00, 0x00, 0x00, 0x00, 0x00, 0x00, 0x00,
  0x00, 0x00, 0x00, 0x00, 0x00, 0x00, 0x00, 0x00, 0x00, 0x00, 0x00, 0x00,
  0x00, 0x00, 0x00, 0x00, 0x00, 0x00, 0x00, 0x00, 0x00, 0x00, 0x00, 0x00,
  0x00, 0x00, 0x00, 0x00, 0x00, 0x00, 0x00, 0x00, 0x00, 0x00, 0x00, 0x00,
  0x00, 0x00, 0x00, 0x00, 0x00, 0x00, 0x00, 0x00, 0x00, 0x00, 0x00, 0x00,
  0x00, 0x00, 0x00, 0x00, 0x00, 0x00, 0x00, 0x00, 0x00, 0x00, 0x00, 0x00,
  0x00, 0x00, 0x00, 0x00, 0x00, 0x00, 0x00, 0x00, 0x00, 0x00, 0x00, 0x00,
  0x00, 0x00, 0x00, 0x00, 0x00, 0x00, 0x00, 0x00, 0x00, 0x00, 0x00, 0x00,
  0x00, 0x00, 0x00, 0x00, 0x10, 0x00, 0x00, 0x00, 0x7a, 0x97, 0x3f, 0x3c,
  0x96, 0x9c, 0x04, 0x3c, 0xfa, 0x62, 0x3d, 0x3c, 0x71, 0xc0, 0xae, 0x3b,
  0x77, 0x1b, 0xfe, 0x3b, 0x4a, 0xe3, 0x1f, 0x3c, 0x01, 0xb8, 0x05, 0x3c,
  0x59, 0x87, 0xd0, 0x3b, 0xf9, 0x01, 0x1a, 0x3c, 0xb0, 0x6e, 0x1e, 0x3c,
  0x01, 0x0f, 0x06, 0x3c, 0x34, 0x57, 0xe3, 0x3b, 0x95, 0xfd, 0xf9, 0x3b,
  0x59, 0x11, 0x9f, 0x3b, 0x7a, 0xad, 0x83, 0x3b, 0x04, 0xf9, 0xea, 0x3b,
  0x13, 0x00, 0x00, 0x00, 0x74, 0x66, 0x6c, 0x2e, 0x70, 0x73, 0x65, 0x75,
  0x64, 0x6f, 0x5f, 0x71, 0x63, 0x6f, 0x6e, 0x73, 0x74, 0x31, 0x33, 0x00,
  0x04, 0x00, 0x00, 0x00, 0x01, 0x00, 0x00, 0x00, 0x03, 0x00, 0x00, 0x00,
  0x03, 0x00, 0x00, 0x00, 0x10, 0x00, 0x00, 0x00, 0x0a, 0xeb, 0xff, 0xff,
  0x00, 0x00, 0x00, 0x01, 0x14, 0x00, 0x00, 0x00, 0xe4, 0x00, 0x00, 0x00,
  0x0f, 0x00, 0x00, 0x00, 0x00, 0x00, 0x00, 0x02, 0xf0, 0x00, 0x00, 0x00,
  0x84, 0xea, 0xff, 0xff, 0x08, 0x00, 0x00, 0x00, 0x88, 0x00, 0x00, 0x00,
  0x10, 0x00, 0x00, 0x00, 0x00, 0x00, 0x00, 0x00, 0x00, 0x00, 0x00, 0x00,
  0x00, 0x00, 0x00, 0x00, 0x00, 0x00, 0x00, 0x00, 0x00, 0x00, 0x00, 0x00,
  0x00, 0x00, 0x00, 0x00, 0x00, 0x00, 0x00, 0x00, 0x00, 0x00, 0x00, 0x00,
  0x00, 0x00, 0x00, 0x00, 0x00, 0x00, 0x00, 0x00, 0x00, 0x00, 0x00, 0x00,
  0x00, 0x00, 0x00, 0x00, 0x00, 0x00, 0x00, 0x00, 0x00, 0x00, 0x00, 0x00,
  0x00, 0x00, 0x00, 0x00, 0x00, 0x00, 0x00, 0x00, 0x00, 0x00, 0x00, 0x00,
  0x00, 0x00, 0x00, 0x00, 0x00, 0x00, 0x00, 0x00, 0x00, 0x00, 0x00, 0x00,
  0x00, 0x00, 0x00, 0x00, 0x00, 0x00, 0x00, 0x00, 0x00, 0x00, 0x00, 0x00,
  0x00, 0x00, 0x00, 0x00, 0x00, 0x00, 0x00, 0x00, 0x00, 0x00, 0x00, 0x00,
  0x00, 0x00, 0x00, 0x00, 0x00, 0x00, 0x00, 0x00, 0x00, 0x00, 0x00, 0x00,
  0x00, 0x00, 0x00, 0x00, 0x00, 0x00, 0x00, 0x00, 0x00, 0x00, 0x00, 0x00,
  0x10, 0x00, 0x00, 0x00, 0xde, 0x41, 0x90, 0x39, 0x94, 0xb2, 0x47, 0x39,
  0xd5, 0x98, 0x8e, 0x39, 0xe9, 0x93, 0x03, 0x39, 0xed, 0x53, 0x3f, 0x39,
  0xb5, 0xc5, 0x70, 0x39, 0x5f, 0x5d, 0x49, 0x39, 0x85, 0x02, 0x1d, 0x39,
  0xe1, 0xea, 0x67, 0x39, 0x9d, 0x94, 0x6e, 0x39, 0x62, 0xe0, 0x49, 0x39,
  0x94, 0x2c, 0x2b, 0x39, 0x6a, 0x3a, 0x3c, 0x39, 0x8f, 0x89, 0xef, 0x38,
  0x82, 0x4a, 0xc6, 0x38, 0xaf, 0xeb, 0x30, 0x39, 0x13, 0x00, 0x00, 0x00,
  0x74, 0x66, 0x6c, 0x2e, 0x70, 0x73, 0x65, 0x75, 0x64, 0x6f, 0x5f, 0x71,
  0x63, 0x6f, 0x6e, 0x73, 0x74, 0x31, 0x32, 0x00, 0x01, 0x00, 0x00, 0x00,
  0x10, 0x00, 0x00, 0x00, 0x1a, 0xec, 0xff, 0xff, 0x00, 0x00, 0x00, 0x01,
  0x14, 0x00, 0x00, 0x00, 0x48, 0x01, 0x00, 0x00, 0x0e, 0x00, 0x00, 0x00,
  0x00, 0x00, 0x00, 0x09, 0x54, 0x01, 0x00, 0x00, 0x94, 0xeb, 0xff, 0xff,
  0x08, 0x00, 0x00, 0x00, 0xcc, 0x00, 0x00, 0x00, 0x18, 0x00, 0x00, 0x00,
  0x00, 0x00, 0x00, 0x00, 0x00, 0x00, 0x00, 0x00, 0x00, 0x00, 0x00, 0x00,
  0x00, 0x00, 0x00, 0x00, 0x00, 0x00, 0x00, 0x00, 0x00, 0x00, 0x00, 0x00,
  0x00, 0x00, 0x00, 0x00, 0x00, 0x00, 0x00, 0x00, 0x00, 0x00, 0x00, 0x00,
  0x00, 0x00, 0x00, 0x00, 0x00, 0x00, 0x00, 0x00, 0x00, 0x00, 0x00, 0x00,
  0x00, 0x00, 0x00, 0x00, 0x00, 0x00, 0x00, 0x00, 0x00, 0x00, 0x00, 0x00,
  0x00, 0x00, 0x00, 0x00, 0x00, 0x00, 0x00, 0x00, 0x00, 0x00, 0x00, 0x00,
  0x00, 0x00, 0x00, 0x00, 0x00, 0x00, 0x00, 0x00, 0x00, 0x00, 0x00, 0x00,
  0x00, 0x00, 0x00, 0x00, 0x00, 0x00, 0x00, 0x00, 0x00, 0x00, 0x00, 0x00,
  0x00, 0x00, 0x00, 0x00, 0x00, 0x00, 0x00, 0x00, 0x00, 0x00, 0x00, 0x00,
  0x00, 0x00, 0x00, 0x00, 0x00, 0x00, 0x00, 0x00, 0x00, 0x00, 0x00, 0x00,
  0x00, 0x00, 0x00, 0x00, 0x00, 0x00, 0x00, 0x00, 0x00, 0x00, 0x00, 0x00,
  0x00, 0x00, 0x00, 0x00, 0x00, 0x00, 0x00, 0x00, 0x00, 0x00, 0x00, 0x00,
  0x00, 0x00, 0x00, 0x00, 0x00, 0x00, 0x00, 0x00, 0x00, 0x00, 0x00, 0x00,
  0x00, 0x00, 0x00, 0x00, 0x00, 0x00, 0x00, 0x00, 0x00, 0x00, 0x00, 0x00,
  0x00, 0x00, 0x00, 0x00, 0x00, 0x00, 0x00, 0x00, 0x00, 0x00, 0x00, 0x00,
  0x00, 0x00, 0x00, 0x00, 0x00, 0x00, 0x00, 0x00, 0x00, 0x00, 0x00, 0x00,
  0x00, 0x00, 0x00, 0x00, 0x18, 0x00, 0x00, 0x00, 0x5f, 0x8e, 0xc0, 0x3b,
  0xf3, 0xdc, 0x91, 0x3b, 0x29, 0x25, 0x98, 0x3b, 0xaa, 0x79, 0xf5, 0x3b,
  0xbb, 0x9b, 0xf1, 0x3b, 0x54, 0xc0, 0xc9, 0x3b, 0xe2, 0x3e, 0x7f, 0x3b,
  0xb8, 0xe9, 0x7f, 0x3b, 0xae, 0x92, 0x03, 0x3c, 0xeb, 0x01, 0xb0, 0x3b,
  0x8b, 0xa1, 0x9d, 0x3b, 0x7e, 0x45, 0x9c, 0x3b, 0xe8, 0x07, 0x7d, 0x3b,
  0xc4, 0x55, 0x9e, 0x3b, 0xeb, 0x8d, 0xea, 0x3b, 0xa2, 0xa3, 0xc3, 0x3b,
  0xe4, 0x7a, 0x52, 0x3b, 0x74, 0x02, 0x82, 0x3b, 0xc4, 0xa9, 0xa8, 0x3b,
  0xef, 0x35, 0xbb, 0x3b, 0xc5, 0x40, 0xca, 0x3b, 0x43, 0x84, 0x52, 0x3b,
  0xdf, 0x7b, 0xb4, 0x3b, 0xfa, 0x93, 0xb9, 0x3b, 0x13, 0x00, 0x00, 0x00,
  0x74, 0x66, 0x6c, 0x2e, 0x70, 0x73, 0x65, 0x75, 0x64, 0x6f, 0x5f, 0x71,
  0x63, 0x6f, 0x6e, 0x73, 0x74, 0x31, 0x31, 0x00, 0x04, 0x00, 0x00, 0x00,
  0x18, 0x00, 0x00, 0x00, 0x01, 0x00, 0x00, 0x00, 0x01, 0x00, 0x00, 0x00,
  0x10, 0x00, 0x00, 0x00, 0x9a, 0xed, 0xff, 0xff, 0x00, 0x00, 0x00, 0x01,
  0x14, 0x00, 0x00, 0x00, 0x48, 0x01, 0x00, 0x00, 0x0d, 0x00, 0x00, 0x00,
  0x00, 0x00, 0x00, 0x02, 0x54, 0x01, 0x00, 0x00, 0x14, 0xed, 0xff, 0xff,
  0x08, 0x00, 0x00, 0x00, 0xcc, 0x00, 0x00, 0x00, 0x18, 0x00, 0x00, 0x00,
  0x00, 0x00, 0x00, 0x00, 0x00, 0x00, 0x00, 0x00, 0x00, 0x00, 0x00, 0x00,
  0x00, 0x00, 0x00, 0x00, 0x00, 0x00, 0x00, 0x00, 0x00, 0x00, 0x00, 0x00,
  0x00, 0x00, 0x00, 0x00, 0x00, 0x00, 0x00, 0x00, 0x00, 0x00, 0x00, 0x00,
  0x00, 0x00, 0x00, 0x00, 0x00, 0x00, 0x00, 0x00, 0x00, 0x00, 0x00, 0x00,
  0x00, 0x00, 0x00, 0x00, 0x00, 0x00, 0x00, 0x00, 0x00, 0x00, 0x00, 0x00,
  0x00, 0x00, 0x00, 0x00, 0x00, 0x00, 0x00, 0x00, 0x00, 0x00, 0x00, 0x00,
  0x00, 0x00, 0x00, 0x00, 0x00, 0x00, 0x00, 0x00, 0x00, 0x00, 0x00, 0x00,
  0x00, 0x00, 0x00, 0x00, 0x00, 0x00, 0x00, 0x00, 0x00, 0x00, 0x00, 0x00,
  0x00, 0x00, 0x00, 0x00, 0x00, 0x00, 0x00, 0x00, 0x00, 0x00, 0x00, 0x00,
  0x00, 0x00, 0x00, 0x00, 0x00, 0x00, 0x00, 0x00, 0x00, 0x00, 0x00, 0x00,
  0x00, 0x00, 0x00, 0x00, 0x00, 0x00, 0x00, 0x00, 0x00, 0x00, 0x00, 0x00,
  0x00, 0x00, 0x00, 0x00, 0x00, 0x00, 0x00, 0x00, 0x00, 0x00, 0x00, 0x00,
  0x00, 0x00, 0x00, 0x00, 0x00, 0x00, 0x00, 0x00, 0x00, 0x00, 0x00, 0x00,
  0x00, 0x00, 0x00, 0x00, 0x00, 0x00, 0x00, 0x00, 0x00, 0x00, 0x00, 0x00,
  0x00, 0x00, 0x00, 0x00, 0x00, 0x00, 0x00, 0x00, 0x00, 0x00, 0x00, 0x00,
  0x00, 0x00, 0x00, 0x00, 0x00, 0x00, 0x00, 0x00, 0x00, 0x00, 0x00, 0x00,
  0x00, 0x00, 0x00, 0x00, 0x18, 0x00, 0x00, 0x00, 0xc3, 0xfb, 0x10, 0x39,
  0x14, 0xa7, 0xdb, 0x38, 0xdb, 0x1c, 0xe5, 0x38, 0x14, 0xd4, 0x38, 0x39,
  0xb7, 0xea, 0x35, 0x39, 0x27, 0xe8, 0x17, 0x39, 0x59, 0x2f, 0xc0, 0x38,
  0xfa, 0xaf, 0xc0, 0x38, 0x27, 0x22, 0x46, 0x39, 0xf6, 0x85, 0x04, 0x39,
  0xb0, 0x5f, 0xed, 0x38, 0x91, 0x53, 0xeb, 0x38, 0x73, 0x84, 0xbe, 0x38,
  0x15, 0x6f, 0xee, 0x38, 0x0c, 0x9b, 0x30, 0x39, 0x08, 0x4e, 0x13, 0x39,
  0xa6, 0x7a, 0x9e, 0x38, 0x76, 0xc7, 0xc3, 0x38, 0xa3, 0xfc, 0xfd, 0x38,
  0x69, 0xf5, 0x0c, 0x39, 0xdd, 0x48, 0x18, 0x39, 0xb4, 0x81, 0x9e, 0x38,
  0xcc, 0xe4, 0x07, 0x39, 0xb6, 0xba, 0x0b, 0x39, 0x13, 0x00, 0x00, 0x00,
  0x74, 0x66, 0x6c, 0x2e, 0x70, 0x73, 0x65, 0x75, 0x64, 0x6f, 0x5f, 0x71,
  0x63, 0x6f, 0x6e, 0x73, 0x74, 0x31, 0x30, 0x00, 0x01, 0x00, 0x00, 0x00,
  0x18, 0x00, 0x00, 0x00, 0x0e, 0xef, 0xff, 0xff, 0x00, 0x00, 0x00, 0x01,
  0x14, 0x00, 0x00, 0x00, 0x4c, 0x01, 0x00, 0x00, 0x0c, 0x00, 0x00, 0x00,
  0x00, 0x00, 0x00, 0x09, 0x58, 0x01, 0x00, 0x00, 0x42, 0xf9, 0xff, 0xff,
  0x03, 0x00, 0x00, 0x00, 0x08, 0x00, 0x00, 0x00, 0xcc, 0x00, 0x00, 0x00,
  0x18, 0x00, 0x00, 0x00, 0x00, 0x00, 0x00, 0x00, 0x00, 0x00, 0x00, 0x00,
  0x00, 0x00, 0x00, 0x00, 0x00, 0x00, 0x00, 0x00, 0x00, 0x00, 0x00, 0x00,
  0x00, 0x00, 0x00, 0x00, 0x00, 0x00, 0x00, 0x00, 0x00, 0x00, 0x00, 0x00,
  0x00, 0x00, 0x00, 0x00, 0x00, 0x00, 0x00, 0x00, 0x00, 0x00, 0x00, 0x00,
  0x00, 0x00, 0x00, 0x00, 0x00, 0x00, 0x00, 0x00, 0x00, 0x00, 0x00, 0x00,
  0x00, 0x00, 0x00, 0x00, 0x00, 0x00, 0x00, 0x00, 0x00, 0x00, 0x00, 0x00,
  0x00, 0x00, 0x00, 0x00, 0x00, 0x00, 0x00, 0x00, 0x00, 0x00, 0x00, 0x00,
  0x00, 0x00, 0x00, 0x00, 0x00, 0x00, 0x00, 0x00, 0x00, 0x00, 0x00, 0x00,
  0x00, 0x00, 0x00, 0x00, 0x00, 0x00, 0x00, 0x00, 0x00, 0x00, 0x00, 0x00,
  0x00, 0x00, 0x00, 0x00, 0x00, 0x00, 0x00, 0x00, 0x00, 0x00, 0x00, 0x00,
  0x00, 0x00, 0x00, 0x00, 0x00, 0x00, 0x00, 0x00, 0x00, 0x00, 0x00, 0x00,
  0x00, 0x00, 0x00, 0x00, 0x00, 0x00, 0x00, 0x00, 0x00, 0x00, 0x00, 0x00,
  0x00, 0x00, 0x00, 0x00, 0x00, 0x00, 0x00, 0x00, 0x00, 0x00, 0x00, 0x00,
  0x00, 0x00, 0x00, 0x00, 0x00, 0x00, 0x00, 0x00, 0x00, 0x00, 0x00, 0x00,
  0x00, 0x00, 0x00, 0x00, 0x00, 0x00, 0x00, 0x00, 0x00, 0x00, 0x00, 0x00,
  0x00, 0x00, 0x00, 0x00, 0x00, 0x00, 0x00, 0x00, 0x00, 0x00, 0x00, 0x00,
  0x00, 0x00, 0x00, 0x00, 0x00, 0x00, 0x00, 0x00, 0x18, 0x00, 0x00, 0x00,
  0xb9, 0xe2, 0x85, 0x3b, 0xe0, 0xc8, 0x44, 0x3c, 0x1f, 0x42, 0xda, 0x3b,
  0xb7, 0x58, 0xbb, 0x3b, 0x71, 0xf1, 0x87, 0x3b, 0xe3, 0xa3, 0xf7, 0x3b,
  0x01, 0x6b, 0x53, 0x3c, 0x1b, 0x44, 0xfd, 0x3b, 0x74, 0xeb, 0xb2, 0x3b,
  0x1a, 0x8a, 0xcb, 0x3b, 0xba, 0xf7, 0x04, 0x3c, 0xce, 0x43, 0x36, 0x3c,
  0x50, 0xaa, 0x32, 0x3c, 0xf5, 0x60, 0xf4, 0x3b, 0x5f, 0x2e, 0x09, 0x3c,
  0x05, 0x23, 0x2b, 0x3c, 0x7d, 0xfc, 0x4d, 0x3c, 0x00, 0xf8, 0x17, 0x3c,
  0xc8, 0x0d, 0x4a, 0x3c, 0x8d, 0x16, 0xee, 0x3b, 0x4a, 0x03, 0x08, 0x3c,
  0x84, 0xf0, 0x31, 0x3c, 0x03, 0x6a, 0x2a, 0x3c, 0xf0, 0xbf, 0xcc, 0x3b,
  0x12, 0x00, 0x00, 0x00, 0x74, 0x66, 0x6c, 0x2e, 0x70, 0x73, 0x65, 0x75,
  0x64, 0x6f, 0x5f, 0x71, 0x63, 0x6f, 0x6e, 0x73, 0x74, 0x39, 0x00, 0x00,
  0x04, 0x00, 0x00, 0x00, 0x01, 0x00, 0x00, 0x00, 0x03, 0x00, 0x00, 0x00,
  0x03, 0x00, 0x00, 0x00, 0x18, 0x00, 0x00, 0x00, 0x92, 0xf0, 0xff, 0xff,
  0x00, 0x00, 0x00, 0x01, 0x14, 0x00, 0x00, 0x00, 0x44, 0x01, 0x00, 0x00,
  0x0b, 0x00, 0x00, 0x00, 0x00, 0x00, 0x00, 0x02, 0x50, 0x01, 0x00, 0x00,
  0x0c, 0xf0, 0xff, 0xff, 0x08, 0x00, 0x00, 0x00, 0xc8, 0x00, 0x00, 0x00,
  0x18, 0x00, 0x00, 0x00, 0x00, 0x00, 0x00, 0x00, 0x00, 0x00, 0x00, 0x00,
  0x00, 0x00, 0x00, 0x00, 0x00, 0x00, 0x00, 0x00, 0x00, 0x00, 0x00, 0x00,
  0x00, 0x00, 0x00, 0x00, 0x00, 0x00, 0x00, 0x00, 0x00, 0x00, 0x00, 0x00,
  0x00, 0x00, 0x00, 0x00, 0x00, 0x00, 0x00, 0x00, 0x00, 0x00, 0x00, 0x00,
  0x00, 0x00, 0x00, 0x00, 0x00, 0x00, 0x00, 0x00, 0x00, 0x00, 0x00, 0x00,
  0x00, 0x00, 0x00, 0x00, 0x00, 0x00, 0x00, 0x00, 0x00, 0x00, 0x00, 0x00,
  0x00, 0x00, 0x00, 0x00, 0x00, 0x00, 0x00, 0x00, 0x00, 0x00, 0x00, 0x00,
  0x00, 0x00, 0x00, 0x00, 0x00, 0x00, 0x00, 0x00, 0x00, 0x00, 0x00, 0x00,
  0x00, 0x00, 0x00, 0x00, 0x00, 0x00, 0x00, 0x00, 0x00, 0x00, 0x00, 0x00,
  0x00, 0x00, 0x00, 0x00, 0x00, 0x00, 0x00, 0x00, 0x00, 0x00, 0x00, 0x00,
  0x00, 0x00, 0x00, 0x00, 0x00, 0x00, 0x00, 0x00, 0x00, 0x00, 0x00, 0x00,
  0x00, 0x00, 0x00, 0x00, 0x00, 0x00, 0x00, 0x00, 0x00, 0x00, 0x00, 0x00,
  0x00, 0x00, 0x00, 0x00, 0x00, 0x00, 0x00, 0x00, 0x00, 0x00, 0x00, 0x00,
  0x00, 0x00, 0x00, 0x00, 0x00, 0x00, 0x00, 0x00, 0x00, 0x00, 0x00, 0x00,
  0x00, 0x00, 0x00, 0x00, 0x00, 0x00, 0x00, 0x00, 0x00, 0x00, 0x00, 0x00,
  0x00, 0x00, 0x00, 0x00, 0x00, 0x00, 0x00, 0x00, 0x00, 0x00, 0x00, 0x00,
  0x00, 0x00, 0x00, 0x00, 0x18, 0x00, 0x00, 0x00, 0xb3, 0x9d, 0xc9, 0x38,
  0xd3, 0x2a, 0x94, 0x39, 0xed, 0x55, 0x24, 0x39, 0x99, 0x0f, 0x0d, 0x39,
  0xe1, 0xb6, 0xcc, 0x38, 0x60, 0x75, 0x3a, 0x39, 0x70, 0x2f, 0x9f, 0x39,
  0xc6, 0xb1, 0x3e, 0x39, 0x4e, 0xb7, 0x06, 0x39, 0xd5, 0x40, 0x19, 0x39,
  0xd3, 0x3b, 0x48, 0x39, 0x17, 0x3c, 0x89, 0x39, 0x42, 0x86, 0x86, 0x39,
  0xb9, 0x00, 0x38, 0x39, 0x23, 0x94, 0x4e, 0x39, 0x1f, 0xdb, 0x80, 0x39,
  0x76, 0x18, 0x9b, 0x39, 0xd9, 0xd8, 0x64, 0x39, 0x79, 0x22, 0x98, 0x39,
  0x2e, 0x44, 0x33, 0x39, 0xc1, 0xd1, 0x4c, 0x39, 0x5e, 0xfa, 0x85, 0x39,
  0xd2, 0x4f, 0x80, 0x39, 0x1e, 0x2a, 0x1a, 0x39, 0x12, 0x00, 0x00, 0x00,
  0x74, 0x66, 0x6c, 0x2e, 0x70, 0x73, 0x65, 0x75, 0x64, 0x6f, 0x5f, 0x71,
  0x63, 0x6f, 0x6e, 0x73, 0x74, 0x38, 0x00, 0x00, 0x01, 0x00, 0x00, 0x00,
  0x18, 0x00, 0x00, 0x00, 0x02, 0xf2, 0xff, 0xff, 0x00, 0x00, 0x00, 0x01,
  0x14, 0x00, 0x00, 0x00, 0xa8, 0x01, 0x00, 0x00, 0x0a, 0x00, 0x00, 0x00,
  0x00, 0x00, 0x00, 0x09, 0xb4, 0x01, 0x00, 0x00, 0x7c, 0xf1, 0xff, 0xff,
  0x08, 0x00, 0x00, 0x00, 0x0c, 0x01, 0x00, 0x00, 0x20, 0x00, 0x00, 0x00,
  0x00, 0x00, 0x00, 0x00, 0x00, 0x00, 0x00, 0x00, 0x00, 0x00, 0x00, 0x00,
  0x00, 0x00, 0x00, 0x00, 0x00, 0x00, 0x00, 0x00, 0x00, 0x00, 0x00, 0x00,
  0x00, 0x00, 0x00, 0x00, 0x00, 0x00, 0x00, 0x00, 0x00, 0x00, 0x00, 0x00,
  0x00, 0x00, 0x00, 0x00, 0x00, 0x00, 0x00, 0x00, 0x00, 0x00, 0x00, 0x00,
  0x00, 0x00, 0x00, 0x00, 0x00, 0x00, 0x00, 0x00, 0x00, 0x00, 0x00, 0x00,
  0x00, 0x00, 0x00, 0x00, 0x00, 0x00, 0x00, 0x00, 0x00, 0x00, 0x00, 0x00,
  0x00, 0x00, 0x00, 0x00, 0x00, 0x00, 0x00, 0x00, 0x00, 0x00, 0x00, 0x00,
  0x00, 0x00, 0x00, 0x00, 0x00, 0x00, 0x00, 0x00, 0x00, 0x00, 0x00, 0x00,
  0x00, 0x00, 0x00, 0x00, 0x00, 0x00, 0x00, 0x00, 0x00, 0x00, 0x00, 0x00,
  0x00, 0x00, 0x00, 0x00, 0x00, 0x00, 0x00, 0x00, 0x00, 0x00, 0x00, 0x00,
  0x00, 0x00, 0x00, 0x00, 0x00, 0x00, 0x00, 0x00, 0x00, 0x00, 0x00, 0x00,
  0x00, 0x00, 0x00, 0x00, 0x00, 0x00, 0x00, 0x00, 0x00, 0x00, 0x00, 0x00,
  0x00, 0x00, 0x00, 0x00, 0x00, 0x00, 0x00, 0x00, 0x00, 0x00, 0x00, 0x00,
  0x00, 0x00, 0x00, 0x00, 0x00, 0x00, 0x00, 0x00, 0x00, 0x00, 0x00, 0x00,
  0x00, 0x00, 0x00, 0x00, 0x00, 0x00, 0x00, 0x00, 0x00, 0x00, 0x00, 0x00,
  0x00, 0x00, 0x00, 0x00, 0x00, 0x00, 0x00, 0x00, 0x00, 0x00, 0x00, 0x00,
  0x00, 0x00, 0x00, 0x00, 0x00, 0x00, 0x00, 0x00, 0x00, 0x00, 0x00, 0x00,
  0x00, 0x00, 0x00, 0x00, 0x00, 0x00, 0x00, 0x00, 0x00, 0x00, 0x00, 0x00,
  0x00, 0x00, 0x00, 0x00, 0x00, 0x00, 0x00, 0x00, 0x00, 0x00, 0x00, 0x00,
  0x00, 0x00, 0x00, 0x00, 0x00, 0x00, 0x00, 0x00, 0x00, 0x00, 0x00, 0x00,
  0x00, 0x00, 0x00, 0x00, 0x00, 0x00, 0x00, 0x00, 0x00, 0x00, 0x00, 0x00,
  0x00, 0x00, 0x00, 0x00, 0x00, 0x00, 0x00, 0x00, 0x20, 0x00, 0x00, 0x00,
  0xe8, 0x1a, 0xa5, 0x3b, 0xca, 0x02, 0x06, 0x3c, 0x68, 0xf0, 0xab, 0x3b,
  0x6a, 0x18, 0xc7, 0x3b, 0x51, 0x74, 0xaf, 0x3b, 0x44, 0xef, 0x8d, 0x3b,
  0x38, 0x8d, 0xc8, 0x3b, 0x51, 0x11, 0xf9, 0x3b, 0xe8, 0xfd, 0xc8, 0x3b,
  0x6c, 0x69, 0xdb, 0x3b, 0x51, 0x4d, 0xdf, 0x3b, 0x62, 0x14, 0x0a, 0x3c,
  0x72, 0x71, 0xe3, 0x3b, 0xb0, 0xa7, 0x7b, 0x3b, 0x84, 0x96, 0xbb, 0x3b,
  0xc1, 0x3b, 0x8a, 0x3b, 0x71, 0x1d, 0xe5, 0x3b, 0xb5, 0x53, 0x6c, 0x3b,
  0x9b, 0x71, 0xed, 0x3b, 0x09, 0x24, 0x97, 0x3b, 0xfb, 0x98, 0x9d, 0x3b,
  0x51, 0x6d, 0xbb, 0x3b, 0xfd, 0xc2, 0xc7, 0x3b, 0x64, 0xd8, 0xba, 0x3b,
  0x96, 0xc0, 0xe5, 0x3b, 0xbb, 0xe5, 0x0e, 0x3c, 0xa7, 0xbd, 0xa1, 0x3b,
  0x32, 0x22, 0xb0, 0x3b, 0xd3, 0x4c, 0xdd, 0x3b, 0x6d, 0x71, 0x9a, 0x3b,
  0x83, 0x06, 0xc4, 0x3b, 0x39, 0xbe, 0xd4, 0x3b, 0x12, 0x00, 0x00, 0x00,
  0x74, 0x66, 0x6c, 0x2e, 0x70, 0x73, 0x65, 0x75, 0x64, 0x6f, 0x5f, 0x71,
  0x63, 0x6f, 0x6e, 0x73, 0x74, 0x37, 0x00, 0x00, 0x04, 0x00, 0x00, 0x00,
  0x20, 0x00, 0x00, 0x00, 0x01, 0x00, 0x00, 0x00, 0x01, 0x00, 0x00, 0x00,
  0x18, 0x00, 0x00, 0x00, 0xe2, 0xf3, 0xff, 0xff, 0x00, 0x00, 0x00, 0x01,
  0x14, 0x00, 0x00, 0x00, 0xa4, 0x01, 0x00, 0x00, 0x09, 0x00, 0x00, 0x00,
  0x00, 0x00, 0x00, 0x02, 0xb0, 0x01, 0x00, 0x00, 0x5c, 0xf3, 0xff, 0xff,
  0x08, 0x00, 0x00, 0x00, 0x08, 0x01, 0x00, 0x00, 0x20, 0x00, 0x00, 0x00,
  0x00, 0x00, 0x00, 0x00, 0x00, 0x00, 0x00, 0x00, 0x00, 0x00, 0x00, 0x00,
  0x00, 0x00, 0x00, 0x00, 0x00, 0x00, 0x00, 0x00, 0x00, 0x00, 0x00, 0x00,
  0x00, 0x00, 0x00, 0x00, 0x00, 0x00, 0x00, 0x00, 0x00, 0x00, 0x00, 0x00,
  0x00, 0x00, 0x00, 0x00, 0x00, 0x00, 0x00, 0x00, 0x00, 0x00, 0x00, 0x00,
  0x00, 0x00, 0x00, 0x00, 0x00, 0x00, 0x00, 0x00, 0x00, 0x00, 0x00, 0x00,
  0x00, 0x00, 0x00, 0x00, 0x00, 0x00, 0x00, 0x00, 0x00, 0x00, 0x00, 0x00,
  0x00, 0x00, 0x00, 0x00, 0x00, 0x00, 0x00, 0x00, 0x00, 0x00, 0x00, 0x00,
  0x00, 0x00, 0x00, 0x00, 0x00, 0x00, 0x00, 0x00, 0x00, 0x00, 0x00, 0x00,
  0x00, 0x00, 0x00, 0x00, 0x00, 0x00, 0x00, 0x00, 0x00, 0x00, 0x00, 0x00,
  0x00, 0x00, 0x00, 0x00, 0x00, 0x00, 0x00, 0x00, 0x00, 0x00, 0x00, 0x00,
  0x00, 0x00, 0x00, 0x00, 0x00, 0x00, 0x00, 0x00, 0x00, 0x00, 0x00, 0x00,
  0x00, 0x00, 0x00, 0x00, 0x00, 0x00, 0x00, 0x00, 0x00, 0x00, 0x00, 0x00,
  0x00, 0x00, 0x00, 0x00, 0x00, 0x00, 0x00, 0x00, 0x00, 0x00, 0x00, 0x00,
  0x00, 0x00, 0x00, 0x00, 0x00, 0x00, 0x00, 0x00, 0x00, 0x00, 0x00, 0x00,
  0x00, 0x00, 0x00, 0x00, 0x00, 0x00, 0x00, 0x00, 0x00, 0x00, 0x00, 0x00,
  0x00, 0x00, 0x00, 0x00, 0x00, 0x00, 0x00, 0x00, 0x00, 0x00, 0x00, 0x00,
  0x00, 0x00, 0x00, 0x00, 0x00, 0x00, 0x00, 0x00, 0x00, 0x00, 0x00, 0x00,
  0x00, 0x00, 0x00, 0x00, 0x00, 0x00, 0x00, 0x00, 0x00, 0x00, 0x00, 0x00,
  0x00, 0x00, 0x00, 0x00, 0x00, 0x00, 0x00, 0x00, 0x00, 0x00, 0x00, 0x00,
  0x00, 0x00, 0x00, 0x00, 0x00, 0x00, 0x00, 0x00, 0x00, 0x00, 0x00, 0x00,
  0x00, 0x00, 0x00, 0x00, 0x00, 0x00, 0x00, 0x00, 0x00, 0x00, 0x00, 0x00,
  0x00, 0x00, 0x00, 0x00, 0x20, 0x00, 0x00, 0x00, 0xfd, 0xa0, 0xf8, 0x38,
  0xfd, 0xcd, 0x49, 0x39, 0xc4, 0x75, 0x01, 0x39, 0x38, 0xe8, 0x15, 0x39,
  0x58, 0x1b, 0x04, 0x39, 0xa3, 0xbc, 0xd5, 0x38, 0xeb, 0x00, 0x17, 0x39,
  0x86, 0x88, 0x3b, 0x39, 0xc4, 0x55, 0x17, 0x39, 0x45, 0x34, 0x25, 0x39,
  0x1f, 0x22, 0x28, 0x39, 0x82, 0xee, 0x4f, 0x39, 0x56, 0x40, 0x2b, 0x39,
  0x3f, 0x7b, 0xbd, 0x38, 0x21, 0x3e, 0x0d, 0x39, 0xcc, 0x29, 0xd0, 0x38,
  0x98, 0x82, 0x2c, 0x39, 0xb9, 0xf0, 0xb1, 0x38, 0xfc, 0xc7, 0x32, 0x39,
  0xa7, 0x99, 0xe3, 0x38, 0xcc, 0x52, 0xed, 0x38, 0x1c, 0x1f, 0x0d, 0x39,
  0xa7, 0x68, 0x16, 0x39, 0xfa, 0xae, 0x0c, 0x39, 0x6e, 0xfd, 0x2c, 0x39,
  0xc9, 0x2f, 0x57, 0x39, 0x0b, 0x90, 0xf3, 0x38, 0x44, 0x9e, 0x04, 0x39,
  0x3f, 0xa0, 0x26, 0x39, 0xb7, 0x92, 0xe8, 0x38, 0x7b, 0x98, 0x13, 0x39,
  0xda, 0x2e, 0x20, 0x39, 0x12, 0x00, 0x00, 0x00, 0x74, 0x66, 0x6c, 0x2e,
  0x70, 0x73, 0x65, 0x75, 0x64, 0x6f, 0x5f, 0x71, 0x63, 0x6f, 0x6e, 0x73,
  0x74, 0x36, 0x00, 0x00, 0x01, 0x00, 0x00, 0x00, 0x20, 0x00, 0x00, 0x00,
  0x00, 0x00, 0x16, 0x00, 0x1e, 0x00, 0x18, 0x00, 0x17, 0x00, 0x10, 0x00,
  0x0c, 0x00, 0x08, 0x00, 0x00, 0x00, 0x00, 0x00, 0x00, 0x00, 0x07, 0x00,
  0x16, 0x00, 0x00, 0x00, 0x00, 0x00, 0x00, 0x01, 0x28, 0x00, 0x00, 0x00,
  0xc0, 0x01, 0x00, 0x00, 0x08, 0x00, 0x00, 0x00, 0x00, 0x00, 0x00, 0x09,
  0xcc, 0x01, 0x00, 0x00, 0x00, 0x00, 0x12, 0x00, 0x10, 0x00, 0x00, 0x00,
  0x00, 0x00, 0x0c, 0x00, 0x08, 0x00, 0x00, 0x00, 0x00, 0x00, 0x04, 0x00,
  0x12, 0x00, 0x00, 0x00, 0x03, 0x00, 0x00, 0x00, 0x08, 0x00, 0x00, 0x00,
  0x0c, 0x01, 0x00, 0x00, 0x20, 0x00, 0x00, 0x00, 0x00, 0x00, 0x00, 0x00,
  0x00, 0x00, 0x00, 0x00, 0x00, 0x00, 0x00, 0x00, 0x00, 0x00, 0x00, 0x00,
  0x00, 0x00, 0x00, 0x00, 0x00, 0x00, 0x00, 0x00, 0x00, 0x00, 0x00, 0x00,
  0x00, 0x00, 0x00, 0x00, 0x00, 0x00, 0x00, 0x00, 0x00, 0x00, 0x00, 0x00,
  0x00, 0x00, 0x00, 0x00, 0x00, 0x00, 0x00, 0x00, 0x00, 0x00, 0x00, 0x00,
  0x00, 0x00, 0x00, 0x00, 0x00, 0x00, 0x00, 0x00, 0x00, 0x00, 0x00, 0x00,
  0x00, 0x00, 0x00, 0x00, 0x00, 0x00, 0x00, 0x00, 0x00, 0x00, 0x00, 0x00,
  0x00, 0x00, 0x00, 0x00, 0x00, 0x00, 0x00, 0x00, 0x00, 0x00, 0x00, 0x00,
  0x00, 0x00, 0x00, 0x00, 0x00, 0x00, 0x00, 0x00, 0x00, 0x00, 0x00, 0x00,
  0x00, 0x00, 0x00, 0x00, 0x00, 0x00, 0x00, 0x00, 0x00, 0x00, 0x00, 0x00,
  0x00, 0x00, 0x00, 0x00, 0x00, 0x00, 0x00, 0x00, 0x00, 0x00, 0x00, 0x00,
  0x00, 0x00, 0x00, 0x00, 0x00, 0x00, 0x00, 0x00, 0x00, 0x00, 0x00, 0x00,
  0x00, 0x00, 0x00, 0x00, 0x00, 0x00, 0x00, 0x00, 0x00, 0x00, 0x00, 0x00,
  0x00, 0x00, 0x00, 0x00, 0x00, 0x00, 0x00, 0x00, 0x00, 0x00, 0x00, 0x00,
  0x00, 0x00, 0x00, 0x00, 0x00, 0x00, 0x00, 0x00, 0x00, 0x00, 0x00, 0x00,
  0x00, 0x00, 0x00, 0x00, 0x00, 0x00, 0x00, 0x00, 0x00, 0x00, 0x00, 0x00,
  0x00, 0x00, 0x00, 0x00, 0x00, 0x00, 0x00, 0x00, 0x00, 0x00, 0x00, 0x00,
  0x00, 0x00, 0x00, 0x00, 0x00, 0x00, 0x00, 0x00, 0x00, 0x00, 0x00, 0x00,
  0x00, 0x00, 0x00, 0x00, 0x00, 0x00, 0x00, 0x00, 0x00, 0x00, 0x00, 0x00,
  0x00, 0x00, 0x00, 0x00, 0x00, 0x00, 0x00, 0x00, 0x00, 0x00, 0x00, 0x00,
  0x00, 0x00, 0x00, 0x00, 0x00, 0x00, 0x00, 0x00, 0x00, 0x00, 0x00, 0x00,
  0x00, 0x00, 0x00, 0x00, 0x00, 0x00, 0x00, 0x00, 0x00, 0x00, 0x00, 0x00,
  0x00, 0x00, 0x00, 0x00, 0x20, 0x00, 0x00, 0x00, 0x02, 0xad, 0xe3, 0x3b,
  0x46, 0x96, 0xea, 0x3b, 0x99, 0x63, 0xd4, 0x3b, 0x03, 0xee, 0xa4, 0x3b,
  0x8d, 0xb8, 0x73, 0x3c, 0xe1, 0x38, 0x78, 0x3b, 0xbf, 0x87, 0x88, 0x3b,
  0xa2, 0xdb, 0x0b, 0x3c, 0xe2, 0xdb, 0x1c, 0x3c, 0x82, 0x08, 0x40, 0x3c,
  0x51, 0x56, 0xf3, 0x3b, 0x81, 0xa1, 0xe3, 0x3b, 0xd6, 0xd0, 0xe6, 0x3b,
  0xaa, 0x00, 0x3e, 0x3c, 0x52, 0x29, 0xbb, 0x3b, 0x2a, 0x22, 0x66, 0x3c,
  0x7f, 0x67, 0xf4, 0x3b, 0xc7, 0x74, 0x31, 0x3c, 0xe9, 0xa4, 0xa0, 0x3b,
  0x96, 0x90, 0x34, 0x3c, 0x7e, 0x95, 0x0b, 0x3c, 0xd7, 0x90, 0x39, 0x3c,
  0xda, 0xe7, 0x0d, 0x3c, 0xab, 0x5c, 0xf9, 0x3b, 0xd0, 0x75, 0x95, 0x3b,
  0x92, 0x14, 0x64, 0x3c, 0x2e, 0x51, 0x1e, 0x3c, 0x84, 0x64, 0x3b, 0x3c,
  0x3a, 0x45, 0xd5, 0x3b, 0xab, 0x31, 0xf2, 0x3b, 0xc8, 0xa0, 0xb6, 0x3b,
  0x18, 0x61, 0x12, 0x3c, 0x12, 0x00, 0x00, 0x00, 0x74, 0x66, 0x6c, 0x2e,
  0x70, 0x73, 0x65, 0x75, 0x64, 0x6f, 0x5f, 0x71, 0x63, 0x6f, 0x6e, 0x73,
  0x74, 0x35, 0x00, 0x00, 0x04, 0x00, 0x00, 0x00, 0x01, 0x00, 0x00, 0x00,
  0x03, 0x00, 0x00, 0x00, 0x03, 0x00, 0x00, 0x00, 0x20, 0x00, 0x00, 0x00,
  0xc2, 0xf7, 0xff, 0xff, 0x00, 0x00, 0x00, 0x01, 0x14, 0x00, 0x00, 0x00,
  0xa4, 0x01, 0x00, 0x00, 0x07, 0x00, 0x00, 0x00, 0x00, 0x00, 0x00, 0x02,
  0xb0, 0x01, 0x00, 0x00, 0x3c, 0xf7, 0xff, 0xff, 0x08, 0x00, 0x00, 0x00,
  0x08, 0x01, 0x00, 0x00, 0x20, 0x00, 0x00, 0x00, 0x00, 0x00, 0x00, 0x00,
  0x00, 0x00, 0x00, 0x00, 0x00, 0x00, 0x00, 0x00, 0x00, 0x00, 0x00, 0x00,
  0x00, 0x00, 0x00, 0x00, 0x00, 0x00, 0x00, 0x00, 0x00, 0x00, 0x00, 0x00,
  0x00, 0x00, 0x00, 0x00, 0x00, 0x00, 0x00, 0x00, 0x00, 0x00, 0x00, 0x00,
  0x00, 0x00, 0x00, 0x00, 0x00, 0x00, 0x00, 0x00, 0x00, 0x00, 0x00, 0x00,
  0x00, 0x00, 0x00, 0x00, 0x00, 0x00, 0x00, 0x00, 0x00, 0x00, 0x00, 0x00,
  0x00, 0x00, 0x00, 0x00, 0x00, 0x00, 0x00, 0x00, 0x00, 0x00, 0x00, 0x00,
  0x00, 0x00, 0x00, 0x00, 0x00, 0x00, 0x00, 0x00, 0x00, 0x00, 0x00, 0x00,
  0x00, 0x00, 0x00, 0x00, 0x00, 0x00, 0x00, 0x00, 0x00, 0x00, 0x00, 0x00,
  0x00, 0x00, 0x00, 0x00, 0x00, 0x00, 0x00, 0x00, 0x00, 0x00, 0x00, 0x00,
  0x00, 0x00, 0x00, 0x00, 0x00, 0x00, 0x00, 0x00, 0x00, 0x00, 0x00, 0x00,
  0x00, 0x00, 0x00, 0x00, 0x00, 0x00, 0x00, 0x00, 0x00, 0x00, 0x00, 0x00,
  0x00, 0x00, 0x00, 0x00, 0x00, 0x00, 0x00, 0x00, 0x00, 0x00, 0x00, 0x00,
  0x00, 0x00, 0x00, 0x00, 0x00, 0x00, 0x00, 0x00, 0x00, 0x00, 0x00, 0x00,
  0x00, 0x00, 0x00, 0x00, 0x00, 0x00, 0x00, 0x00, 0x00, 0x00, 0x00, 0x00,
  0x00, 0x00, 0x00, 0x00, 0x00, 0x00, 0x00, 0x00, 0x00, 0x00, 0x00, 0x00,
  0x00, 0x00, 0x00, 0x00, 0x00, 0x00, 0x00, 0x00, 0x00, 0x00, 0x00, 0x00,
  0x00, 0x00, 0x00, 0x00, 0x00, 0x00, 0x00, 0x00, 0x00, 0x00, 0x00, 0x00,
  0x00, 0x00, 0x00, 0x00, 0x00, 0x00, 0x00, 0x00, 0x00, 0x00, 0x00, 0x00,
  0x00, 0x00, 0x00, 0x00, 0x00, 0x00, 0x00, 0x00, 0x00, 0x00, 0x00, 0x00,
  0x00, 0x00, 0x00, 0x00, 0x00, 0x00, 0x00, 0x00, 0x00, 0x00, 0x00, 0x00,
  0x00, 0x00, 0x00, 0x00, 0x00, 0x00, 0x00, 0x00, 0x00, 0x00, 0x00, 0x00,
  0x20, 0x00, 0x00, 0x00, 0x2f, 0x6d, 0x2b, 0x39, 0x56, 0xa1, 0x30, 0x39,
  0x9e, 0xea, 0x1f, 0x39, 0x62, 0x5d, 0xf8, 0x38, 0xec, 0x81, 0xb7, 0x39,
  0x8f, 0xe5, 0xba, 0x38, 0x38, 0x99, 0xcd, 0x38, 0x0f, 0x9c, 0x52, 0x39,
  0x09, 0x36, 0x6c, 0x39, 0xf9, 0x96, 0x90, 0x39, 0xf5, 0x37, 0x37, 0x39,
  0x85, 0x64, 0x2b, 0x39, 0x6b, 0xca, 0x2d, 0x39, 0x8f, 0x0f, 0x8f, 0x39,
  0xea, 0xeb, 0x0c, 0x39, 0xe7, 0x46, 0xad, 0x39, 0xa5, 0x05, 0x38, 0x39,
  0x33, 0x9d, 0x85, 0x39, 0x47, 0xe9, 0xf1, 0x38, 0x65, 0xf4, 0x87, 0x39,
  0x70, 0x32, 0x52, 0x39, 0x5a, 0xb8, 0x8b, 0x39, 0x79, 0xb1, 0x55, 0x39,
  0x42, 0xc1, 0x3b, 0x39, 0xca, 0x11, 0xe1, 0x38, 0x29, 0xbb, 0xab, 0x39,
  0x2d, 0x68, 0x6e, 0x39, 0x7c, 0x18, 0x8d, 0x39, 0x80, 0x94, 0x20, 0x39,
  0x9c, 0x5b, 0x36, 0x39, 0x18, 0x82, 0x09, 0x39, 0x12, 0x6e, 0x5c, 0x39,
  0x12, 0x00, 0x00, 0x00, 0x74, 0x66, 0x6c, 0x2e, 0x70, 0x73, 0x65, 0x75,
  0x64, 0x6f, 0x5f, 0x71, 0x63, 0x6f, 0x6e, 0x73, 0x74, 0x34, 0x00, 0x00,
  0x01, 0x00, 0x00, 0x00, 0x20, 0x00, 0x00, 0x00, 0x92, 0xf9, 0xff, 0xff,
  0x00, 0x00, 0x00, 0x01, 0x14, 0x00, 0x00, 0x00, 0x68, 0x02, 0x00, 0x00,
  0x06, 0x00, 0x00, 0x00, 0x00, 0x00, 0x00, 0x09, 0x74, 0x02, 0x00, 0x00,
  0x0c, 0xf9, 0xff, 0xff, 0x08, 0x00, 0x00, 0x00, 0x8c, 0x01, 0x00, 0x00,
  0x30, 0x00, 0x00, 0x00, 0x00, 0x00, 0x00, 0x00, 0x00, 0x00, 0x00, 0x00,
  0x00, 0x00, 0x00, 0x00, 0x00, 0x00, 0x00, 0x00, 0x00, 0x00, 0x00, 0x00,
  0x00, 0x00, 0x00, 0x00, 0x00, 0x00, 0x00, 0x00, 0x00, 0x00, 0x00, 0x00,
  0x00, 0x00, 0x00, 0x00, 0x00, 0x00, 0x00, 0x00, 0x00, 0x00, 0x00, 0x00,
  0x00, 0x00, 0x00, 0x00, 0x00, 0x00, 0x00, 0x00, 0x00, 0x00, 0x00, 0x00,
  0x00, 0x00, 0x00, 0x00, 0x00, 0x00, 0x00, 0x00, 0x00, 0x00, 0x00, 0x00,
  0x00, 0x00, 0x00, 0x00, 0x00, 0x00, 0x00, 0x00, 0x00, 0x00, 0x00, 0x00,
  0x00, 0x00, 0x00, 0x00, 0x00, 0x00, 0x00, 0x00, 0x00, 0x00, 0x00, 0x00,
  0x00, 0x00, 0x00, 0x00, 0x00, 0x00, 0x00, 0x00, 0x00, 0x00, 0x00, 0x00,
  0x00, 0x00, 0x00, 0x00, 0x00, 0x00, 0x00, 0x00, 0x00, 0x00, 0x00, 0x00,
  0x00, 0x00, 0x00, 0x00, 0x00, 0x00, 0x00, 0x00, 0x00, 0x00, 0x00, 0x00,
  0x00, 0x00, 0x00, 0x00, 0x00, 0x00, 0x00, 0x00, 0x00, 0x00, 0x00, 0x00,
  0x00, 0x00, 0x00, 0x00, 0x00, 0x00, 0x00, 0x00, 0x00, 0x00, 0x00, 0x00,
  0x00, 0x00, 0x00, 0x00, 0x00, 0x00, 0x00, 0x00, 0x00, 0x00, 0x00, 0x00,
  0x00, 0x00, 0x00, 0x00, 0x00, 0x00, 0x00, 0x00, 0x00, 0x00, 0x00, 0x00,
  0x00, 0x00, 0x00, 0x00, 0x00, 0x00, 0x00, 0x00, 0x00, 0x00, 0x00, 0x00,
  0x00, 0x00, 0x00, 0x00, 0x00, 0x00, 0x00, 0x00, 0x00, 0x00, 0x00, 0x00,
  0x00, 0x00, 0x00, 0x00, 0x00, 0x00, 0x00, 0x00, 0x00, 0x00, 0x00, 0x00,
  0x00, 0x00, 0x00, 0x00, 0x00, 0x00, 0x00, 0x00, 0x00, 0x00, 0x00, 0x00,
  0x00, 0x00, 0x00, 0x00, 0x00, 0x00, 0x00, 0x00, 0x00, 0x00, 0x00, 0x00,
  0x00, 0x00, 0x00, 0x00, 0x00, 0x00, 0x00, 0x00, 0x00, 0x00, 0x00, 0x00,
  0x00, 0x00, 0x00, 0x00, 0x00, 0x00, 0x00, 0x00, 0x00, 0x00, 0x00, 0x00,
  0x00, 0x00, 0x00, 0x00, 0x00, 0x00, 0x00, 0x00, 0x00, 0x00, 0x00, 0x00,
  0x00, 0x00, 0x00, 0x00, 0x00, 0x00, 0x00, 0x00, 0x00, 0x00, 0x00, 0x00,
  0x00, 0x00, 0x00, 0x00, 0x00, 0x00, 0x00, 0x00, 0x00, 0x00, 0x00, 0x00,
  0x00, 0x00, 0x00, 0x00, 0x00, 0x00, 0x00, 0x00, 0x00, 0x00, 0x00, 0x00,
  0x00, 0x00, 0x00, 0x00, 0x00, 0x00, 0x00, 0x00, 0x00, 0x00, 0x00, 0x00,
  0x00, 0x00, 0x00, 0x00, 0x00, 0x00, 0x00, 0x00, 0x00, 0x00, 0x00, 0x00,
  0x00, 0x00, 0x00, 0x00, 0x00, 0x00, 0x00, 0x00, 0x00, 0x00, 0x00, 0x00,
  0x00, 0x00, 0x00, 0x00, 0x00, 0x00, 0x00, 0x00, 0x00, 0x00, 0x00, 0x00,
  0x00, 0x00, 0x00, 0x00, 0x00, 0x00, 0x00, 0x00, 0x00, 0x00, 0x00, 0x00,
  0x00, 0x00, 0x00, 0x00, 0x00, 0x00, 0x00, 0x00, 0x00, 0x00, 0x00, 0x00,
  0x00, 0x00, 0x00, 0x00, 0x00, 0x00, 0x00, 0x00, 0x30, 0x00, 0x00, 0x00,
  0xaa, 0xa8, 0x2c, 0x3c, 0xd7, 0xe1, 0x0c, 0x3c, 0x5b, 0xe8, 0x03, 0x3c,
  0xc9, 0x61, 0xd0, 0x3b, 0x2a, 0xc4, 0x18, 0x3c, 0x73, 0x72, 0xf9, 0x3b,
  0x39, 0x2a, 0xf7, 0x3b, 0x7d, 0xbe, 0x36, 0x3c, 0xcf, 0x24, 0x1e, 0x3c,
  0x6f, 0x55, 0x2b, 0x3c, 0x21, 0x43, 0x19, 0x3c, 0x34, 0x49, 0xee, 0x3b,
  0x5d, 0x34, 0x15, 0x3c, 0xae, 0x92, 0xf5, 0x3b, 0x91, 0x01, 0x23, 0x3c,
  0x9e, 0x0b, 0x0c, 0x3c, 0x42, 0x0f, 0x12, 0x3c, 0x3f, 0x4f, 0x0a, 0x3c,
  0x20, 0xfd, 0x04, 0x3c, 0x3f, 0x2d, 0x52, 0x3c, 0xd2, 0x56, 0x26, 0x3c,
  0x71, 0xb3, 0x24, 0x3c, 0xfd, 0x0d, 0xf9, 0x3b, 0xde, 0xa1, 0x17, 0x3c,
  0x23, 0x76, 0x1f, 0x3c, 0xc4, 0xa6, 0x50, 0x3c, 0x05, 0x8a, 0x1f, 0x3c,
  0x41, 0x1e, 0x23, 0x3c, 0x49, 0x7e, 0x29, 0x3c, 0xe1, 0x17, 0x14, 0x3c,
  0xbb, 0x0a, 0x21, 0x3c, 0xf1, 0x19, 0x0a, 0x3c, 0xb8, 0x06, 0x12, 0x3c,
  0x39, 0x72, 0xf2, 0x3b, 0xe5, 0x4e, 0xd2, 0x3b, 0x3a, 0x7e, 0x3b, 0x3c,
  0x36, 0xe4, 0x30, 0x3c, 0xcb, 0x55, 0x0f, 0x3c, 0xeb, 0x51, 0x09, 0x3c,
  0x85, 0x41, 0x0a, 0x3c, 0x0a, 0x4a, 0x03, 0x3c, 0x75, 0x4c, 0x18, 0x3c,
  0x5f, 0x51, 0x17, 0x3c, 0x3a, 0xbe, 0x20, 0x3c, 0x06, 0x90, 0x23, 0x3c,
  0x4c, 0xf3, 0xce, 0x3b, 0xf6, 0x53, 0x0e, 0x3c, 0x01, 0x3b, 0x03, 0x3c,
  0x12, 0x00, 0x00, 0x00, 0x74, 0x66, 0x6c, 0x2e, 0x70, 0x73, 0x65, 0x75,
  0x64, 0x6f, 0x5f, 0x71, 0x63, 0x6f, 0x6e, 0x73, 0x74, 0x33, 0x00, 0x00,
  0x04, 0x00, 0x00, 0x00, 0x30, 0x00, 0x00, 0x00, 0x01, 0x00, 0x00, 0x00,
  0x01, 0x00, 0x00, 0x00, 0x20, 0x00, 0x00, 0x00, 0x32, 0xfc, 0xff, 0xff,
  0x00, 0x00, 0x00, 0x01, 0x14, 0x00, 0x00, 0x00, 0x64, 0x02, 0x00, 0x00,
