
#ifndef C1_MINIMOBILENETV2_INT8_H
#define C1_MINIMOBILENETV2_INT8_H

#include <cstdint>

alignas(16) const unsigned char C1_MiniMobileNetV2_INT8[] = {
  0x1c, 0x00, 0x00, 0x00, 0x54, 0x46, 0x4c, 0x33, 0x14, 0x00, 0x20, 0x00,
  0x1c, 0x00, 0x18, 0x00, 0x14, 0x00, 0x10, 0x00, 0x0c, 0x00, 0x00, 0x00,
  0x08, 0x00, 0x04, 0x00, 0x14, 0x00, 0x00, 0x00, 0x1c, 0x00, 0x00, 0x00,
  0x98, 0x00, 0x00, 0x00, 0x18, 0x01, 0x00, 0x00, 0x6c, 0x21, 0x00, 0x00,
  0x7c, 0x21, 0x00, 0x00, 0x28, 0x72, 0x00, 0x00, 0x03, 0x00, 0x00, 0x00,
  0x01, 0x00, 0x00, 0x00, 0x10, 0x00, 0x00, 0x00, 0x00, 0x00, 0x0a, 0x00,
  0x10, 0x00, 0x0c, 0x00, 0x08, 0x00, 0x04, 0x00, 0x0a, 0x00, 0x00, 0x00,
  0x0c, 0x00, 0x00, 0x00, 0x1c, 0x00, 0x00, 0x00, 0x3c, 0x00, 0x00, 0x00,
  0x0f, 0x00, 0x00, 0x00, 0x73, 0x65, 0x72, 0x76, 0x69, 0x6e, 0x67, 0x5f,
  0x64, 0x65, 0x66, 0x61, 0x75, 0x6c, 0x74, 0x00, 0x01, 0x00, 0x00, 0x00,
  0x04, 0x00, 0x00, 0x00, 0x68, 0xff, 0xff, 0xff, 0x33, 0x00, 0x00, 0x00,
  0x04, 0x00, 0x00, 0x00, 0x08, 0x00, 0x00, 0x00, 0x6f, 0x75, 0x74, 0x70,
  0x75, 0x74, 0x5f, 0x30, 0x00, 0x00, 0x00, 0x00, 0x01, 0x00, 0x00, 0x00,
  0x04, 0x00, 0x00, 0x00, 0x52, 0xde, 0xff, 0xff, 0x04, 0x00, 0x00, 0x00,
  0x0c, 0x00, 0x00, 0x00, 0x6b, 0x65, 0x72, 0x61, 0x73, 0x5f, 0x74, 0x65,
  0x6e, 0x73, 0x6f, 0x72, 0x00, 0x00, 0x00, 0x00, 0x03, 0x00, 0x00, 0x00,
  0x5c, 0x00, 0x00, 0x00, 0x2c, 0x00, 0x00, 0x00, 0x04, 0x00, 0x00, 0x00,
  0xb8, 0xff, 0xff, 0xff, 0x37, 0x00, 0x00, 0x00, 0x04, 0x00, 0x00, 0x00,
  0x13, 0x00, 0x00, 0x00, 0x43, 0x4f, 0x4e, 0x56, 0x45, 0x52, 0x53, 0x49,
  0x4f, 0x4e, 0x5f, 0x4d, 0x45, 0x54, 0x41, 0x44, 0x41, 0x54, 0x41, 0x00,
  0xdc, 0xff, 0xff, 0xff, 0x36, 0x00, 0x00, 0x00, 0x04, 0x00, 0x00, 0x00,
  0x13, 0x00, 0x00, 0x00, 0x6d, 0x69, 0x6e, 0x5f, 0x72, 0x75, 0x6e, 0x74,
  0x69, 0x6d, 0x65, 0x5f, 0x76, 0x65, 0x72, 0x73, 0x69, 0x6f, 0x6e, 0x00,
  0x08, 0x00, 0x0c, 0x00, 0x08, 0x00, 0x04, 0x00, 0x08, 0x00, 0x00, 0x00,
  0x35, 0x00, 0x00, 0x00, 0x04, 0x00, 0x00, 0x00, 0x13, 0x00, 0x00, 0x00,
  0x6d, 0x69, 0x6e, 0x5f, 0x72, 0x75, 0x6e, 0x74, 0x69, 0x6d, 0x65, 0x5f,
  0x76, 0x65, 0x72, 0x73, 0x69, 0x6f, 0x6e, 0x00, 0x38, 0x00, 0x00, 0x00,
  0x50, 0x20, 0x00, 0x00, 0x48, 0x20, 0x00, 0x00, 0x30, 0x20, 0x00, 0x00,
  0x08, 0x20, 0x00, 0x00, 0xb4, 0x1f, 0x00, 0x00, 0x78, 0x1f, 0x00, 0x00,
  0x90, 0x1c, 0x00, 0x00, 0x78, 0x1b, 0x00, 0x00, 0x14, 0x19, 0x00, 0x00,
  0xfc, 0x17, 0x00, 0x00, 0x14, 0x15, 0x00, 0x00, 0xd8, 0x14, 0x00, 0x00,
  0xb8, 0x12, 0x00, 0x00, 0xe8, 0x11, 0x00, 0x00, 0x28, 0x10, 0x00, 0x00,
  0x58, 0x0f, 0x00, 0x00, 0xc8, 0x0d, 0x00, 0x00, 0x98, 0x0d, 0x00, 0x00,
  0x08, 0x0c, 0x00, 0x00, 0x38, 0x0b, 0x00, 0x00, 0x78, 0x09, 0x00, 0x00,
  0xa8, 0x08, 0x00, 0x00, 0x18, 0x07, 0x00, 0x00, 0xe8, 0x06, 0x00, 0x00,
  0xe8, 0x05, 0x00, 0x00, 0x60, 0x05, 0x00, 0x00, 0x40, 0x04, 0x00, 0x00,
  0xb8, 0x03, 0x00, 0x00, 0x10, 0x03, 0x00, 0x00, 0xec, 0x02, 0x00, 0x00,
  0xa4, 0x02, 0x00, 0x00, 0x68, 0x02, 0x00, 0x00, 0xf4, 0x01, 0x00, 0x00,
  0xb8, 0x01, 0x00, 0x00, 0x44, 0x01, 0x00, 0x00, 0x3c, 0x01, 0x00, 0x00,
  0x34, 0x01, 0x00, 0x00, 0x2c, 0x01, 0x00, 0x00, 0x24, 0x01, 0x00, 0x00,
  0x1c, 0x01, 0x00, 0x00, 0x14, 0x01, 0x00, 0x00, 0x0c, 0x01, 0x00, 0x00,
  0x04, 0x01, 0x00, 0x00, 0xfc, 0x00, 0x00, 0x00, 0xf4, 0x00, 0x00, 0x00,
  0xec, 0x00, 0x00, 0x00, 0xe4, 0x00, 0x00, 0x00, 0xdc, 0x00, 0x00, 0x00,
  0xd4, 0x00, 0x00, 0x00, 0xcc, 0x00, 0x00, 0x00, 0xc4, 0x00, 0x00, 0x00,
  0xbc, 0x00, 0x00, 0x00, 0xb4, 0x00, 0x00, 0x00, 0x94, 0x00, 0x00, 0x00,
  0x74, 0x00, 0x00, 0x00, 0x04, 0x00, 0x00, 0x00, 0xd6, 0xdf, 0xff, 0xff,
  0x04, 0x00, 0x00, 0x00, 0x60, 0x00, 0x00, 0x00, 0x0c, 0x00, 0x00, 0x00,
  0x08, 0x00, 0x0e, 0x00, 0x08, 0x00, 0x04, 0x00, 0x08, 0x00, 0x00, 0x00,
  0x10, 0x00, 0x00, 0x00, 0x28, 0x00, 0x00, 0x00, 0x00, 0x00, 0x06, 0x00,
  0x08, 0x00, 0x04, 0x00, 0x06, 0x00, 0x00, 0x00, 0x04, 0x00, 0x00, 0x00,
  0x01, 0x00, 0x00, 0x00, 0xeb, 0x03, 0x00, 0x00, 0x0c, 0x00, 0x18, 0x00,
  0x14, 0x00, 0x10, 0x00, 0x0c, 0x00, 0x04, 0x00, 0x0c, 0x00, 0x00, 0x00,
  0x14, 0xed, 0xc3, 0x24, 0x15, 0x0b, 0xbe, 0x5e, 0x02, 0x00, 0x00, 0x00,
  0x02, 0x00, 0x00, 0x00, 0x04, 0x00, 0x00, 0x00, 0x06, 0x00, 0x00, 0x00,
  0x32, 0x2e, 0x31, 0x39, 0x2e, 0x30, 0x00, 0x00, 0x42, 0xe0, 0xff, 0xff,
  0x04, 0x00, 0x00, 0x00, 0x10, 0x00, 0x00, 0x00, 0x00, 0x00, 0x00, 0x00,
  0x00, 0x00, 0x00, 0x00, 0x00, 0x00, 0x00, 0x00, 0x00, 0x00, 0x00, 0x00,
  0x5e, 0xe0, 0xff, 0xff, 0x04, 0x00, 0x00, 0x00, 0x10, 0x00, 0x00, 0x00,
  0x31, 0x2e, 0x31, 0x34, 0x2e, 0x30, 0x00, 0x00, 0x00, 0x00, 0x00, 0x00,
  0x00, 0x00, 0x00, 0x00, 0x44, 0x91, 0xff, 0xff, 0x48, 0x91, 0xff, 0xff,
  0x4c, 0x91, 0xff, 0xff, 0x50, 0x91, 0xff, 0xff, 0x54, 0x91, 0xff, 0xff,
  0x58, 0x91, 0xff, 0xff, 0x5c, 0x91, 0xff, 0xff, 0x60, 0x91, 0xff, 0xff,
  0x64, 0x91, 0xff, 0xff, 0x68, 0x91, 0xff, 0xff, 0x6c, 0x91, 0xff, 0xff,
  0x70, 0x91, 0xff, 0xff, 0x74, 0x91, 0xff, 0xff, 0x78, 0x91, 0xff, 0xff,
  0x7c, 0x91, 0xff, 0xff, 0x80, 0x91, 0xff, 0xff, 0x84, 0x91, 0xff, 0xff,
  0x88, 0x91, 0xff, 0xff, 0xc2, 0xe0, 0xff, 0xff, 0x04, 0x00, 0x00, 0x00,
  0x63, 0x00, 0x00, 0x00, 0x62, 0xb2, 0x7f, 0xdf, 0x68, 0x4b, 0xcd, 0x3a,
  0x18, 0x2d, 0x7f, 0xd3, 0xca, 0xeb, 0xf9, 0xef, 0x12, 0x0a, 0xbe, 0x0b,
  0x70, 0x81, 0x07, 0xc1, 0x7d, 0x9e, 0xfe, 0x4e, 0xe4, 0x94, 0x28, 0xa6,
  0x81, 0x51, 0xc3, 0x2d, 0x9d, 0x3f, 0xfe, 0x9e, 0xa0, 0x81, 0x4d, 0x6f,
  0xfd, 0x24, 0x96, 0x13, 0x23, 0x39, 0x53, 0x64, 0x81, 0xad, 0x7f, 0xb2,
  0x07, 0x23, 0x1a, 0x3f, 0x75, 0xd9, 0x64, 0xd0, 0x21, 0xc9, 0x81, 0x1b,
  0xdc, 0xce, 0xe0, 0xba, 0x00, 0x81, 0xcc, 0xfd, 0x98, 0x25, 0x1f, 0xd3,
  0x38, 0x07, 0x81, 0x79, 0xbf, 0x9f, 0xfb, 0x9b, 0x6f, 0x6c, 0xba, 0x60,
  0x81, 0x06, 0x44, 0x29, 0x7a, 0x6f, 0xf7, 0x00, 0x32, 0xe1, 0xff, 0xff,
  0x04, 0x00, 0x00, 0x00, 0x2c, 0x00, 0x00, 0x00, 0xf3, 0x55, 0xff, 0xff,
  0xd8, 0xe0, 0xff, 0xff, 0x63, 0x35, 0x00, 0x00, 0xc8, 0x58, 0x00, 0x00,
  0x00, 0x64, 0x00, 0x00, 0xa5, 0xfe, 0xff, 0xff, 0x61, 0x3c, 0xff, 0xff,
  0xf3, 0xc9, 0x00, 0x00, 0x08, 0x70, 0x00, 0x00, 0xaa, 0x2b, 0x00, 0x00,
  0x5e, 0x7a, 0xff, 0xff, 0x6a, 0xe1, 0xff, 0xff, 0x04, 0x00, 0x00, 0x00,
  0x63, 0x00, 0x00, 0x00, 0x7f, 0xfa, 0x2c, 0x41, 0x56, 0xbb, 0x38, 0x01,
  0x85, 0xcc, 0xc8, 0x12, 0x2e, 0x1f, 0xec, 0x81, 0x54, 0x7f, 0x9c, 0x07,
  0x51, 0x7f, 0x2d, 0x7a, 0x18, 0x62, 0x1b, 0xc5, 0x2a, 0xdb, 0xae, 0x12,
  0x24, 0x55, 0xa4, 0xa6, 0x81, 0x9d, 0x81, 0xd9, 0xd0, 0x69, 0xff, 0x4c,
  0x31, 0x7f, 0x88, 0xb1, 0xb9, 0xcd, 0x54, 0x41, 0x7f, 0x15, 0x49, 0x30,
  0xf1, 0x6a, 0x1a, 0xd4, 0x45, 0xad, 0xbc, 0xe7, 0x0a, 0x0c, 0xf5, 0xbd,
  0x36, 0xaf, 0x6c, 0x15, 0x8c, 0x0a, 0x41, 0x7f, 0x3d, 0x94, 0xe4, 0x81,
  0x3f, 0x17, 0x4f, 0x53, 0x5a, 0xd8, 0x8b, 0x32, 0xdd, 0x98, 0xc1, 0x25,
  0xad, 0x3f, 0xeb, 0x81, 0x20, 0xe4, 0x0a, 0x00, 0xda, 0xe1, 0xff, 0xff,
  0x04, 0x00, 0x00, 0x00, 0x2c, 0x00, 0x00, 0x00, 0x55, 0xf1, 0xff, 0xff,
  0x5c, 0x00, 0x00, 0x00, 0xbe, 0x07, 0x00, 0x00, 0xcb, 0xfe, 0xff, 0xff,
  0xf6, 0x0c, 0x00, 0x00, 0x80, 0xff, 0xff, 0xff, 0x8f, 0xf7, 0xff, 0xff,
  0x63, 0x0c, 0x00, 0x00, 0x60, 0xfc, 0xff, 0xff, 0x3b, 0xfd, 0xff, 0xff,
  0xcd, 0xe6, 0xff, 0xff, 0x12, 0xe2, 0xff, 0xff, 0x04, 0x00, 0x00, 0x00,
  0x37, 0x00, 0x00, 0x00, 0x5b, 0x6c, 0xdd, 0xd1, 0xee, 0x54, 0x49, 0x43,
  0x17, 0xf2, 0x81, 0xf7, 0x8b, 0x2f, 0xe9, 0x76, 0x41, 0x48, 0x3e, 0x7f,
  0x00, 0xe2, 0xe2, 0xf8, 0xd9, 0x11, 0xa6, 0x13, 0x81, 0x37, 0xa5, 0x55,
  0xd0, 0xb0, 0x9d, 0x7f, 0xd8, 0xc7, 0x57, 0x1d, 0xdd, 0x99, 0x43, 0x21,
  0xe9, 0x9e, 0x06, 0xf7, 0xa2, 0xac, 0x7f, 0xb8, 0x2d, 0x73, 0xd9, 0x00,
  0x56, 0xe2, 0xff, 0xff, 0x04, 0x00, 0x00, 0x00, 0x14, 0x00, 0x00, 0x00,
  0x68, 0xf6, 0xff, 0xff, 0x44, 0xec, 0xff, 0xff, 0xd5, 0x12, 0x00, 0x00,
  0x10, 0x05, 0x00, 0x00, 0x87, 0x06, 0x00, 0x00, 0x76, 0xe2, 0xff, 0xff,
  0x04, 0x00, 0x00, 0x00, 0x96, 0x00, 0x00, 0x00, 0x5e, 0x7f, 0x72, 0xd2,
  0x4a, 0x1f, 0xfd, 0x53, 0x7f, 0xaf, 0x2f, 0xa0, 0x7f, 0xee, 0xe6, 0x4f,
  0x81, 0xa5, 0xa0, 0xc0, 0x67, 0x7f, 0xe8, 0x1b, 0x56, 0x32, 0x73, 0x40,
  0x7f, 0xdd, 0x7f, 0xa4, 0xf5, 0xfb, 0xc1, 0x7f, 0xfe, 0x67, 0x31, 0x83,
  0xce, 0x76, 0xf6, 0xd7, 0x7f, 0x3d, 0xfe, 0x1a, 0x55, 0x7f, 0x81, 0x09,
  0x9d, 0xb1, 0x73, 0x2e, 0x81, 0x19, 0xe4, 0xaa, 0xd6, 0x46, 0x81, 0x16,
  0xd0, 0xf3, 0x38, 0x4d, 0x81, 0xd9, 0x0c, 0x16, 0x98, 0x9b, 0x81, 0x8d,
  0x72, 0x7f, 0xa0, 0x3b, 0xad, 0x81, 0x44, 0x70, 0xcf, 0x05, 0x81, 0x38,
  0xe9, 0x39, 0x5d, 0x42, 0x81, 0x68, 0xde, 0xf5, 0xb0, 0x7f, 0x7d, 0x85,
  0x04, 0x9b, 0x58, 0xcd, 0x81, 0xeb, 0xb4, 0xe4, 0x81, 0x70, 0x7f, 0x67,
  0xab, 0xaf, 0xfb, 0x58, 0xe5, 0x7f, 0xb1, 0x3d, 0x9c, 0x43, 0x83, 0xdb,
  0x7f, 0xe9, 0x2d, 0x38, 0x7f, 0xfe, 0x77, 0x25, 0xd2, 0x81, 0xcc, 0x81,
  0x42, 0x04, 0x30, 0xd5, 0x7f, 0x59, 0xbe, 0x6e, 0xc3, 0x12, 0x47, 0x12,
  0x7f, 0xda, 0x00, 0x00, 0x1a, 0xe3, 0xff, 0xff, 0x04, 0x00, 0x00, 0x00,
  0x78, 0x00, 0x00, 0x00, 0x08, 0x00, 0x00, 0x00, 0x08, 0x00, 0x00, 0x00,
  0x99, 0x00, 0x00, 0x00, 0x23, 0xfe, 0xff, 0xff, 0x3e, 0xff, 0xff, 0xff,
  0x9a, 0xff, 0xff, 0xff, 0x78, 0xff, 0xff, 0xff, 0xa7, 0x00, 0x00, 0x00,
  0x5e, 0xfe, 0xff, 0xff, 0x3d, 0x00, 0x00, 0x00, 0x0e, 0x01, 0x00, 0x00,
  0xb9, 0xfe, 0xff, 0xff, 0x1b, 0x00, 0x00, 0x00, 0x2e, 0x00, 0x00, 0x00,
  0x05, 0x00, 0x00, 0x00, 0xde, 0xff, 0xff, 0xff, 0x59, 0x01, 0x00, 0x00,
  0xe8, 0xff, 0xff, 0xff, 0x53, 0x01, 0x00, 0x00, 0x21, 0x00, 0x00, 0x00,
  0x10, 0x00, 0x00, 0x00, 0x76, 0xff, 0xff, 0xff, 0x5d, 0xff, 0xff, 0xff,
  0x2b, 0x00, 0x00, 0x00, 0xca, 0xff, 0xff, 0xff, 0x58, 0x01, 0x00, 0x00,
  0x17, 0x00, 0x00, 0x00, 0x0c, 0x00, 0x00, 0x00, 0xee, 0xff, 0xff, 0xff,
  0x24, 0x01, 0x00, 0x00, 0x9e, 0xe3, 0xff, 0xff, 0x04, 0x00, 0x00, 0x00,
  0x0e, 0x01, 0x00, 0x00, 0x7f, 0xc3, 0x5c, 0x81, 0x1b, 0xc8, 0xe4, 0xa6,
  0x46, 0xab, 0x47, 0x3b, 0xcf, 0xed, 0xf4, 0xc6, 0x43, 0xe9, 0xe0, 0x47,
  0x09, 0x14, 0xf7, 0xa0, 0x8a, 0xf1, 0xc6, 0xfc, 0x00, 0x14, 0x08, 0x04,
  0x1b, 0x27, 0x7f, 0xd2, 0x2a, 0x46, 0x81, 0x49, 0x81, 0xfd, 0xd4, 0x7f,
  0xad, 0x7f, 0x1b, 0xe7, 0xfa, 0x31, 0xf4, 0x6b, 0x24, 0x2d, 0xae, 0xa2,
  0xb5, 0xe8, 0x94, 0x43, 0xd1, 0xec, 0x8b, 0xde, 0x60, 0x6a, 0x81, 0x08,
  0x76, 0x0e, 0xfe, 0x87, 0x04, 0x2e, 0xec, 0x2a, 0xbe, 0x81, 0xc3, 0x81,
  0x81, 0x2a, 0x81, 0x81, 0x00, 0x20, 0x04, 0x44, 0xa2, 0x39, 0x39, 0xd0,
  0xbb, 0x3a, 0xb6, 0xc1, 0x14, 0xda, 0xdc, 0xe2, 0xda, 0x0a, 0xcc, 0x54,
  0xbf, 0xa1, 0x33, 0x13, 0x15, 0xfc, 0x3c, 0x1f, 0xea, 0x9d, 0x81, 0x15,
  0xc8, 0x24, 0x81, 0x09, 0xe2, 0xc9, 0x26, 0x46, 0xdc, 0x81, 0xeb, 0xf3,
  0x0e, 0xcb, 0xea, 0x65, 0xf0, 0x19, 0x81, 0xa0, 0x02, 0xe9, 0x0a, 0xe7,
  0x5d, 0xd3, 0x03, 0x7a, 0xb9, 0x06, 0x96, 0x18, 0x01, 0x37, 0xb5, 0x81,
  0x7f, 0x34, 0xfb, 0xe0, 0x8f, 0xea, 0x35, 0x81, 0xd0, 0x18, 0x5a, 0x20,
  0xf8, 0x18, 0x32, 0xca, 0xe3, 0x22, 0xfb, 0x46, 0x06, 0xfe, 0x2b, 0x67,
  0xd5, 0x7f, 0x83, 0x10, 0xc8, 0xdf, 0x13, 0x59, 0xc8, 0xa2, 0x04, 0xf6,
  0x38, 0x89, 0xb8, 0xc3, 0x00, 0xba, 0x20, 0xcc, 0x19, 0xbd, 0xe5, 0xcd,
  0x42, 0x65, 0xeb, 0x66, 0xf8, 0x97, 0x7f, 0x2b, 0xc2, 0xee, 0xac, 0xf4,
  0xa8, 0xd3, 0xc4, 0xe5, 0x9b, 0x7f, 0x92, 0xbf, 0xc5, 0x31, 0x7f, 0xb0,
  0x54, 0x9c, 0x7f, 0x21, 0x06, 0x35, 0x53, 0xe4, 0xad, 0xbb, 0xfa, 0xe3,
  0xa9, 0x67, 0xe3, 0x81, 0xc6, 0x08, 0x8e, 0xed, 0x2a, 0x05, 0xf5, 0xda,
  0x55, 0xd9, 0xf5, 0x7f, 0x2e, 0x4c, 0x26, 0xdc, 0x08, 0x0a, 0x81, 0x04,
  0xfc, 0x7f, 0x38, 0x27, 0x44, 0x7f, 0xf6, 0x31, 0x3c, 0x0d, 0x00, 0x00,
  0xba, 0xe4, 0xff, 0xff, 0x04, 0x00, 0x00, 0x00, 0x78, 0x00, 0x00, 0x00,
  0xd9, 0x04, 0x00, 0x00, 0x20, 0x13, 0x00, 0x00, 0x63, 0x02, 0x00, 0x00,
  0x3e, 0xfc, 0xff, 0xff, 0xa5, 0xfd, 0xff, 0xff, 0x78, 0x12, 0x00, 0x00,
  0xa8, 0x0f, 0x00, 0x00, 0x4b, 0xff, 0xff, 0xff, 0x7c, 0xfd, 0xff, 0xff,
  0x8a, 0x16, 0x00, 0x00, 0x65, 0x0d, 0x00, 0x00, 0x00, 0xfc, 0xff, 0xff,
  0x61, 0xfa, 0xff, 0xff, 0xe1, 0xf3, 0xff, 0xff, 0x0a, 0x0a, 0x00, 0x00,
  0xa9, 0x0b, 0x00, 0x00, 0x0f, 0xec, 0xff, 0xff, 0xaa, 0x0f, 0x00, 0x00,
  0xd2, 0x0d, 0x00, 0x00, 0x1e, 0xfe, 0xff, 0xff, 0xb5, 0xf3, 0xff, 0xff,
  0xb2, 0xea, 0xff, 0xff, 0xca, 0x0a, 0x00, 0x00, 0x3e, 0x04, 0x00, 0x00,
  0xe3, 0x10, 0x00, 0x00, 0x41, 0xff, 0xff, 0xff, 0x19, 0x12, 0x00, 0x00,
  0x54, 0xed, 0xff, 0xff, 0x3b, 0x1c, 0x00, 0x00, 0x6a, 0xf9, 0xff, 0xff,
  0x3e, 0xe5, 0xff, 0xff, 0x04, 0x00, 0x00, 0x00, 0xf0, 0x00, 0x00, 0x00,
  0x3a, 0xe7, 0x45, 0x00, 0x58, 0xd6, 0x51, 0x67, 0x34, 0x04, 0xcb, 0x01,
  0xef, 0x03, 0x7c, 0xae, 0x7f, 0xc3, 0x49, 0x03, 0xcc, 0x2a, 0xdc, 0x23,
  0x6a, 0x4b, 0xf3, 0x3d, 0xb0, 0x2c, 0xda, 0x2c, 0xff, 0x68, 0x4e, 0xd2,
  0xe0, 0x39, 0xac, 0xf0, 0x21, 0x45, 0xfc, 0x18, 0x47, 0x8b, 0xa0, 0x14,
  0x2d, 0x25, 0x51, 0x30, 0x7f, 0x29, 0x1e, 0x1b, 0x79, 0x14, 0xb6, 0x46,
  0xdc, 0xf3, 0x6d, 0x0c, 0x43, 0x73, 0xd1, 0x4a, 0xe8, 0x81, 0x10, 0x32,
  0xdf, 0xba, 0x81, 0xb9, 0xa0, 0xba, 0xd5, 0x9c, 0x51, 0xb7, 0xd1, 0xe6,
  0x34, 0x3c, 0x9e, 0xaf, 0xb1, 0x20, 0xfe, 0x7f, 0x10, 0x57, 0x05, 0xf8,
  0xbd, 0xf8, 0xaf, 0xdf, 0xdb, 0xc1, 0x17, 0xad, 0x4d, 0x6a, 0xc9, 0x56,
  0x0e, 0xd5, 0xc1, 0xd0, 0xc8, 0x45, 0x5f, 0x1a, 0x6f, 0xcc, 0xb6, 0x3f,
  0x6c, 0x96, 0x18, 0x47, 0xe9, 0x13, 0xc7, 0x4b, 0xd5, 0x5d, 0x5d, 0x23,
  0x63, 0x81, 0xdb, 0x29, 0xfc, 0x03, 0x91, 0xa6, 0xf3, 0x7a, 0x9e, 0x10,
  0xdd, 0xc8, 0x60, 0x48, 0x11, 0x28, 0xbb, 0x97, 0x0b, 0x45, 0x93, 0x66,
  0xd3, 0x64, 0x43, 0x2e, 0xdd, 0x22, 0x25, 0xb4, 0xe2, 0x11, 0x7f, 0xc0,
  0x28, 0x1f, 0x23, 0x3e, 0x33, 0xd8, 0x23, 0xc9, 0x9e, 0xa4, 0xc1, 0xc2,
  0x63, 0x20, 0x9f, 0xda, 0xc4, 0x48, 0x3f, 0xb4, 0xf1, 0x57, 0xdb, 0xc0,
  0x95, 0xc8, 0xbf, 0xbc, 0x2c, 0xe2, 0x81, 0xfe, 0x5a, 0xf9, 0x6e, 0x1e,
  0x67, 0xa3, 0x10, 0xfd, 0xbf, 0x48, 0x48, 0xe1, 0x28, 0xb4, 0xf9, 0x62,
  0xed, 0x4d, 0x53, 0xd4, 0x60, 0x5a, 0x0c, 0x2b, 0x56, 0x81, 0xe3, 0x2f,
  0x19, 0xb7, 0x52, 0x09, 0x8e, 0x2f, 0x62, 0xe3, 0x03, 0xc8, 0xaf, 0x53,
  0x3a, 0xe6, 0xff, 0xff, 0x04, 0x00, 0x00, 0x00, 0x20, 0x00, 0x00, 0x00,
  0x37, 0xde, 0xff, 0xff, 0xbe, 0xdf, 0xff, 0xff, 0x50, 0x28, 0x00, 0x00,
  0x04, 0xf9, 0xff, 0xff, 0x80, 0xf4, 0xff, 0xff, 0xa1, 0x03, 0x00, 0x00,
  0x9c, 0x08, 0x00, 0x00, 0xcd, 0xed, 0xff, 0xff, 0x66, 0xe6, 0xff, 0xff,
  0x04, 0x00, 0x00, 0x00, 0x80, 0x01, 0x00, 0x00, 0x51, 0x21, 0x81, 0xbc,
  0x85, 0x1c, 0xc8, 0x55, 0xf6, 0xc8, 0x2f, 0x67, 0x7f, 0x44, 0xa3, 0xb3,
  0x7f, 0xa1, 0xe1, 0xbf, 0x21, 0x22, 0x2b, 0x8c, 0xc7, 0x81, 0x63, 0xce,
  0xb9, 0x92, 0xf2, 0xe7, 0x1a, 0x4c, 0xe8, 0x18, 0xdd, 0x06, 0x81, 0x1c,
  0x7f, 0x9f, 0x4b, 0xf3, 0x62, 0x9d, 0x43, 0x8a, 0x7f, 0xd4, 0x86, 0xa8,
  0xa2, 0xd9, 0x07, 0xf9, 0x7f, 0xfb, 0x45, 0xe0, 0x7d, 0xce, 0xa2, 0xed,
  0xfe, 0xef, 0x3d, 0x6c, 0x12, 0x7f, 0x9f, 0xd7, 0x05, 0x51, 0xc7, 0x7f,
  0x8d, 0xde, 0xb5, 0x00, 0x59, 0x62, 0x7f, 0xf6, 0x45, 0xa7, 0xe6, 0x2b,
  0x33, 0xec, 0x28, 0x37, 0x81, 0x49, 0x0c, 0x3e, 0xf1, 0xd1, 0x4f, 0x46,
  0x81, 0xff, 0xcd, 0x48, 0xbe, 0x7f, 0x15, 0xe0, 0xc0, 0x20, 0x2d, 0xb5,
  0x4e, 0x0f, 0x92, 0x52, 0xbe, 0x81, 0x47, 0x24, 0xc0, 0xbb, 0x75, 0xa3,
  0x81, 0xc0, 0xde, 0x74, 0x0b, 0x4b, 0x7f, 0x4d, 0x11, 0x91, 0xc2, 0xf5,
  0xa1, 0xf7, 0xeb, 0xef, 0xe1, 0xe5, 0x14, 0x81, 0x6b, 0x37, 0x65, 0x72,
  0x78, 0x81, 0x22, 0x19, 0x3c, 0x35, 0x0b, 0x07, 0x99, 0x66, 0x81, 0xf2,
  0xf1, 0x2d, 0x81, 0xa2, 0x41, 0xe7, 0x2a, 0x4a, 0x0e, 0x9e, 0x70, 0x9c,
  0xcf, 0x9f, 0x81, 0xf7, 0x5e, 0xc9, 0x7f, 0x9f, 0x0b, 0x46, 0xf6, 0x27,
  0x2d, 0xb1, 0xc5, 0xe6, 0x11, 0x81, 0x08, 0xcb, 0x3e, 0x7f, 0x44, 0xe1,
  0xce, 0x08, 0x0d, 0x00, 0x18, 0x33, 0xce, 0xe1, 0x81, 0x19, 0xc0, 0xe8,
  0x81, 0xad, 0xef, 0x7c, 0x31, 0x0f, 0x08, 0xd5, 0x1d, 0x81, 0x2f, 0x01,
  0x99, 0x09, 0xbe, 0xda, 0x81, 0x4f, 0x94, 0x69, 0xfe, 0xf0, 0xae, 0xa5,
  0x25, 0x37, 0x92, 0x7f, 0x5f, 0xd3, 0x17, 0x2e, 0xad, 0xcf, 0xcf, 0x8b,
  0x24, 0x81, 0xc5, 0xf1, 0x87, 0x81, 0x00, 0x45, 0xd2, 0xd9, 0x55, 0xdd,
  0x53, 0x5a, 0x11, 0x7f, 0xa5, 0x60, 0xc0, 0x78, 0x27, 0x7f, 0x5a, 0x58,
  0xd4, 0x49, 0x8e, 0xd8, 0x81, 0xb5, 0xdd, 0x19, 0x5a, 0xac, 0x74, 0x2d,
  0x7f, 0x24, 0x48, 0xbf, 0x10, 0xc8, 0x73, 0x3f, 0x04, 0x98, 0x3d, 0xb2,
  0xce, 0xb0, 0x84, 0x7f, 0x7f, 0xf3, 0xe2, 0xc4, 0x9a, 0x92, 0xa6, 0xfa,
  0xd5, 0x6f, 0x5e, 0xe6, 0x81, 0x3c, 0xd1, 0x86, 0x18, 0x30, 0x30, 0x88,
  0xed, 0x22, 0x81, 0x4a, 0x4a, 0x34, 0xa4, 0x10, 0xe5, 0xa2, 0x81, 0xe8,
  0x7f, 0xc9, 0xab, 0xe4, 0x28, 0x33, 0x13, 0x10, 0xab, 0xaf, 0xdb, 0x7f,
  0xcd, 0xe7, 0x30, 0xf7, 0x81, 0xc6, 0x81, 0x3c, 0xf0, 0x99, 0xf2, 0xdb,
  0xdd, 0xeb, 0xba, 0x09, 0x63, 0x7f, 0xf0, 0xc3, 0xef, 0x24, 0x70, 0x81,
  0x2a, 0x0e, 0x0b, 0xd1, 0x53, 0x13, 0x9f, 0x6f, 0x7d, 0x81, 0xde, 0x39,
  0x62, 0x5f, 0xd9, 0x42, 0x94, 0xdf, 0x7f, 0x1b, 0xf2, 0xe7, 0xff, 0xff,
  0x04, 0x00, 0x00, 0x00, 0xc0, 0x00, 0x00, 0x00, 0x85, 0xff, 0xff, 0xff,
  0xb5, 0x01, 0x00, 0x00, 0xee, 0x00, 0x00, 0x00, 0xd3, 0xff, 0xff, 0xff,
  0x3b, 0x01, 0x00, 0x00, 0x78, 0x00, 0x00, 0x00, 0xff, 0x00, 0x00, 0x00,
  0x5d, 0xfe, 0xff, 0xff, 0x26, 0x00, 0x00, 0x00, 0xc2, 0xfd, 0xff, 0xff,
  0x4d, 0x04, 0x00, 0x00, 0xf8, 0xff, 0xff, 0xff, 0xe6, 0x01, 0x00, 0x00,
  0x7f, 0x00, 0x00, 0x00, 0x09, 0x00, 0x00, 0x00, 0x31, 0xfe, 0xff, 0xff,
  0xbd, 0x01, 0x00, 0x00, 0x8b, 0x00, 0x00, 0x00, 0x25, 0x06, 0x00, 0x00,
  0xa7, 0x01, 0x00, 0x00, 0x12, 0x00, 0x00, 0x00, 0x13, 0xff, 0xff, 0xff,
  0x72, 0x00, 0x00, 0x00, 0xf0, 0xfd, 0xff, 0xff, 0x9b, 0x01, 0x00, 0x00,
  0xf6, 0xfe, 0xff, 0xff, 0xd9, 0x01, 0x00, 0x00, 0x42, 0xff, 0xff, 0xff,
  0xf8, 0xfd, 0xff, 0xff, 0x55, 0x01, 0x00, 0x00, 0xdf, 0xff, 0xff, 0xff,
  0xc1, 0xfe, 0xff, 0xff, 0x43, 0x01, 0x00, 0x00, 0xe0, 0x03, 0x00, 0x00,
  0xb3, 0x00, 0x00, 0x00, 0x47, 0x01, 0x00, 0x00, 0x7f, 0x02, 0x00, 0x00,
  0xe6, 0x00, 0x00, 0x00, 0x8d, 0x00, 0x00, 0x00, 0x09, 0x04, 0x00, 0x00,
  0xc8, 0xff, 0xff, 0xff, 0xf8, 0x00, 0x00, 0x00, 0xce, 0xff, 0xff, 0xff,
  0x07, 0x00, 0x00, 0x00, 0x98, 0xff, 0xff, 0xff, 0x32, 0x01, 0x00, 0x00,
  0x38, 0xfe, 0xff, 0xff, 0x0c, 0x00, 0x00, 0x00, 0xbe, 0xe8, 0xff, 0xff,
  0x04, 0x00, 0x00, 0x00, 0xb0, 0x01, 0x00, 0x00, 0xf2, 0xdc, 0x5b, 0x2d,
  0x26, 0x7f, 0x8c, 0xfe, 0xde, 0x46, 0x31, 0x58, 0xf6, 0x4d, 0x13, 0xcd,
  0xbd, 0xc4, 0x51, 0x81, 0xc3, 0xf7, 0x18, 0x9b, 0x18, 0xde, 0x07, 0x72,
  0xec, 0x1e, 0x81, 0xa0, 0x0e, 0x48, 0xa2, 0x7f, 0x2d, 0xea, 0x7f, 0x04,
  0xd8, 0xce, 0x5b, 0x3f, 0x18, 0x49, 0x46, 0x77, 0xbb, 0x54, 0xef, 0xe4,
  0x83, 0xe9, 0x2b, 0x1b, 0x26, 0xad, 0x40, 0x96, 0x81, 0xb5, 0xe0, 0x87,
  0x41, 0x81, 0x03, 0x4a, 0x81, 0x2c, 0x81, 0xef, 0x00, 0x24, 0x40, 0xb5,
  0x23, 0xc7, 0x36, 0x95, 0x62, 0x09, 0x6a, 0xc2, 0xcc, 0xb0, 0x24, 0x18,
  0x81, 0xef, 0x0b, 0x0c, 0x4f, 0x2f, 0x66, 0xa1, 0xb8, 0x33, 0x32, 0x2b,
  0xc3, 0xe0, 0xfb, 0x7f, 0x7b, 0xbe, 0x7f, 0x4b, 0xbc, 0x03, 0x39, 0xf6,
  0xed, 0x01, 0x81, 0x7e, 0xfe, 0x0b, 0x40, 0xaa, 0x4f, 0x64, 0x20, 0x6e,
  0x2c, 0x21, 0x70, 0x99, 0x15, 0x5e, 0xfd, 0x0b, 0x4d, 0x32, 0xea, 0x0b,
  0x49, 0x0b, 0x13, 0xd9, 0x81, 0xe1, 0x5a, 0x81, 0x2b, 0xc3, 0x6c, 0xe2,
  0x81, 0x41, 0xf3, 0x9e, 0x7f, 0x5f, 0xe7, 0xc7, 0xe3, 0x30, 0x31, 0x11,
  0x32, 0x63, 0x3b, 0x65, 0xef, 0x20, 0x13, 0x3c, 0x0f, 0xd3, 0x1a, 0x11,
  0x7f, 0x19, 0x4d, 0xfa, 0x55, 0x42, 0x4d, 0x31, 0x81, 0xd5, 0x41, 0x7f,
  0xdb, 0xfe, 0x7f, 0x81, 0xe5, 0x7f, 0x7f, 0x45, 0x09, 0x7f, 0xf7, 0xda,
  0x84, 0xe0, 0x7f, 0x2f, 0x73, 0xdc, 0xd0, 0x64, 0xbd, 0x3d, 0x7f, 0x54,
  0x3e, 0xfa, 0x22, 0xa6, 0x2e, 0x5d, 0xe5, 0x05, 0xb7, 0xd0, 0xce, 0xe7,
  0x27, 0xc2, 0x29, 0xe4, 0x81, 0x50, 0x7f, 0xc1, 0xce, 0xe2, 0x6e, 0x69,
  0x3f, 0x2d, 0xc7, 0x05, 0xcb, 0x69, 0x73, 0x34, 0xf9, 0x1c, 0x2f, 0x71,
  0x02, 0x27, 0x95, 0x3e, 0xf1, 0xf3, 0xc5, 0xbe, 0x5f, 0xec, 0x25, 0x49,
  0xa0, 0xb1, 0xc3, 0xbd, 0xa3, 0x4d, 0x51, 0x56, 0x9e, 0x14, 0x13, 0x1e,
  0xb0, 0x21, 0x11, 0x47, 0x00, 0x2b, 0x9a, 0x7b, 0x9c, 0x04, 0xd2, 0x2b,
  0xd6, 0x2e, 0x1e, 0xb9, 0x9b, 0xba, 0x06, 0xfe, 0x7f, 0xf0, 0x6b, 0x50,
  0x6a, 0xe8, 0xee, 0xfb, 0x46, 0x81, 0xac, 0xf6, 0x41, 0x0f, 0xc7, 0xfa,
  0xa8, 0x32, 0x09, 0x21, 0x91, 0x7f, 0x03, 0x75, 0xb3, 0x81, 0x0c, 0x63,
  0x38, 0xf3, 0x13, 0x3f, 0xf8, 0x7f, 0x0a, 0xf6, 0x20, 0x44, 0x15, 0x64,
  0xf5, 0x9a, 0x41, 0x9c, 0x74, 0xa6, 0x65, 0xf4, 0x0a, 0xcc, 0x81, 0x81,
  0x6a, 0x08, 0x02, 0xc9, 0x5c, 0x47, 0xc1, 0x81, 0x6b, 0xe6, 0x06, 0x81,
  0xe0, 0xef, 0xf2, 0x3e, 0x2f, 0xd7, 0x2c, 0x7f, 0x99, 0x46, 0xcb, 0x7f,
  0xd1, 0x7e, 0xb5, 0x7f, 0x29, 0x20, 0x03, 0x38, 0xf0, 0x7f, 0x07, 0x15,
  0x0f, 0xd9, 0x1a, 0x0b, 0xc9, 0x1a, 0x9e, 0x73, 0x0a, 0xe3, 0xc5, 0x46,
  0xf2, 0x34, 0xbc, 0x75, 0xd8, 0xee, 0x3e, 0xeb, 0x24, 0x81, 0xb5, 0xf8,
  0x7f, 0xd4, 0xd3, 0x9b, 0xc0, 0x2e, 0x10, 0x3a, 0x81, 0x24, 0x7f, 0x34,
  0xf2, 0x81, 0x04, 0xd7, 0xca, 0x21, 0xa1, 0x92, 0xf9, 0xc6, 0x0f, 0x0f,
  0x43, 0x81, 0xbc, 0x2b, 0xf7, 0xa3, 0x31, 0x43, 0x7a, 0xea, 0xff, 0xff,
  0x04, 0x00, 0x00, 0x00, 0xc0, 0x00, 0x00, 0x00, 0x2c, 0xfe, 0xff, 0xff,
  0x61, 0xf8, 0xff, 0xff, 0x75, 0xf1, 0xff, 0xff, 0x70, 0xf7, 0xff, 0xff,
  0x96, 0x0a, 0x00, 0x00, 0x94, 0xf5, 0xff, 0xff, 0x08, 0x06, 0x00, 0x00,
  0x1f, 0xf6, 0xff, 0xff, 0x1c, 0xe7, 0xff, 0xff, 0x08, 0x02, 0x00, 0x00,
  0x61, 0xff, 0xff, 0xff, 0x69, 0x06, 0x00, 0x00, 0xf0, 0xfd, 0xff, 0xff,
  0x56, 0x05, 0x00, 0x00, 0xa5, 0xf6, 0xff, 0xff, 0xb2, 0x06, 0x00, 0x00,
  0x9d, 0xff, 0xff, 0xff, 0xd3, 0x09, 0x00, 0x00, 0x90, 0x03, 0x00, 0x00,
  0x7d, 0xfc, 0xff, 0xff, 0x89, 0x18, 0x00, 0x00, 0xa3, 0xee, 0xff, 0xff,
  0xe7, 0xfe, 0xff, 0xff, 0x48, 0xfa, 0xff, 0xff, 0x6f, 0x17, 0x00, 0x00,
  0x54, 0xfe, 0xff, 0xff, 0x2e, 0xf3, 0xff, 0xff, 0xf5, 0xe8, 0xff, 0xff,
  0x37, 0xf8, 0xff, 0xff, 0x3d, 0xfc, 0xff, 0xff, 0xcd, 0xf8, 0xff, 0xff,
  0x69, 0x04, 0x00, 0x00, 0x83, 0xfc, 0xff, 0xff, 0x29, 0xde, 0xff, 0xff,
  0xaa, 0xff, 0xff, 0xff, 0x1a, 0xfb, 0xff, 0xff, 0x3c, 0x0a, 0x00, 0x00,
  0xae, 0x02, 0x00, 0x00, 0x51, 0xef, 0xff, 0xff, 0xe3, 0xe8, 0xff, 0xff,
  0x5b, 0x04, 0x00, 0x00, 0x0a, 0x0d, 0x00, 0x00, 0xd8, 0xf0, 0xff, 0xff,
  0xf9, 0x0b, 0x00, 0x00, 0xb1, 0x07, 0x00, 0x00, 0x03, 0xfc, 0xff, 0xff,
  0xe9, 0xe7, 0xff, 0xff, 0x4e, 0xee, 0xff, 0xff, 0x46, 0xeb, 0xff, 0xff,
  0x04, 0x00, 0x00, 0x00, 0x80, 0x01, 0x00, 0x00, 0x12, 0xbf, 0x46, 0x0a,
  0xb9, 0xe5, 0x03, 0xc1, 0xec, 0x32, 0xea, 0xb7, 0xdf, 0xe9, 0x40, 0xf7,
  0xf3, 0x21, 0x40, 0x95, 0x27, 0x19, 0xc5, 0x2a, 0x62, 0xd3, 0x22, 0x31,
  0x30, 0xda, 0xdb, 0xcb, 0x57, 0x50, 0xd0, 0xe6, 0xfc, 0xef, 0xee, 0x3e,
  0x28, 0xf1, 0xcd, 0x7f, 0xcf, 0x44, 0xf1, 0xeb, 0xd5, 0xae, 0x26, 0xe6,
  0xc7, 0x1c, 0x59, 0x51, 0xec, 0xbd, 0xce, 0xb2, 0xc6, 0xfe, 0xc0, 0xf8,
  0xb6, 0xcc, 0x5f, 0xe8, 0x81, 0x33, 0x28, 0xac, 0x37, 0x18, 0xe9, 0x52,
  0x1b, 0xae, 0xf9, 0xad, 0xb4, 0x4f, 0xb2, 0x43, 0x49, 0xc9, 0x25, 0xde,
  0xd0, 0x23, 0x41, 0xbb, 0x30, 0x45, 0x31, 0xdc, 0x48, 0xb6, 0x64, 0x22,
  0xc8, 0x35, 0x15, 0x07, 0xfe, 0xc1, 0x41, 0x58, 0x10, 0x85, 0xc8, 0x60,
  0xbf, 0x0a, 0x05, 0x07, 0x3a, 0x33, 0xd8, 0x2d, 0x03, 0x2a, 0xb5, 0x53,
  0xfe, 0xfb, 0xf4, 0x09, 0xcf, 0xdc, 0x2d, 0x32, 0xc3, 0x2f, 0xe1, 0x81,
  0x68, 0x1f, 0x0d, 0x08, 0x5f, 0xdc, 0xe7, 0xe3, 0x2d, 0x4d, 0x0d, 0x6e,
  0xcb, 0x2c, 0xa9, 0xbf, 0x34, 0xe5, 0x47, 0x0d, 0x7c, 0x25, 0xf4, 0x29,
  0x15, 0x4c, 0x7b, 0x78, 0xbf, 0xd6, 0x20, 0xd0, 0x32, 0xe3, 0xde, 0xcb,
  0x18, 0xf7, 0x4b, 0x81, 0x09, 0xdd, 0x2b, 0x37, 0xc6, 0xc4, 0x7c, 0x50,
  0x34, 0x69, 0xda, 0x20, 0x1e, 0xb8, 0x03, 0x3a, 0x4f, 0xb9, 0x40, 0xaa,
  0x7b, 0x43, 0x8f, 0x5e, 0x1c, 0x12, 0x41, 0xe3, 0xf3, 0x55, 0x4d, 0xf6,
  0xa4, 0x13, 0x51, 0xde, 0xa7, 0x94, 0xd7, 0xf8, 0x0d, 0x41, 0x17, 0x18,
  0xcb, 0xc6, 0x53, 0x17, 0x9f, 0xd6, 0x4b, 0xe0, 0x53, 0xb5, 0x30, 0xc3,
  0xed, 0x1a, 0xaf, 0xdd, 0x81, 0xa6, 0x45, 0xf6, 0x12, 0x04, 0xc1, 0x10,
  0x9d, 0xc2, 0x4a, 0xeb, 0x97, 0x35, 0x3c, 0x42, 0x42, 0x1a, 0xe1, 0x93,
  0x51, 0xea, 0x2d, 0x7f, 0x25, 0xf3, 0x5b, 0x13, 0xd5, 0xdb, 0x4b, 0x00,
  0x4c, 0x5c, 0x37, 0x45, 0xcd, 0x1d, 0x17, 0xb7, 0x94, 0xbf, 0x61, 0x22,
  0xbf, 0xb1, 0x71, 0xff, 0xc6, 0x29, 0xb0, 0x65, 0x04, 0xde, 0xb8, 0xc0,
  0x50, 0xaf, 0x72, 0xb9, 0xb7, 0x1f, 0xfd, 0xcc, 0xae, 0xf7, 0xb9, 0x38,
  0x98, 0x39, 0xea, 0x39, 0xd9, 0x23, 0xc6, 0xad, 0x11, 0x54, 0xcc, 0x81,
  0x27, 0xe5, 0xa9, 0x1b, 0xee, 0x9c, 0x20, 0xa7, 0x38, 0x9a, 0xd0, 0xcf,
  0xe1, 0x4d, 0x4f, 0xe8, 0xf3, 0x01, 0xd8, 0x5d, 0x00, 0xf4, 0xad, 0x04,
  0xdc, 0x91, 0xd4, 0xc2, 0xc3, 0xeb, 0x1f, 0x35, 0xea, 0x5e, 0x57, 0xf7,
  0xe9, 0x07, 0xe4, 0x38, 0x7f, 0xd3, 0xb2, 0x11, 0x59, 0x64, 0x6b, 0x04,
  0xf9, 0x36, 0x5f, 0xb5, 0xe7, 0xe2, 0x19, 0x4e, 0x2d, 0x19, 0xd6, 0x6d,
  0xb7, 0x52, 0x50, 0xe3, 0xc3, 0xa9, 0x8b, 0xc8, 0xd2, 0xec, 0xff, 0xff,
  0x04, 0x00, 0x00, 0x00, 0x20, 0x00, 0x00, 0x00, 0x47, 0xf9, 0xff, 0xff,
  0x31, 0x0d, 0x00, 0x00, 0xaa, 0xf0, 0xff, 0xff, 0xe6, 0xd2, 0xff, 0xff,
  0xfb, 0x00, 0x00, 0x00, 0xfe, 0xeb, 0xff, 0xff, 0xf1, 0x31, 0x00, 0x00,
  0x35, 0xfa, 0xff, 0xff, 0xfe, 0xec, 0xff, 0xff, 0x04, 0x00, 0x00, 0x00,
  0x80, 0x01, 0x00, 0x00, 0x81, 0x18, 0x23, 0xd8, 0xec, 0xb5, 0x41, 0xae,
  0xfe, 0x6d, 0xa2, 0x1c, 0x7f, 0xe7, 0xa6, 0x12, 0xeb, 0x4b, 0x7f, 0x20,
  0x0d, 0x65, 0x22, 0xb1, 0x9e, 0x81, 0x2d, 0x81, 0x00, 0x71, 0xf0, 0x66,
  0x05, 0x17, 0x41, 0x41, 0x7f, 0xde, 0xfb, 0xdc, 0x12, 0x71, 0x2a, 0x33,
  0xce, 0xe9, 0x7f, 0xf2, 0x19, 0x7f, 0x45, 0x2a, 0xcf, 0xf0, 0x77, 0x54,
  0x3e, 0xc4, 0xdf, 0xfa, 0x48, 0x52, 0xd0, 0x7f, 0x0f, 0x7f, 0xab, 0xcb,
  0x34, 0x59, 0xa7, 0x25, 0xd2, 0x13, 0x59, 0x06, 0xc9, 0x81, 0xc7, 0x11,
  0x3f, 0x81, 0xd6, 0x3c, 0x0f, 0xd1, 0x27, 0x16, 0x39, 0x04, 0xb0, 0xbd,
  0x0e, 0x81, 0x09, 0xfe, 0xdd, 0x81, 0x0c, 0x9e, 0xd3, 0x2a, 0x3c, 0x02,
  0x17, 0x00, 0x20, 0x00, 0xc1, 0xb5, 0x81, 0xd8, 0x58, 0x09, 0xcc, 0x81,
  0x0c, 0xfc, 0x7d, 0x02, 0x37, 0xc8, 0x70, 0x25, 0x81, 0xd5, 0x1b, 0xfb,
  0x1e, 0xbf, 0xa5, 0x6e, 0x7f, 0x21, 0x71, 0x86, 0x81, 0x04, 0x3f, 0xac,
  0xf3, 0xec, 0xad, 0x23, 0xe6, 0xec, 0x81, 0xd1, 0x0b, 0x3b, 0xa9, 0x9b,
  0xd8, 0x99, 0xdc, 0x3b, 0xfa, 0x05, 0xa6, 0x7f, 0x2c, 0x92, 0xe8, 0x21,
  0x7f, 0xac, 0x30, 0x81, 0x86, 0xd7, 0x6c, 0x41, 0x7f, 0x7b, 0x65, 0xc9,
  0x7f, 0xe9, 0xde, 0x19, 0xd6, 0xf8, 0xe0, 0xe9, 0xa7, 0x0f, 0x9a, 0x2f,
  0x81, 0x0b, 0xc7, 0x8a, 0x79, 0xca, 0xf0, 0x02, 0x81, 0x13, 0xca, 0xf9,
  0x5a, 0x16, 0xff, 0x59, 0xd0, 0x37, 0xb2, 0x7f, 0x13, 0xf9, 0x4f, 0x8e,
  0x29, 0x23, 0x7f, 0x45, 0xfc, 0xb3, 0xfa, 0x7f, 0x3c, 0x1d, 0x00, 0xba,
  0x46, 0x41, 0xf4, 0x7f, 0xba, 0x5e, 0xe8, 0x2a, 0x15, 0x7f, 0xb9, 0x6d,
  0xb2, 0xbd, 0xeb, 0xc9, 0xcf, 0x3b, 0x67, 0x8c, 0x1a, 0xd8, 0x5d, 0x7f,
  0x97, 0x8a, 0xa4, 0x81, 0x29, 0xf4, 0x57, 0xc6, 0x18, 0xcb, 0x2b, 0x81,
  0x97, 0x74, 0x13, 0x86, 0x33, 0x77, 0xc7, 0xa8, 0x4d, 0x81, 0xfc, 0x08,
  0xfb, 0x81, 0xf4, 0x20, 0x49, 0x9c, 0x3f, 0xd4, 0x06, 0x5f, 0xad, 0x34,
  0x81, 0xdf, 0x35, 0xcf, 0xcb, 0x51, 0x81, 0x9d, 0x74, 0x55, 0x7d, 0x47,
  0xc2, 0x0b, 0xf3, 0x2c, 0xcc, 0x7f, 0x35, 0xe2, 0x7f, 0x0d, 0x50, 0xd8,
  0xbd, 0x20, 0xb7, 0x85, 0xf2, 0x8d, 0xd4, 0x85, 0x1a, 0x0b, 0x81, 0xa6,
  0x7a, 0xa1, 0xfd, 0x9e, 0xa7, 0x81, 0xb4, 0xb6, 0x9f, 0x05, 0x86, 0xf0,
  0x25, 0x02, 0x1b, 0x7f, 0xdc, 0x0c, 0xb3, 0x81, 0xd3, 0x07, 0xef, 0xde,
  0x7f, 0x0a, 0x28, 0xce, 0x49, 0x51, 0xd5, 0x8b, 0x88, 0xc2, 0xc2, 0x54,
  0xee, 0x7f, 0x6c, 0x83, 0xc2, 0x2f, 0x3e, 0x51, 0xdb, 0xab, 0x7f, 0x4f,
  0xe8, 0x92, 0x54, 0x59, 0x85, 0xc2, 0x90, 0x81, 0xee, 0x99, 0x68, 0x42,
  0xcf, 0x81, 0x7b, 0xaf, 0x8a, 0xee, 0xff, 0xff, 0x04, 0x00, 0x00, 0x00,
  0xc0, 0x00, 0x00, 0x00, 0xda, 0x00, 0x00, 0x00, 0x04, 0xfd, 0xff, 0xff,
  0x65, 0xff, 0xff, 0xff, 0x82, 0xfc, 0xff, 0xff, 0xe3, 0xfe, 0xff, 0xff,
  0xa1, 0x00, 0x00, 0x00, 0x93, 0xfc, 0xff, 0xff, 0xee, 0xfd, 0xff, 0xff,
  0x1c, 0xff, 0xff, 0xff, 0x0f, 0x00, 0x00, 0x00, 0xe8, 0xfe, 0xff, 0xff,
  0x36, 0xfe, 0xff, 0xff, 0x75, 0xfe, 0xff, 0xff, 0x83, 0x00, 0x00, 0x00,
  0x4e, 0x00, 0x00, 0x00, 0x3a, 0xff, 0xff, 0xff, 0xd9, 0x00, 0x00, 0x00,
  0x9d, 0xfe, 0xff, 0xff, 0x79, 0x00, 0x00, 0x00, 0x62, 0xfc, 0xff, 0xff,
  0x57, 0x00, 0x00, 0x00, 0x12, 0xfd, 0xff, 0xff, 0x08, 0x00, 0x00, 0x00,
  0xbd, 0xfc, 0xff, 0xff, 0x9b, 0xfe, 0xff, 0xff, 0xa8, 0xfe, 0xff, 0xff,
  0xdb, 0xfe, 0xff, 0xff, 0x87, 0x00, 0x00, 0x00, 0xfa, 0x01, 0x00, 0x00,
  0x46, 0xff, 0xff, 0xff, 0x5b, 0x00, 0x00, 0x00, 0xb8, 0xfd, 0xff, 0xff,
  0x1e, 0xff, 0xff, 0xff, 0xb2, 0xfa, 0xff, 0xff, 0x7f, 0xfe, 0xff, 0xff,
  0xa5, 0xff, 0xff, 0xff, 0x68, 0x00, 0x00, 0x00, 0xf4, 0xfe, 0xff, 0xff,
  0x7d, 0xfe, 0xff, 0xff, 0x1a, 0x02, 0x00, 0x00, 0xac, 0xfd, 0xff, 0xff,
  0xcb, 0xff, 0xff, 0xff, 0x7b, 0x00, 0x00, 0x00, 0xaa, 0xff, 0xff, 0xff,
  0xd9, 0x01, 0x00, 0x00, 0xf5, 0xfe, 0xff, 0xff, 0xa4, 0xfd, 0xff, 0xff,
  0x99, 0xfe, 0xff, 0xff, 0x56, 0xef, 0xff, 0xff, 0x04, 0x00, 0x00, 0x00,
  0xb0, 0x01, 0x00, 0x00, 0x43, 0x67, 0x21, 0x7f, 0x29, 0x74, 0x1b, 0x81,
  0x3e, 0xc9, 0xb0, 0xc6, 0x1f, 0xbe, 0xfb, 0x6f, 0x91, 0xdd, 0x4c, 0x9f,
  0x1a, 0x25, 0xdb, 0x18, 0x7f, 0x10, 0x05, 0xff, 0xc8, 0xc9, 0xb2, 0x7f,
  0x58, 0x34, 0xcd, 0xed, 0x3e, 0xff, 0x27, 0x24, 0xd7, 0xcb, 0x37, 0xf3,
  0xd2, 0xc5, 0xd1, 0x1e, 0x7f, 0x2c, 0xaf, 0x1c, 0x81, 0x54, 0xe7, 0xa5,
  0xb1, 0x56, 0xd9, 0x1e, 0x81, 0xfb, 0xc3, 0x56, 0x42, 0x72, 0x36, 0xf5,
  0xf7, 0x55, 0x56, 0x99, 0xf2, 0x08, 0xe5, 0xf2, 0x7f, 0x0a, 0xb6, 0x30,
  0x22, 0xd8, 0xf7, 0x7f, 0x63, 0x21, 0x56, 0x7f, 0x9e, 0xc1, 0x00, 0xc8,
  0x81, 0x36, 0x39, 0x7f, 0xdd, 0x81, 0x7d, 0xf3, 0xb7, 0x2c, 0xbf, 0x6d,
  0x67, 0x14, 0x0d, 0x10, 0xc4, 0x37, 0xf8, 0xf8, 0xe8, 0xef, 0xbf, 0x81,
  0x07, 0x7f, 0x3d, 0xe8, 0xe4, 0x81, 0x0e, 0xc2, 0x10, 0xd1, 0x4d, 0x18,
  0x49, 0x2b, 0x81, 0x29, 0x7f, 0x7f, 0x07, 0xfe, 0xbb, 0xee, 0x17, 0x47,
  0x24, 0x38, 0xcf, 0x02, 0x3c, 0x08, 0xf1, 0xed, 0x27, 0x6a, 0x25, 0xdb,
  0x43, 0xf7, 0x81, 0x81, 0x2c, 0xea, 0xb3, 0x1a, 0xcf, 0x19, 0xea, 0xd0,
  0x9f, 0xc8, 0x28, 0x7f, 0x59, 0x3c, 0x81, 0x7c, 0x23, 0x67, 0xd7, 0x2a,
  0xdc, 0xd6, 0x12, 0x03, 0xf8, 0x6b, 0x7f, 0x1c, 0xf7, 0xfc, 0x7f, 0x47,
  0x00, 0x81, 0x81, 0xf2, 0xeb, 0x57, 0xf4, 0x4f, 0x01, 0x7f, 0xf9, 0x72,
  0x1b, 0x81, 0xed, 0x28, 0x0a, 0x11, 0x0d, 0xff, 0xbe, 0xbd, 0x81, 0xa5,
  0xda, 0x68, 0x1e, 0xd9, 0xad, 0xe2, 0x0f, 0x76, 0xe1, 0x72, 0x81, 0xea,
  0xdd, 0xe0, 0x53, 0x36, 0xef, 0x49, 0xc2, 0x2c, 0x10, 0x0f, 0x2b, 0x05,
  0x9a, 0x97, 0xbf, 0x6c, 0xed, 0xf4, 0x14, 0xd4, 0xe0, 0x3c, 0xbd, 0x0c,
  0x81, 0x15, 0x2d, 0xfe, 0x3f, 0x4e, 0xc0, 0x72, 0x0e, 0x35, 0xca, 0x12,
  0xe4, 0x50, 0xae, 0x58, 0x19, 0xab, 0xb1, 0x81, 0x2c, 0x11, 0xc3, 0x0f,
  0x81, 0xdc, 0x15, 0xcb, 0x47, 0x29, 0x25, 0x05, 0x81, 0xaa, 0x3f, 0x7f,
  0xd0, 0x4a, 0x02, 0x22, 0x2e, 0x76, 0x7f, 0x4d, 0x2f, 0x69, 0x0e, 0x06,
  0x49, 0x1c, 0xac, 0xcf, 0xed, 0x81, 0xf9, 0x48, 0x7f, 0xdb, 0x90, 0x0b,
  0x00, 0x24, 0xb0, 0x20, 0x43, 0xd5, 0x21, 0x17, 0xe9, 0x7f, 0x91, 0x38,
  0xf0, 0x7f, 0x8a, 0xc9, 0xfd, 0xe5, 0xc6, 0x12, 0x53, 0x81, 0xbf, 0x42,
  0x11, 0x19, 0x0c, 0x47, 0xef, 0xef, 0x4c, 0x42, 0xec, 0xa1, 0x05, 0x1c,
  0xf1, 0xe4, 0x21, 0xdf, 0xcd, 0x8d, 0x81, 0x39, 0x20, 0x51, 0xe2, 0x16,
  0x81, 0x3d, 0x81, 0x9f, 0x0a, 0x92, 0x1f, 0xff, 0x01, 0xeb, 0x5b, 0x12,
  0x48, 0xf1, 0x3d, 0x13, 0x5b, 0xf5, 0xb7, 0x3a, 0x28, 0x30, 0x09, 0x30,
  0xc2, 0x5f, 0x82, 0x32, 0x19, 0x39, 0x35, 0x0d, 0xc9, 0x81, 0x81, 0xa0,
  0xbc, 0x3d, 0xc0, 0x4f, 0x13, 0x09, 0xc4, 0x81, 0x61, 0x81, 0x4a, 0x0f,
  0x42, 0x6b, 0x23, 0x94, 0x81, 0x4c, 0xab, 0xf2, 0x20, 0x72, 0x0a, 0xdf,
  0x01, 0x5a, 0x1a, 0x47, 0x4e, 0x36, 0x5a, 0x2b, 0x2f, 0x2f, 0xe4, 0x09,
  0x19, 0x4b, 0x2e, 0x2b, 0x12, 0xf1, 0xff, 0xff, 0x04, 0x00, 0x00, 0x00,
  0xc0, 0x00, 0x00, 0x00, 0xdd, 0xed, 0xff, 0xff, 0x82, 0xf6, 0xff, 0xff,
  0xe8, 0xf0, 0xff, 0xff, 0x89, 0xf1, 0xff, 0xff, 0x53, 0x07, 0x00, 0x00,
  0x71, 0xe1, 0xff, 0xff, 0xc5, 0x05, 0x00, 0x00, 0xd5, 0x02, 0x00, 0x00,
  0x04, 0xff, 0xff, 0xff, 0x5d, 0x01, 0x00, 0x00, 0x2c, 0x10, 0x00, 0x00,
  0x17, 0x04, 0x00, 0x00, 0xb1, 0x03, 0x00, 0x00, 0x76, 0x0c, 0x00, 0x00,
  0x53, 0x1a, 0x00, 0x00, 0xf5, 0xec, 0xff, 0xff, 0xb9, 0xfa, 0xff, 0xff,
  0x28, 0x00, 0x00, 0x00, 0xa6, 0x09, 0x00, 0x00, 0xa1, 0x0a, 0x00, 0x00,
  0x01, 0x12, 0x00, 0x00, 0x5f, 0xeb, 0xff, 0xff, 0xb6, 0x01, 0x00, 0x00,
  0x7f, 0x03, 0x00, 0x00, 0x20, 0xfb, 0xff, 0xff, 0x18, 0x10, 0x00, 0x00,
  0x92, 0x0a, 0x00, 0x00, 0x60, 0xfb, 0xff, 0xff, 0x24, 0xf4, 0xff, 0xff,
  0xef, 0xe9, 0xff, 0xff, 0xde, 0x15, 0x00, 0x00, 0xfd, 0xf1, 0xff, 0xff,
  0x64, 0xfa, 0xff, 0xff, 0x70, 0xff, 0xff, 0xff, 0xc7, 0x02, 0x00, 0x00,
  0x2d, 0xf2, 0xff, 0xff, 0x91, 0xde, 0xff, 0xff, 0x7e, 0xe8, 0xff, 0xff,
  0xcd, 0xf1, 0xff, 0xff, 0x30, 0xeb, 0xff, 0xff, 0x81, 0x0a, 0x00, 0x00,
  0x38, 0x0c, 0x00, 0x00, 0x9e, 0xf0, 0xff, 0xff, 0x0e, 0xf2, 0xff, 0xff,
  0x66, 0x15, 0x00, 0x00, 0x11, 0xfe, 0xff, 0xff, 0x50, 0x0f, 0x00, 0x00,
  0x3a, 0xe8, 0xff, 0xff, 0xde, 0xf1, 0xff, 0xff, 0x04, 0x00, 0x00, 0x00,
  0x10, 0x02, 0x00, 0x00, 0xc0, 0x18, 0x4a, 0x14, 0xf5, 0x44, 0x7f, 0x1b,
  0xf4, 0xba, 0x31, 0x1f, 0x21, 0x0e, 0x5d, 0xf7, 0xd2, 0xce, 0xd6, 0xfd,
  0x5d, 0x59, 0xa9, 0xab, 0x87, 0x21, 0xa6, 0xd1, 0xfc, 0x3b, 0x2b, 0x99,
  0xb3, 0xda, 0x0c, 0xb5, 0xec, 0xe3, 0x43, 0xf4, 0x27, 0xda, 0xf5, 0xd1,
  0x5c, 0xb8, 0xaa, 0xcd, 0xcb, 0xd6, 0x2f, 0x00, 0x45, 0x15, 0x3a, 0xf3,
  0x9d, 0xad, 0x03, 0xc9, 0x81, 0x4c, 0x1b, 0xc8, 0x2c, 0x5d, 0xa6, 0x23,
  0x21, 0xbd, 0xbe, 0x05, 0x0b, 0xab, 0x3e, 0xc9, 0xa4, 0xc9, 0x16, 0xfe,
  0x89, 0xd4, 0xfa, 0xc2, 0x6e, 0x25, 0x57, 0xfb, 0xbe, 0x6a, 0xcd, 0x58,
  0xdb, 0x06, 0xe4, 0x1c, 0x33, 0x55, 0xe3, 0xe4, 0x19, 0x02, 0x11, 0xc3,
  0x62, 0xd2, 0xfa, 0x7f, 0x2d, 0xea, 0xeb, 0x86, 0x45, 0xf6, 0xbb, 0x6b,
  0xc2, 0x0d, 0xdd, 0xf4, 0xf5, 0xab, 0xbd, 0xff, 0x03, 0xb6, 0x2e, 0x23,
  0x9b, 0x4c, 0x9e, 0xb4, 0xd1, 0x47, 0xd1, 0xad, 0xf9, 0xc4, 0xd8, 0x25,
  0x09, 0x3e, 0x34, 0x40, 0xad, 0x01, 0x88, 0x9b, 0x99, 0xd2, 0x78, 0xe3,
  0x4a, 0x42, 0xf3, 0x9e, 0xeb, 0xa4, 0xd4, 0x70, 0x58, 0x99, 0x42, 0x12,
  0xcf, 0x2f, 0x63, 0x90, 0xda, 0xa0, 0x3c, 0xf3, 0x01, 0xa9, 0xfc, 0x41,
  0x8f, 0x65, 0x7f, 0x46, 0x5e, 0xe7, 0x68, 0x17, 0x23, 0x53, 0x76, 0x35,
  0xa8, 0xe7, 0x8a, 0xb0, 0xb8, 0x85, 0xe8, 0xa6, 0xfa, 0x46, 0x17, 0xd9,
  0xbc, 0x56, 0x14, 0x24, 0x21, 0x16, 0x54, 0xfe, 0x49, 0xde, 0x10, 0xb9,
  0x27, 0x42, 0x81, 0x2f, 0x12, 0x78, 0x9b, 0x7e, 0xaf, 0x7f, 0x2f, 0x7f,
  0x97, 0x57, 0x06, 0xc1, 0xff, 0x32, 0x4b, 0xff, 0x5c, 0xbd, 0x2a, 0x53,
  0xa2, 0x5b, 0x04, 0x1c, 0xcf, 0x08, 0x39, 0xcb, 0x8c, 0xd2, 0x00, 0xd1,
  0xaf, 0x41, 0xf4, 0x2a, 0x40, 0xbf, 0x8d, 0xd9, 0x93, 0x31, 0x33, 0xe5,
  0x5e, 0x10, 0xed, 0xfd, 0xe2, 0xbd, 0x35, 0x81, 0xf1, 0x20, 0x3c, 0x4c,
  0xfd, 0xfb, 0x56, 0xcd, 0x1a, 0x43, 0xbd, 0x03, 0x6b, 0x17, 0xfa, 0xdb,
  0xde, 0x9c, 0xf8, 0xbb, 0x9c, 0x12, 0x89, 0x44, 0xce, 0x8c, 0x87, 0xd3,
  0xdf, 0x0e, 0x62, 0x7f, 0x17, 0x35, 0xf7, 0xd1, 0x03, 0x0f, 0xe9, 0xe9,
  0xe6, 0x68, 0xcb, 0xf2, 0xc8, 0x6b, 0xd0, 0x37, 0x12, 0x03, 0xc6, 0xa2,
  0x0f, 0xdf, 0xca, 0x20, 0xa5, 0x0a, 0x24, 0x7a, 0x41, 0xb2, 0x97, 0x10,
  0x2f, 0xcd, 0xa4, 0x49, 0x36, 0xca, 0x23, 0x0b, 0xe2, 0xac, 0x0a, 0x1c,
  0xc9, 0x1d, 0xe4, 0x19, 0xfb, 0xe0, 0xca, 0x30, 0x61, 0x1f, 0xb7, 0xeb,
  0x9f, 0x12, 0xc3, 0x3a, 0x24, 0xcb, 0xb8, 0x55, 0x1c, 0xfb, 0x21, 0x4a,
  0xc3, 0xba, 0x17, 0xa2, 0x01, 0xb3, 0x7e, 0x8c, 0xc6, 0x18, 0xdc, 0x1e,
  0x81, 0x98, 0x8b, 0xc8, 0xc8, 0xe7, 0xb8, 0xa5, 0xf6, 0x0c, 0x1f, 0x7a,
  0xc6, 0x47, 0x63, 0x47, 0x02, 0xa9, 0x37, 0x46, 0x12, 0x0f, 0x50, 0x8c,
  0xe5, 0x4f, 0xf9, 0xbc, 0xf5, 0x3a, 0xc2, 0x12, 0xbc, 0x25, 0x81, 0xe8,
  0xc6, 0x12, 0xc0, 0xc5, 0xf8, 0x07, 0xdb, 0xde, 0xfd, 0xde, 0x61, 0x9d,
  0xdc, 0xd9, 0x2d, 0x05, 0x11, 0xa3, 0xb8, 0x40, 0x1e, 0x0b, 0x0c, 0xbd,
  0xc5, 0x62, 0xf7, 0xd6, 0x2f, 0x58, 0x2b, 0x08, 0xf6, 0xd7, 0x47, 0x31,
  0x16, 0xdf, 0xac, 0xb8, 0x07, 0xd3, 0x46, 0x18, 0xf9, 0xeb, 0x10, 0x7f,
  0xf1, 0xdd, 0xb9, 0x19, 0xfc, 0xc2, 0x17, 0xda, 0x52, 0xe5, 0x14, 0x9c,
  0xd4, 0xf6, 0x0a, 0xaa, 0x4a, 0x2e, 0xe0, 0xf6, 0x60, 0xc7, 0x58, 0x39,
  0xf7, 0x03, 0x81, 0x32, 0xd7, 0x10, 0x2d, 0xee, 0x2a, 0xe1, 0xbe, 0xa1,
  0x73, 0x47, 0xba, 0xee, 0xf7, 0xd4, 0xd1, 0xfc, 0xd6, 0xb5, 0x74, 0x3b,
  0xd0, 0x0b, 0xc4, 0xbf, 0xf3, 0x3a, 0x0e, 0x34, 0x01, 0xb5, 0xbd, 0xcf,
  0xe8, 0xcb, 0xf8, 0x11, 0xfa, 0xf3, 0xff, 0xff, 0x04, 0x00, 0x00, 0x00,
  0x2c, 0x00, 0x00, 0x00, 0x67, 0x06, 0x00, 0x00, 0x34, 0x10, 0x00, 0x00,
  0x16, 0x0b, 0x00, 0x00, 0x05, 0x04, 0x00, 0x00, 0xeb, 0xde, 0xff, 0xff,
  0x5f, 0x13, 0x00, 0x00, 0x7b, 0x1b, 0x00, 0x00, 0x02, 0x32, 0x00, 0x00,
  0x20, 0x15, 0x00, 0x00, 0xe2, 0x09, 0x00, 0x00, 0x40, 0x06, 0x00, 0x00,
  0x32, 0xf4, 0xff, 0xff, 0x04, 0x00, 0x00, 0x00, 0xd6, 0x02, 0x00, 0x00,
  0x25, 0x9a, 0x81, 0xec, 0xe7, 0xbe, 0x08, 0x36, 0xcb, 0xc6, 0xf1, 0x21,
  0x19, 0xfd, 0x2a, 0x7f, 0x39, 0xc9, 0x31, 0xe8, 0x22, 0x4d, 0xd3, 0xfc,
  0x3a, 0x8b, 0x7f, 0x83, 0x14, 0xac, 0xd5, 0xd7, 0xd5, 0x83, 0x7f, 0x19,
  0x25, 0x02, 0xb1, 0xe3, 0x0b, 0x47, 0xaf, 0x33, 0xf3, 0x7f, 0x3d, 0xf2,
  0xbb, 0xe1, 0xea, 0xdf, 0x44, 0x4c, 0xae, 0x0b, 0x21, 0x6e, 0x4f, 0xd3,
  0x64, 0x0d, 0x4b, 0x81, 0xea, 0x1c, 0x9f, 0x5d, 0x43, 0x81, 0x1b, 0x2b,
  0x25, 0xa4, 0x22, 0x70, 0x58, 0x82, 0x28, 0xaa, 0xbf, 0x44, 0x66, 0x94,
  0x4c, 0x7f, 0x11, 0x5d, 0xc9, 0x0c, 0x81, 0x1f, 0x8e, 0xb8, 0xbe, 0xf3,
  0xe9, 0x25, 0xb5, 0xb1, 0xd0, 0x1d, 0xf5, 0x81, 0x2e, 0xe3, 0xb9, 0x66,
  0xee, 0x13, 0x7f, 0x74, 0x26, 0xb8, 0x1d, 0xb7, 0xdc, 0x27, 0xec, 0x40,
  0x13, 0x1f, 0xe1, 0x10, 0x02, 0x01, 0x18, 0x10, 0x15, 0xd7, 0x81, 0x26,
  0x08, 0xb2, 0xf3, 0x07, 0x0c, 0xb0, 0xf0, 0x7f, 0x6b, 0x5d, 0xbe, 0xf7,
  0xd7, 0x7f, 0x1e, 0x4e, 0x28, 0xfb, 0x33, 0x45, 0xd3, 0x69, 0x0d, 0x5b,
  0xab, 0xf9, 0x10, 0x81, 0x41, 0x4a, 0x21, 0x18, 0x14, 0x36, 0x00, 0x49,
  0xc2, 0x19, 0x81, 0x60, 0xa2, 0xf1, 0x52, 0x59, 0xa7, 0x32, 0xcb, 0xec,
  0x92, 0xe5, 0xbe, 0x7f, 0xf6, 0xe3, 0xb4, 0x4b, 0x0b, 0xe5, 0x81, 0x26,
  0xd4, 0xf0, 0x05, 0x15, 0x0a, 0x20, 0x79, 0xaa, 0xa7, 0xc0, 0x0d, 0x26,
  0xd3, 0xe0, 0x7f, 0xde, 0x28, 0xc0, 0xde, 0x1f, 0xc0, 0x3f, 0x91, 0x7f,
  0xc7, 0xf2, 0xcd, 0x5a, 0x67, 0xad, 0x76, 0x7f, 0xf1, 0xa5, 0x43, 0xb2,
  0x7f, 0x2f, 0xfe, 0x20, 0x97, 0x7f, 0x74, 0x0b, 0x34, 0xce, 0xd5, 0x3f,
  0xab, 0xf8, 0x9c, 0x1f, 0xb4, 0x38, 0x5e, 0x6f, 0x81, 0xf4, 0x1d, 0xff,
  0x47, 0xc3, 0x5d, 0x62, 0xf1, 0x81, 0xcf, 0xf0, 0x48, 0x8d, 0xe0, 0x20,
  0x0d, 0x65, 0xef, 0xde, 0x52, 0x72, 0x81, 0xff, 0xe0, 0xd2, 0xd7, 0xec,
  0xfb, 0xda, 0x13, 0x34, 0x54, 0x33, 0x7f, 0x34, 0x36, 0x12, 0x7f, 0x24,
  0xb9, 0x5b, 0xee, 0x28, 0x15, 0xf2, 0xb4, 0xf2, 0xcb, 0x68, 0x00, 0xe2,
  0x46, 0xa0, 0xf4, 0xc9, 0xed, 0x7f, 0x4b, 0x59, 0xd9, 0xc7, 0xe9, 0x45,
  0x81, 0x2d, 0x42, 0x25, 0x2d, 0x0c, 0x58, 0xa0, 0x48, 0x7f, 0x85, 0xc2,
  0x92, 0xb2, 0x5a, 0x2b, 0x33, 0xbb, 0x08, 0xa4, 0x4a, 0x25, 0xe1, 0x99,
  0x25, 0xae, 0x81, 0x14, 0xd9, 0xd5, 0x66, 0xd5, 0x26, 0xea, 0x16, 0x36,
  0x1c, 0x49, 0x7f, 0x0c, 0x79, 0x43, 0x5d, 0x62, 0x5d, 0x45, 0xe3, 0xba,
  0x81, 0x20, 0x8f, 0x81, 0xb1, 0x13, 0x4a, 0xb1, 0xff, 0x61, 0xaa, 0xf2,
  0xa9, 0x7f, 0x0f, 0x62, 0xf2, 0xe1, 0xac, 0x7f, 0x06, 0x12, 0xd1, 0x27,
  0xc6, 0xf9, 0xf9, 0x30, 0xb0, 0x12, 0x74, 0xb9, 0xa8, 0x81, 0x69, 0x2b,
  0x3f, 0xf9, 0xd9, 0xd7, 0xa7, 0x11, 0x2a, 0x7f, 0x2f, 0x69, 0xe8, 0x58,
  0xc1, 0x18, 0x17, 0xc9, 0x1d, 0x81, 0x74, 0x0b, 0x05, 0x0d, 0xf7, 0xa9,
  0xfa, 0x7f, 0xa7, 0x4e, 0x37, 0xda, 0x0c, 0x5d, 0xf2, 0x1e, 0x12, 0x07,
  0xad, 0x53, 0x98, 0x7f, 0x8b, 0xd3, 0xcd, 0xa7, 0x21, 0xdd, 0x09, 0xf7,
  0x7e, 0x41, 0x34, 0x7f, 0x21, 0xe1, 0x48, 0x7f, 0x74, 0x13, 0x43, 0x20,
  0xd6, 0x31, 0xd3, 0x6f, 0x9a, 0x1d, 0xfc, 0xed, 0xb5, 0x7f, 0x1a, 0x7a,
  0x18, 0x53, 0xfc, 0x40, 0x33, 0xb9, 0x9c, 0x94, 0x76, 0xe2, 0x20, 0x7f,
  0x15, 0x2b, 0x2a, 0xe0, 0xb8, 0xf9, 0x22, 0x06, 0x81, 0xef, 0x2b, 0xe0,
  0xcf, 0xe5, 0xc9, 0xc9, 0x9c, 0x48, 0xa2, 0xf8, 0x74, 0xf9, 0x7f, 0x9a,
  0x28, 0x3c, 0x38, 0x81, 0xff, 0xb0, 0xd5, 0xdc, 0x20, 0xbe, 0xbc, 0x21,
  0xce, 0xe3, 0xd0, 0xcd, 0xf4, 0xd0, 0x51, 0x4e, 0xa0, 0x11, 0x00, 0x81,
  0xff, 0xf9, 0xc8, 0xdd, 0x56, 0x00, 0xf2, 0x54, 0x81, 0x6e, 0xde, 0x81,
  0xdd, 0x17, 0x08, 0xf4, 0x7b, 0x2a, 0xee, 0x3f, 0xda, 0xf7, 0xf9, 0x20,
  0x9a, 0x7f, 0xbd, 0xe2, 0x41, 0xfd, 0x12, 0xb3, 0x55, 0x4d, 0x9d, 0x92,
  0x29, 0x61, 0x5e, 0x4d, 0x5a, 0x7f, 0x4c, 0xd1, 0xad, 0xe4, 0x81, 0x36,
  0xd8, 0x31, 0xde, 0xe4, 0xc7, 0xac, 0xbc, 0x12, 0xf3, 0xd5, 0xe3, 0x03,
  0x25, 0x15, 0xcc, 0x20, 0xf4, 0x81, 0xed, 0x01, 0x59, 0x81, 0x9a, 0xcd,
  0xb3, 0x10, 0xef, 0x61, 0xb0, 0x7f, 0xfa, 0x43, 0x14, 0xb1, 0xad, 0x8f,
  0x4c, 0xee, 0xe2, 0x37, 0xc7, 0x37, 0xdf, 0xbd, 0x81, 0x10, 0xfe, 0xec,
  0xe5, 0x05, 0x2d, 0x36, 0x78, 0x81, 0x3b, 0x38, 0x0e, 0xf6, 0xd1, 0x36,
  0x4f, 0xf2, 0x8a, 0xba, 0x40, 0x56, 0xc3, 0xc1, 0xf6, 0x81, 0x33, 0x01,
  0xeb, 0x12, 0x25, 0xd5, 0x7f, 0x25, 0x7f, 0x8f, 0x1b, 0x13, 0x81, 0x62,
  0xeb, 0x0d, 0xef, 0xfd, 0x0d, 0xf0, 0xe9, 0x35, 0x81, 0xeb, 0x10, 0xbe,
  0xbf, 0xb1, 0xfd, 0x34, 0x81, 0xfe, 0x6f, 0xfd, 0x52, 0x24, 0xa7, 0x6b,
  0x11, 0x12, 0xfa, 0x52, 0x50, 0x7f, 0x5a, 0x9c, 0xa9, 0xd1, 0xeb, 0xb5,
  0x2d, 0x04, 0xa3, 0xa6, 0x7b, 0x10, 0x81, 0x31, 0x74, 0xa1, 0x35, 0xad,
  0x44, 0x1c, 0x7f, 0x3a, 0xa3, 0x64, 0x59, 0xda, 0xf0, 0x3d, 0xb0, 0x81,
  0x95, 0xab, 0xa3, 0xc9, 0xec, 0x4c, 0x00, 0x00, 0x16, 0xf7, 0xff, 0xff,
  0x04, 0x00, 0x00, 0x00, 0x08, 0x01, 0x00, 0x00, 0x92, 0xff, 0xff, 0xff,
  0x9f, 0x02, 0x00, 0x00, 0x12, 0xff, 0xff, 0xff, 0x1c, 0x01, 0x00, 0x00,
  0xf8, 0xff, 0xff, 0xff, 0x7c, 0xfe, 0xff, 0xff, 0xbc, 0xfb, 0xff, 0xff,
  0x0c, 0xff, 0xff, 0xff, 0xee, 0x02, 0x00, 0x00, 0x9b, 0x00, 0x00, 0x00,
  0xcd, 0x00, 0x00, 0x00, 0x99, 0xff, 0xff, 0xff, 0x0f, 0xfe, 0xff, 0xff,
  0x9a, 0xfd, 0xff, 0xff, 0xd9, 0x00, 0x00, 0x00, 0x09, 0xfa, 0xff, 0xff,
  0x53, 0xfa, 0xff, 0xff, 0x5a, 0xff, 0xff, 0xff, 0xee, 0xff, 0xff, 0xff,
  0x1e, 0xfa, 0xff, 0xff, 0x01, 0xff, 0xff, 0xff, 0x76, 0x01, 0x00, 0x00,
  0xda, 0xfa, 0xff, 0xff, 0x3b, 0xfe, 0xff, 0xff, 0x66, 0xfd, 0xff, 0xff,
  0x54, 0xff, 0xff, 0xff, 0x1d, 0x00, 0x00, 0x00, 0x09, 0xfe, 0xff, 0xff,
  0xb7, 0xfe, 0xff, 0xff, 0x88, 0xfc, 0xff, 0xff, 0xfa, 0x00, 0x00, 0x00,
  0xa1, 0xff, 0xff, 0xff, 0xfa, 0xff, 0xff, 0xff, 0x0c, 0xfb, 0xff, 0xff,
  0x68, 0xff, 0xff, 0xff, 0xc6, 0x01, 0x00, 0x00, 0xb5, 0xff, 0xff, 0xff,
  0xdf, 0xfb, 0xff, 0xff, 0x25, 0x00, 0x00, 0x00, 0xf1, 0xff, 0xff, 0xff,
  0xcc, 0xf9, 0xff, 0xff, 0x7f, 0x00, 0x00, 0x00, 0xcb, 0xfc, 0xff, 0xff,
  0xb3, 0x01, 0x00, 0x00, 0xe7, 0xfd, 0xff, 0xff, 0xf8, 0xfc, 0xff, 0xff,
  0xe1, 0xfe, 0xff, 0xff, 0xf0, 0x00, 0x00, 0x00, 0x1d, 0xfe, 0xff, 0xff,
  0x27, 0xfb, 0xff, 0xff, 0x60, 0x01, 0x00, 0x00, 0x3c, 0xfb, 0xff, 0xff,
  0x46, 0xff, 0xff, 0xff, 0x89, 0x00, 0x00, 0x00, 0x89, 0xfd, 0xff, 0xff,
  0x3b, 0x01, 0x00, 0x00, 0x21, 0xfe, 0xff, 0xff, 0x14, 0xfe, 0xff, 0xff,
  0x36, 0xff, 0xff, 0xff, 0x64, 0xff, 0xff, 0xff, 0x37, 0x00, 0x00, 0x00,
  0x3b, 0xf9, 0xff, 0xff, 0x3a, 0xfc, 0xff, 0xff, 0x20, 0x00, 0x00, 0x00,
  0xd8, 0xf9, 0xff, 0xff, 0xdf, 0xfc, 0xff, 0xff, 0x2a, 0xf8, 0xff, 0xff,
  0x04, 0x00, 0x00, 0x00, 0x52, 0x02, 0x00, 0x00, 0xc9, 0x87, 0x03, 0x9f,
  0x0f, 0x7f, 0xdc, 0x30, 0x64, 0x22, 0xbc, 0xbe, 0x7f, 0x7a, 0x54, 0x75,
  0x7f, 0x4d, 0x98, 0xcc, 0xb0, 0x7c, 0xe8, 0x4a, 0xcd, 0xea, 0x81, 0x41,
  0x0b, 0x70, 0xc7, 0x1a, 0x1f, 0x87, 0xc7, 0x81, 0xe9, 0xc3, 0x64, 0x4c,
  0x51, 0x09, 0x59, 0x99, 0x1b, 0x0e, 0xe9, 0xda, 0x78, 0x72, 0x0f, 0x44,
  0xf9, 0x7c, 0x81, 0x37, 0x66, 0xed, 0x24, 0x2e, 0x4d, 0x23, 0x7f, 0x03,
  0x71, 0x75, 0x82, 0x81, 0x42, 0xb2, 0x2d, 0x6d, 0xdf, 0x21, 0x7f, 0x81,
  0x98, 0xe7, 0x69, 0x5c, 0x6c, 0x7f, 0x71, 0x40, 0xcf, 0xbc, 0x81, 0x5e,
  0xfc, 0x4f, 0xfd, 0x81, 0xa3, 0x53, 0x14, 0x79, 0xf3, 0xf7, 0x08, 0x97,
  0xb3, 0xda, 0x8f, 0x62, 0x75, 0x2e, 0x6c, 0xdc, 0xdc, 0xa4, 0x3e, 0x00,
  0xe0, 0x81, 0x52, 0x68, 0x13, 0x67, 0x18, 0x48, 0xed, 0xa6, 0x7f, 0xa0,
  0x28, 0x5c, 0x44, 0x95, 0x59, 0xf6, 0x6f, 0x01, 0x8c, 0xa4, 0xb8, 0x9c,
  0xda, 0x44, 0x7b, 0x6e, 0x5a, 0x4c, 0x9d, 0xe9, 0x8f, 0x2c, 0x67, 0x68,
  0x5a, 0x2d, 0xab, 0x5b, 0xb0, 0x54, 0xdc, 0x6b, 0xc9, 0x2a, 0x35, 0x28,
  0xe7, 0x76, 0xcc, 0xc1, 0xff, 0x19, 0xa4, 0xd8, 0x99, 0x6d, 0x54, 0x3d,
  0x7f, 0x6a, 0x34, 0x14, 0xd5, 0x0c, 0xd5, 0x1b, 0x72, 0x54, 0x13, 0x52,
  0xef, 0x22, 0x03, 0xa4, 0x60, 0x9d, 0x29, 0x93, 0x62, 0x4e, 0x73, 0xc3,
  0x70, 0x65, 0xda, 0xf9, 0x81, 0x04, 0xff, 0x4c, 0x82, 0x91, 0x7a, 0x21,
  0xb5, 0xd8, 0x52, 0x51, 0x55, 0x44, 0x48, 0x6f, 0x81, 0x18, 0xce, 0x3f,
  0x68, 0x55, 0xde, 0xde, 0xad, 0x22, 0xe9, 0x4c, 0x9c, 0x1d, 0xfc, 0x90,
  0xa8, 0xb8, 0xef, 0xd0, 0x36, 0xf0, 0x75, 0x6c, 0xa3, 0x98, 0xf6, 0xcb,
  0xf5, 0xfe, 0x55, 0x6f, 0xb3, 0x5c, 0x3e, 0x44, 0xa3, 0xeb, 0x6f, 0x95,
  0xe1, 0xa5, 0x51, 0x1d, 0x65, 0xd3, 0x60, 0x67, 0xc1, 0xd4, 0x1e, 0xfe,
  0x41, 0x33, 0xd8, 0x9d, 0xab, 0x10, 0xcb, 0x04, 0x6b, 0x3b, 0x51, 0x53,
  0x2e, 0x4f, 0xef, 0x17, 0xb1, 0x2f, 0x51, 0x79, 0xf2, 0xd5, 0xbe, 0x3d,
  0x81, 0x46, 0xb6, 0x97, 0xbe, 0x8f, 0x88, 0xf6, 0x1f, 0x7f, 0xb2, 0x81,
  0x73, 0x2d, 0x74, 0x81, 0x56, 0xdd, 0xfa, 0xe6, 0x55, 0x70, 0x81, 0x4b,
  0xeb, 0x5c, 0x9d, 0x8a, 0x74, 0x99, 0xee, 0xb0, 0x30, 0xd1, 0x43, 0x8c,
  0x65, 0x49, 0xa6, 0xbd, 0xca, 0xf2, 0x3f, 0x43, 0x45, 0x81, 0x62, 0xe0,
  0xce, 0xbf, 0xdd, 0x34, 0x4e, 0x5c, 0x2a, 0x4c, 0xbe, 0x41, 0xbd, 0x61,
  0x7f, 0x6d, 0xcc, 0x12, 0x39, 0xa8, 0x17, 0x7f, 0x96, 0xcb, 0xd1, 0x77,
  0x81, 0xe3, 0xc4, 0x40, 0x4b, 0xa9, 0x60, 0x5c, 0xb4, 0xaf, 0x8c, 0xd3,
  0x10, 0x15, 0x58, 0x61, 0xaf, 0x7f, 0x0e, 0xfa, 0x03, 0x90, 0x7a, 0x97,
  0x81, 0xd4, 0x48, 0x35, 0x70, 0xb0, 0x7f, 0x4c, 0x77, 0x3f, 0xce, 0xc3,
  0x2d, 0x63, 0x81, 0x3c, 0x50, 0xf4, 0x9f, 0xcd, 0x2f, 0x7f, 0x71, 0x36,
  0x4a, 0x7f, 0x9d, 0x7f, 0xd0, 0x7f, 0x03, 0x51, 0xd7, 0xc2, 0x9f, 0x2d,
  0xcf, 0x62, 0x85, 0xd2, 0xe0, 0xd9, 0xb8, 0xb3, 0xc3, 0xb1, 0x54, 0xaa,
  0x68, 0x03, 0xee, 0x4a, 0x49, 0xa2, 0xf1, 0x94, 0x7f, 0x6e, 0xca, 0x38,
  0xf4, 0x6e, 0xb9, 0xf4, 0xfc, 0x95, 0x60, 0x81, 0x7f, 0x2f, 0x63, 0x82,
  0x57, 0x7f, 0x6b, 0x3d, 0x35, 0xc4, 0x7f, 0x45, 0x9a, 0x4a, 0xdc, 0x37,
  0x81, 0xf1, 0x1b, 0x67, 0x7f, 0x60, 0x2e, 0x5b, 0xc9, 0x23, 0xa8, 0x4c,
  0x0e, 0x59, 0xf4, 0x02, 0xae, 0x1e, 0x10, 0x6a, 0xdb, 0x81, 0xe1, 0x37,
  0xb8, 0xd8, 0x81, 0x73, 0x7f, 0x04, 0x7a, 0x3c, 0x81, 0x7c, 0x2b, 0x8b,
  0xb9, 0x11, 0x55, 0x6d, 0xf8, 0x52, 0xbb, 0x5e, 0xc3, 0x81, 0x01, 0x81,
  0xbf, 0x9d, 0x2f, 0x81, 0x55, 0x81, 0x54, 0x46, 0x7f, 0x51, 0x25, 0x81,
  0x4f, 0x54, 0x60, 0x67, 0x6c, 0xa6, 0xab, 0x81, 0x15, 0x4f, 0x3d, 0x66,
  0x25, 0x33, 0x8f, 0x22, 0x95, 0x65, 0x2a, 0x7f, 0x81, 0xed, 0x45, 0x81,
  0x16, 0x72, 0x81, 0x20, 0x81, 0x7f, 0xc6, 0xca, 0x86, 0x7e, 0x5d, 0xe2,
  0x2b, 0x7f, 0x37, 0x43, 0x81, 0x81, 0x81, 0xb8, 0x5a, 0x7f, 0xcb, 0x4e,
  0x81, 0x7f, 0xdf, 0xa9, 0x25, 0x90, 0x86, 0x19, 0x48, 0x01, 0x75, 0x90,
  0x66, 0x39, 0x00, 0x00, 0x8a, 0xfa, 0xff, 0xff, 0x04, 0x00, 0x00, 0x00,
  0x08, 0x01, 0x00, 0x00, 0x58, 0xfb, 0xff, 0xff, 0x5d, 0x0c, 0x00, 0x00,
  0xdc, 0xfe, 0xff, 0xff, 0xdb, 0x23, 0x00, 0x00, 0xe7, 0xea, 0xff, 0xff,
  0xc7, 0xd8, 0xff, 0xff, 0x2c, 0x01, 0x00, 0x00, 0x5a, 0xf8, 0xff, 0xff,
  0xfe, 0xe2, 0xff, 0xff, 0x14, 0xfe, 0xff, 0xff, 0xbb, 0x2c, 0x00, 0x00,
  0x1c, 0x17, 0x00, 0x00, 0x75, 0xf0, 0xff, 0xff, 0x55, 0xe1, 0xff, 0xff,
  0xe1, 0xcd, 0xff, 0xff, 0x52, 0xee, 0xff, 0xff, 0x40, 0xf5, 0xff, 0xff,
  0x46, 0xe0, 0xff, 0xff, 0xd0, 0x28, 0x00, 0x00, 0xcd, 0xf4, 0xff, 0xff,
  0xfc, 0x2e, 0x00, 0x00, 0xb1, 0xbd, 0xff, 0xff, 0x08, 0xf6, 0xff, 0xff,
  0x2f, 0xd9, 0xff, 0xff, 0x0b, 0x0b, 0x00, 0x00, 0x8e, 0x0b, 0x00, 0x00,
  0xd8, 0x0f, 0x00, 0x00, 0x0c, 0xfb, 0xff, 0xff, 0x06, 0x06, 0x00, 0x00,
  0xc2, 0xe0, 0xff, 0xff, 0x07, 0x20, 0x00, 0x00, 0xc0, 0x0f, 0x00, 0x00,
  0xf4, 0x0b, 0x00, 0x00, 0xa0, 0xfd, 0xff, 0xff, 0x69, 0x2e, 0x00, 0x00,
  0x3c, 0x20, 0x00, 0x00, 0x46, 0x1c, 0x00, 0x00, 0x42, 0xf3, 0xff, 0xff,
  0xd3, 0xda, 0xff, 0xff, 0x56, 0x05, 0x00, 0x00, 0xf0, 0xe9, 0xff, 0xff,
  0xea, 0xe4, 0xff, 0xff, 0x46, 0xfe, 0xff, 0xff, 0xee, 0x06, 0x00, 0x00,
  0x45, 0xfa, 0xff, 0xff, 0xe8, 0x11, 0x00, 0x00, 0x19, 0x0f, 0x00, 0x00,
  0xbb, 0x09, 0x00, 0x00, 0x76, 0xd7, 0xff, 0xff, 0x16, 0xed, 0xff, 0xff,
  0x6e, 0x11, 0x00, 0x00, 0x51, 0xeb, 0xff, 0xff, 0x05, 0x06, 0x00, 0x00,
  0xba, 0xd0, 0xff, 0xff, 0xec, 0x0c, 0x00, 0x00, 0xcb, 0x28, 0x00, 0x00,
  0x38, 0xe0, 0xff, 0xff, 0x97, 0x28, 0x00, 0x00, 0xde, 0xfe, 0xff, 0xff,
  0x5c, 0x0e, 0x00, 0x00, 0x3c, 0xdb, 0xff, 0xff, 0xc8, 0xfe, 0xff, 0xff,
  0xe6, 0xe7, 0xff, 0xff, 0x63, 0x31, 0x00, 0x00, 0x84, 0xe9, 0xff, 0xff,
  0x0f, 0xe6, 0xff, 0xff, 0x9e, 0xfb, 0xff, 0xff, 0x04, 0x00, 0x00, 0x00,
  0xd6, 0x02, 0x00, 0x00, 0xf2, 0x32, 0x54, 0xd5, 0x22, 0xfe, 0xc6, 0x5c,
  0xbe, 0xb9, 0x19, 0x35, 0x18, 0xc7, 0xfa, 0xe5, 0x02, 0x12, 0xda, 0x0b,
  0x81, 0x2b, 0x35, 0xf4, 0x1b, 0xbb, 0xaa, 0x2b, 0xcf, 0x38, 0x32, 0xf4,
  0xc3, 0xc2, 0x1e, 0x55, 0xfa, 0xd0, 0x0f, 0x17, 0xf9, 0x04, 0x1a, 0x33,
  0xd7, 0x55, 0x40, 0xf0, 0xe8, 0xc5, 0x2f, 0x52, 0xff, 0xbf, 0xdf, 0x8d,
  0x24, 0xb4, 0x00, 0x1b, 0x26, 0x42, 0x02, 0xc7, 0xc3, 0xee, 0x29, 0x06,
  0x09, 0xd1, 0xd5, 0xeb, 0x55, 0x0f, 0xd1, 0xc8, 0x24, 0x9b, 0xf1, 0x5c,
  0xaa, 0x85, 0xe6, 0x19, 0xe1, 0xe1, 0x8b, 0xda, 0x04, 0xf0, 0xcb, 0xf3,
  0x8b, 0xf8, 0x1f, 0xac, 0x76, 0x29, 0xde, 0x81, 0x2c, 0x1d, 0x75, 0xc9,
  0xed, 0xd1, 0x7a, 0x2c, 0x00, 0xf5, 0xac, 0xeb, 0xd7, 0xef, 0x2a, 0x8f,
  0xea, 0xf1, 0xf1, 0xc4, 0xe0, 0xe7, 0x3e, 0xbc, 0xe3, 0x44, 0xf8, 0x1f,
  0x5e, 0x2b, 0x21, 0xe5, 0xd6, 0x4a, 0x1a, 0x81, 0x4c, 0xb5, 0xf3, 0x57,
  0xe6, 0xb4, 0xe7, 0x22, 0xcf, 0xf9, 0x23, 0x1f, 0x1c, 0x1f, 0x8c, 0xd5,
  0x3e, 0x20, 0x58, 0xcd, 0x44, 0x10, 0x04, 0xf3, 0x17, 0x39, 0xf5, 0x20,
  0x44, 0xd4, 0x0f, 0x4f, 0x3c, 0xc0, 0x44, 0x04, 0xf6, 0xf8, 0x42, 0xf8,
  0xbc, 0x33, 0xb9, 0x9f, 0x2a, 0x8b, 0x91, 0xec, 0xe6, 0xdd, 0x2e, 0xf1,
  0xd2, 0xd6, 0xcf, 0x33, 0xf5, 0x09, 0x1f, 0x89, 0x1b, 0x0b, 0xf2, 0x35,
  0x10, 0xcd, 0xf7, 0x1b, 0xa3, 0x66, 0x0a, 0xfb, 0x09, 0xe7, 0x4d, 0x02,
  0x17, 0xeb, 0xac, 0xe5, 0xb1, 0x06, 0x86, 0xe6, 0x37, 0xf4, 0x29, 0xf8,
  0x9b, 0x1c, 0xe7, 0x5f, 0x08, 0x05, 0x09, 0xd1, 0x45, 0x7f, 0xfc, 0xcd,
  0xef, 0x36, 0xd6, 0x2f, 0x20, 0x45, 0xd3, 0x65, 0x14, 0xe8, 0x0d, 0x03,
  0xfb, 0x2c, 0xec, 0xda, 0x9d, 0xa5, 0x11, 0x86, 0xee, 0xfd, 0xf1, 0x3e,
  0xd8, 0x17, 0xb3, 0xf1, 0x4e, 0x0f, 0xba, 0x46, 0xc9, 0x1d, 0x53, 0xc7,
  0x2e, 0xd7, 0x13, 0x42, 0xf3, 0x12, 0xb8, 0x82, 0xdd, 0xdd, 0xc6, 0xb2,
  0xac, 0x26, 0xd8, 0x5d, 0x1b, 0xa2, 0xf2, 0x25, 0x31, 0xc3, 0x03, 0xed,
  0xdc, 0xb8, 0xef, 0xa3, 0x2a, 0xe9, 0x86, 0xe2, 0x40, 0xfb, 0x08, 0x26,
  0x3f, 0xd3, 0x71, 0x44, 0xfb, 0xe3, 0x48, 0x36, 0xed, 0xe5, 0x31, 0xbc,
  0x5e, 0x25, 0xb0, 0x05, 0x0e, 0x27, 0x7f, 0x58, 0x3a, 0xdb, 0x1c, 0x58,
  0xe9, 0xea, 0xcc, 0x09, 0x10, 0xf0, 0xeb, 0xa9, 0x4a, 0xca, 0xf6, 0xb1,
  0xe2, 0xee, 0x59, 0xf9, 0xbd, 0xf4, 0x5d, 0x03, 0x12, 0x2d, 0x37, 0x03,
  0x47, 0xad, 0xef, 0x1a, 0x4d, 0xeb, 0x0c, 0xe4, 0x81, 0xc5, 0x39, 0xdf,
  0xf3, 0xbf, 0x1e, 0xc8, 0x2b, 0x09, 0xe0, 0x1f, 0xf5, 0xe4, 0xd3, 0xa8,
  0xc1, 0x24, 0x12, 0xda, 0xdf, 0xf3, 0xd5, 0xce, 0xcc, 0x22, 0x2b, 0xf9,
  0x32, 0xd4, 0x57, 0x2c, 0xf9, 0x65, 0x4a, 0xe4, 0x05, 0x49, 0xaf, 0x72,
  0xb8, 0xaf, 0x11, 0x5c, 0x22, 0xc7, 0x13, 0xf1, 0x19, 0xe1, 0xd5, 0x10,
  0xe7, 0xdf, 0x35, 0x02, 0x05, 0xbd, 0xe1, 0x1b, 0x0c, 0x51, 0xca, 0xee,
  0xfa, 0xc1, 0xe7, 0x7f, 0x1e, 0xb6, 0x06, 0x2f, 0x03, 0x0b, 0x43, 0x3b,
  0xe0, 0x38, 0xc9, 0xee, 0x0a, 0xcf, 0x07, 0x56, 0x1b, 0xe9, 0xb6, 0xa5,
  0xed, 0x85, 0xc6, 0x05, 0xce, 0x4b, 0xcf, 0x99, 0xab, 0x32, 0xf4, 0x3c,
  0x42, 0xe3, 0xce, 0x33, 0x81, 0x2c, 0xec, 0x0e, 0x40, 0x45, 0x58, 0xc4,
  0x18, 0x29, 0xf7, 0xfc, 0x52, 0x27, 0xfd, 0xc5, 0xfd, 0x6f, 0xe3, 0xff,
  0x20, 0xc8, 0xba, 0x48, 0xbd, 0xc0, 0x1e, 0x55, 0x03, 0x0f, 0x8e, 0x2c,
  0x21, 0x1a, 0xb2, 0xee, 0x23, 0x26, 0x25, 0x5a, 0xe1, 0xd9, 0x00, 0x24,
  0x13, 0x52, 0x29, 0x36, 0xb5, 0xd7, 0xe4, 0xd5, 0x13, 0xbf, 0xb6, 0x34,
  0xa1, 0xf8, 0xad, 0x27, 0x40, 0x4d, 0xb1, 0x2c, 0x3d, 0x31, 0xed, 0xde,
  0xd2, 0xf7, 0x3c, 0xb9, 0x0c, 0x35, 0xcd, 0xa3, 0x59, 0xaa, 0xa6, 0xe4,
  0xd4, 0x91, 0x0f, 0x33, 0xfb, 0xfd, 0xff, 0x9f, 0x2c, 0x13, 0x54, 0xe6,
  0x24, 0x1d, 0xfd, 0xd0, 0x26, 0xc5, 0xfc, 0xcf, 0x72, 0xbf, 0x49, 0x38,
  0xf6, 0xcc, 0xf9, 0xc0, 0xab, 0x81, 0x20, 0x0f, 0x41, 0x12, 0x29, 0xb5,
  0x31, 0xb6, 0x00, 0x14, 0x9e, 0x26, 0x4f, 0xad, 0x52, 0x30, 0x43, 0x40,
  0xf1, 0x36, 0x30, 0x37, 0xcc, 0xeb, 0xfb, 0x2b, 0x25, 0xfa, 0x48, 0x4f,
  0xc4, 0x81, 0xe8, 0xb0, 0x14, 0xf1, 0x8d, 0x9d, 0xf3, 0x25, 0xb5, 0xfa,
  0xaf, 0xc5, 0x09, 0x31, 0xf5, 0xc4, 0xe4, 0x2f, 0xe4, 0x2f, 0xf5, 0xd6,
  0xd9, 0x01, 0x19, 0xdc, 0x47, 0x6e, 0x26, 0x03, 0x3d, 0xd6, 0x8e, 0xde,
  0x32, 0x71, 0x2f, 0xea, 0xa4, 0x8a, 0x5b, 0xe5, 0xf9, 0xea, 0x34, 0x39,
  0x10, 0xe1, 0x39, 0x07, 0x25, 0x41, 0x00, 0xf6, 0xb6, 0x4d, 0x29, 0xeb,
  0xe2, 0x8d, 0x7f, 0x0d, 0x07, 0xcd, 0x9a, 0x15, 0x3a, 0x11, 0xbc, 0xe4,
  0x73, 0xf4, 0xf6, 0x50, 0x4b, 0xb3, 0x4b, 0xd9, 0xb8, 0xde, 0x26, 0xb7,
  0x07, 0xe0, 0x93, 0xa9, 0xeb, 0x08, 0xb9, 0xbb, 0xeb, 0xf8, 0x01, 0xe6,
  0xe8, 0x14, 0xd8, 0xde, 0x31, 0xbd, 0x02, 0x2a, 0x1f, 0x19, 0xe5, 0x0f,
  0xd0, 0xe2, 0xe6, 0x19, 0x53, 0x18, 0x44, 0x13, 0xf3, 0x28, 0x00, 0x00,
  0x82, 0xfe, 0xff, 0xff, 0x04, 0x00, 0x00, 0x00, 0x2c, 0x00, 0x00, 0x00,
  0x83, 0x0c, 0x00, 0x00, 0x9e, 0x26, 0x00, 0x00, 0xcd, 0x0c, 0x00, 0x00,
  0x64, 0x0b, 0x00, 0x00, 0x74, 0xf9, 0xff, 0xff, 0xaf, 0x10, 0x00, 0x00,
  0xd7, 0x0b, 0x00, 0x00, 0x54, 0xf6, 0xff, 0xff, 0x0d, 0x16, 0x00, 0x00,
  0x30, 0x07, 0x00, 0x00, 0xf9, 0x0a, 0x00, 0x00, 0xba, 0xfe, 0xff, 0xff,
  0x04, 0x00, 0x00, 0x00, 0x42, 0x00, 0x00, 0x00, 0x66, 0x5b, 0x67, 0x6a,
  0x16, 0x13, 0x7f, 0x02, 0x70, 0x6e, 0xa7, 0x5c, 0xe0, 0xf6, 0x76, 0xce,
  0x87, 0x5b, 0x5d, 0x81, 0xf3, 0xb5, 0xe9, 0xff, 0xa2, 0xcf, 0x60, 0x64,
  0x22, 0x4e, 0x67, 0x7f, 0x6f, 0xbf, 0x64, 0xa6, 0xae, 0x58, 0x9e, 0x94,
  0x81, 0xf7, 0x05, 0xaa, 0xde, 0x21, 0x72, 0xa6, 0xe1, 0x73, 0x11, 0xd4,
  0xd3, 0x81, 0x7c, 0x92, 0x94, 0xf2, 0xb2, 0x81, 0xd5, 0xba, 0x48, 0xc0,
  0xce, 0xa4, 0x00, 0x00, 0x0a, 0xff, 0xff, 0xff, 0x04, 0x00, 0x00, 0x00,
  0x18, 0x00, 0x00, 0x00, 0x0e, 0xff, 0xff, 0xff, 0x1b, 0xfe, 0xff, 0xff,
  0x29, 0xfd, 0xff, 0xff, 0xaf, 0x00, 0x00, 0x00, 0xbd, 0x06, 0x00, 0x00,
  0x46, 0x00, 0x00, 0x00, 0x2e, 0xff, 0xff, 0xff, 0x04, 0x00, 0x00, 0x00,
  0x08, 0x00, 0x00, 0x00, 0x01, 0x00, 0x00, 0x00, 0x02, 0x00, 0x00, 0x00,
  0x0c, 0xb0, 0xff, 0xff, 0x10, 0xb0, 0xff, 0xff, 0x0f, 0x00, 0x00, 0x00,
  0x4d, 0x4c, 0x49, 0x52, 0x20, 0x43, 0x6f, 0x6e, 0x76, 0x65, 0x72, 0x74,
  0x65, 0x64, 0x2e, 0x00, 0x01, 0x00, 0x00, 0x00, 0x14, 0x00, 0x00, 0x00,
  0x00, 0x00, 0x0e, 0x00, 0x18, 0x00, 0x14, 0x00, 0x10, 0x00, 0x0c, 0x00,
  0x08, 0x00, 0x04, 0x00, 0x0e, 0x00, 0x00, 0x00, 0x14, 0x00, 0x00, 0x00,
  0x1c, 0x00, 0x00, 0x00, 0x00, 0x05, 0x00, 0x00, 0x04, 0x05, 0x00, 0x00,
  0x08, 0x05, 0x00, 0x00, 0x04, 0x00, 0x00, 0x00, 0x6d, 0x61, 0x69, 0x6e,
  0x00, 0x00, 0x00, 0x00, 0x12, 0x00, 0x00, 0x00, 0x9c, 0x04, 0x00, 0x00,
  0x34, 0x04, 0x00, 0x00, 0xdc, 0x03, 0x00, 0x00, 0x8c, 0x03, 0x00, 0x00,
  0x44, 0x03, 0x00, 0x00, 0xf8, 0x02, 0x00, 0x00, 0xb8, 0x02, 0x00, 0x00,
  0x70, 0x02, 0x00, 0x00, 0x34, 0x02, 0x00, 0x00, 0xf4, 0x01, 0x00, 0x00,
  0xac, 0x01, 0x00, 0x00, 0x70, 0x01, 0x00, 0x00, 0x30, 0x01, 0x00, 0x00,
  0xe8, 0x00, 0x00, 0x00, 0xac, 0x00, 0x00, 0x00, 0x78, 0x00, 0x00, 0x00,
  0x40, 0x00, 0x00, 0x00, 0x04, 0x00, 0x00, 0x00, 0x1e, 0xfc, 0xff, 0xff,
  0x1c, 0x00, 0x00, 0x00, 0x00, 0x00, 0x00, 0x09, 0x1c, 0x00, 0x00, 0x00,
  0x20, 0x00, 0x00, 0x00, 0x04, 0x00, 0x00, 0x00, 0x00, 0x00, 0x06, 0x00,
  0x08, 0x00, 0x04, 0x00, 0x06, 0x00, 0x00, 0x00, 0x00, 0x00, 0x80, 0x3f,
  0x01, 0x00, 0x00, 0x00, 0x33, 0x00, 0x00, 0x00, 0x01, 0x00, 0x00, 0x00,
  0x32, 0x00, 0x00, 0x00, 0x3a, 0xfd, 0xff, 0xff, 0x14, 0x00, 0x00, 0x00,
  0x00, 0x00, 0x00, 0x08, 0x10, 0x00, 0x00, 0x00, 0x14, 0x00, 0x00, 0x00,
  0x03, 0x00, 0x00, 0x00, 0x00, 0xb1, 0xff, 0xff, 0x01, 0x00, 0x00, 0x00,
  0x32, 0x00, 0x00, 0x00, 0x03, 0x00, 0x00, 0x00, 0x31, 0x00, 0x00, 0x00,
  0x03, 0x00, 0x00, 0x00, 0x02, 0x00, 0x00, 0x00, 0x6e, 0xfd, 0xff, 0xff,
  0x14, 0x00, 0x00, 0x00, 0x00, 0x00, 0x00, 0x1b, 0x10, 0x00, 0x00, 0x00,
  0x14, 0x00, 0x00, 0x00, 0x02, 0x00, 0x00, 0x00, 0x34, 0xb1, 0xff, 0xff,
  0x01, 0x00, 0x00, 0x00, 0x31, 0x00, 0x00, 0x00, 0x02, 0x00, 0x00, 0x00,
  0x30, 0x00, 0x00, 0x00, 0x01, 0x00, 0x00, 0x00, 0x56, 0xfc, 0xff, 0xff,
  0x10, 0x00, 0x00, 0x00, 0x00, 0x00, 0x00, 0x01, 0x14, 0x00, 0x00, 0x00,
  0x18, 0x00, 0x00, 0x00, 0xfe, 0xfc, 0xff, 0xff, 0x01, 0x00, 0x00, 0x00,
  0x01, 0x00, 0x00, 0x00, 0x01, 0x00, 0x00, 0x00, 0x30, 0x00, 0x00, 0x00,
  0x03, 0x00, 0x00, 0x00, 0x2f, 0x00, 0x00, 0x00, 0x05, 0x00, 0x00, 0x00,
  0x04, 0x00, 0x00, 0x00, 0xd6, 0xfd, 0xff, 0xff, 0x14, 0x00, 0x00, 0x00,
  0x00, 0x00, 0x00, 0x02, 0x20, 0x00, 0x00, 0x00, 0x24, 0x00, 0x00, 0x00,
  0x01, 0x00, 0x00, 0x00, 0xe2, 0xfc, 0xff, 0xff, 0x00, 0x00, 0x00, 0x03,
  0x01, 0x00, 0x00, 0x00, 0x01, 0x00, 0x00, 0x00, 0x01, 0x00, 0x00, 0x00,
  0x01, 0x00, 0x00, 0x00, 0x2f, 0x00, 0x00, 0x00, 0x03, 0x00, 0x00, 0x00,
  0x2e, 0x00, 0x00, 0x00, 0x07, 0x00, 0x00, 0x00, 0x06, 0x00, 0x00, 0x00,
  0xd2, 0xfc, 0xff, 0xff, 0x10, 0x00, 0x00, 0x00, 0x00, 0x00, 0x00, 0x01,
  0x18, 0x00, 0x00, 0x00, 0x1c, 0x00, 0x00, 0x00, 0xc4, 0xfc, 0xff, 0xff,
  0x00, 0x00, 0x00, 0x03, 0x01, 0x00, 0x00, 0x00, 0x01, 0x00, 0x00, 0x00,
  0x01, 0x00, 0x00, 0x00, 0x2e, 0x00, 0x00, 0x00, 0x03, 0x00, 0x00, 0x00,
  0x2d, 0x00, 0x00, 0x00, 0x09, 0x00, 0x00, 0x00, 0x08, 0x00, 0x00, 0x00,
  0x0e, 0xfd, 0xff, 0xff, 0x10, 0x00, 0x00, 0x00, 0x00, 0x00, 0x00, 0x01,
  0x14, 0x00, 0x00, 0x00, 0x18, 0x00, 0x00, 0x00, 0xb6, 0xfd, 0xff, 0xff,
  0x01, 0x00, 0x00, 0x00, 0x01, 0x00, 0x00, 0x00, 0x01, 0x00, 0x00, 0x00,
  0x2d, 0x00, 0x00, 0x00, 0x03, 0x00, 0x00, 0x00, 0x2c, 0x00, 0x00, 0x00,
  0x0b, 0x00, 0x00, 0x00, 0x0a, 0x00, 0x00, 0x00, 0x8e, 0xfe, 0xff, 0xff,
  0x14, 0x00, 0x00, 0x00, 0x00, 0x00, 0x00, 0x02, 0x20, 0x00, 0x00, 0x00,
  0x24, 0x00, 0x00, 0x00, 0x01, 0x00, 0x00, 0x00, 0x9a, 0xfd, 0xff, 0xff,
  0x00, 0x00, 0x00, 0x03, 0x01, 0x00, 0x00, 0x00, 0x02, 0x00, 0x00, 0x00,
  0x02, 0x00, 0x00, 0x00, 0x01, 0x00, 0x00, 0x00, 0x2c, 0x00, 0x00, 0x00,
  0x03, 0x00, 0x00, 0x00, 0x2b, 0x00, 0x00, 0x00, 0x0d, 0x00, 0x00, 0x00,
  0x0c, 0x00, 0x00, 0x00, 0x8a, 0xfd, 0xff, 0xff, 0x10, 0x00, 0x00, 0x00,
  0x00, 0x00, 0x00, 0x01, 0x18, 0x00, 0x00, 0x00, 0x1c, 0x00, 0x00, 0x00,
  0x7c, 0xfd, 0xff, 0xff, 0x00, 0x00, 0x00, 0x03, 0x01, 0x00, 0x00, 0x00,
  0x01, 0x00, 0x00, 0x00, 0x01, 0x00, 0x00, 0x00, 0x2b, 0x00, 0x00, 0x00,
  0x03, 0x00, 0x00, 0x00, 0x2a, 0x00, 0x00, 0x00, 0x0f, 0x00, 0x00, 0x00,
  0x0e, 0x00, 0x00, 0x00, 0xc6, 0xfd, 0xff, 0xff, 0x10, 0x00, 0x00, 0x00,
  0x00, 0x00, 0x00, 0x01, 0x14, 0x00, 0x00, 0x00, 0x18, 0x00, 0x00, 0x00,
  0x6e, 0xfe, 0xff, 0xff, 0x01, 0x00, 0x00, 0x00, 0x01, 0x00, 0x00, 0x00,
  0x01, 0x00, 0x00, 0x00, 0x2a, 0x00, 0x00, 0x00, 0x03, 0x00, 0x00, 0x00,
  0x29, 0x00, 0x00, 0x00, 0x11, 0x00, 0x00, 0x00, 0x10, 0x00, 0x00, 0x00,
  0x46, 0xff, 0xff, 0xff, 0x14, 0x00, 0x00, 0x00, 0x00, 0x00, 0x00, 0x02,
  0x20, 0x00, 0x00, 0x00, 0x24, 0x00, 0x00, 0x00, 0x01, 0x00, 0x00, 0x00,
  0x52, 0xfe, 0xff, 0xff, 0x00, 0x00, 0x00, 0x03, 0x01, 0x00, 0x00, 0x00,
  0x01, 0x00, 0x00, 0x00, 0x01, 0x00, 0x00, 0x00, 0x01, 0x00, 0x00, 0x00,
  0x29, 0x00, 0x00, 0x00, 0x03, 0x00, 0x00, 0x00, 0x28, 0x00, 0x00, 0x00,
  0x13, 0x00, 0x00, 0x00, 0x12, 0x00, 0x00, 0x00, 0x42, 0xfe, 0xff, 0xff,
  0x10, 0x00, 0x00, 0x00, 0x00, 0x00, 0x00, 0x01, 0x18, 0x00, 0x00, 0x00,
  0x1c, 0x00, 0x00, 0x00, 0x34, 0xfe, 0xff, 0xff, 0x00, 0x00, 0x00, 0x03,
  0x01, 0x00, 0x00, 0x00, 0x01, 0x00, 0x00, 0x00, 0x01, 0x00, 0x00, 0x00,
  0x28, 0x00, 0x00, 0x00, 0x03, 0x00, 0x00, 0x00, 0x27, 0x00, 0x00, 0x00,
  0x15, 0x00, 0x00, 0x00, 0x14, 0x00, 0x00, 0x00, 0x7e, 0xfe, 0xff, 0xff,
  0x10, 0x00, 0x00, 0x00, 0x00, 0x00, 0x00, 0x01, 0x14, 0x00, 0x00, 0x00,
  0x18, 0x00, 0x00, 0x00, 0x26, 0xff, 0xff, 0xff, 0x01, 0x00, 0x00, 0x00,
  0x01, 0x00, 0x00, 0x00, 0x01, 0x00, 0x00, 0x00, 0x27, 0x00, 0x00, 0x00,
  0x03, 0x00, 0x00, 0x00, 0x26, 0x00, 0x00, 0x00, 0x17, 0x00, 0x00, 0x00,
  0x16, 0x00, 0x00, 0x00, 0x00, 0x00, 0x0e, 0x00, 0x18, 0x00, 0x14, 0x00,
  0x10, 0x00, 0x0c, 0x00, 0x0b, 0x00, 0x04, 0x00, 0x0e, 0x00, 0x00, 0x00,
  0x14, 0x00, 0x00, 0x00, 0x00, 0x00, 0x00, 0x02, 0x20, 0x00, 0x00, 0x00,
  0x24, 0x00, 0x00, 0x00, 0x01, 0x00, 0x00, 0x00, 0x1a, 0xff, 0xff, 0xff,
  0x00, 0x00, 0x00, 0x03, 0x01, 0x00, 0x00, 0x00, 0x02, 0x00, 0x00, 0x00,
  0x02, 0x00, 0x00, 0x00, 0x01, 0x00, 0x00, 0x00, 0x26, 0x00, 0x00, 0x00,
  0x03, 0x00, 0x00, 0x00, 0x25, 0x00, 0x00, 0x00, 0x19, 0x00, 0x00, 0x00,
  0x18, 0x00, 0x00, 0x00, 0x0a, 0xff, 0xff, 0xff, 0x10, 0x00, 0x00, 0x00,
  0x00, 0x00, 0x00, 0x01, 0x18, 0x00, 0x00, 0x00, 0x1c, 0x00, 0x00, 0x00,
  0xfc, 0xfe, 0xff, 0xff, 0x00, 0x00, 0x00, 0x03, 0x01, 0x00, 0x00, 0x00,
  0x01, 0x00, 0x00, 0x00, 0x01, 0x00, 0x00, 0x00, 0x25, 0x00, 0x00, 0x00,
  0x03, 0x00, 0x00, 0x00, 0x24, 0x00, 0x00, 0x00, 0x1b, 0x00, 0x00, 0x00,
  0x1a, 0x00, 0x00, 0x00, 0x00, 0x00, 0x0e, 0x00, 0x16, 0x00, 0x00, 0x00,
  0x10, 0x00, 0x0c, 0x00, 0x0b, 0x00, 0x04, 0x00, 0x0e, 0x00, 0x00, 0x00,
  0x1c, 0x00, 0x00, 0x00, 0x00, 0x00, 0x00, 0x01, 0x20, 0x00, 0x00, 0x00,
  0x24, 0x00, 0x00, 0x00, 0x00, 0x00, 0x0a, 0x00, 0x0c, 0x00, 0x00, 0x00,
  0x08, 0x00, 0x04, 0x00, 0x0a, 0x00, 0x00, 0x00, 0x01, 0x00, 0x00, 0x00,
  0x01, 0x00, 0x00, 0x00, 0x01, 0x00, 0x00, 0x00, 0x24, 0x00, 0x00, 0x00,
  0x03, 0x00, 0x00, 0x00, 0x23, 0x00, 0x00, 0x00, 0x1d, 0x00, 0x00, 0x00,
  0x1c, 0x00, 0x00, 0x00, 0x00, 0x00, 0x0e, 0x00, 0x1a, 0x00, 0x14, 0x00,
  0x10, 0x00, 0x0c, 0x00, 0x0b, 0x00, 0x04, 0x00, 0x0e, 0x00, 0x00, 0x00,
  0x24, 0x00, 0x00, 0x00, 0x00, 0x00, 0x00, 0x02, 0x30, 0x00, 0x00, 0x00,
  0x34, 0x00, 0x00, 0x00, 0x01, 0x00, 0x00, 0x00, 0x00, 0x00, 0x0e, 0x00,
  0x14, 0x00, 0x00, 0x00, 0x10, 0x00, 0x0c, 0x00, 0x08, 0x00, 0x07, 0x00,
  0x0e, 0x00, 0x00, 0x00, 0x00, 0x00, 0x00, 0x03, 0x01, 0x00, 0x00, 0x00,
  0x01, 0x00, 0x00, 0x00, 0x01, 0x00, 0x00, 0x00, 0x01, 0x00, 0x00, 0x00,
  0x23, 0x00, 0x00, 0x00, 0x03, 0x00, 0x00, 0x00, 0x22, 0x00, 0x00, 0x00,
  0x1f, 0x00, 0x00, 0x00, 0x1e, 0x00, 0x00, 0x00, 0x00, 0x00, 0x0e, 0x00,
  0x14, 0x00, 0x00, 0x00, 0x10, 0x00, 0x0c, 0x00, 0x0b, 0x00, 0x04, 0x00,
  0x0e, 0x00, 0x00, 0x00, 0x1c, 0x00, 0x00, 0x00, 0x00, 0x00, 0x00, 0x01,
  0x24, 0x00, 0x00, 0x00, 0x28, 0x00, 0x00, 0x00, 0x0c, 0x00, 0x10, 0x00,
  0x00, 0x00, 0x0c, 0x00, 0x08, 0x00, 0x07, 0x00, 0x0c, 0x00, 0x00, 0x00,
  0x00, 0x00, 0x00, 0x03, 0x02, 0x00, 0x00, 0x00, 0x02, 0x00, 0x00, 0x00,
  0x01, 0x00, 0x00, 0x00, 0x22, 0x00, 0x00, 0x00, 0x03, 0x00, 0x00, 0x00,
  0x00, 0x00, 0x00, 0x00, 0x21, 0x00, 0x00, 0x00, 0x20, 0x00, 0x00, 0x00,
  0x01, 0x00, 0x00, 0x00, 0x33, 0x00, 0x00, 0x00, 0x01, 0x00, 0x00, 0x00,
  0x00, 0x00, 0x00, 0x00, 0x34, 0x00, 0x00, 0x00, 0xdc, 0x4a, 0x00, 0x00,
  0x80, 0x4a, 0x00, 0x00, 0xc8, 0x49, 0x00, 0x00, 0x24, 0x49, 0x00, 0x00,
  0x48, 0x48, 0x00, 0x00, 0x64, 0x47, 0x00, 0x00, 0xf8, 0x43, 0x00, 0x00,
  0x64, 0x40, 0x00, 0x00, 0xe0, 0x3c, 0x00, 0x00, 0x64, 0x39, 0x00, 0x00,
  0x88, 0x38, 0x00, 0x00, 0xa4, 0x37, 0x00, 0x00, 0x10, 0x35, 0x00, 0x00,
  0x68, 0x32, 0x00, 0x00, 0xd0, 0x2f, 0x00, 0x00, 0x2c, 0x2d, 0x00, 0x00,
  0x78, 0x2c, 0x00, 0x00, 0xb4, 0x2b, 0x00, 0x00, 0x20, 0x29, 0x00, 0x00,
  0x78, 0x26, 0x00, 0x00, 0xe0, 0x23, 0x00, 0x00, 0x3c, 0x21, 0x00, 0x00,
  0x88, 0x20, 0x00, 0x00, 0xc4, 0x1f, 0x00, 0x00, 0x08, 0x1e, 0x00, 0x00,
  0x38, 0x1c, 0x00, 0x00, 0x78, 0x1a, 0x00, 0x00, 0xac, 0x18, 0x00, 0x00,
  0x18, 0x18, 0x00, 0x00, 0x7c, 0x17, 0x00, 0x00, 0xa0, 0x16, 0x00, 0x00,
  0xb8, 0x15, 0x00, 0x00, 0xe0, 0x14, 0x00, 0x00, 0xfc, 0x13, 0x00, 0x00,
  0xe8, 0x12, 0x00, 0x00, 0x5c, 0x11, 0x00, 0x00, 0x60, 0x10, 0x00, 0x00,
  0x44, 0x0f, 0x00, 0x00, 0xb8, 0x0d, 0x00, 0x00, 0xbc, 0x0c, 0x00, 0x00,
  0xa0, 0x0b, 0x00, 0x00, 0x14, 0x0a, 0x00, 0x00, 0x18, 0x09, 0x00, 0x00,
  0xfc, 0x07, 0x00, 0x00, 0x68, 0x06, 0x00, 0x00, 0x64, 0x05, 0x00, 0x00,
  0x48, 0x04, 0x00, 0x00, 0xb4, 0x02, 0x00, 0x00, 0xb0, 0x01, 0x00, 0x00,
  0x1c, 0x01, 0x00, 0x00, 0x80, 0x00, 0x00, 0x00, 0x04, 0x00, 0x00, 0x00,
  0x0a, 0xb6, 0xff, 0xff, 0x00, 0x00, 0x00, 0x01, 0x18, 0x00, 0x00, 0x00,
  0x20, 0x00, 0x00, 0x00, 0x3c, 0x00, 0x00, 0x00, 0x34, 0x00, 0x00, 0x00,
  0x00, 0x00, 0x00, 0x09, 0x50, 0x00, 0x00, 0x00, 0x02, 0x00, 0x00, 0x00,
  0xff, 0xff, 0xff, 0xff, 0x06, 0x00, 0x00, 0x00, 0xec, 0xb5, 0xff, 0xff,
  0x08, 0x00, 0x00, 0x00, 0x10, 0x00, 0x00, 0x00, 0x01, 0x00, 0x00, 0x00,
  0x80, 0xff, 0xff, 0xff, 0xff, 0xff, 0xff, 0xff, 0x01, 0x00, 0x00, 0x00,
  0x00, 0x00, 0x80, 0x3b, 0x1b, 0x00, 0x00, 0x00, 0x53, 0x74, 0x61, 0x74,
  0x65, 0x66, 0x75, 0x6c, 0x50, 0x61, 0x72, 0x74, 0x69, 0x74, 0x69, 0x6f,
  0x6e, 0x65, 0x64, 0x43, 0x61, 0x6c, 0x6c, 0x5f, 0x31, 0x3a, 0x30, 0x00,
  0x02, 0x00, 0x00, 0x00, 0x01, 0x00, 0x00, 0x00, 0x06, 0x00, 0x00, 0x00,
  0x82, 0xb6, 0xff, 0xff, 0x00, 0x00, 0x00, 0x01, 0x18, 0x00, 0x00, 0x00,
  0x20, 0x00, 0x00, 0x00, 0x3c, 0x00, 0x00, 0x00, 0x33, 0x00, 0x00, 0x00,
  0x00, 0x00, 0x00, 0x09, 0x70, 0x00, 0x00, 0x00, 0x02, 0x00, 0x00, 0x00,
  0xff, 0xff, 0xff, 0xff, 0x06, 0x00, 0x00, 0x00, 0x64, 0xb6, 0xff, 0xff,
  0x08, 0x00, 0x00, 0x00, 0x10, 0x00, 0x00, 0x00, 0x01, 0x00, 0x00, 0x00,
  0xff, 0xff, 0xff, 0xff, 0xff, 0xff, 0xff, 0xff, 0x01, 0x00, 0x00, 0x00,
  0xb7, 0x70, 0xb0, 0x3d, 0x38, 0x00, 0x00, 0x00, 0x66, 0x75, 0x6e, 0x63,
  0x74, 0x69, 0x6f, 0x6e, 0x61, 0x6c, 0x5f, 0x31, 0x2f, 0x64, 0x65, 0x6e,
  0x73, 0x65, 0x5f, 0x31, 0x2f, 0x4d, 0x61, 0x74, 0x4d, 0x75, 0x6c, 0x3b,
  0x66, 0x75, 0x6e, 0x63, 0x74, 0x69, 0x6f, 0x6e, 0x61, 0x6c, 0x5f, 0x31,
  0x2f, 0x64, 0x65, 0x6e, 0x73, 0x65, 0x5f, 0x31, 0x2f, 0x42, 0x69, 0x61,
  0x73, 0x41, 0x64, 0x64, 0x00, 0x00, 0x00, 0x00, 0x02, 0x00, 0x00, 0x00,
  0x01, 0x00, 0x00, 0x00, 0x06, 0x00, 0x00, 0x00, 0x1a, 0xb7, 0xff, 0xff,
  0x00, 0x00, 0x00, 0x01, 0x18, 0x00, 0x00, 0x00, 0x20, 0x00, 0x00, 0x00,
  0x40, 0x00, 0x00, 0x00, 0x32, 0x00, 0x00, 0x00, 0x00, 0x00, 0x00, 0x09,
  0x68, 0x00, 0x00, 0x00, 0x02, 0x00, 0x00, 0x00, 0xff, 0xff, 0xff, 0xff,
  0x0b, 0x00, 0x00, 0x00, 0xfc, 0xb6, 0xff, 0xff, 0x08, 0x00, 0x00, 0x00,
  0x14, 0x00, 0x00, 0x00, 0x01, 0x00, 0x00, 0x00, 0xf8, 0xff, 0xff, 0xff,
  0xff, 0xff, 0xff, 0xff, 0x00, 0x00, 0x00, 0x00, 0x01, 0x00, 0x00, 0x00,
  0x32, 0x80, 0xb4, 0x3c, 0x2c, 0x00, 0x00, 0x00, 0x66, 0x75, 0x6e, 0x63,
  0x74, 0x69, 0x6f, 0x6e, 0x61, 0x6c, 0x5f, 0x31, 0x2f, 0x67, 0x6c, 0x6f,
  0x62, 0x61, 0x6c, 0x5f, 0x61, 0x76, 0x65, 0x72, 0x61, 0x67, 0x65, 0x5f,
  0x70, 0x6f, 0x6f, 0x6c, 0x69, 0x6e, 0x67, 0x32, 0x64, 0x5f, 0x31, 0x2f,
  0x4d, 0x65, 0x61, 0x6e, 0x00, 0x00, 0x00, 0x00, 0x02, 0x00, 0x00, 0x00,
  0x01, 0x00, 0x00, 0x00, 0x0b, 0x00, 0x00, 0x00, 0xaa, 0xb7, 0xff, 0xff,
  0x00, 0x00, 0x00, 0x01, 0x18, 0x00, 0x00, 0x00, 0x28, 0x00, 0x00, 0x00,
  0x48, 0x00, 0x00, 0x00, 0x31, 0x00, 0x00, 0x00, 0x00, 0x00, 0x00, 0x09,
  0xd0, 0x00, 0x00, 0x00, 0x04, 0x00, 0x00, 0x00, 0xff, 0xff, 0xff, 0xff,
  0x0c, 0x00, 0x00, 0x00, 0x0c, 0x00, 0x00, 0x00, 0x0b, 0x00, 0x00, 0x00,
  0x94, 0xb7, 0xff, 0xff, 0x08, 0x00, 0x00, 0x00, 0x14, 0x00, 0x00, 0x00,
  0x01, 0x00, 0x00, 0x00, 0xf0, 0xff, 0xff, 0xff, 0xff, 0xff, 0xff, 0xff,
  0x00, 0x00, 0x00, 0x00, 0x01, 0x00, 0x00, 0x00, 0xc4, 0x61, 0xff, 0x3d,
  0x8d, 0x00, 0x00, 0x00, 0x66, 0x75, 0x6e, 0x63, 0x74, 0x69, 0x6f, 0x6e,
  0x61, 0x6c, 0x5f, 0x31, 0x2f, 0x62, 0x61, 0x74, 0x63, 0x68, 0x5f, 0x6e,
  0x6f, 0x72, 0x6d, 0x61, 0x6c, 0x69, 0x7a, 0x61, 0x74, 0x69, 0x6f, 0x6e,
  0x5f, 0x31, 0x34, 0x5f, 0x31, 0x2f, 0x62, 0x61, 0x74, 0x63, 0x68, 0x6e,
  0x6f, 0x72, 0x6d, 0x2f, 0x61, 0x64, 0x64, 0x5f, 0x31, 0x3b, 0x66, 0x75,
  0x6e, 0x63, 0x74, 0x69, 0x6f, 0x6e, 0x61, 0x6c, 0x5f, 0x31, 0x2f, 0x63,
  0x6f, 0x6e, 0x76, 0x32, 0x64, 0x5f, 0x39, 0x5f, 0x31, 0x2f, 0x63, 0x6f,
  0x6e, 0x76, 0x6f, 0x6c, 0x75, 0x74, 0x69, 0x6f, 0x6e, 0x3b, 0x66, 0x75,
  0x6e, 0x63, 0x74, 0x69, 0x6f, 0x6e, 0x61, 0x6c, 0x5f, 0x31, 0x2f, 0x62,
  0x61, 0x74, 0x63, 0x68, 0x5f, 0x6e, 0x6f, 0x72, 0x6d, 0x61, 0x6c, 0x69,
  0x7a, 0x61, 0x74, 0x69, 0x6f, 0x6e, 0x5f, 0x31, 0x34, 0x5f, 0x31, 0x2f,
  0x62, 0x61, 0x74, 0x63, 0x68, 0x6e, 0x6f, 0x72, 0x6d, 0x2f, 0x73, 0x75,
  0x62, 0x00, 0x00, 0x00, 0x04, 0x00, 0x00, 0x00, 0x01, 0x00, 0x00, 0x00,
  0x0c, 0x00, 0x00, 0x00, 0x0c, 0x00, 0x00, 0x00, 0x0b, 0x00, 0x00, 0x00,
  0xaa, 0xb8, 0xff, 0xff, 0x00, 0x00, 0x00, 0x01, 0x18, 0x00, 0x00, 0x00,
  0x28, 0x00, 0x00, 0x00, 0x48, 0x00, 0x00, 0x00, 0x30, 0x00, 0x00, 0x00,
  0x00, 0x00, 0x00, 0x09, 0x60, 0x01, 0x00, 0x00, 0x04, 0x00, 0x00, 0x00,
  0xff, 0xff, 0xff, 0xff, 0x0c, 0x00, 0x00, 0x00, 0x0c, 0x00, 0x00, 0x00,
  0x42, 0x00, 0x00, 0x00, 0x94, 0xb8, 0xff, 0xff, 0x08, 0x00, 0x00, 0x00,
  0x14, 0x00, 0x00, 0x00, 0x01, 0x00, 0x00, 0x00, 0x80, 0xff, 0xff, 0xff,
  0xff, 0xff, 0xff, 0xff, 0x00, 0x00, 0x00, 0x00, 0x01, 0x00, 0x00, 0x00,
  0xc1, 0xc0, 0xc0, 0x3c, 0x1c, 0x01, 0x00, 0x00, 0x66, 0x75, 0x6e, 0x63,
  0x74, 0x69, 0x6f, 0x6e, 0x61, 0x6c, 0x5f, 0x31, 0x2f, 0x72, 0x65, 0x5f,
  0x6c, 0x75, 0x5f, 0x39, 0x5f, 0x31, 0x2f, 0x52, 0x65, 0x6c, 0x75, 0x36,
  0x3b, 0x66, 0x75, 0x6e, 0x63, 0x74, 0x69, 0x6f, 0x6e, 0x61, 0x6c, 0x5f,
  0x31, 0x2f, 0x62, 0x61, 0x74, 0x63, 0x68, 0x5f, 0x6e, 0x6f, 0x72, 0x6d,
  0x61, 0x6c, 0x69, 0x7a, 0x61, 0x74, 0x69, 0x6f, 0x6e, 0x5f, 0x31, 0x33,
  0x5f, 0x31, 0x2f, 0x62, 0x61, 0x74, 0x63, 0x68, 0x6e, 0x6f, 0x72, 0x6d,
  0x2f, 0x61, 0x64, 0x64, 0x5f, 0x31, 0x3b, 0x66, 0x75, 0x6e, 0x63, 0x74,
  0x69, 0x6f, 0x6e, 0x61, 0x6c, 0x5f, 0x31, 0x2f, 0x62, 0x61, 0x74, 0x63,
  0x68, 0x5f, 0x6e, 0x6f, 0x72, 0x6d, 0x61, 0x6c, 0x69, 0x7a, 0x61, 0x74,
  0x69, 0x6f, 0x6e, 0x5f, 0x31, 0x33, 0x5f, 0x31, 0x2f, 0x62, 0x61, 0x74,
  0x63, 0x68, 0x6e, 0x6f, 0x72, 0x6d, 0x2f, 0x6d, 0x75, 0x6c, 0x5f, 0x31,
  0x3b, 0x66, 0x75, 0x6e, 0x63, 0x74, 0x69, 0x6f, 0x6e, 0x61, 0x6c, 0x5f,
  0x31, 0x2f, 0x64, 0x65, 0x70, 0x74, 0x68, 0x77, 0x69, 0x73, 0x65, 0x5f,
  0x63, 0x6f, 0x6e, 0x76, 0x32, 0x64, 0x5f, 0x34, 0x5f, 0x31, 0x2f, 0x64,
  0x65, 0x70, 0x74, 0x68, 0x77, 0x69, 0x73, 0x65, 0x3b, 0x66, 0x75, 0x6e,
  0x63, 0x74, 0x69, 0x6f, 0x6e, 0x61, 0x6c, 0x5f, 0x31, 0x2f, 0x62, 0x61,
  0x74, 0x63, 0x68, 0x5f, 0x6e, 0x6f, 0x72, 0x6d, 0x61, 0x6c, 0x69, 0x7a,
  0x61, 0x74, 0x69, 0x6f, 0x6e, 0x5f, 0x31, 0x33, 0x5f, 0x31, 0x2f, 0x62,
  0x61, 0x74, 0x63, 0x68, 0x6e, 0x6f, 0x72, 0x6d, 0x2f, 0x6d, 0x75, 0x6c,
  0x3b, 0x66, 0x75, 0x6e, 0x63, 0x74, 0x69, 0x6f, 0x6e, 0x61, 0x6c, 0x5f,
  0x31, 0x2f, 0x62, 0x61, 0x74, 0x63, 0x68, 0x5f, 0x6e, 0x6f, 0x72, 0x6d,
  0x61, 0x6c, 0x69, 0x7a, 0x61, 0x74, 0x69, 0x6f, 0x6e, 0x5f, 0x31, 0x33,
  0x5f, 0x31, 0x2f, 0x62, 0x61, 0x74, 0x63, 0x68, 0x6e, 0x6f, 0x72, 0x6d,
  0x2f, 0x73, 0x75, 0x62, 0x00, 0x00, 0x00, 0x00, 0x04, 0x00, 0x00, 0x00,
  0x01, 0x00, 0x00, 0x00, 0x0c, 0x00, 0x00, 0x00, 0x0c, 0x00, 0x00, 0x00,
  0x42, 0x00, 0x00, 0x00, 0x3a, 0xba, 0xff, 0xff, 0x00, 0x00, 0x00, 0x01,
  0x18, 0x00, 0x00, 0x00, 0x28, 0x00, 0x00, 0x00, 0x44, 0x00, 0x00, 0x00,
  0x2f, 0x00, 0x00, 0x00, 0x00, 0x00, 0x00, 0x09, 0xe8, 0x00, 0x00, 0x00,
  0x04, 0x00, 0x00, 0x00, 0xff, 0xff, 0xff, 0xff, 0x0c, 0x00, 0x00, 0x00,
  0x0c, 0x00, 0x00, 0x00, 0x42, 0x00, 0x00, 0x00, 0x24, 0xba, 0xff, 0xff,
  0x08, 0x00, 0x00, 0x00, 0x10, 0x00, 0x00, 0x00, 0x01, 0x00, 0x00, 0x00,
  0x80, 0xff, 0xff, 0xff, 0xff, 0xff, 0xff, 0xff, 0x01, 0x00, 0x00, 0x00,
  0xc1, 0xc0, 0xc0, 0x3c, 0xaa, 0x00, 0x00, 0x00, 0x66, 0x75, 0x6e, 0x63,
  0x74, 0x69, 0x6f, 0x6e, 0x61, 0x6c, 0x5f, 0x31, 0x2f, 0x72, 0x65, 0x5f,
  0x6c, 0x75, 0x5f, 0x38, 0x5f, 0x31, 0x2f, 0x52, 0x65, 0x6c, 0x75, 0x36,
  0x3b, 0x66, 0x75, 0x6e, 0x63, 0x74, 0x69, 0x6f, 0x6e, 0x61, 0x6c, 0x5f,
  0x31, 0x2f, 0x62, 0x61, 0x74, 0x63, 0x68, 0x5f, 0x6e, 0x6f, 0x72, 0x6d,
  0x61, 0x6c, 0x69, 0x7a, 0x61, 0x74, 0x69, 0x6f, 0x6e, 0x5f, 0x31, 0x32,
  0x5f, 0x31, 0x2f, 0x62, 0x61, 0x74, 0x63, 0x68, 0x6e, 0x6f, 0x72, 0x6d,
  0x2f, 0x61, 0x64, 0x64, 0x5f, 0x31, 0x3b, 0x66, 0x75, 0x6e, 0x63, 0x74,
  0x69, 0x6f, 0x6e, 0x61, 0x6c, 0x5f, 0x31, 0x2f, 0x63, 0x6f, 0x6e, 0x76,
  0x32, 0x64, 0x5f, 0x38, 0x5f, 0x31, 0x2f, 0x63, 0x6f, 0x6e, 0x76, 0x6f,
  0x6c, 0x75, 0x74, 0x69, 0x6f, 0x6e, 0x3b, 0x66, 0x75, 0x6e, 0x63, 0x74,
  0x69, 0x6f, 0x6e, 0x61, 0x6c, 0x5f, 0x31, 0x2f, 0x62, 0x61, 0x74, 0x63,
  0x68, 0x5f, 0x6e, 0x6f, 0x72, 0x6d, 0x61, 0x6c, 0x69, 0x7a, 0x61, 0x74,
  0x69, 0x6f, 0x6e, 0x5f, 0x31, 0x32, 0x5f, 0x31, 0x2f, 0x62, 0x61, 0x74,
  0x63, 0x68, 0x6e, 0x6f, 0x72, 0x6d, 0x2f, 0x73, 0x75, 0x62, 0x00, 0x00,
  0x04, 0x00, 0x00, 0x00, 0x01, 0x00, 0x00, 0x00, 0x0c, 0x00, 0x00, 0x00,
  0x0c, 0x00, 0x00, 0x00, 0x42, 0x00, 0x00, 0x00, 0x52, 0xbb, 0xff, 0xff,
  0x00, 0x00, 0x00, 0x01, 0x18, 0x00, 0x00, 0x00, 0x28, 0x00, 0x00, 0x00,
  0x48, 0x00, 0x00, 0x00, 0x2e, 0x00, 0x00, 0x00, 0x00, 0x00, 0x00, 0x09,
  0xd0, 0x00, 0x00, 0x00, 0x04, 0x00, 0x00, 0x00, 0xff, 0xff, 0xff, 0xff,
  0x0c, 0x00, 0x00, 0x00, 0x0c, 0x00, 0x00, 0x00, 0x0b, 0x00, 0x00, 0x00,
  0x3c, 0xbb, 0xff, 0xff, 0x08, 0x00, 0x00, 0x00, 0x14, 0x00, 0x00, 0x00,
  0x01, 0x00, 0x00, 0x00, 0xf9, 0xff, 0xff, 0xff, 0xff, 0xff, 0xff, 0xff,
  0x00, 0x00, 0x00, 0x00, 0x01, 0x00, 0x00, 0x00, 0x62, 0xc0, 0x84, 0x3d,
  0x8d, 0x00, 0x00, 0x00, 0x66, 0x75, 0x6e, 0x63, 0x74, 0x69, 0x6f, 0x6e,
  0x61, 0x6c, 0x5f, 0x31, 0x2f, 0x62, 0x61, 0x74, 0x63, 0x68, 0x5f, 0x6e,
  0x6f, 0x72, 0x6d, 0x61, 0x6c, 0x69, 0x7a, 0x61, 0x74, 0x69, 0x6f, 0x6e,
  0x5f, 0x31, 0x31, 0x5f, 0x31, 0x2f, 0x62, 0x61, 0x74, 0x63, 0x68, 0x6e,
  0x6f, 0x72, 0x6d, 0x2f, 0x61, 0x64, 0x64, 0x5f, 0x31, 0x3b, 0x66, 0x75,
  0x6e, 0x63, 0x74, 0x69, 0x6f, 0x6e, 0x61, 0x6c, 0x5f, 0x31, 0x2f, 0x63,
  0x6f, 0x6e, 0x76, 0x32, 0x64, 0x5f, 0x37, 0x5f, 0x31, 0x2f, 0x63, 0x6f,
  0x6e, 0x76, 0x6f, 0x6c, 0x75, 0x74, 0x69, 0x6f, 0x6e, 0x3b, 0x66, 0x75,
  0x6e, 0x63, 0x74, 0x69, 0x6f, 0x6e, 0x61, 0x6c, 0x5f, 0x31, 0x2f, 0x62,
  0x61, 0x74, 0x63, 0x68, 0x5f, 0x6e, 0x6f, 0x72, 0x6d, 0x61, 0x6c, 0x69,
  0x7a, 0x61, 0x74, 0x69, 0x6f, 0x6e, 0x5f, 0x31, 0x31, 0x5f, 0x31, 0x2f,
  0x62, 0x61, 0x74, 0x63, 0x68, 0x6e, 0x6f, 0x72, 0x6d, 0x2f, 0x73, 0x75,
  0x62, 0x00, 0x00, 0x00, 0x04, 0x00, 0x00, 0x00, 0x01, 0x00, 0x00, 0x00,
  0x0c, 0x00, 0x00, 0x00, 0x0c, 0x00, 0x00, 0x00, 0x0b, 0x00, 0x00, 0x00,
  0x52, 0xbc, 0xff, 0xff, 0x00, 0x00, 0x00, 0x01, 0x18, 0x00, 0x00, 0x00,
  0x28, 0x00, 0x00, 0x00, 0x48, 0x00, 0x00, 0x00, 0x2d, 0x00, 0x00, 0x00,
  0x00, 0x00, 0x00, 0x09, 0x60, 0x01, 0x00, 0x00, 0x04, 0x00, 0x00, 0x00,
  0xff, 0xff, 0xff, 0xff, 0x0c, 0x00, 0x00, 0x00, 0x0c, 0x00, 0x00, 0x00,
  0x30, 0x00, 0x00, 0x00, 0x3c, 0xbc, 0xff, 0xff, 0x08, 0x00, 0x00, 0x00,
  0x14, 0x00, 0x00, 0x00, 0x01, 0x00, 0x00, 0x00, 0x80, 0xff, 0xff, 0xff,
  0xff, 0xff, 0xff, 0xff, 0x00, 0x00, 0x00, 0x00, 0x01, 0x00, 0x00, 0x00,
  0xc1, 0xc0, 0xc0, 0x3c, 0x1c, 0x01, 0x00, 0x00, 0x66, 0x75, 0x6e, 0x63,
  0x74, 0x69, 0x6f, 0x6e, 0x61, 0x6c, 0x5f, 0x31, 0x2f, 0x72, 0x65, 0x5f,
  0x6c, 0x75, 0x5f, 0x37, 0x5f, 0x31, 0x2f, 0x52, 0x65, 0x6c, 0x75, 0x36,
  0x3b, 0x66, 0x75, 0x6e, 0x63, 0x74, 0x69, 0x6f, 0x6e, 0x61, 0x6c, 0x5f,
  0x31, 0x2f, 0x62, 0x61, 0x74, 0x63, 0x68, 0x5f, 0x6e, 0x6f, 0x72, 0x6d,
  0x61, 0x6c, 0x69, 0x7a, 0x61, 0x74, 0x69, 0x6f, 0x6e, 0x5f, 0x31, 0x30,
  0x5f, 0x31, 0x2f, 0x62, 0x61, 0x74, 0x63, 0x68, 0x6e, 0x6f, 0x72, 0x6d,
  0x2f, 0x61, 0x64, 0x64, 0x5f, 0x31, 0x3b, 0x66, 0x75, 0x6e, 0x63, 0x74,
  0x69, 0x6f, 0x6e, 0x61, 0x6c, 0x5f, 0x31, 0x2f, 0x62, 0x61, 0x74, 0x63,
  0x68, 0x5f, 0x6e, 0x6f, 0x72, 0x6d, 0x61, 0x6c, 0x69, 0x7a, 0x61, 0x74,
  0x69, 0x6f, 0x6e, 0x5f, 0x31, 0x30, 0x5f, 0x31, 0x2f, 0x62, 0x61, 0x74,
  0x63, 0x68, 0x6e, 0x6f, 0x72, 0x6d, 0x2f, 0x6d, 0x75, 0x6c, 0x5f, 0x31,
  0x3b, 0x66, 0x75, 0x6e, 0x63, 0x74, 0x69, 0x6f, 0x6e, 0x61, 0x6c, 0x5f,
  0x31, 0x2f, 0x64, 0x65, 0x70, 0x74, 0x68, 0x77, 0x69, 0x73, 0x65, 0x5f,
  0x63, 0x6f, 0x6e, 0x76, 0x32, 0x64, 0x5f, 0x33, 0x5f, 0x31, 0x2f, 0x64,
  0x65, 0x70, 0x74, 0x68, 0x77, 0x69, 0x73, 0x65, 0x3b, 0x66, 0x75, 0x6e,
  0x63, 0x74, 0x69, 0x6f, 0x6e, 0x61, 0x6c, 0x5f, 0x31, 0x2f, 0x62, 0x61,
  0x74, 0x63, 0x68, 0x5f, 0x6e, 0x6f, 0x72, 0x6d, 0x61, 0x6c, 0x69, 0x7a,
  0x61, 0x74, 0x69, 0x6f, 0x6e, 0x5f, 0x31, 0x30, 0x5f, 0x31, 0x2f, 0x62,
  0x61, 0x74, 0x63, 0x68, 0x6e, 0x6f, 0x72, 0x6d, 0x2f, 0x6d, 0x75, 0x6c,
  0x3b, 0x66, 0x75, 0x6e, 0x63, 0x74, 0x69, 0x6f, 0x6e, 0x61, 0x6c, 0x5f,
  0x31, 0x2f, 0x62, 0x61, 0x74, 0x63, 0x68, 0x5f, 0x6e, 0x6f, 0x72, 0x6d,
  0x61, 0x6c, 0x69, 0x7a, 0x61, 0x74, 0x69, 0x6f, 0x6e, 0x5f, 0x31, 0x30,
  0x5f, 0x31, 0x2f, 0x62, 0x61, 0x74, 0x63, 0x68, 0x6e, 0x6f, 0x72, 0x6d,
  0x2f, 0x73, 0x75, 0x62, 0x00, 0x00, 0x00, 0x00, 0x04, 0x00, 0x00, 0x00,
  0x01, 0x00, 0x00, 0x00, 0x0c, 0x00, 0x00, 0x00, 0x0c, 0x00, 0x00, 0x00,
  0x30, 0x00, 0x00, 0x00, 0xe2, 0xbd, 0xff, 0xff, 0x00, 0x00, 0x00, 0x01,
  0x18, 0x00, 0x00, 0x00, 0x28, 0x00, 0x00, 0x00, 0x44, 0x00, 0x00, 0x00,
  0x2c, 0x00, 0x00, 0x00, 0x00, 0x00, 0x00, 0x09, 0xe8, 0x00, 0x00, 0x00,
  0x04, 0x00, 0x00, 0x00, 0xff, 0xff, 0xff, 0xff, 0x18, 0x00, 0x00, 0x00,
  0x18, 0x00, 0x00, 0x00, 0x30, 0x00, 0x00, 0x00, 0xcc, 0xbd, 0xff, 0xff,
  0x08, 0x00, 0x00, 0x00, 0x10, 0x00, 0x00, 0x00, 0x01, 0x00, 0x00, 0x00,
  0x80, 0xff, 0xff, 0xff, 0xff, 0xff, 0xff, 0xff, 0x01, 0x00, 0x00, 0x00,
  0xc1, 0xc0, 0xc0, 0x3c, 0xa8, 0x00, 0x00, 0x00, 0x66, 0x75, 0x6e, 0x63,
  0x74, 0x69, 0x6f, 0x6e, 0x61, 0x6c, 0x5f, 0x31, 0x2f, 0x72, 0x65, 0x5f,
  0x6c, 0x75, 0x5f, 0x36, 0x5f, 0x31, 0x2f, 0x52, 0x65, 0x6c, 0x75, 0x36,
  0x3b, 0x66, 0x75, 0x6e, 0x63, 0x74, 0x69, 0x6f, 0x6e, 0x61, 0x6c, 0x5f,
  0x31, 0x2f, 0x62, 0x61, 0x74, 0x63, 0x68, 0x5f, 0x6e, 0x6f, 0x72, 0x6d,
  0x61, 0x6c, 0x69, 0x7a, 0x61, 0x74, 0x69, 0x6f, 0x6e, 0x5f, 0x39, 0x5f,
  0x31, 0x2f, 0x62, 0x61, 0x74, 0x63, 0x68, 0x6e, 0x6f, 0x72, 0x6d, 0x2f,
  0x61, 0x64, 0x64, 0x5f, 0x31, 0x3b, 0x66, 0x75, 0x6e, 0x63, 0x74, 0x69,
  0x6f, 0x6e, 0x61, 0x6c, 0x5f, 0x31, 0x2f, 0x63, 0x6f, 0x6e, 0x76, 0x32,
  0x64, 0x5f, 0x36, 0x5f, 0x31, 0x2f, 0x63, 0x6f, 0x6e, 0x76, 0x6f, 0x6c,
  0x75, 0x74, 0x69, 0x6f, 0x6e, 0x3b, 0x66, 0x75, 0x6e, 0x63, 0x74, 0x69,
  0x6f, 0x6e, 0x61, 0x6c, 0x5f, 0x31, 0x2f, 0x62, 0x61, 0x74, 0x63, 0x68,
  0x5f, 0x6e, 0x6f, 0x72, 0x6d, 0x61, 0x6c, 0x69, 0x7a, 0x61, 0x74, 0x69,
  0x6f, 0x6e, 0x5f, 0x39, 0x5f, 0x31, 0x2f, 0x62, 0x61, 0x74, 0x63, 0x68,
  0x6e, 0x6f, 0x72, 0x6d, 0x2f, 0x73, 0x75, 0x62, 0x00, 0x00, 0x00, 0x00,
  0x04, 0x00, 0x00, 0x00, 0x01, 0x00, 0x00, 0x00, 0x18, 0x00, 0x00, 0x00,
  0x18, 0x00, 0x00, 0x00, 0x30, 0x00, 0x00, 0x00, 0xfa, 0xbe, 0xff, 0xff,
  0x00, 0x00, 0x00, 0x01, 0x18, 0x00, 0x00, 0x00, 0x28, 0x00, 0x00, 0x00,
  0x44, 0x00, 0x00, 0x00, 0x2b, 0x00, 0x00, 0x00, 0x00, 0x00, 0x00, 0x09,
  0xc8, 0x00, 0x00, 0x00, 0x04, 0x00, 0x00, 0x00, 0xff, 0xff, 0xff, 0xff,
  0x18, 0x00, 0x00, 0x00, 0x18, 0x00, 0x00, 0x00, 0x08, 0x00, 0x00, 0x00,
  0xe4, 0xbe, 0xff, 0xff, 0x08, 0x00, 0x00, 0x00, 0x10, 0x00, 0x00, 0x00,
  0x01, 0x00, 0x00, 0x00, 0xf7, 0xff, 0xff, 0xff, 0xff, 0xff, 0xff, 0xff,
  0x01, 0x00, 0x00, 0x00, 0xde, 0x39, 0x85, 0x3d, 0x8b, 0x00, 0x00, 0x00,
  0x66, 0x75, 0x6e, 0x63, 0x74, 0x69, 0x6f, 0x6e, 0x61, 0x6c, 0x5f, 0x31,
  0x2f, 0x62, 0x61, 0x74, 0x63, 0x68, 0x5f, 0x6e, 0x6f, 0x72, 0x6d, 0x61,
  0x6c, 0x69, 0x7a, 0x61, 0x74, 0x69, 0x6f, 0x6e, 0x5f, 0x38, 0x5f, 0x31,
  0x2f, 0x62, 0x61, 0x74, 0x63, 0x68, 0x6e, 0x6f, 0x72, 0x6d, 0x2f, 0x61,
  0x64, 0x64, 0x5f, 0x31, 0x3b, 0x66, 0x75, 0x6e, 0x63, 0x74, 0x69, 0x6f,
  0x6e, 0x61, 0x6c, 0x5f, 0x31, 0x2f, 0x63, 0x6f, 0x6e, 0x76, 0x32, 0x64,
  0x5f, 0x35, 0x5f, 0x31, 0x2f, 0x63, 0x6f, 0x6e, 0x76, 0x6f, 0x6c, 0x75,
  0x74, 0x69, 0x6f, 0x6e, 0x3b, 0x66, 0x75, 0x6e, 0x63, 0x74, 0x69, 0x6f,
  0x6e, 0x61, 0x6c, 0x5f, 0x31, 0x2f, 0x62, 0x61, 0x74, 0x63, 0x68, 0x5f,
  0x6e, 0x6f, 0x72, 0x6d, 0x61, 0x6c, 0x69, 0x7a, 0x61, 0x74, 0x69, 0x6f,
  0x6e, 0x5f, 0x38, 0x5f, 0x31, 0x2f, 0x62, 0x61, 0x74, 0x63, 0x68, 0x6e,
  0x6f, 0x72, 0x6d, 0x2f, 0x73, 0x75, 0x62, 0x00, 0x04, 0x00, 0x00, 0x00,
  0x01, 0x00, 0x00, 0x00, 0x18, 0x00, 0x00, 0x00, 0x18, 0x00, 0x00, 0x00,
  0x08, 0x00, 0x00, 0x00, 0xf2, 0xbf, 0xff, 0xff, 0x00, 0x00, 0x00, 0x01,
  0x18, 0x00, 0x00, 0x00, 0x28, 0x00, 0x00, 0x00, 0x44, 0x00, 0x00, 0x00,
  0x2a, 0x00, 0x00, 0x00, 0x00, 0x00, 0x00, 0x09, 0x58, 0x01, 0x00, 0x00,
  0x04, 0x00, 0x00, 0x00, 0xff, 0xff, 0xff, 0xff, 0x18, 0x00, 0x00, 0x00,
  0x18, 0x00, 0x00, 0x00, 0x30, 0x00, 0x00, 0x00, 0xdc, 0xbf, 0xff, 0xff,
  0x08, 0x00, 0x00, 0x00, 0x10, 0x00, 0x00, 0x00, 0x01, 0x00, 0x00, 0x00,
  0x80, 0xff, 0xff, 0xff, 0xff, 0xff, 0xff, 0xff, 0x01, 0x00, 0x00, 0x00,
  0xc1, 0xc0, 0xc0, 0x3c, 0x18, 0x01, 0x00, 0x00, 0x66, 0x75, 0x6e, 0x63,
  0x74, 0x69, 0x6f, 0x6e, 0x61, 0x6c, 0x5f, 0x31, 0x2f, 0x72, 0x65, 0x5f,
  0x6c, 0x75, 0x5f, 0x35, 0x5f, 0x31, 0x2f, 0x52, 0x65, 0x6c, 0x75, 0x36,
  0x3b, 0x66, 0x75, 0x6e, 0x63, 0x74, 0x69, 0x6f, 0x6e, 0x61, 0x6c, 0x5f,
  0x31, 0x2f, 0x62, 0x61, 0x74, 0x63, 0x68, 0x5f, 0x6e, 0x6f, 0x72, 0x6d,
  0x61, 0x6c, 0x69, 0x7a, 0x61, 0x74, 0x69, 0x6f, 0x6e, 0x5f, 0x37, 0x5f,
  0x31, 0x2f, 0x62, 0x61, 0x74, 0x63, 0x68, 0x6e, 0x6f, 0x72, 0x6d, 0x2f,
  0x61, 0x64, 0x64, 0x5f, 0x31, 0x3b, 0x66, 0x75, 0x6e, 0x63, 0x74, 0x69,
  0x6f, 0x6e, 0x61, 0x6c, 0x5f, 0x31, 0x2f, 0x62, 0x61, 0x74, 0x63, 0x68,
  0x5f, 0x6e, 0x6f, 0x72, 0x6d, 0x61, 0x6c, 0x69, 0x7a, 0x61, 0x74, 0x69,
  0x6f, 0x6e, 0x5f, 0x37, 0x5f, 0x31, 0x2f, 0x62, 0x61, 0x74, 0x63, 0x68,
  0x6e, 0x6f, 0x72, 0x6d, 0x2f, 0x6d, 0x75, 0x6c, 0x5f, 0x31, 0x3b, 0x66,
  0x75, 0x6e, 0x63, 0x74, 0x69, 0x6f, 0x6e, 0x61, 0x6c, 0x5f, 0x31, 0x2f,
  0x64, 0x65, 0x70, 0x74, 0x68, 0x77, 0x69, 0x73, 0x65, 0x5f, 0x63, 0x6f,
  0x6e, 0x76, 0x32, 0x64, 0x5f, 0x32, 0x5f, 0x31, 0x2f, 0x64, 0x65, 0x70,
  0x74, 0x68, 0x77, 0x69, 0x73, 0x65, 0x3b, 0x66, 0x75, 0x6e, 0x63, 0x74,
  0x69, 0x6f, 0x6e, 0x61, 0x6c, 0x5f, 0x31, 0x2f, 0x62, 0x61, 0x74, 0x63,
  0x68, 0x5f, 0x6e, 0x6f, 0x72, 0x6d, 0x61, 0x6c, 0x69, 0x7a, 0x61, 0x74,
  0x69, 0x6f, 0x6e, 0x5f, 0x37, 0x5f, 0x31, 0x2f, 0x62, 0x61, 0x74, 0x63,
  0x68, 0x6e, 0x6f, 0x72, 0x6d, 0x2f, 0x6d, 0x75, 0x6c, 0x3b, 0x66, 0x75,
  0x6e, 0x63, 0x74, 0x69, 0x6f, 0x6e, 0x61, 0x6c, 0x5f, 0x31, 0x2f, 0x62,
  0x61, 0x74, 0x63, 0x68, 0x5f, 0x6e, 0x6f, 0x72, 0x6d, 0x61, 0x6c, 0x69,
  0x7a, 0x61, 0x74, 0x69, 0x6f, 0x6e, 0x5f, 0x37, 0x5f, 0x31, 0x2f, 0x62,
  0x61, 0x74, 0x63, 0x68, 0x6e, 0x6f, 0x72, 0x6d, 0x2f, 0x73, 0x75, 0x62,
  0x00, 0x00, 0x00, 0x00, 0x04, 0x00, 0x00, 0x00, 0x01, 0x00, 0x00, 0x00,
  0x18, 0x00, 0x00, 0x00, 0x18, 0x00, 0x00, 0x00, 0x30, 0x00, 0x00, 0x00,
  0x7a, 0xc1, 0xff, 0xff, 0x00, 0x00, 0x00, 0x01, 0x18, 0x00, 0x00, 0x00,
  0x28, 0x00, 0x00, 0x00, 0x44, 0x00, 0x00, 0x00, 0x29, 0x00, 0x00, 0x00,
  0x00, 0x00, 0x00, 0x09, 0xe8, 0x00, 0x00, 0x00, 0x04, 0x00, 0x00, 0x00,
  0xff, 0xff, 0xff, 0xff, 0x18, 0x00, 0x00, 0x00, 0x18, 0x00, 0x00, 0x00,
  0x30, 0x00, 0x00, 0x00, 0x64, 0xc1, 0xff, 0xff, 0x08, 0x00, 0x00, 0x00,
  0x10, 0x00, 0x00, 0x00, 0x01, 0x00, 0x00, 0x00, 0x80, 0xff, 0xff, 0xff,
  0xff, 0xff, 0xff, 0xff, 0x01, 0x00, 0x00, 0x00, 0xc1, 0xc0, 0xc0, 0x3c,
  0xa8, 0x00, 0x00, 0x00, 0x66, 0x75, 0x6e, 0x63, 0x74, 0x69, 0x6f, 0x6e,
  0x61, 0x6c, 0x5f, 0x31, 0x2f, 0x72, 0x65, 0x5f, 0x6c, 0x75, 0x5f, 0x34,
  0x5f, 0x31, 0x2f, 0x52, 0x65, 0x6c, 0x75, 0x36, 0x3b, 0x66, 0x75, 0x6e,
  0x63, 0x74, 0x69, 0x6f, 0x6e, 0x61, 0x6c, 0x5f, 0x31, 0x2f, 0x62, 0x61,
  0x74, 0x63, 0x68, 0x5f, 0x6e, 0x6f, 0x72, 0x6d, 0x61, 0x6c, 0x69, 0x7a,
  0x61, 0x74, 0x69, 0x6f, 0x6e, 0x5f, 0x36, 0x5f, 0x31, 0x2f, 0x62, 0x61,
  0x74, 0x63, 0x68, 0x6e, 0x6f, 0x72, 0x6d, 0x2f, 0x61, 0x64, 0x64, 0x5f,
  0x31, 0x3b, 0x66, 0x75, 0x6e, 0x63, 0x74, 0x69, 0x6f, 0x6e, 0x61, 0x6c,
  0x5f, 0x31, 0x2f, 0x63, 0x6f, 0x6e, 0x76, 0x32, 0x64, 0x5f, 0x34, 0x5f,
  0x31, 0x2f, 0x63, 0x6f, 0x6e, 0x76, 0x6f, 0x6c, 0x75, 0x74, 0x69, 0x6f,
  0x6e, 0x3b, 0x66, 0x75, 0x6e, 0x63, 0x74, 0x69, 0x6f, 0x6e, 0x61, 0x6c,
  0x5f, 0x31, 0x2f, 0x62, 0x61, 0x74, 0x63, 0x68, 0x5f, 0x6e, 0x6f, 0x72,
  0x6d, 0x61, 0x6c, 0x69, 0x7a, 0x61, 0x74, 0x69, 0x6f, 0x6e, 0x5f, 0x36,
  0x5f, 0x31, 0x2f, 0x62, 0x61, 0x74, 0x63, 0x68, 0x6e, 0x6f, 0x72, 0x6d,
  0x2f, 0x73, 0x75, 0x62, 0x00, 0x00, 0x00, 0x00, 0x04, 0x00, 0x00, 0x00,
  0x01, 0x00, 0x00, 0x00, 0x18, 0x00, 0x00, 0x00, 0x18, 0x00, 0x00, 0x00,
  0x30, 0x00, 0x00, 0x00, 0x92, 0xc2, 0xff, 0xff, 0x00, 0x00, 0x00, 0x01,
  0x18, 0x00, 0x00, 0x00, 0x28, 0x00, 0x00, 0x00, 0x44, 0x00, 0x00, 0x00,
  0x28, 0x00, 0x00, 0x00, 0x00, 0x00, 0x00, 0x09, 0xc8, 0x00, 0x00, 0x00,
  0x04, 0x00, 0x00, 0x00, 0xff, 0xff, 0xff, 0xff, 0x18, 0x00, 0x00, 0x00,
  0x18, 0x00, 0x00, 0x00, 0x08, 0x00, 0x00, 0x00, 0x7c, 0xc2, 0xff, 0xff,
  0x08, 0x00, 0x00, 0x00, 0x10, 0x00, 0x00, 0x00, 0x01, 0x00, 0x00, 0x00,
  0xf1, 0xff, 0xff, 0xff, 0xff, 0xff, 0xff, 0xff, 0x01, 0x00, 0x00, 0x00,
  0xdb, 0x62, 0x86, 0x3d, 0x8b, 0x00, 0x00, 0x00, 0x66, 0x75, 0x6e, 0x63,
  0x74, 0x69, 0x6f, 0x6e, 0x61, 0x6c, 0x5f, 0x31, 0x2f, 0x62, 0x61, 0x74,
  0x63, 0x68, 0x5f, 0x6e, 0x6f, 0x72, 0x6d, 0x61, 0x6c, 0x69, 0x7a, 0x61,
  0x74, 0x69, 0x6f, 0x6e, 0x5f, 0x35, 0x5f, 0x31, 0x2f, 0x62, 0x61, 0x74,
  0x63, 0x68, 0x6e, 0x6f, 0x72, 0x6d, 0x2f, 0x61, 0x64, 0x64, 0x5f, 0x31,
  0x3b, 0x66, 0x75, 0x6e, 0x63, 0x74, 0x69, 0x6f, 0x6e, 0x61, 0x6c, 0x5f,
  0x31, 0x2f, 0x63, 0x6f, 0x6e, 0x76, 0x32, 0x64, 0x5f, 0x33, 0x5f, 0x31,
  0x2f, 0x63, 0x6f, 0x6e, 0x76, 0x6f, 0x6c, 0x75, 0x74, 0x69, 0x6f, 0x6e,
  0x3b, 0x66, 0x75, 0x6e, 0x63, 0x74, 0x69, 0x6f, 0x6e, 0x61, 0x6c, 0x5f,
  0x31, 0x2f, 0x62, 0x61, 0x74, 0x63, 0x68, 0x5f, 0x6e, 0x6f, 0x72, 0x6d,
  0x61, 0x6c, 0x69, 0x7a, 0x61, 0x74, 0x69, 0x6f, 0x6e, 0x5f, 0x35, 0x5f,
  0x31, 0x2f, 0x62, 0x61, 0x74, 0x63, 0x68, 0x6e, 0x6f, 0x72, 0x6d, 0x2f,
  0x73, 0x75, 0x62, 0x00, 0x04, 0x00, 0x00, 0x00, 0x01, 0x00, 0x00, 0x00,
  0x18, 0x00, 0x00, 0x00, 0x18, 0x00, 0x00, 0x00, 0x08, 0x00, 0x00, 0x00,
  0x8a, 0xc3, 0xff, 0xff, 0x00, 0x00, 0x00, 0x01, 0x18, 0x00, 0x00, 0x00,
  0x28, 0x00, 0x00, 0x00, 0x44, 0x00, 0x00, 0x00, 0x27, 0x00, 0x00, 0x00,
  0x00, 0x00, 0x00, 0x09, 0x58, 0x01, 0x00, 0x00, 0x04, 0x00, 0x00, 0x00,
  0xff, 0xff, 0xff, 0xff, 0x18, 0x00, 0x00, 0x00, 0x18, 0x00, 0x00, 0x00,
  0x1e, 0x00, 0x00, 0x00, 0x74, 0xc3, 0xff, 0xff, 0x08, 0x00, 0x00, 0x00,
  0x10, 0x00, 0x00, 0x00, 0x01, 0x00, 0x00, 0x00, 0x80, 0xff, 0xff, 0xff,
  0xff, 0xff, 0xff, 0xff, 0x01, 0x00, 0x00, 0x00, 0xc1, 0xc0, 0xc0, 0x3c,
  0x18, 0x01, 0x00, 0x00, 0x66, 0x75, 0x6e, 0x63, 0x74, 0x69, 0x6f, 0x6e,
  0x61, 0x6c, 0x5f, 0x31, 0x2f, 0x72, 0x65, 0x5f, 0x6c, 0x75, 0x5f, 0x33,
  0x5f, 0x31, 0x2f, 0x52, 0x65, 0x6c, 0x75, 0x36, 0x3b, 0x66, 0x75, 0x6e,
  0x63, 0x74, 0x69, 0x6f, 0x6e, 0x61, 0x6c, 0x5f, 0x31, 0x2f, 0x62, 0x61,
  0x74, 0x63, 0x68, 0x5f, 0x6e, 0x6f, 0x72, 0x6d, 0x61, 0x6c, 0x69, 0x7a,
  0x61, 0x74, 0x69, 0x6f, 0x6e, 0x5f, 0x34, 0x5f, 0x31, 0x2f, 0x62, 0x61,
  0x74, 0x63, 0x68, 0x6e, 0x6f, 0x72, 0x6d, 0x2f, 0x61, 0x64, 0x64, 0x5f,
  0x31, 0x3b, 0x66, 0x75, 0x6e, 0x63, 0x74, 0x69, 0x6f, 0x6e, 0x61, 0x6c,
  0x5f, 0x31, 0x2f, 0x62, 0x61, 0x74, 0x63, 0x68, 0x5f, 0x6e, 0x6f, 0x72,
  0x6d, 0x61, 0x6c, 0x69, 0x7a, 0x61, 0x74, 0x69, 0x6f, 0x6e, 0x5f, 0x34,
  0x5f, 0x31, 0x2f, 0x62, 0x61, 0x74, 0x63, 0x68, 0x6e, 0x6f, 0x72, 0x6d,
  0x2f, 0x6d, 0x75, 0x6c, 0x5f, 0x31, 0x3b, 0x66, 0x75, 0x6e, 0x63, 0x74,
  0x69, 0x6f, 0x6e, 0x61, 0x6c, 0x5f, 0x31, 0x2f, 0x64, 0x65, 0x70, 0x74,
  0x68, 0x77, 0x69, 0x73, 0x65, 0x5f, 0x63, 0x6f, 0x6e, 0x76, 0x32, 0x64,
  0x5f, 0x31, 0x5f, 0x32, 0x2f, 0x64, 0x65, 0x70, 0x74, 0x68, 0x77, 0x69,
  0x73, 0x65, 0x3b, 0x66, 0x75, 0x6e, 0x63, 0x74, 0x69, 0x6f, 0x6e, 0x61,
  0x6c, 0x5f, 0x31, 0x2f, 0x62, 0x61, 0x74, 0x63, 0x68, 0x5f, 0x6e, 0x6f,
  0x72, 0x6d, 0x61, 0x6c, 0x69, 0x7a, 0x61, 0x74, 0x69, 0x6f, 0x6e, 0x5f,
  0x34, 0x5f, 0x31, 0x2f, 0x62, 0x61, 0x74, 0x63, 0x68, 0x6e, 0x6f, 0x72,
  0x6d, 0x2f, 0x6d, 0x75, 0x6c, 0x3b, 0x66, 0x75, 0x6e, 0x63, 0x74, 0x69,
  0x6f, 0x6e, 0x61, 0x6c, 0x5f, 0x31, 0x2f, 0x62, 0x61, 0x74, 0x63, 0x68,
  0x5f, 0x6e, 0x6f, 0x72, 0x6d, 0x61, 0x6c, 0x69, 0x7a, 0x61, 0x74, 0x69,
  0x6f, 0x6e, 0x5f, 0x34, 0x5f, 0x31, 0x2f, 0x62, 0x61, 0x74, 0x63, 0x68,
  0x6e, 0x6f, 0x72, 0x6d, 0x2f, 0x73, 0x75, 0x62, 0x00, 0x00, 0x00, 0x00,
  0x04, 0x00, 0x00, 0x00, 0x01, 0x00, 0x00, 0x00, 0x18, 0x00, 0x00, 0x00,
  0x18, 0x00, 0x00, 0x00, 0x1e, 0x00, 0x00, 0x00, 0x12, 0xc5, 0xff, 0xff,
  0x00, 0x00, 0x00, 0x01, 0x18, 0x00, 0x00, 0x00, 0x28, 0x00, 0x00, 0x00,
  0x44, 0x00, 0x00, 0x00, 0x26, 0x00, 0x00, 0x00, 0x00, 0x00, 0x00, 0x09,
  0xe8, 0x00, 0x00, 0x00, 0x04, 0x00, 0x00, 0x00, 0xff, 0xff, 0xff, 0xff,
  0x30, 0x00, 0x00, 0x00, 0x30, 0x00, 0x00, 0x00, 0x1e, 0x00, 0x00, 0x00,
  0xfc, 0xc4, 0xff, 0xff, 0x08, 0x00, 0x00, 0x00, 0x10, 0x00, 0x00, 0x00,
  0x01, 0x00, 0x00, 0x00, 0x80, 0xff, 0xff, 0xff, 0xff, 0xff, 0xff, 0xff,
  0x01, 0x00, 0x00, 0x00, 0xc1, 0xc0, 0xc0, 0x3c, 0xa8, 0x00, 0x00, 0x00,
  0x66, 0x75, 0x6e, 0x63, 0x74, 0x69, 0x6f, 0x6e, 0x61, 0x6c, 0x5f, 0x31,
  0x2f, 0x72, 0x65, 0x5f, 0x6c, 0x75, 0x5f, 0x32, 0x5f, 0x31, 0x2f, 0x52,
  0x65, 0x6c, 0x75, 0x36, 0x3b, 0x66, 0x75, 0x6e, 0x63, 0x74, 0x69, 0x6f,
  0x6e, 0x61, 0x6c, 0x5f, 0x31, 0x2f, 0x62, 0x61, 0x74, 0x63, 0x68, 0x5f,
  0x6e, 0x6f, 0x72, 0x6d, 0x61, 0x6c, 0x69, 0x7a, 0x61, 0x74, 0x69, 0x6f,
  0x6e, 0x5f, 0x33, 0x5f, 0x31, 0x2f, 0x62, 0x61, 0x74, 0x63, 0x68, 0x6e,
  0x6f, 0x72, 0x6d, 0x2f, 0x61, 0x64, 0x64, 0x5f, 0x31, 0x3b, 0x66, 0x75,
  0x6e, 0x63, 0x74, 0x69, 0x6f, 0x6e, 0x61, 0x6c, 0x5f, 0x31, 0x2f, 0x63,
  0x6f, 0x6e, 0x76, 0x32, 0x64, 0x5f, 0x32, 0x5f, 0x31, 0x2f, 0x63, 0x6f,
  0x6e, 0x76, 0x6f, 0x6c, 0x75, 0x74, 0x69, 0x6f, 0x6e, 0x3b, 0x66, 0x75,
  0x6e, 0x63, 0x74, 0x69, 0x6f, 0x6e, 0x61, 0x6c, 0x5f, 0x31, 0x2f, 0x62,
  0x61, 0x74, 0x63, 0x68, 0x5f, 0x6e, 0x6f, 0x72, 0x6d, 0x61, 0x6c, 0x69,
  0x7a, 0x61, 0x74, 0x69, 0x6f, 0x6e, 0x5f, 0x33, 0x5f, 0x31, 0x2f, 0x62,
  0x61, 0x74, 0x63, 0x68, 0x6e, 0x6f, 0x72, 0x6d, 0x2f, 0x73, 0x75, 0x62,
  0x00, 0x00, 0x00, 0x00, 0x04, 0x00, 0x00, 0x00, 0x01, 0x00, 0x00, 0x00,
  0x30, 0x00, 0x00, 0x00, 0x30, 0x00, 0x00, 0x00, 0x1e, 0x00, 0x00, 0x00,
  0x2a, 0xc6, 0xff, 0xff, 0x00, 0x00, 0x00, 0x01, 0x18, 0x00, 0x00, 0x00,
  0x28, 0x00, 0x00, 0x00, 0x44, 0x00, 0x00, 0x00, 0x25, 0x00, 0x00, 0x00,
  0x00, 0x00, 0x00, 0x09, 0xc8, 0x00, 0x00, 0x00, 0x04, 0x00, 0x00, 0x00,
  0xff, 0xff, 0xff, 0xff, 0x30, 0x00, 0x00, 0x00, 0x30, 0x00, 0x00, 0x00,
  0x05, 0x00, 0x00, 0x00, 0x14, 0xc6, 0xff, 0xff, 0x08, 0x00, 0x00, 0x00,
  0x10, 0x00, 0x00, 0x00, 0x01, 0x00, 0x00, 0x00, 0xed, 0xff, 0xff, 0xff,
  0xff, 0xff, 0xff, 0xff, 0x01, 0x00, 0x00, 0x00, 0xd4, 0x99, 0xaa, 0x3d,
  0x8b, 0x00, 0x00, 0x00, 0x66, 0x75, 0x6e, 0x63, 0x74, 0x69, 0x6f, 0x6e,
  0x61, 0x6c, 0x5f, 0x31, 0x2f, 0x62, 0x61, 0x74, 0x63, 0x68, 0x5f, 0x6e,
  0x6f, 0x72, 0x6d, 0x61, 0x6c, 0x69, 0x7a, 0x61, 0x74, 0x69, 0x6f, 0x6e,
  0x5f, 0x32, 0x5f, 0x31, 0x2f, 0x62, 0x61, 0x74, 0x63, 0x68, 0x6e, 0x6f,
  0x72, 0x6d, 0x2f, 0x61, 0x64, 0x64, 0x5f, 0x31, 0x3b, 0x66, 0x75, 0x6e,
  0x63, 0x74, 0x69, 0x6f, 0x6e, 0x61, 0x6c, 0x5f, 0x31, 0x2f, 0x63, 0x6f,
  0x6e, 0x76, 0x32, 0x64, 0x5f, 0x31, 0x5f, 0x32, 0x2f, 0x63, 0x6f, 0x6e,
  0x76, 0x6f, 0x6c, 0x75, 0x74, 0x69, 0x6f, 0x6e, 0x3b, 0x66, 0x75, 0x6e,
  0x63, 0x74, 0x69, 0x6f, 0x6e, 0x61, 0x6c, 0x5f, 0x31, 0x2f, 0x62, 0x61,
  0x74, 0x63, 0x68, 0x5f, 0x6e, 0x6f, 0x72, 0x6d, 0x61, 0x6c, 0x69, 0x7a,
  0x61, 0x74, 0x69, 0x6f, 0x6e, 0x5f, 0x32, 0x5f, 0x31, 0x2f, 0x62, 0x61,
  0x74, 0x63, 0x68, 0x6e, 0x6f, 0x72, 0x6d, 0x2f, 0x73, 0x75, 0x62, 0x00,
  0x04, 0x00, 0x00, 0x00, 0x01, 0x00, 0x00, 0x00, 0x30, 0x00, 0x00, 0x00,
  0x30, 0x00, 0x00, 0x00, 0x05, 0x00, 0x00, 0x00, 0x22, 0xc7, 0xff, 0xff,
  0x00, 0x00, 0x00, 0x01, 0x18, 0x00, 0x00, 0x00, 0x28, 0x00, 0x00, 0x00,
  0x48, 0x00, 0x00, 0x00, 0x24, 0x00, 0x00, 0x00, 0x00, 0x00, 0x00, 0x09,
  0x58, 0x01, 0x00, 0x00, 0x04, 0x00, 0x00, 0x00, 0xff, 0xff, 0xff, 0xff,
  0x30, 0x00, 0x00, 0x00, 0x30, 0x00, 0x00, 0x00, 0x0b, 0x00, 0x00, 0x00,
  0x0c, 0xc7, 0xff, 0xff, 0x08, 0x00, 0x00, 0x00, 0x14, 0x00, 0x00, 0x00,
  0x01, 0x00, 0x00, 0x00, 0x80, 0xff, 0xff, 0xff, 0xff, 0xff, 0xff, 0xff,
  0x00, 0x00, 0x00, 0x00, 0x01, 0x00, 0x00, 0x00, 0xc1, 0xc0, 0xc0, 0x3c,
  0x16, 0x01, 0x00, 0x00, 0x66, 0x75, 0x6e, 0x63, 0x74, 0x69, 0x6f, 0x6e,
  0x61, 0x6c, 0x5f, 0x31, 0x2f, 0x72, 0x65, 0x5f, 0x6c, 0x75, 0x5f, 0x31,
  0x5f, 0x32, 0x2f, 0x52, 0x65, 0x6c, 0x75, 0x36, 0x3b, 0x66, 0x75, 0x6e,
  0x63, 0x74, 0x69, 0x6f, 0x6e, 0x61, 0x6c, 0x5f, 0x31, 0x2f, 0x62, 0x61,
  0x74, 0x63, 0x68, 0x5f, 0x6e, 0x6f, 0x72, 0x6d, 0x61, 0x6c, 0x69, 0x7a,
  0x61, 0x74, 0x69, 0x6f, 0x6e, 0x5f, 0x31, 0x5f, 0x32, 0x2f, 0x62, 0x61,
  0x74, 0x63, 0x68, 0x6e, 0x6f, 0x72, 0x6d, 0x2f, 0x61, 0x64, 0x64, 0x5f,
  0x31, 0x3b, 0x66, 0x75, 0x6e, 0x63, 0x74, 0x69, 0x6f, 0x6e, 0x61, 0x6c,
  0x5f, 0x31, 0x2f, 0x62, 0x61, 0x74, 0x63, 0x68, 0x5f, 0x6e, 0x6f, 0x72,
  0x6d, 0x61, 0x6c, 0x69, 0x7a, 0x61, 0x74, 0x69, 0x6f, 0x6e, 0x5f, 0x31,
  0x5f, 0x32, 0x2f, 0x62, 0x61, 0x74, 0x63, 0x68, 0x6e, 0x6f, 0x72, 0x6d,
  0x2f, 0x6d, 0x75, 0x6c, 0x5f, 0x31, 0x3b, 0x66, 0x75, 0x6e, 0x63, 0x74,
  0x69, 0x6f, 0x6e, 0x61, 0x6c, 0x5f, 0x31, 0x2f, 0x64, 0x65, 0x70, 0x74,
  0x68, 0x77, 0x69, 0x73, 0x65, 0x5f, 0x63, 0x6f, 0x6e, 0x76, 0x32, 0x64,
  0x5f, 0x31, 0x2f, 0x64, 0x65, 0x70, 0x74, 0x68, 0x77, 0x69, 0x73, 0x65,
  0x3b, 0x66, 0x75, 0x6e, 0x63, 0x74, 0x69, 0x6f, 0x6e, 0x61, 0x6c, 0x5f,
  0x31, 0x2f, 0x62, 0x61, 0x74, 0x63, 0x68, 0x5f, 0x6e, 0x6f, 0x72, 0x6d,
  0x61, 0x6c, 0x69, 0x7a, 0x61, 0x74, 0x69, 0x6f, 0x6e, 0x5f, 0x31, 0x5f,
  0x32, 0x2f, 0x62, 0x61, 0x74, 0x63, 0x68, 0x6e, 0x6f, 0x72, 0x6d, 0x2f,
  0x6d, 0x75, 0x6c, 0x3b, 0x66, 0x75, 0x6e, 0x63, 0x74, 0x69, 0x6f, 0x6e,
  0x61, 0x6c, 0x5f, 0x31, 0x2f, 0x62, 0x61, 0x74, 0x63, 0x68, 0x5f, 0x6e,
  0x6f, 0x72, 0x6d, 0x61, 0x6c, 0x69, 0x7a, 0x61, 0x74, 0x69, 0x6f, 0x6e,
  0x5f, 0x31, 0x5f, 0x32, 0x2f, 0x62, 0x61, 0x74, 0x63, 0x68, 0x6e, 0x6f,
  0x72, 0x6d, 0x2f, 0x73, 0x75, 0x62, 0x00, 0x00, 0x04, 0x00, 0x00, 0x00,
  0x01, 0x00, 0x00, 0x00, 0x30, 0x00, 0x00, 0x00, 0x30, 0x00, 0x00, 0x00,
  0x0b, 0x00, 0x00, 0x00, 0xaa, 0xc8, 0xff, 0xff, 0x00, 0x00, 0x00, 0x01,
  0x18, 0x00, 0x00, 0x00, 0x28, 0x00, 0x00, 0x00, 0x44, 0x00, 0x00, 0x00,
  0x23, 0x00, 0x00, 0x00, 0x00, 0x00, 0x00, 0x09, 0xe0, 0x00, 0x00, 0x00,
  0x04, 0x00, 0x00, 0x00, 0xff, 0xff, 0xff, 0xff, 0x30, 0x00, 0x00, 0x00,
  0x30, 0x00, 0x00, 0x00, 0x0b, 0x00, 0x00, 0x00, 0x94, 0xc8, 0xff, 0xff,
  0x08, 0x00, 0x00, 0x00, 0x10, 0x00, 0x00, 0x00, 0x01, 0x00, 0x00, 0x00,
  0x80, 0xff, 0xff, 0xff, 0xff, 0xff, 0xff, 0xff, 0x01, 0x00, 0x00, 0x00,
  0xc1, 0xc0, 0xc0, 0x3c, 0xa1, 0x00, 0x00, 0x00, 0x66, 0x75, 0x6e, 0x63,
  0x74, 0x69, 0x6f, 0x6e, 0x61, 0x6c, 0x5f, 0x31, 0x2f, 0x72, 0x65, 0x5f,
  0x6c, 0x75, 0x5f, 0x31, 0x2f, 0x52, 0x65, 0x6c, 0x75, 0x36, 0x3b, 0x66,
  0x75, 0x6e, 0x63, 0x74, 0x69, 0x6f, 0x6e, 0x61, 0x6c, 0x5f, 0x31, 0x2f,
  0x62, 0x61, 0x74, 0x63, 0x68, 0x5f, 0x6e, 0x6f, 0x72, 0x6d, 0x61, 0x6c,
  0x69, 0x7a, 0x61, 0x74, 0x69, 0x6f, 0x6e, 0x5f, 0x31, 0x2f, 0x62, 0x61,
  0x74, 0x63, 0x68, 0x6e, 0x6f, 0x72, 0x6d, 0x2f, 0x61, 0x64, 0x64, 0x5f,
  0x31, 0x3b, 0x66, 0x75, 0x6e, 0x63, 0x74, 0x69, 0x6f, 0x6e, 0x61, 0x6c,
  0x5f, 0x31, 0x2f, 0x63, 0x6f, 0x6e, 0x76, 0x32, 0x64, 0x5f, 0x31, 0x2f,
  0x63, 0x6f, 0x6e, 0x76, 0x6f, 0x6c, 0x75, 0x74, 0x69, 0x6f, 0x6e, 0x3b,
  0x66, 0x75, 0x6e, 0x63, 0x74, 0x69, 0x6f, 0x6e, 0x61, 0x6c, 0x5f, 0x31,
  0x2f, 0x62, 0x61, 0x74, 0x63, 0x68, 0x5f, 0x6e, 0x6f, 0x72, 0x6d, 0x61,
  0x6c, 0x69, 0x7a, 0x61, 0x74, 0x69, 0x6f, 0x6e, 0x5f, 0x31, 0x2f, 0x62,
  0x61, 0x74, 0x63, 0x68, 0x6e, 0x6f, 0x72, 0x6d, 0x2f, 0x73, 0x75, 0x62,
  0x31, 0x00, 0x00, 0x00, 0x04, 0x00, 0x00, 0x00, 0x01, 0x00, 0x00, 0x00,
  0x30, 0x00, 0x00, 0x00, 0x30, 0x00, 0x00, 0x00, 0x0b, 0x00, 0x00, 0x00,
  0x12, 0xca, 0xff, 0xff, 0x00, 0x00, 0x00, 0x01, 0x14, 0x00, 0x00, 0x00,
  0xa8, 0x00, 0x00, 0x00, 0x22, 0x00, 0x00, 0x00, 0x00, 0x00, 0x00, 0x09,
  0xb4, 0x00, 0x00, 0x00, 0x8c, 0xc9, 0xff, 0xff, 0x08, 0x00, 0x00, 0x00,
  0x60, 0x00, 0x00, 0x00, 0x0b, 0x00, 0x00, 0x00, 0x00, 0x00, 0x00, 0x00,
  0x00, 0x00, 0x00, 0x00, 0x00, 0x00, 0x00, 0x00, 0x00, 0x00, 0x00, 0x00,
  0x00, 0x00, 0x00, 0x00, 0x00, 0x00, 0x00, 0x00, 0x00, 0x00, 0x00, 0x00,
  0x00, 0x00, 0x00, 0x00, 0x00, 0x00, 0x00, 0x00, 0x00, 0x00, 0x00, 0x00,
  0x00, 0x00, 0x00, 0x00, 0x00, 0x00, 0x00, 0x00, 0x00, 0x00, 0x00, 0x00,
  0x00, 0x00, 0x00, 0x00, 0x00, 0x00, 0x00, 0x00, 0x00, 0x00, 0x00, 0x00,
  0x00, 0x00, 0x00, 0x00, 0x00, 0x00, 0x00, 0x00, 0x00, 0x00, 0x00, 0x00,
  0x00, 0x00, 0x00, 0x00, 0x00, 0x00, 0x00, 0x00, 0x00, 0x00, 0x00, 0x00,
  0x0b, 0x00, 0x00, 0x00, 0x60, 0x14, 0x76, 0x3c, 0xd2, 0xf9, 0x49, 0x3d,
  0x61, 0x02, 0x06, 0x3d, 0x88, 0xb1, 0xab, 0x3c, 0xcc, 0x3a, 0xb5, 0x3c,
  0xed, 0x4f, 0xf0, 0x3c, 0xc4, 0xa4, 0x4c, 0x3c, 0x6d, 0x68, 0x5a, 0x3c,
  0xb0, 0x0d, 0xda, 0x3c, 0x87, 0x30, 0xda, 0x3c, 0xe0, 0x5c, 0x99, 0x3c,
  0x13, 0x00, 0x00, 0x00, 0x74, 0x66, 0x6c, 0x2e, 0x70, 0x73, 0x65, 0x75,
  0x64, 0x6f, 0x5f, 0x71, 0x63, 0x6f, 0x6e, 0x73, 0x74, 0x33, 0x31, 0x00,
  0x04, 0x00, 0x00, 0x00, 0x0b, 0x00, 0x00, 0x00, 0x03, 0x00, 0x00, 0x00,
  0x03, 0x00, 0x00, 0x00, 0x01, 0x00, 0x00, 0x00, 0xf2, 0xca, 0xff, 0xff,
  0x00, 0x00, 0x00, 0x01, 0x14, 0x00, 0x00, 0x00, 0xa8, 0x00, 0x00, 0x00,
  0x21, 0x00, 0x00, 0x00, 0x00, 0x00, 0x00, 0x02, 0xb4, 0x00, 0x00, 0x00,
  0x6c, 0xca, 0xff, 0xff, 0x08, 0x00, 0x00, 0x00, 0x60, 0x00, 0x00, 0x00,
  0x0b, 0x00, 0x00, 0x00, 0x00, 0x00, 0x00, 0x00, 0x00, 0x00, 0x00, 0x00,
  0x00, 0x00, 0x00, 0x00, 0x00, 0x00, 0x00, 0x00, 0x00, 0x00, 0x00, 0x00,
  0x00, 0x00, 0x00, 0x00, 0x00, 0x00, 0x00, 0x00, 0x00, 0x00, 0x00, 0x00,
  0x00, 0x00, 0x00, 0x00, 0x00, 0x00, 0x00, 0x00, 0x00, 0x00, 0x00, 0x00,
  0x00, 0x00, 0x00, 0x00, 0x00, 0x00, 0x00, 0x00, 0x00, 0x00, 0x00, 0x00,
  0x00, 0x00, 0x00, 0x00, 0x00, 0x00, 0x00, 0x00, 0x00, 0x00, 0x00, 0x00,
  0x00, 0x00, 0x00, 0x00, 0x00, 0x00, 0x00, 0x00, 0x00, 0x00, 0x00, 0x00,
  0x00, 0x00, 0x00, 0x00, 0x00, 0x00, 0x00, 0x00, 0x0b, 0x00, 0x00, 0x00,
  0x6c, 0x0b, 0x77, 0x38, 0x97, 0xc4, 0x4a, 0x39, 0xea, 0x88, 0x06, 0x39,
  0xe7, 0x5d, 0xac, 0x38, 0xbd, 0xf0, 0xb5, 0x38, 0x2f, 0x41, 0xf1, 0x38,
  0x37, 0x72, 0x4d, 0x38, 0xb2, 0x43, 0x5b, 0x38, 0x99, 0xe8, 0xda, 0x38,
  0x93, 0x0b, 0xdb, 0x38, 0xd7, 0xf6, 0x99, 0x38, 0x13, 0x00, 0x00, 0x00,
  0x74, 0x66, 0x6c, 0x2e, 0x70, 0x73, 0x65, 0x75, 0x64, 0x6f, 0x5f, 0x71,
  0x63, 0x6f, 0x6e, 0x73, 0x74, 0x33, 0x30, 0x00, 0x01, 0x00, 0x00, 0x00,
  0x0b, 0x00, 0x00, 0x00, 0xc6, 0xcb, 0xff, 0xff, 0x00, 0x00, 0x00, 0x01,
  0x14, 0x00, 0x00, 0x00, 0xac, 0x00, 0x00, 0x00, 0x20, 0x00, 0x00, 0x00,
  0x00, 0x00, 0x00, 0x09, 0xb8, 0x00, 0x00, 0x00, 0xb2, 0xd5, 0xff, 0xff,
  0x03, 0x00, 0x00, 0x00, 0x08, 0x00, 0x00, 0x00, 0x60, 0x00, 0x00, 0x00,
  0x0b, 0x00, 0x00, 0x00, 0x00, 0x00, 0x00, 0x00, 0x00, 0x00, 0x00, 0x00,
  0x00, 0x00, 0x00, 0x00, 0x00, 0x00, 0x00, 0x00, 0x00, 0x00, 0x00, 0x00,
  0x00, 0x00, 0x00, 0x00, 0x00, 0x00, 0x00, 0x00, 0x00, 0x00, 0x00, 0x00,
  0x00, 0x00, 0x00, 0x00, 0x00, 0x00, 0x00, 0x00, 0x00, 0x00, 0x00, 0x00,
  0x00, 0x00, 0x00, 0x00, 0x00, 0x00, 0x00, 0x00, 0x00, 0x00, 0x00, 0x00,
  0x00, 0x00, 0x00, 0x00, 0x00, 0x00, 0x00, 0x00, 0x00, 0x00, 0x00, 0x00,
  0x00, 0x00, 0x00, 0x00, 0x00, 0x00, 0x00, 0x00, 0x00, 0x00, 0x00, 0x00,
  0x00, 0x00, 0x00, 0x00, 0x00, 0x00, 0x00, 0x00, 0x0b, 0x00, 0x00, 0x00,
  0x20, 0x5c, 0x01, 0x3c, 0x73, 0x07, 0x38, 0x3c, 0x8a, 0x4a, 0x22, 0x3c,
  0x0c, 0xf0, 0x44, 0x3c, 0x5d, 0xf2, 0x03, 0x3c, 0x9c, 0x1b, 0x59, 0x3c,
  0x1e, 0xbd, 0x3e, 0x3c, 0xea, 0x5b, 0x01, 0x3c, 0x49, 0xf2, 0x42, 0x3c,
  0x9b, 0x7d, 0x5d, 0x3c, 0x67, 0x05, 0xa1, 0x3b, 0x13, 0x00, 0x00, 0x00,
  0x74, 0x66, 0x6c, 0x2e, 0x70, 0x73, 0x65, 0x75, 0x64, 0x6f, 0x5f, 0x71,
  0x63, 0x6f, 0x6e, 0x73, 0x74, 0x32, 0x39, 0x00, 0x04, 0x00, 0x00, 0x00,
  0x01, 0x00, 0x00, 0x00, 0x03, 0x00, 0x00, 0x00, 0x03, 0x00, 0x00, 0x00,
  0x0b, 0x00, 0x00, 0x00, 0xaa, 0xcc, 0xff, 0xff, 0x00, 0x00, 0x00, 0x01,
  0x14, 0x00, 0x00, 0x00, 0xac, 0x00, 0x00, 0x00, 0x1f, 0x00, 0x00, 0x00,
  0x00, 0x00, 0x00, 0x02, 0xb8, 0x00, 0x00, 0x00, 0x24, 0xcc, 0xff, 0xff,
  0x08, 0x00, 0x00, 0x00, 0x64, 0x00, 0x00, 0x00, 0x0b, 0x00, 0x00, 0x00,
  0x00, 0x00, 0x00, 0x00, 0x00, 0x00, 0x00, 0x00, 0x00, 0x00, 0x00, 0x00,
  0x00, 0x00, 0x00, 0x00, 0x00, 0x00, 0x00, 0x00, 0x00, 0x00, 0x00, 0x00,
  0x00, 0x00, 0x00, 0x00, 0x00, 0x00, 0x00, 0x00, 0x00, 0x00, 0x00, 0x00,
  0x00, 0x00, 0x00, 0x00, 0x00, 0x00, 0x00, 0x00, 0x00, 0x00, 0x00, 0x00,
  0x00, 0x00, 0x00, 0x00, 0x00, 0x00, 0x00, 0x00, 0x00, 0x00, 0x00, 0x00,
  0x00, 0x00, 0x00, 0x00, 0x00, 0x00, 0x00, 0x00, 0x00, 0x00, 0x00, 0x00,
  0x00, 0x00, 0x00, 0x00, 0x00, 0x00, 0x00, 0x00, 0x00, 0x00, 0x00, 0x00,
  0x00, 0x00, 0x00, 0x00, 0x00, 0x00, 0x00, 0x00, 0x0b, 0x00, 0x00, 0x00,
  0xfd, 0xcc, 0x42, 0x39, 0x27, 0x90, 0x8a, 0x39, 0x34, 0x64, 0x74, 0x39,
  0x52, 0x48, 0x94, 0x39, 0x3e, 0xb2, 0x46, 0x39, 0x2d, 0x78, 0xa3, 0x39,
  0x74, 0x9d, 0x8f, 0x39, 0xac, 0xcc, 0x42, 0x39, 0x7f, 0xc8, 0x92, 0x39,
  0xf9, 0xc4, 0xa6, 0x39, 0x95, 0x7a, 0xf2, 0x38, 0x13, 0x00, 0x00, 0x00,
  0x74, 0x66, 0x6c, 0x2e, 0x70, 0x73, 0x65, 0x75, 0x64, 0x6f, 0x5f, 0x71,
  0x63, 0x6f, 0x6e, 0x73, 0x74, 0x32, 0x38, 0x00, 0x01, 0x00, 0x00, 0x00,
  0x0b, 0x00, 0x00, 0x00, 0x82, 0xcd, 0xff, 0xff, 0x00, 0x00, 0x00, 0x01,
  0x14, 0x00, 0x00, 0x00, 0x60, 0x00, 0x00, 0x00, 0x1e, 0x00, 0x00, 0x00,
  0x00, 0x00, 0x00, 0x09, 0x6c, 0x00, 0x00, 0x00, 0xfc, 0xcc, 0xff, 0xff,
  0x08, 0x00, 0x00, 0x00, 0x30, 0x00, 0x00, 0x00, 0x05, 0x00, 0x00, 0x00,
  0x00, 0x00, 0x00, 0x00, 0x00, 0x00, 0x00, 0x00, 0x00, 0x00, 0x00, 0x00,
  0x00, 0x00, 0x00, 0x00, 0x00, 0x00, 0x00, 0x00, 0x00, 0x00, 0x00, 0x00,
  0x00, 0x00, 0x00, 0x00, 0x00, 0x00, 0x00, 0x00, 0x00, 0x00, 0x00, 0x00,
  0x00, 0x00, 0x00, 0x00, 0x05, 0x00, 0x00, 0x00, 0xae, 0xb9, 0xf7, 0x3b,
  0x2b, 0x13, 0xf2, 0x3b, 0xdc, 0x63, 0xb8, 0x3b, 0x96, 0xab, 0xf9, 0x3b,
