
#ifndef E1_SQUEEZENET_TINY_INT8_H
#define E1_SQUEEZENET_TINY_INT8_H

#include <cstdint>

alignas(16) const unsigned char E1_SqueezeNet_Tiny_INT8[] = {
  0x1c, 0x00, 0x00, 0x00, 0x54, 0x46, 0x4c, 0x33, 0x14, 0x00, 0x20, 0x00,
  0x1c, 0x00, 0x18, 0x00, 0x14, 0x00, 0x10, 0x00, 0x0c, 0x00, 0x00, 0x00,
  0x08, 0x00, 0x04, 0x00, 0x14, 0x00, 0x00, 0x00, 0x1c, 0x00, 0x00, 0x00,
  0x98, 0x00, 0x00, 0x00, 0x18, 0x01, 0x00, 0x00, 0x18, 0x1f, 0x00, 0x00,
  0x28, 0x1f, 0x00, 0x00, 0xf8, 0x66, 0x00, 0x00, 0x03, 0x00, 0x00, 0x00,
  0x01, 0x00, 0x00, 0x00, 0x10, 0x00, 0x00, 0x00, 0x00, 0x00, 0x0a, 0x00,
  0x10, 0x00, 0x0c, 0x00, 0x08, 0x00, 0x04, 0x00, 0x0a, 0x00, 0x00, 0x00,
  0x0c, 0x00, 0x00, 0x00, 0x1c, 0x00, 0x00, 0x00, 0x3c, 0x00, 0x00, 0x00,
  0x0f, 0x00, 0x00, 0x00, 0x73, 0x65, 0x72, 0x76, 0x69, 0x6e, 0x67, 0x5f,
  0x64, 0x65, 0x66, 0x61, 0x75, 0x6c, 0x74, 0x00, 0x01, 0x00, 0x00, 0x00,
  0x04, 0x00, 0x00, 0x00, 0x68, 0xff, 0xff, 0xff, 0x3f, 0x00, 0x00, 0x00,
  0x04, 0x00, 0x00, 0x00, 0x08, 0x00, 0x00, 0x00, 0x6f, 0x75, 0x74, 0x70,
  0x75, 0x74, 0x5f, 0x30, 0x00, 0x00, 0x00, 0x00, 0x01, 0x00, 0x00, 0x00,
  0x04, 0x00, 0x00, 0x00, 0x3a, 0xdc, 0xff, 0xff, 0x04, 0x00, 0x00, 0x00,
  0x0c, 0x00, 0x00, 0x00, 0x6b, 0x65, 0x72, 0x61, 0x73, 0x5f, 0x74, 0x65,
  0x6e, 0x73, 0x6f, 0x72, 0x00, 0x00, 0x00, 0x00, 0x03, 0x00, 0x00, 0x00,
  0x5c, 0x00, 0x00, 0x00, 0x2c, 0x00, 0x00, 0x00, 0x04, 0x00, 0x00, 0x00,
  0xb8, 0xff, 0xff, 0xff, 0x43, 0x00, 0x00, 0x00, 0x04, 0x00, 0x00, 0x00,
  0x13, 0x00, 0x00, 0x00, 0x43, 0x4f, 0x4e, 0x56, 0x45, 0x52, 0x53, 0x49,
  0x4f, 0x4e, 0x5f, 0x4d, 0x45, 0x54, 0x41, 0x44, 0x41, 0x54, 0x41, 0x00,
  0xdc, 0xff, 0xff, 0xff, 0x42, 0x00, 0x00, 0x00, 0x04, 0x00, 0x00, 0x00,
  0x13, 0x00, 0x00, 0x00, 0x6d, 0x69, 0x6e, 0x5f, 0x72, 0x75, 0x6e, 0x74,
  0x69, 0x6d, 0x65, 0x5f, 0x76, 0x65, 0x72, 0x73, 0x69, 0x6f, 0x6e, 0x00,
  0x08, 0x00, 0x0c, 0x00, 0x08, 0x00, 0x04, 0x00, 0x08, 0x00, 0x00, 0x00,
  0x41, 0x00, 0x00, 0x00, 0x04, 0x00, 0x00, 0x00, 0x13, 0x00, 0x00, 0x00,
  0x6d, 0x69, 0x6e, 0x5f, 0x72, 0x75, 0x6e, 0x74, 0x69, 0x6d, 0x65, 0x5f,
  0x76, 0x65, 0x72, 0x73, 0x69, 0x6f, 0x6e, 0x00, 0x44, 0x00, 0x00, 0x00,
  0xfc, 0x1d, 0x00, 0x00, 0xf4, 0x1d, 0x00, 0x00, 0xdc, 0x1d, 0x00, 0x00,
  0xb4, 0x1d, 0x00, 0x00, 0x24, 0x1c, 0x00, 0x00, 0x94, 0x1b, 0x00, 0x00,
  0x84, 0x19, 0x00, 0x00, 0x34, 0x19, 0x00, 0x00, 0x94, 0x18, 0x00, 0x00,
  0x04, 0x18, 0x00, 0x00, 0xf4, 0x15, 0x00, 0x00, 0xa4, 0x15, 0x00, 0x00,
  0x94, 0x11, 0x00, 0x00, 0x04, 0x11, 0x00, 0x00, 0xf4, 0x0e, 0x00, 0x00,
  0xa4, 0x0e, 0x00, 0x00, 0x04, 0x0e, 0x00, 0x00, 0x74, 0x0d, 0x00, 0x00,
  0x64, 0x0b, 0x00, 0x00, 0x14, 0x0b, 0x00, 0x00, 0x04, 0x09, 0x00, 0x00,
  0xb4, 0x08, 0x00, 0x00, 0x24, 0x08, 0x00, 0x00, 0xf4, 0x07, 0x00, 0x00,
  0x9c, 0x07, 0x00, 0x00, 0x4c, 0x07, 0x00, 0x00, 0xbc, 0x06, 0x00, 0x00,
  0x8c, 0x06, 0x00, 0x00, 0x7c, 0x05, 0x00, 0x00, 0x2c, 0x05, 0x00, 0x00,
  0x9c, 0x04, 0x00, 0x00, 0x6c, 0x04, 0x00, 0x00, 0x14, 0x04, 0x00, 0x00,
  0xc4, 0x03, 0x00, 0x00, 0x34, 0x03, 0x00, 0x00, 0x04, 0x03, 0x00, 0x00,
  0x74, 0x02, 0x00, 0x00, 0x24, 0x02, 0x00, 0x00, 0x84, 0x01, 0x00, 0x00,
  0x7c, 0x01, 0x00, 0x00, 0x74, 0x01, 0x00, 0x00, 0x6c, 0x01, 0x00, 0x00,
  0x64, 0x01, 0x00, 0x00, 0x5c, 0x01, 0x00, 0x00, 0x54, 0x01, 0x00, 0x00,
  0x4c, 0x01, 0x00, 0x00, 0x44, 0x01, 0x00, 0x00, 0x3c, 0x01, 0x00, 0x00,
  0x34, 0x01, 0x00, 0x00, 0x2c, 0x01, 0x00, 0x00, 0x24, 0x01, 0x00, 0x00,
  0x1c, 0x01, 0x00, 0x00, 0x14, 0x01, 0x00, 0x00, 0x0c, 0x01, 0x00, 0x00,
  0x04, 0x01, 0x00, 0x00, 0xfc, 0x00, 0x00, 0x00, 0xf4, 0x00, 0x00, 0x00,
  0xec, 0x00, 0x00, 0x00, 0xe4, 0x00, 0x00, 0x00, 0xdc, 0x00, 0x00, 0x00,
  0xd4, 0x00, 0x00, 0x00, 0xcc, 0x00, 0x00, 0x00, 0xc4, 0x00, 0x00, 0x00,
  0xbc, 0x00, 0x00, 0x00, 0xb4, 0x00, 0x00, 0x00, 0x94, 0x00, 0x00, 0x00,
  0x74, 0x00, 0x00, 0x00, 0x04, 0x00, 0x00, 0x00, 0xee, 0xdd, 0xff, 0xff,
  0x04, 0x00, 0x00, 0x00, 0x60, 0x00, 0x00, 0x00, 0x0c, 0x00, 0x00, 0x00,
  0x08, 0x00, 0x0e, 0x00, 0x08, 0x00, 0x04, 0x00, 0x08, 0x00, 0x00, 0x00,
  0x10, 0x00, 0x00, 0x00, 0x28, 0x00, 0x00, 0x00, 0x00, 0x00, 0x06, 0x00,
  0x08, 0x00, 0x04, 0x00, 0x06, 0x00, 0x00, 0x00, 0x04, 0x00, 0x00, 0x00,
  0x01, 0x00, 0x00, 0x00, 0xeb, 0x03, 0x00, 0x00, 0x0c, 0x00, 0x18, 0x00,
  0x14, 0x00, 0x10, 0x00, 0x0c, 0x00, 0x04, 0x00, 0x0c, 0x00, 0x00, 0x00,
  0x02, 0x2a, 0xc7, 0xc5, 0xab, 0xc2, 0x56, 0xb0, 0x02, 0x00, 0x00, 0x00,
  0x02, 0x00, 0x00, 0x00, 0x04, 0x00, 0x00, 0x00, 0x06, 0x00, 0x00, 0x00,
  0x32, 0x2e, 0x31, 0x39, 0x2e, 0x30, 0x00, 0x00, 0x5a, 0xde, 0xff, 0xff,
  0x04, 0x00, 0x00, 0x00, 0x10, 0x00, 0x00, 0x00, 0x00, 0x00, 0x00, 0x00,
  0x00, 0x00, 0x00, 0x00, 0x00, 0x00, 0x00, 0x00, 0x00, 0x00, 0x00, 0x00,
  0x76, 0xde, 0xff, 0xff, 0x04, 0x00, 0x00, 0x00, 0x10, 0x00, 0x00, 0x00,
  0x31, 0x2e, 0x31, 0x34, 0x2e, 0x30, 0x00, 0x00, 0x00, 0x00, 0x00, 0x00,
  0x00, 0x00, 0x00, 0x00, 0xa4, 0x9c, 0xff, 0xff, 0xa8, 0x9c, 0xff, 0xff,
  0xac, 0x9c, 0xff, 0xff, 0xb0, 0x9c, 0xff, 0xff, 0xb4, 0x9c, 0xff, 0xff,
  0xb8, 0x9c, 0xff, 0xff, 0xbc, 0x9c, 0xff, 0xff, 0xc0, 0x9c, 0xff, 0xff,
  0xc4, 0x9c, 0xff, 0xff, 0xc8, 0x9c, 0xff, 0xff, 0xcc, 0x9c, 0xff, 0xff,
  0xd0, 0x9c, 0xff, 0xff, 0xd4, 0x9c, 0xff, 0xff, 0xd8, 0x9c, 0xff, 0xff,
  0xdc, 0x9c, 0xff, 0xff, 0xe0, 0x9c, 0xff, 0xff, 0xe4, 0x9c, 0xff, 0xff,
  0xe8, 0x9c, 0xff, 0xff, 0xec, 0x9c, 0xff, 0xff, 0xf0, 0x9c, 0xff, 0xff,
  0xf4, 0x9c, 0xff, 0xff, 0xf8, 0x9c, 0xff, 0xff, 0xfc, 0x9c, 0xff, 0xff,
  0x00, 0x9d, 0xff, 0xff, 0x04, 0x9d, 0xff, 0xff, 0x08, 0x9d, 0xff, 0xff,
  0xfa, 0xde, 0xff, 0xff, 0x04, 0x00, 0x00, 0x00, 0x90, 0x00, 0x00, 0x00,
  0x54, 0x81, 0x9a, 0xb1, 0xcc, 0xb7, 0x3f, 0xe9, 0x10, 0x28, 0xa2, 0xea,
  0x37, 0x49, 0x7f, 0x5f, 0x65, 0x9e, 0xdc, 0xff, 0xb6, 0x1c, 0xc4, 0x81,
  0xde, 0xeb, 0x45, 0x7f, 0xac, 0xb7, 0x20, 0xf9, 0xe0, 0xc0, 0xdd, 0xd2,
  0x8c, 0x81, 0x3e, 0x81, 0x60, 0xb9, 0x7d, 0x75, 0x21, 0x31, 0x6f, 0x9c,
  0x87, 0x6b, 0x93, 0x6c, 0x81, 0x21, 0x7f, 0x6e, 0x25, 0x48, 0x28, 0x5d,
  0x01, 0x87, 0xae, 0x9e, 0xbb, 0x32, 0x75, 0x7f, 0x6c, 0xa9, 0xcb, 0x83,
  0xf9, 0x4d, 0x81, 0xe2, 0x4b, 0x11, 0xaa, 0xf9, 0xf6, 0x5f, 0xc3, 0x40,
  0x01, 0xe5, 0x39, 0x7f, 0xb5, 0x4f, 0x9c, 0xf4, 0xef, 0x97, 0x1d, 0x21,
  0x8e, 0x91, 0x7f, 0xfc, 0x17, 0xea, 0x84, 0x83, 0x41, 0xf0, 0x7f, 0xbc,
  0x6f, 0x03, 0x6a, 0x36, 0x6a, 0xea, 0x59, 0x57, 0x81, 0x22, 0xdd, 0x25,
  0x7f, 0x60, 0xef, 0x20, 0xf0, 0xf8, 0x15, 0xc4, 0x1b, 0xf3, 0x23, 0x7f,
  0xc0, 0x75, 0x1e, 0x41, 0x7f, 0xaf, 0x34, 0x9c, 0xcf, 0x26, 0x8b, 0x5e,
  0x96, 0xdf, 0xff, 0xff, 0x04, 0x00, 0x00, 0x00, 0x40, 0x00, 0x00, 0x00,
  0x07, 0xf4, 0xff, 0xff, 0x57, 0xf7, 0xff, 0xff, 0x5e, 0xf8, 0xff, 0xff,
  0xf3, 0x22, 0x00, 0x00, 0x24, 0x04, 0x00, 0x00, 0xe5, 0xfd, 0xff, 0xff,
  0x11, 0xec, 0xff, 0xff, 0xc1, 0x00, 0x00, 0x00, 0xa5, 0xf3, 0xff, 0xff,
  0x32, 0x27, 0x00, 0x00, 0xd0, 0x0b, 0x00, 0x00, 0xca, 0x02, 0x00, 0x00,
  0x2e, 0xee, 0xff, 0xff, 0xb9, 0x29, 0x00, 0x00, 0x89, 0x11, 0x00, 0x00,
  0xe1, 0xf1, 0xff, 0xff, 0xe2, 0xdf, 0xff, 0xff, 0x04, 0x00, 0x00, 0x00,
  0x80, 0x00, 0x00, 0x00, 0x7f, 0x87, 0x3e, 0x26, 0x68, 0xbd, 0xa9, 0x09,
  0x14, 0x8b, 0x33, 0x01, 0x24, 0x77, 0xfa, 0x3a, 0xfb, 0xc8, 0x58, 0x5d,
  0x4b, 0x74, 0xbb, 0x7f, 0x29, 0xee, 0xf6, 0xb1, 0xcd, 0xc6, 0x7b, 0xb2,
  0x3c, 0xbb, 0xa2, 0xee, 0xa7, 0xfb, 0x3a, 0x10, 0x05, 0x21, 0x4c, 0xa4,
  0x22, 0x81, 0x87, 0xe9, 0x44, 0x01, 0x10, 0xa5, 0x86, 0x51, 0x48, 0xc4,
  0xbf, 0x7f, 0x6e, 0x62, 0x48, 0xbe, 0x52, 0xb6, 0x54, 0x1a, 0x48, 0x21,
  0x9d, 0x2f, 0x7a, 0x4b, 0x56, 0x7e, 0x54, 0x91, 0x28, 0x07, 0xb6, 0x7f,
  0x9c, 0x25, 0x7a, 0x09, 0xa8, 0x7f, 0x0e, 0xbc, 0xbd, 0xab, 0xd0, 0x63,
  0xc5, 0x91, 0x34, 0x86, 0x2e, 0xfd, 0x0c, 0xbc, 0x9b, 0x8b, 0x52, 0x9f,
  0x6d, 0xe9, 0xb9, 0xe8, 0x17, 0x81, 0x06, 0x09, 0x08, 0x88, 0x75, 0x0c,
  0xdb, 0xbc, 0x48, 0xf1, 0x1b, 0x81, 0x34, 0x8c, 0xf0, 0xcd, 0xb4, 0x22,
  0x6e, 0xe0, 0xff, 0xff, 0x04, 0x00, 0x00, 0x00, 0x20, 0x00, 0x00, 0x00,
  0xb8, 0xf5, 0xff, 0xff, 0x44, 0xf7, 0xff, 0xff, 0xee, 0xfc, 0xff, 0xff,
  0xa9, 0xf8, 0xff, 0xff, 0xaa, 0xf8, 0xff, 0xff, 0xe2, 0x00, 0x00, 0x00,
  0xf2, 0xfd, 0xff, 0xff, 0x5f, 0x00, 0x00, 0x00, 0x9a, 0xe0, 0xff, 0xff,
  0x04, 0x00, 0x00, 0x00, 0x80, 0x00, 0x00, 0x00, 0x5b, 0xf4, 0x81, 0x41,
  0xa2, 0x33, 0x8c, 0xd5, 0xfb, 0x12, 0x21, 0x7f, 0x92, 0x3c, 0x59, 0x9f,
  0xe2, 0xdf, 0x7f, 0x85, 0x9d, 0xce, 0x6d, 0xe0, 0xb0, 0xf9, 0x4d, 0xde,
  0x13, 0xa0, 0xd5, 0x7f, 0xd9, 0xec, 0x42, 0xbc, 0x7f, 0x07, 0x73, 0x2f,
  0x5f, 0x7e, 0x2b, 0x25, 0x04, 0x4a, 0x81, 0x33, 0x81, 0x94, 0xc3, 0xcc,
  0x52, 0xf7, 0xee, 0xa7, 0xef, 0xb5, 0xb4, 0x8c, 0xa6, 0x81, 0xc6, 0xcf,
  0x81, 0x90, 0x1a, 0x41, 0xc7, 0xac, 0x4d, 0x8c, 0x9c, 0x50, 0x77, 0x8d,
  0x81, 0xff, 0xf6, 0xe5, 0xcd, 0x4c, 0x91, 0x57, 0xad, 0x9b, 0x81, 0x39,
  0x28, 0x19, 0x81, 0x0b, 0x73, 0xdb, 0xf2, 0x76, 0xc6, 0x7d, 0x34, 0x7f,
  0xee, 0xe6, 0xcc, 0x36, 0x7f, 0xb0, 0xf0, 0xf3, 0xfc, 0x9e, 0xd4, 0xea,
  0x18, 0x7f, 0x01, 0xe1, 0x59, 0xe9, 0x93, 0x78, 0xca, 0x47, 0x4b, 0xbb,
  0x6c, 0xa1, 0x7f, 0x51, 0x26, 0xe1, 0xff, 0xff, 0x04, 0x00, 0x00, 0x00,
  0x40, 0x00, 0x00, 0x00, 0x63, 0xf7, 0xff, 0xff, 0x56, 0x03, 0x00, 0x00,
  0x97, 0xff, 0xff, 0xff, 0x2d, 0xf9, 0xff, 0xff, 0x39, 0xfa, 0xff, 0xff,
  0xaf, 0x05, 0x00, 0x00, 0x62, 0xfc, 0xff, 0xff, 0x00, 0x00, 0x00, 0x00,
  0xc1, 0xfd, 0xff, 0xff, 0xca, 0xff, 0xff, 0xff, 0xf0, 0xfa, 0xff, 0xff,
  0x6c, 0xf7, 0xff, 0xff, 0xb7, 0xf3, 0xff, 0xff, 0x75, 0xfb, 0xff, 0xff,
  0x5e, 0xf7, 0xff, 0xff, 0x8b, 0x03, 0x00, 0x00, 0x72, 0xe1, 0xff, 0xff,
  0x04, 0x00, 0x00, 0x00, 0x48, 0x00, 0x00, 0x00, 0x5b, 0x31, 0xf8, 0x32,
  0x5c, 0x3d, 0x65, 0x6d, 0xa5, 0x40, 0xac, 0x42, 0xe0, 0xd3, 0xf7, 0x8f,
  0xb5, 0xfb, 0x68, 0xd9, 0x0c, 0xe6, 0x7d, 0x5c, 0x81, 0xec, 0x75, 0x81,
  0x7c, 0x0c, 0x51, 0xf6, 0x92, 0x81, 0x6a, 0x77, 0xa5, 0xe6, 0x78, 0x13,
  0x1a, 0xa6, 0x29, 0x43, 0x0e, 0x7f, 0x81, 0x81, 0x45, 0xa8, 0xba, 0x9c,
  0x7f, 0xea, 0x0d, 0x17, 0x17, 0x79, 0x7f, 0x44, 0x70, 0x59, 0x22, 0xa3,
  0xdc, 0x30, 0xd0, 0x66, 0xd2, 0x11, 0x8d, 0x27, 0xc6, 0xe1, 0xff, 0xff,
  0x04, 0x00, 0x00, 0x00, 0x20, 0x00, 0x00, 0x00, 0xce, 0xf9, 0xff, 0xff,
  0x40, 0x0f, 0x00, 0x00, 0x0d, 0x04, 0x00, 0x00, 0xeb, 0x01, 0x00, 0x00,
  0x92, 0xf5, 0xff, 0xff, 0x4d, 0x03, 0x00, 0x00, 0x66, 0x0c, 0x00, 0x00,
  0x23, 0xf7, 0xff, 0xff, 0xf2, 0xe1, 0xff, 0xff, 0x04, 0x00, 0x00, 0x00,
  0x80, 0x00, 0x00, 0x00, 0x7f, 0x2d, 0x07, 0xcb, 0x46, 0xfe, 0x2e, 0xb9,
  0xb1, 0x92, 0x08, 0x4c, 0x42, 0x49, 0xe5, 0x81, 0x5f, 0xe3, 0x7f, 0xe0,
  0xbc, 0x85, 0x9d, 0xae, 0x91, 0x42, 0xf1, 0x7c, 0x1a, 0x81, 0xb6, 0x33,
  0x32, 0xee, 0x41, 0x1e, 0x7f, 0x20, 0x1b, 0x01, 0x81, 0x27, 0x31, 0x34,
  0xf5, 0x0a, 0xd9, 0x33, 0xbf, 0x07, 0x90, 0x81, 0xb9, 0x0c, 0xc0, 0xc5,
  0x81, 0x9a, 0x66, 0xc9, 0x9b, 0x5f, 0x45, 0xe7, 0x72, 0xaf, 0x81, 0xd2,
  0x3a, 0x90, 0xb7, 0x2b, 0x81, 0xf3, 0x01, 0xa3, 0x32, 0x75, 0xb2, 0xc4,
  0x55, 0xda, 0x9d, 0x81, 0xf2, 0x6c, 0x47, 0xd3, 0x45, 0xf6, 0x5c, 0x20,
  0x2a, 0x81, 0xcd, 0x56, 0xca, 0x07, 0x85, 0xc0, 0x8b, 0xbd, 0x97, 0x81,
  0x32, 0x7f, 0x74, 0x20, 0x8b, 0x35, 0xd5, 0x96, 0xdb, 0xf5, 0x01, 0x81,
  0x90, 0x85, 0x26, 0xb4, 0xda, 0xe6, 0x94, 0xd1, 0x81, 0x02, 0x47, 0x28,
  0x7e, 0xe2, 0xff, 0xff, 0x04, 0x00, 0x00, 0x00, 0x40, 0x00, 0x00, 0x00,
  0x26, 0xfa, 0xff, 0xff, 0x44, 0x02, 0x00, 0x00, 0x98, 0xf5, 0xff, 0xff,
  0xb0, 0x07, 0x00, 0x00, 0x6c, 0xf5, 0xff, 0xff, 0x42, 0xef, 0xff, 0xff,
  0xf7, 0xfb, 0xff, 0xff, 0x05, 0xfa, 0xff, 0xff, 0x7a, 0xf8, 0xff, 0xff,
  0x13, 0xfc, 0xff, 0xff, 0x92, 0x19, 0x00, 0x00, 0x63, 0x04, 0x00, 0x00,
  0x23, 0x03, 0x00, 0x00, 0x11, 0xff, 0xff, 0xff, 0x47, 0x15, 0x00, 0x00,
  0xa9, 0xfb, 0xff, 0xff, 0xca, 0xe2, 0xff, 0xff, 0x04, 0x00, 0x00, 0x00,
  0x00, 0x01, 0x00, 0x00, 0x59, 0xf6, 0x75, 0x04, 0x4f, 0xe3, 0x6f, 0x6d,
  0x5c, 0x02, 0xcd, 0x10, 0xd9, 0xf0, 0x70, 0x84, 0x7f, 0xa8, 0x3d, 0x14,
  0xcd, 0x4e, 0xdd, 0x33, 0x56, 0x66, 0xec, 0x4f, 0xa3, 0x39, 0x20, 0x46,
  0xc0, 0x46, 0xf4, 0x75, 0x64, 0xd5, 0xc9, 0x50, 0x97, 0x35, 0x22, 0x56,
  0xe8, 0x09, 0x7e, 0x99, 0x83, 0x0a, 0x6c, 0x0f, 0x74, 0x3e, 0x7f, 0x40,
  0x25, 0x30, 0x70, 0x0b, 0xca, 0x6b, 0x81, 0x4e, 0xed, 0xef, 0x7b, 0x1f,
  0x46, 0x72, 0x1a, 0x48, 0xed, 0x91, 0x3c, 0x31, 0xf7, 0xb9, 0x94, 0x9d,
  0x81, 0xcb, 0xe3, 0x8d, 0x50, 0x9e, 0xcb, 0xe4, 0x65, 0x3f, 0x9e, 0xa9,
  0xbb, 0x35, 0x23, 0xdc, 0x18, 0x68, 0x09, 0x73, 0xf2, 0x0b, 0xc7, 0xdc,
  0x93, 0xe4, 0xea, 0x9e, 0x0e, 0x9d, 0x52, 0x67, 0xbd, 0x41, 0x24, 0xc0,
  0xa9, 0xbb, 0xb0, 0x2f, 0x57, 0x21, 0x7f, 0xa3, 0xc1, 0x49, 0xfd, 0x30,
  0x77, 0x81, 0x00, 0x50, 0xde, 0x0b, 0xc0, 0x61, 0xdc, 0x69, 0x61, 0x2b,
  0x6e, 0x88, 0xc0, 0x3b, 0xf2, 0x0a, 0xa2, 0x91, 0xea, 0x7f, 0xaf, 0xf1,
  0xd4, 0xb3, 0x79, 0x25, 0x09, 0x36, 0x31, 0xe6, 0xd8, 0x8c, 0x17, 0x27,
  0x8a, 0x2d, 0xe6, 0x7f, 0x57, 0xfc, 0x02, 0x05, 0x25, 0xa0, 0xc3, 0x16,
  0x67, 0xca, 0x58, 0x2f, 0x2b, 0x28, 0x24, 0xc9, 0x4d, 0xac, 0x98, 0xb9,
  0xb1, 0xb6, 0x5c, 0x73, 0x7a, 0x12, 0x9e, 0xbc, 0xca, 0x46, 0x3f, 0xae,
  0xe1, 0x5e, 0xb9, 0xba, 0x93, 0xa9, 0xad, 0x9a, 0x2a, 0x90, 0x81, 0x02,
  0x4d, 0xd7, 0x7c, 0x26, 0x71, 0x9f, 0x0c, 0x09, 0xa3, 0x3d, 0x32, 0x86,
  0x73, 0xc9, 0x63, 0xbf, 0xed, 0x7f, 0xe5, 0x64, 0x6c, 0xbb, 0x38, 0x72,
  0x0e, 0x3b, 0x67, 0x82, 0xc9, 0x34, 0x1f, 0xc0, 0x74, 0x20, 0x8b, 0x39,
  0x6d, 0xc2, 0xf2, 0x8b, 0x91, 0x55, 0x8b, 0xb4, 0xd6, 0xe3, 0xff, 0xff,
  0x04, 0x00, 0x00, 0x00, 0x20, 0x00, 0x00, 0x00, 0xf2, 0xf4, 0xff, 0xff,
  0x57, 0xe3, 0xff, 0xff, 0xe0, 0xe4, 0xff, 0xff, 0xaf, 0x00, 0x00, 0x00,
  0xb6, 0xee, 0xff, 0xff, 0x77, 0xf0, 0xff, 0xff, 0x9b, 0xd5, 0xff, 0xff,
  0x3e, 0xf0, 0xff, 0xff, 0x02, 0xe4, 0xff, 0xff, 0x04, 0x00, 0x00, 0x00,
  0x80, 0x00, 0x00, 0x00, 0x71, 0x0f, 0x4d, 0x0d, 0x7c, 0x76, 0x90, 0x7f,
  0xe4, 0xbd, 0x39, 0xca, 0xff, 0x7f, 0x54, 0xd4, 0x7d, 0x7f, 0xb4, 0xa3,
  0x16, 0x96, 0x1a, 0x71, 0xb3, 0x1f, 0x7f, 0xa1, 0x1f, 0x34, 0x60, 0x11,
  0x1a, 0xd0, 0xf1, 0x76, 0x5c, 0x9a, 0x08, 0x81, 0x7f, 0x08, 0x71, 0xa1,
  0x8c, 0x30, 0x74, 0x6e, 0x7d, 0x4e, 0xf7, 0x81, 0xd2, 0x79, 0x9e, 0x79,
  0x6c, 0x0a, 0x28, 0xd6, 0x9f, 0x7f, 0x55, 0x9a, 0xcd, 0x4e, 0x2f, 0xee,
  0x7f, 0xfc, 0x41, 0x53, 0xee, 0x00, 0x7f, 0x60, 0x5d, 0xcf, 0xc6, 0xb5,
  0x4b, 0x81, 0x96, 0x33, 0x89, 0xb5, 0x58, 0x1b, 0x65, 0x35, 0x8b, 0xe2,
  0x81, 0x9d, 0x35, 0x44, 0x14, 0x8c, 0xd7, 0xa1, 0xf8, 0xcc, 0x7f, 0xa5,
  0xb6, 0x46, 0x07, 0x75, 0x38, 0xff, 0x06, 0x81, 0x28, 0xcb, 0x7f, 0x0f,
  0xac, 0x2e, 0x95, 0xaa, 0xa8, 0x89, 0x60, 0xe0, 0x83, 0x24, 0x7f, 0xee,
  0x8e, 0xe4, 0xff, 0xff, 0x04, 0x00, 0x00, 0x00, 0x40, 0x00, 0x00, 0x00,
  0x85, 0x9e, 0xff, 0xff, 0xda, 0xdf, 0xff, 0xff, 0x75, 0xfd, 0xff, 0xff,
  0x79, 0x2d, 0x00, 0x00, 0x70, 0xda, 0xff, 0xff, 0x23, 0xbd, 0xff, 0xff,
  0xc8, 0xe6, 0xff, 0xff, 0x17, 0x33, 0x00, 0x00, 0x49, 0xc0, 0xff, 0xff,
  0xe7, 0xee, 0xff, 0xff, 0x7e, 0xc4, 0xff, 0xff, 0x78, 0xc0, 0xff, 0xff,
  0x52, 0x16, 0x00, 0x00, 0x7a, 0xc6, 0xff, 0xff, 0xb7, 0x06, 0xff, 0xff,
  0x58, 0xf3, 0xff, 0xff, 0xda, 0xe4, 0xff, 0xff, 0x04, 0x00, 0x00, 0x00,
  0x48, 0x00, 0x00, 0x00, 0xfe, 0xff, 0x7f, 0x4f, 0x70, 0x7e, 0x9d, 0x45,
  0x15, 0x15, 0x2d, 0x4d, 0x11, 0x7f, 0x27, 0xe2, 0x1b, 0x9d, 0x74, 0x82,
  0xe3, 0x50, 0x38, 0x89, 0x43, 0xd4, 0xc2, 0x59, 0xe2, 0x46, 0xe0, 0xa3,
  0x08, 0x3c, 0xce, 0x73, 0x5c, 0x16, 0x7f, 0x0c, 0xd7, 0xbe, 0x17, 0x6c,
  0xc4, 0x66, 0x6a, 0x7f, 0xa2, 0x6a, 0xc3, 0xbc, 0x81, 0xc7, 0x47, 0x7c,
  0x7f, 0xf4, 0x1e, 0x81, 0xd0, 0xa1, 0xe0, 0xb6, 0x2d, 0x81, 0x2d, 0x12,
  0xb4, 0x2d, 0x8b, 0xe8, 0x2e, 0xe5, 0xff, 0xff, 0x04, 0x00, 0x00, 0x00,
  0x20, 0x00, 0x00, 0x00, 0x66, 0x32, 0x00, 0x00, 0x93, 0x8c, 0x00, 0x00,
  0x48, 0x0e, 0x00, 0x00, 0x7b, 0x08, 0x00, 0x00, 0xaa, 0x0b, 0x00, 0x00,
  0x94, 0xdd, 0xff, 0xff, 0x94, 0x36, 0x00, 0x00, 0x69, 0x96, 0xff, 0xff,
  0x5a, 0xe5, 0xff, 0xff, 0x04, 0x00, 0x00, 0x00, 0x80, 0x00, 0x00, 0x00,
  0x1b, 0x52, 0x9a, 0xfd, 0xa9, 0xc3, 0xd5, 0x7f, 0xd3, 0x1f, 0xb9, 0x7f,
  0xec, 0xca, 0xb9, 0xbc, 0x56, 0x7f, 0xc8, 0x12, 0x14, 0x5c, 0x03, 0xd1,
  0x52, 0x23, 0x9d, 0x8b, 0x22, 0x67, 0x7f, 0xca, 0x69, 0x55, 0x74, 0x92,
  0x20, 0x4d, 0x99, 0x7f, 0xe7, 0xae, 0x81, 0x16, 0x90, 0x55, 0x3e, 0xe0,
  0x18, 0xb0, 0x4f, 0x52, 0x9a, 0xdc, 0x81, 0xef, 0x0a, 0x8b, 0x9d, 0xb9,
  0x81, 0x1a, 0xd9, 0x47, 0x81, 0x05, 0xe3, 0xb4, 0x4c, 0x9f, 0x13, 0xf4,
  0x8c, 0xe7, 0xfd, 0x74, 0xdb, 0x81, 0x13, 0xcd, 0xd5, 0xff, 0x35, 0x4c,
  0xa3, 0x66, 0x81, 0x69, 0x79, 0x7f, 0x29, 0xc1, 0xe0, 0x26, 0x58, 0x6c,
  0xa1, 0x81, 0x67, 0x78, 0x2b, 0xdd, 0x4d, 0x21, 0x1c, 0x0f, 0x81, 0xdc,
  0x5f, 0x35, 0x0f, 0x83, 0xdf, 0x81, 0x88, 0xb5, 0x7e, 0xae, 0xc6, 0x33,
  0xf4, 0x26, 0x81, 0xa8, 0xbe, 0x55, 0x6a, 0xe3, 0xe6, 0xe5, 0xff, 0xff,
  0x04, 0x00, 0x00, 0x00, 0x40, 0x00, 0x00, 0x00, 0xa9, 0xd8, 0xff, 0xff,
  0xa0, 0xad, 0xff, 0xff, 0x62, 0x1e, 0x00, 0x00, 0x67, 0x0f, 0x00, 0x00,
  0xf9, 0x00, 0x00, 0x00, 0x32, 0xc0, 0xff, 0xff, 0xc4, 0x6c, 0x00, 0x00,
  0xa4, 0xea, 0xff, 0xff, 0xf1, 0xea, 0xff, 0xff, 0xb4, 0xb5, 0xff, 0xff,
  0x29, 0x57, 0xff, 0xff, 0x5e, 0x1c, 0x00, 0x00, 0x60, 0xd2, 0xff, 0xff,
  0x76, 0x02, 0x00, 0x00, 0xc1, 0xb1, 0xff, 0xff, 0x0b, 0xed, 0xff, 0xff,
  0x32, 0xe6, 0xff, 0xff, 0x04, 0x00, 0x00, 0x00, 0x00, 0x02, 0x00, 0x00,
  0x81, 0x25, 0xef, 0x1f, 0xc3, 0xeb, 0x1a, 0xbe, 0x05, 0xe4, 0x78, 0x87,
  0xef, 0x47, 0xa7, 0xc7, 0x75, 0x4c, 0x3d, 0x40, 0x1a, 0xb6, 0x84, 0x8d,
  0x41, 0xb3, 0xc3, 0x0c, 0x42, 0x1d, 0xed, 0x69, 0xe8, 0x87, 0xf0, 0x4f,
  0xdc, 0x6f, 0xa3, 0x4a, 0x9d, 0x05, 0x8d, 0xa0, 0x7f, 0xfd, 0x4e, 0xa3,
  0xe1, 0x89, 0xdc, 0xb2, 0xf6, 0x0d, 0x43, 0x35, 0xbb, 0x3b, 0xd7, 0x0d,
  0xfd, 0x96, 0xfe, 0x2b, 0xde, 0xb0, 0xb4, 0x48, 0xe2, 0x8f, 0x71, 0x82,
  0xd0, 0x41, 0xc1, 0x10, 0x00, 0x15, 0x3c, 0x6d, 0x73, 0x91, 0x2d, 0xa0,
  0x35, 0xb4, 0x81, 0xb6, 0xdb, 0x9d, 0x19, 0x5e, 0xbb, 0xeb, 0x27, 0xfe,
  0xde, 0xd6, 0x29, 0xbd, 0xc0, 0x6f, 0x35, 0xe3, 0x89, 0xc0, 0x45, 0x23,
  0x1e, 0xf5, 0x95, 0x61, 0xf3, 0x0e, 0xe6, 0xa9, 0x20, 0x54, 0x67, 0xef,
  0xa4, 0x62, 0x81, 0xe3, 0xad, 0x21, 0x21, 0x34, 0xc2, 0x00, 0xab, 0xda,
  0x88, 0x59, 0x1b, 0xda, 0x96, 0x3f, 0x26, 0xb1, 0x7f, 0x6d, 0x7d, 0xcf,
  0xa0, 0x35, 0x03, 0x35, 0x32, 0xb0, 0x95, 0x0c, 0x51, 0x69, 0xab, 0xcd,
  0xbb, 0x4f, 0xb9, 0x49, 0x02, 0x81, 0xac, 0x6a, 0xd6, 0xeb, 0x28, 0x60,
  0xde, 0x39, 0x38, 0x38, 0xde, 0x68, 0x0e, 0xd3, 0x44, 0x38, 0x79, 0x48,
  0x6d, 0xe4, 0xd6, 0xc6, 0x4c, 0x6b, 0xee, 0x9c, 0x37, 0xa3, 0x7c, 0x61,
  0xf3, 0x43, 0x15, 0x43, 0xfb, 0x02, 0x2d, 0xc4, 0x19, 0xf3, 0x0d, 0xb3,
  0xe1, 0xed, 0xd4, 0x1a, 0x0c, 0x10, 0x36, 0x81, 0xab, 0x24, 0xfb, 0xb3,
  0x3d, 0xe5, 0x4e, 0x9e, 0xea, 0x0d, 0xed, 0xc6, 0x74, 0x92, 0xff, 0xbd,
  0xcc, 0x9e, 0xb3, 0xa7, 0xd6, 0x3a, 0x36, 0x91, 0x7d, 0xa4, 0x18, 0x58,
  0x05, 0xf7, 0xc9, 0xd3, 0x91, 0x3b, 0x81, 0x87, 0xd7, 0xa6, 0x03, 0xd7,
  0x76, 0x6d, 0xe8, 0x45, 0x0f, 0x45, 0x53, 0x63, 0xc3, 0x81, 0x9f, 0xf5,
  0xda, 0xb6, 0x00, 0xa1, 0x53, 0x86, 0xc3, 0x6d, 0xf2, 0x92, 0x84, 0xe4,
  0xe0, 0x24, 0x24, 0xa1, 0x06, 0xca, 0x73, 0x6c, 0xe1, 0xa1, 0x29, 0x6b,
  0xe7, 0x1e, 0x92, 0x08, 0x06, 0x3d, 0x5b, 0xe5, 0x8b, 0x04, 0x5f, 0x2e,
  0xbc, 0xef, 0xed, 0x84, 0x26, 0xf2, 0x91, 0x93, 0x07, 0x14, 0x62, 0x7f,
  0x54, 0x8b, 0x67, 0x05, 0x64, 0x1a, 0x02, 0x08, 0x4f, 0x1f, 0xdb, 0x8d,
  0x20, 0x12, 0xca, 0x33, 0xba, 0x6c, 0x85, 0x92, 0x0b, 0x0d, 0xc1, 0xc6,
  0x38, 0x04, 0x49, 0x60, 0xe5, 0x2c, 0x42, 0xe8, 0x76, 0x9e, 0xd9, 0xf9,
  0x00, 0x65, 0x00, 0x81, 0x4d, 0x07, 0x55, 0x15, 0x8d, 0x16, 0x97, 0x22,
  0x4e, 0xff, 0x7c, 0x98, 0x29, 0x59, 0x6d, 0xa7, 0x13, 0x79, 0x29, 0x1d,
  0xe1, 0xfd, 0x81, 0xb4, 0x42, 0x5e, 0x16, 0x10, 0x4f, 0x85, 0x9f, 0x3f,
  0xe6, 0x70, 0xac, 0x8c, 0x22, 0xde, 0x0c, 0xe9, 0xd4, 0x8c, 0x56, 0x56,
  0x00, 0xc8, 0x15, 0x4e, 0x70, 0x58, 0x46, 0xda, 0x2d, 0xcf, 0x10, 0xa7,
  0xdf, 0xe6, 0xfe, 0xfc, 0x81, 0x12, 0x4b, 0x46, 0x35, 0xec, 0xaf, 0x06,
  0x71, 0x51, 0x2f, 0xb9, 0x61, 0x50, 0x6c, 0x7f, 0x84, 0xa9, 0xf8, 0x96,
  0xc2, 0xa6, 0xaf, 0x55, 0x68, 0xbd, 0x97, 0x60, 0x2a, 0x92, 0x36, 0xce,
  0xce, 0x44, 0xbd, 0xd9, 0x41, 0xd6, 0xde, 0x02, 0x58, 0x95, 0xc1, 0x77,
  0x62, 0x90, 0x98, 0x35, 0x00, 0x18, 0x81, 0x1e, 0xc8, 0xe1, 0x5d, 0x63,
  0x89, 0x0b, 0x73, 0x83, 0x68, 0xb8, 0xcf, 0x65, 0x5b, 0xb7, 0x62, 0xad,
  0x1a, 0xc1, 0x02, 0xb3, 0x81, 0xab, 0x56, 0x94, 0x61, 0x2b, 0x93, 0x54,
  0xb0, 0x16, 0xe1, 0xd1, 0xf3, 0x82, 0x03, 0x4d, 0x5f, 0x1c, 0xb5, 0xb7,
  0x53, 0x70, 0x5f, 0x09, 0xb1, 0xd9, 0x9f, 0x69, 0x3e, 0xe8, 0xff, 0xff,
  0x04, 0x00, 0x00, 0x00, 0x40, 0x00, 0x00, 0x00, 0x6b, 0x97, 0xff, 0xff,
  0x19, 0x6c, 0xff, 0xff, 0xab, 0x0f, 0xff, 0xff, 0x9a, 0xdf, 0xff, 0xff,
  0x87, 0x03, 0x00, 0x00, 0x8f, 0xd9, 0xff, 0xff, 0xf9, 0x9d, 0xff, 0xff,
  0x31, 0xf2, 0xff, 0xff, 0xb3, 0x8a, 0xff, 0xff, 0x5a, 0xc5, 0xff, 0xff,
  0x40, 0x9d, 0xff, 0xff, 0xcf, 0x80, 0xff, 0xff, 0xff, 0xde, 0xff, 0xff,
  0x18, 0x9c, 0xff, 0xff, 0x80, 0xfd, 0xff, 0xff, 0xec, 0xeb, 0xff, 0xff,
  0x8a, 0xe8, 0xff, 0xff, 0x04, 0x00, 0x00, 0x00, 0x00, 0x02, 0x00, 0x00,
  0x4a, 0x76, 0x77, 0xd2, 0x6c, 0xa1, 0xa0, 0xe6, 0x6e, 0x69, 0x2e, 0x23,
  0x52, 0xc0, 0x15, 0x81, 0x45, 0x4c, 0x7b, 0x81, 0x32, 0xd6, 0x60, 0x1c,
  0x2e, 0x76, 0x3e, 0x47, 0x55, 0x27, 0xb7, 0x5d, 0xfc, 0x13, 0x50, 0x79,
  0x8f, 0xc7, 0x0a, 0x5b, 0xc2, 0x5b, 0x81, 0x22, 0x73, 0xf7, 0x33, 0x28,
  0x54, 0x19, 0xb0, 0xc8, 0xf3, 0x29, 0xd7, 0x7f, 0x1b, 0x17, 0xd6, 0x3e,
  0xe9, 0x36, 0xe2, 0xe8, 0x62, 0x47, 0x47, 0xc3, 0x47, 0x98, 0xd4, 0x81,
  0xf3, 0x30, 0xf0, 0x9a, 0xab, 0x65, 0xfd, 0x1c, 0x48, 0xe7, 0x5b, 0x52,
  0x49, 0xb5, 0x11, 0x5a, 0x78, 0x33, 0x1b, 0x45, 0x81, 0x34, 0xd4, 0xc0,
  0x64, 0x37, 0x7a, 0xab, 0xfe, 0x59, 0xc8, 0xcd, 0x84, 0xec, 0xb1, 0x81,
  0x9b, 0x3d, 0x84, 0x02, 0xb7, 0x26, 0xba, 0x7f, 0xef, 0x7b, 0x67, 0xde,
  0x0c, 0xb1, 0x13, 0x89, 0x9d, 0x4b, 0xaa, 0xef, 0x5a, 0xc2, 0xed, 0x71,
  0xf9, 0x6f, 0x7f, 0x17, 0x4c, 0x56, 0x7d, 0x1e, 0xb7, 0x3b, 0x3f, 0xd3,
  0xba, 0xed, 0xf6, 0x6c, 0xb5, 0xe0, 0x81, 0x44, 0xa3, 0x5d, 0x9c, 0x81,
  0x4d, 0x3f, 0xa8, 0x58, 0x88, 0x32, 0x97, 0x03, 0xc2, 0x81, 0xc3, 0x5a,
  0x0b, 0xf6, 0xba, 0xf2, 0x9d, 0xed, 0xcc, 0x10, 0x87, 0xbf, 0x0a, 0x15,
  0x7f, 0x23, 0x6e, 0x53, 0x8a, 0xa5, 0x23, 0x0b, 0x61, 0xe4, 0x9c, 0xdd,
  0x52, 0xef, 0x69, 0xc7, 0x4c, 0xaf, 0x0a, 0x81, 0x37, 0xbe, 0xb1, 0x02,
  0x3d, 0xf7, 0x45, 0x82, 0xc6, 0xb4, 0xeb, 0x5f, 0x51, 0x34, 0xd7, 0x9c,
  0x23, 0x81, 0x0b, 0xd6, 0xcc, 0x15, 0xd0, 0x9d, 0x2c, 0xb2, 0xb9, 0xcf,
  0x8c, 0x1f, 0x09, 0xab, 0xca, 0x9b, 0x7e, 0x49, 0x81, 0x06, 0xe8, 0xd8,
  0x14, 0x18, 0x60, 0xe7, 0xe6, 0x4c, 0x03, 0x7f, 0x66, 0x08, 0x3a, 0xef,
  0xe5, 0x64, 0x99, 0x83, 0x82, 0x74, 0xe5, 0xbe, 0x4f, 0xde, 0xd7, 0x03,
  0xa3, 0x40, 0xc8, 0x3e, 0x78, 0xde, 0x05, 0x81, 0xac, 0xfe, 0x2c, 0x4d,
  0xde, 0xe1, 0x91, 0xa4, 0xd1, 0xdd, 0xa4, 0xe9, 0x81, 0x4d, 0xda, 0xee,
  0x43, 0xa1, 0xcc, 0xbd, 0x19, 0x45, 0x98, 0x61, 0xba, 0x15, 0x40, 0x17,
  0xbe, 0x64, 0x7f, 0x08, 0x81, 0x35, 0x35, 0xa5, 0x00, 0x1f, 0xbc, 0xe9,
  0xb3, 0x73, 0x66, 0xd5, 0x1c, 0xc1, 0x04, 0x66, 0xc7, 0x81, 0xac, 0xa9,
  0x60, 0x1a, 0x9d, 0x04, 0x48, 0x19, 0x14, 0x61, 0x59, 0xcc, 0xa1, 0x3c,
  0xc0, 0x14, 0xb5, 0x1e, 0x20, 0x7f, 0x51, 0x7f, 0xc2, 0x0c, 0xbb, 0x12,
  0x20, 0xf2, 0x29, 0xe8, 0xf6, 0x95, 0x24, 0x2d, 0x7f, 0x5b, 0xd5, 0x9b,
  0xe9, 0xb9, 0xb3, 0x86, 0x66, 0x4a, 0x7c, 0x46, 0x41, 0x11, 0x37, 0xbf,
  0xee, 0x50, 0x8b, 0x41, 0x2f, 0xe0, 0x67, 0x68, 0xa0, 0xe5, 0x7f, 0x36,
  0x32, 0x81, 0x97, 0xc1, 0x34, 0x0b, 0xb4, 0xb9, 0xa8, 0x40, 0x1d, 0xd3,
  0xdc, 0x42, 0x0f, 0xe4, 0x20, 0x7b, 0xbd, 0xa9, 0xd9, 0xd6, 0x0f, 0x53,
  0xac, 0x87, 0x8e, 0xe6, 0x7f, 0xe0, 0x3a, 0x0a, 0xee, 0x81, 0xef, 0x37,
  0xbe, 0x64, 0x1c, 0x4c, 0x3b, 0x02, 0x63, 0x06, 0xce, 0x08, 0xf2, 0xce,
  0x09, 0xdf, 0xd8, 0xe5, 0x81, 0xde, 0x77, 0xec, 0x42, 0x03, 0xb3, 0x42,
  0xe4, 0xb7, 0x02, 0x29, 0xf6, 0x9a, 0xe5, 0xb6, 0x1c, 0xc4, 0x7f, 0x4f,
  0x04, 0x41, 0xc2, 0xe6, 0x08, 0xa6, 0x26, 0xe1, 0x26, 0x4a, 0x5b, 0xec,
  0xdb, 0xd5, 0x31, 0x5c, 0x54, 0x7f, 0xb2, 0x5d, 0xd6, 0x9e, 0x66, 0xe4,
  0xc5, 0x01, 0x20, 0x6a, 0xdb, 0x91, 0x9d, 0xd1, 0x57, 0x81, 0xa9, 0x8e,
  0x06, 0xf9, 0xcb, 0xe7, 0x79, 0x49, 0x7f, 0x08, 0xdc, 0x8b, 0xd6, 0x1b,
  0xd6, 0xe0, 0xf5, 0x34, 0xb6, 0x50, 0xe7, 0x70, 0x96, 0xea, 0xff, 0xff,
  0x04, 0x00, 0x00, 0x00, 0x80, 0x00, 0x00, 0x00, 0x3d, 0x3c, 0x00, 0x00,
  0x19, 0x44, 0xfe, 0xff, 0x48, 0xb2, 0xff, 0xff, 0x44, 0x85, 0xff, 0xff,
  0x14, 0x6c, 0x00, 0x00, 0x4f, 0x88, 0xfe, 0xff, 0x85, 0x23, 0xfc, 0xff,
  0xf6, 0xfa, 0xff, 0xff, 0xf0, 0xbe, 0x00, 0x00, 0xaa, 0xf3, 0xfd, 0xff,
  0x18, 0xa3, 0xff, 0xff, 0x76, 0xff, 0xfe, 0xff, 0x4a, 0xfc, 0xfe, 0xff,
  0x9e, 0xe8, 0xfe, 0xff, 0x27, 0xbc, 0xff, 0xff, 0xc6, 0xaa, 0xfc, 0xff,
  0x96, 0x9e, 0xff, 0xff, 0x31, 0xd7, 0xfe, 0xff, 0x53, 0xc5, 0xfe, 0xff,
  0xd3, 0x80, 0xff, 0xff, 0xde, 0x94, 0x01, 0x00, 0x55, 0x65, 0xff, 0xff,
  0x75, 0x5a, 0xff, 0xff, 0x51, 0xe0, 0x00, 0x00, 0xca, 0xe5, 0xff, 0xff,
  0x00, 0xc9, 0xff, 0xff, 0x12, 0xe1, 0xff, 0xff, 0x5f, 0xaa, 0xff, 0xff,
  0xb0, 0x81, 0xff, 0xff, 0x1b, 0x4f, 0xff, 0xff, 0xdd, 0xae, 0x00, 0x00,
  0xef, 0xe0, 0xff, 0xff, 0x22, 0xeb, 0xff, 0xff, 0x04, 0x00, 0x00, 0x00,
  0x90, 0x00, 0x00, 0x00, 0x8b, 0x9b, 0x59, 0xbd, 0x81, 0xb4, 0x9b, 0x20,
  0xd1, 0xfb, 0x7f, 0xe1, 0xbf, 0x61, 0xda, 0x8d, 0x31, 0x0b, 0xc9, 0xac,
  0x97, 0x57, 0x61, 0x2e, 0xd4, 0x81, 0xe5, 0x60, 0xa6, 0x22, 0x81, 0x9f,
  0x8d, 0x2b, 0xd6, 0xa5, 0x83, 0xa0, 0x9f, 0x57, 0x39, 0x90, 0x42, 0xef,
  0x8a, 0x61, 0x1a, 0x9b, 0xd5, 0x81, 0x8d, 0xe3, 0xd7, 0x37, 0x7f, 0x64,
  0x33, 0x2f, 0xd6, 0x6d, 0xae, 0x81, 0xaf, 0x1f, 0xbe, 0x9c, 0x7f, 0x4e,
  0xe2, 0x72, 0x0e, 0x68, 0x81, 0x1b, 0xe0, 0x1c, 0x7d, 0x57, 0xc3, 0xde,
  0x18, 0xec, 0x00, 0x2a, 0x49, 0x60, 0xd5, 0x34, 0xf8, 0xc1, 0x65, 0x5f,
  0x81, 0x8a, 0xbd, 0xbe, 0x81, 0xa8, 0xdb, 0x81, 0x8b, 0xf0, 0x60, 0x63,
  0x6b, 0x0b, 0x30, 0x7f, 0x66, 0xfb, 0x54, 0x44, 0x5b, 0xdd, 0x09, 0x29,
  0x78, 0xf6, 0x71, 0x81, 0x8b, 0x38, 0xca, 0x62, 0xb1, 0x06, 0x6f, 0x7f,
  0x09, 0x6d, 0xd6, 0x3c, 0x08, 0x81, 0x28, 0x24, 0x7a, 0x6a, 0x43, 0xe1,
  0x2e, 0x16, 0x92, 0x11, 0xbe, 0xeb, 0xff, 0xff, 0x04, 0x00, 0x00, 0x00,
  0x40, 0x00, 0x00, 0x00, 0x45, 0x0b, 0xfe, 0xff, 0x06, 0x71, 0x01, 0x00,
  0x1c, 0x25, 0xff, 0xff, 0xd5, 0x00, 0x00, 0x00, 0xde, 0x5a, 0x00, 0x00,
  0x61, 0x7e, 0xff, 0xff, 0xda, 0x7a, 0x01, 0x00, 0x24, 0x98, 0x00, 0x00,
  0x67, 0x22, 0xff, 0xff, 0x0c, 0xed, 0x01, 0x00, 0xb6, 0x3a, 0x02, 0x00,
  0xf5, 0x34, 0xfc, 0xff, 0xe6, 0x11, 0x01, 0x00, 0xde, 0xb0, 0xfe, 0xff,
  0xc2, 0xaa, 0x01, 0x00, 0xf2, 0x83, 0xff, 0xff, 0x0a, 0xec, 0xff, 0xff,
  0x04, 0x00, 0x00, 0x00, 0x00, 0x02, 0x00, 0x00, 0x5f, 0x69, 0x6c, 0x95,
  0x70, 0x09, 0x9f, 0x76, 0x7f, 0x6a, 0x8e, 0x6a, 0xbf, 0x76, 0x97, 0x04,
  0x34, 0xd2, 0xa2, 0x62, 0x46, 0x6c, 0x81, 0x70, 0x6a, 0x2f, 0x35, 0xd3,
  0x91, 0xae, 0x3f, 0x07, 0xae, 0xff, 0x99, 0xe4, 0xbf, 0x12, 0x14, 0x71,
  0xdf, 0xfd, 0x98, 0x65, 0xd5, 0x9b, 0xa7, 0x81, 0xa3, 0xd7, 0x1a, 0x9c,
  0x01, 0xcd, 0xf1, 0x8e, 0x39, 0x9c, 0xec, 0x7f, 0xe7, 0xde, 0x87, 0xc6,
  0xc6, 0x7f, 0x5f, 0x65, 0xb2, 0x6a, 0xe2, 0xff, 0x44, 0x8a, 0xfa, 0x6f,
  0xe9, 0x8d, 0xba, 0x88, 0x6d, 0x29, 0x62, 0xf8, 0x69, 0x50, 0x64, 0x35,
  0xf2, 0x81, 0x2e, 0xa1, 0x64, 0x48, 0xb6, 0x27, 0xc6, 0x02, 0x5f, 0xef,
  0x0a, 0xb4, 0xd6, 0x52, 0x81, 0xd9, 0x24, 0x7e, 0x00, 0x6b, 0x9a, 0x24,
  0xe5, 0x4c, 0xdf, 0x86, 0xd8, 0x37, 0x7f, 0x72, 0x94, 0xd2, 0xc0, 0xa7,
  0x82, 0xd3, 0x85, 0x78, 0xaf, 0x1f, 0x6c, 0x97, 0x4d, 0x89, 0xf1, 0xf8,
  0x93, 0x7e, 0x35, 0xc2, 0x7f, 0x0f, 0xf4, 0xfa, 0x8b, 0x76, 0xcd, 0xfc,
  0x5d, 0x08, 0x30, 0xc4, 0x78, 0x81, 0x92, 0xea, 0xe9, 0xa1, 0x31, 0xeb,
  0x7f, 0xeb, 0x1d, 0xf7, 0x5f, 0xe7, 0x04, 0xb2, 0x39, 0xc0, 0xde, 0x4d,
  0xf6, 0x51, 0x1e, 0x48, 0xd3, 0x83, 0xf7, 0x7f, 0xde, 0xec, 0x6d, 0xd1,
  0xeb, 0x16, 0x56, 0xf0, 0xa1, 0x41, 0xe2, 0x2e, 0x67, 0x86, 0x65, 0x2c,
  0x92, 0xf9, 0x9e, 0x4e, 0xcb, 0x8b, 0x81, 0x6a, 0x4e, 0xd9, 0x35, 0xee,
  0x43, 0xae, 0xf1, 0x99, 0xfe, 0x13, 0xfe, 0xb1, 0x08, 0xd8, 0xa3, 0x46,
  0x81, 0x32, 0x95, 0x0b, 0x0f, 0x3f, 0xbb, 0x0e, 0x64, 0xf5, 0x52, 0xf8,
  0xd6, 0x81, 0xd9, 0x1b, 0x32, 0xf9, 0x31, 0x94, 0x5f, 0x11, 0xd7, 0x81,
  0x59, 0x9b, 0x63, 0x60, 0x51, 0x36, 0x3c, 0x27, 0xde, 0xe0, 0x5b, 0xa9,
  0x96, 0x39, 0x4e, 0x9e, 0xd7, 0x57, 0xe4, 0x7f, 0x84, 0x6e, 0x3c, 0x5a,
  0x3a, 0x73, 0xf7, 0x39, 0x7d, 0x83, 0x0d, 0xfa, 0x5d, 0x6f, 0x19, 0x71,
  0xa0, 0x51, 0x22, 0x83, 0xde, 0x81, 0x22, 0x93, 0x7f, 0x0e, 0x45, 0x1c,
  0x94, 0x00, 0x06, 0xc5, 0xec, 0xc2, 0xba, 0x3a, 0x29, 0x5e, 0x8f, 0x3c,
  0xe0, 0x74, 0x35, 0x07, 0x1e, 0x81, 0x10, 0xb8, 0xcc, 0xc3, 0x47, 0xd4,
  0xf5, 0x58, 0x6c, 0x57, 0x29, 0x8b, 0x81, 0x53, 0x99, 0xc5, 0xdc, 0x91,
  0x5c, 0x81, 0xa6, 0x77, 0x91, 0x75, 0xcf, 0x15, 0x45, 0x12, 0x81, 0x9c,
  0xa9, 0x39, 0xfb, 0x57, 0x36, 0xe3, 0xfa, 0xd5, 0xd6, 0x19, 0x73, 0x89,
  0x9c, 0xe8, 0x9f, 0x51, 0x81, 0x8f, 0xbd, 0xbf, 0x0c, 0xf8, 0xc4, 0x1a,
  0x99, 0x45, 0xaf, 0x4e, 0xe4, 0x61, 0x90, 0xee, 0xe5, 0x81, 0xa2, 0xf3,
  0x0f, 0xc0, 0x5a, 0x60, 0x03, 0x3c, 0xbf, 0xb6, 0xff, 0x97, 0x13, 0x08,
  0x7d, 0x98, 0xa5, 0x40, 0x8a, 0x65, 0x81, 0x81, 0x12, 0x5a, 0x14, 0x75,
  0x30, 0x2d, 0x69, 0x33, 0x6a, 0xa3, 0xa3, 0x18, 0xe8, 0xf9, 0x81, 0x7e,
  0xe4, 0xf3, 0xec, 0x6d, 0x67, 0x04, 0x67, 0x6d, 0xc9, 0x6e, 0x51, 0x5f,
  0x40, 0xd5, 0xe7, 0x50, 0x7f, 0x3d, 0x5a, 0xc5, 0x59, 0xce, 0xda, 0x66,
  0x5c, 0x4e, 0x51, 0xcc, 0x45, 0x7f, 0xcd, 0x78, 0x43, 0x6f, 0x27, 0x62,
  0xe6, 0xd5, 0x0e, 0xea, 0xde, 0x5c, 0x55, 0x81, 0xfd, 0xd1, 0x16, 0xbd,
  0xa6, 0x2a, 0x5d, 0xe6, 0xa0, 0x92, 0xc9, 0xdc, 0xd8, 0x8e, 0xb7, 0x06,
  0x67, 0x22, 0x89, 0x61, 0xe1, 0x2d, 0xb0, 0x81, 0x4a, 0x8e, 0xda, 0xba,
  0x90, 0x2b, 0x9d, 0x93, 0x37, 0x81, 0x9f, 0x32, 0xcd, 0x48, 0x67, 0x4d,
  0x81, 0xe7, 0x2a, 0x85, 0xa4, 0xbe, 0xab, 0xff, 0x8e, 0xc1, 0x4d, 0x17,
  0x62, 0x0b, 0xed, 0xcd, 0x16, 0xee, 0xff, 0xff, 0x04, 0x00, 0x00, 0x00,
  0x80, 0x00, 0x00, 0x00, 0xe2, 0x97, 0xff, 0xff, 0x5e, 0x00, 0xff, 0xff,
  0xf7, 0x98, 0x00, 0x00, 0xde, 0x43, 0xff, 0xff, 0xf7, 0xc6, 0xff, 0xff,
  0x0e, 0x28, 0x00, 0x00, 0x6d, 0x6c, 0xff, 0xff, 0xd8, 0x88, 0xff, 0xff,
  0x8b, 0xfc, 0x00, 0x00, 0xf3, 0xa2, 0xff, 0xff, 0xba, 0x04, 0x00, 0x00,
  0x2f, 0xb3, 0xff, 0xff, 0xf9, 0x1e, 0xff, 0xff, 0xb7, 0xa2, 0xff, 0xff,
  0x47, 0xcf, 0xff, 0xff, 0xc8, 0x72, 0x00, 0x00, 0xb7, 0xe2, 0xff, 0xff,
  0x28, 0xe2, 0xff, 0xff, 0x53, 0xb3, 0xff, 0xff, 0x23, 0xa3, 0xff, 0xff,
  0x65, 0xe5, 0xff, 0xff, 0x5d, 0xa1, 0xff, 0xff, 0x4f, 0x47, 0xff, 0xff,
  0x02, 0xdb, 0xff, 0xff, 0x91, 0x95, 0xff, 0xff, 0x87, 0x14, 0x00, 0x00,
  0x78, 0xf5, 0xff, 0xff, 0x6c, 0x0f, 0x00, 0x00, 0x37, 0x0e, 0xfe, 0xff,
  0x87, 0x58, 0x00, 0x00, 0x4a, 0xf5, 0xff, 0xff, 0xbe, 0xa9, 0x00, 0x00,
  0xa2, 0xee, 0xff, 0xff, 0x04, 0x00, 0x00, 0x00, 0x00, 0x04, 0x00, 0x00,
  0xd8, 0xab, 0x09, 0x6a, 0x5a, 0x5d, 0xf9, 0x1d, 0x41, 0xba, 0xef, 0x41,
  0x34, 0x54, 0x12, 0xca, 0xd4, 0x82, 0xfa, 0x37, 0x81, 0xba, 0x04, 0x42,
  0x58, 0xaa, 0xc2, 0x1e, 0xde, 0x49, 0x9b, 0x24, 0x31, 0x56, 0x63, 0x30,
  0xbd, 0xe4, 0xd1, 0xc0, 0x90, 0x55, 0x9d, 0xb5, 0x23, 0x2c, 0xef, 0xb4,
  0x54, 0xdb, 0x94, 0xab, 0xcd, 0xc0, 0xa2, 0xad, 0xc9, 0x63, 0xec, 0xed,
  0xe8, 0x91, 0xc2, 0x99, 0xbe, 0x1c, 0x9e, 0xef, 0x11, 0x68, 0xec, 0xa0,
  0x70, 0x5e, 0xb8, 0x4d, 0x2b, 0x53, 0x49, 0xdf, 0x88, 0x8d, 0xcc, 0xf9,
  0x5a, 0xbb, 0xba, 0xa1, 0xf1, 0x50, 0xef, 0xc8, 0xa0, 0xd7, 0xd8, 0x02,
  0x17, 0x2a, 0xe8, 0x30, 0xfa, 0xfe, 0x0a, 0x7d, 0x6b, 0x9f, 0xe0, 0x3c,
  0x96, 0x81, 0xc0, 0x82, 0x26, 0x34, 0xd9, 0x07, 0x78, 0x5b, 0xc6, 0x0a,
  0x68, 0xe1, 0x2a, 0xd7, 0xb0, 0x95, 0xe6, 0x32, 0x4f, 0x0a, 0xba, 0x79,
  0xab, 0x6a, 0x4a, 0x61, 0x7c, 0xbb, 0xbb, 0x81, 0x59, 0x01, 0x0f, 0xb4,
  0xb4, 0x2d, 0xec, 0x57, 0xcb, 0xfb, 0x06, 0x92, 0x47, 0x9e, 0xba, 0x68,
  0x37, 0x1d, 0x81, 0x8f, 0xab, 0x63, 0x0b, 0xb5, 0xf3, 0x68, 0xe0, 0xe2,
  0xd5, 0x31, 0x43, 0x13, 0x0b, 0xc3, 0xc9, 0xfc, 0x1e, 0x5b, 0xb6, 0x29,
  0x04, 0x21, 0xf6, 0x27, 0xd7, 0xc7, 0xd0, 0xa6, 0x76, 0xe1, 0x14, 0x64,
  0xa1, 0xd4, 0x34, 0x74, 0xac, 0x2d, 0xbf, 0x61, 0xcb, 0x53, 0xf0, 0x5b,
  0x81, 0x76, 0x64, 0xfb, 0x13, 0xd2, 0x2d, 0x28, 0xba, 0x9b, 0x0d, 0x4e,
  0x92, 0x05, 0x5e, 0xa1, 0x28, 0x28, 0x01, 0x48, 0x1c, 0xc0, 0xf5, 0xb6,
  0x2d, 0xb2, 0x08, 0xee, 0xb5, 0x14, 0x90, 0x55, 0xfc, 0x1a, 0x83, 0xc3,
  0x3d, 0xa0, 0x62, 0xa6, 0xe3, 0x91, 0xf4, 0xa6, 0x14, 0x54, 0x12, 0x28,
  0x9b, 0xb4, 0x82, 0x07, 0x64, 0x0c, 0xae, 0x9c, 0x6b, 0xfc, 0xa6, 0x2b,
  0xc5, 0xe2, 0xc0, 0x31, 0xa7, 0xec, 0xa1, 0x85, 0x4f, 0x11, 0x81, 0xd4,
  0xb1, 0x1a, 0x1a, 0xa4, 0x82, 0x7e, 0xf3, 0x99, 0x9d, 0xb9, 0xe5, 0x6c,
  0x62, 0xd1, 0xbb, 0x2d, 0x9e, 0x20, 0xc0, 0x86, 0x94, 0xe8, 0x54, 0xcb,
  0x64, 0xb0, 0xc7, 0xab, 0x6a, 0xff, 0x56, 0x91, 0x6d, 0xd4, 0xec, 0xd0,
  0xc7, 0x5f, 0x52, 0x53, 0x47, 0xa0, 0xda, 0x6e, 0x41, 0x01, 0xb9, 0x3b,
  0xb4, 0x88, 0x8d, 0xc5, 0x0f, 0xea, 0x02, 0x5b, 0x0c, 0xcf, 0x32, 0x57,
  0x15, 0x62, 0xb9, 0x24, 0x0c, 0xde, 0xc2, 0xac, 0xb9, 0x0c, 0xc3, 0x8a,
  0xa8, 0x48, 0x2c, 0x31, 0xef, 0x1a, 0xe9, 0x03, 0x16, 0x52, 0x9e, 0x6e,
  0x16, 0x12, 0x00, 0xd3, 0x22, 0x81, 0xe7, 0x11, 0x22, 0x6a, 0x8b, 0xbd,
  0xce, 0xff, 0x4d, 0x0d, 0x34, 0xff, 0xad, 0xa3, 0x3e, 0x31, 0x6e, 0x3f,
  0xfe, 0xc8, 0x42, 0x90, 0x23, 0x9f, 0x8a, 0x3c, 0x9a, 0xad, 0x3c, 0xb9,
  0xbc, 0xa2, 0x2e, 0x5a, 0x1e, 0x22, 0x23, 0xe8, 0x66, 0xc7, 0x5e, 0x81,
  0x2a, 0xc4, 0xe1, 0xf2, 0x5f, 0xe6, 0x4c, 0x78, 0xd2, 0x04, 0x7d, 0xa6,
  0x36, 0x1d, 0xd7, 0x57, 0x5d, 0xdd, 0xc6, 0xf0, 0xc4, 0xa6, 0x0c, 0x30,
  0xf5, 0x29, 0x22, 0x56, 0x95, 0x4a, 0x47, 0x50, 0x32, 0x42, 0x96, 0x18,
  0x1a, 0x56, 0x34, 0x33, 0x14, 0xc2, 0x22, 0x68, 0x18, 0x68, 0xd9, 0x8b,
  0x28, 0x6a, 0x11, 0xac, 0x60, 0xbf, 0x93, 0xd3, 0x5f, 0x2d, 0x8d, 0x52,
  0x99, 0x28, 0x6e, 0xd5, 0x56, 0x9d, 0x1c, 0x4a, 0xc8, 0x35, 0xd0, 0x70,
  0xb0, 0x39, 0xe6, 0xb8, 0xbf, 0x5a, 0xd9, 0xbf, 0xf1, 0x75, 0xe0, 0xdb,
  0xb6, 0xf9, 0xbd, 0x5c, 0x84, 0x8e, 0xdc, 0xcc, 0xfa, 0x54, 0x13, 0x8b,
  0x4c, 0x2b, 0x4c, 0x08, 0x55, 0x2e, 0x0f, 0x81, 0xab, 0xc8, 0x9f, 0xfd,
  0xa5, 0xc9, 0x4a, 0x69, 0x83, 0x83, 0x75, 0x54, 0x97, 0xed, 0x9b, 0x18,
  0xb2, 0x73, 0xd4, 0x1d, 0x2c, 0xbf, 0xe3, 0x5f, 0x90, 0x64, 0xa2, 0xd9,
  0xcb, 0x9d, 0xf7, 0x8c, 0x04, 0xde, 0xb0, 0x4a, 0x12, 0x13, 0x62, 0x69,
  0x5b, 0xcf, 0x98, 0x34, 0x0d, 0x8e, 0x9f, 0x81, 0x42, 0x94, 0x90, 0x6e,
  0xd1, 0x19, 0x1a, 0x7e, 0xbf, 0x3b, 0x01, 0x76, 0x70, 0xc7, 0x12, 0x08,
  0x32, 0xf6, 0xc3, 0x0e, 0xd3, 0xf7, 0x70, 0xc9, 0x2e, 0x79, 0x3f, 0xcb,
  0x4d, 0x64, 0x17, 0x79, 0x01, 0xd1, 0x81, 0xad, 0x9c, 0x5b, 0x9b, 0x60,
  0xe6, 0xdb, 0x06, 0x28, 0x63, 0x48, 0xfc, 0x75, 0xc2, 0xc0, 0x4d, 0x78,
  0xa2, 0x2b, 0x02, 0x40, 0xf3, 0x3e, 0xa5, 0xb3, 0xea, 0x1e, 0x88, 0x50,
  0x0d, 0x60, 0x8a, 0xdb, 0xac, 0x51, 0x12, 0xc7, 0xb0, 0x11, 0x8b, 0x73,
  0x7c, 0xbc, 0x4f, 0x92, 0x12, 0xdb, 0x1a, 0x30, 0x0e, 0xce, 0x0b, 0x3c,
  0x68, 0x28, 0xc9, 0x51, 0x9f, 0x1f, 0xff, 0x62, 0x03, 0xf0, 0xbc, 0xbd,
  0xba, 0xf0, 0x08, 0x38, 0xc9, 0x02, 0x0c, 0xc1, 0x93, 0xed, 0xe7, 0x69,
  0x6e, 0xac, 0xff, 0x25, 0x81, 0xf0, 0x38, 0x9c, 0xe8, 0xe8, 0x64, 0x5b,
  0xba, 0xb6, 0x29, 0xd8, 0x68, 0xff, 0xbf, 0x60, 0xb5, 0xc3, 0xcb, 0xc4,
  0x74, 0xa5, 0x5d, 0x57, 0xd3, 0x0e, 0x2a, 0xe6, 0x0c, 0x75, 0x13, 0xf2,
  0x90, 0x81, 0xc9, 0x86, 0x5b, 0x8b, 0xff, 0xf7, 0xb9, 0xae, 0x17, 0x03,
  0x1c, 0x42, 0x1b, 0x39, 0xba, 0x68, 0x52, 0x5b, 0x07, 0x54, 0xe6, 0x20,
  0xb8, 0xc3, 0xc0, 0xd8, 0x83, 0xca, 0x9c, 0xe2, 0x66, 0xb9, 0x56, 0x5c,
  0x8b, 0x38, 0xc5, 0x2b, 0xaa, 0xa1, 0xee, 0xbe, 0x0c, 0xd3, 0x75, 0xd3,
  0x3f, 0x26, 0xc1, 0x65, 0x5a, 0xa4, 0xdd, 0xe1, 0x49, 0xe7, 0x91, 0xe4,
  0xf5, 0x6e, 0xb0, 0x7a, 0xf3, 0x8a, 0x12, 0x05, 0xda, 0x0b, 0x65, 0x72,
  0xf5, 0x72, 0x2b, 0x98, 0x0b, 0x69, 0x63, 0x94, 0xd3, 0xa2, 0xc9, 0xcf,
  0x6c, 0x41, 0xed, 0x02, 0x37, 0x42, 0x62, 0x81, 0x56, 0x39, 0xd6, 0x98,
  0x0c, 0xec, 0x9a, 0x9f, 0x6b, 0x8e, 0x13, 0xe3, 0xf5, 0x68, 0xf2, 0xeb,
  0xd4, 0xc2, 0xa7, 0x34, 0x5b, 0x97, 0x0e, 0x3d, 0xc7, 0x1e, 0xbc, 0x18,
  0xce, 0x36, 0x00, 0x96, 0x71, 0xe5, 0xb7, 0xee, 0xcf, 0xbf, 0x25, 0x5f,
  0x7b, 0x4b, 0xe2, 0x9e, 0xa9, 0xfb, 0x45, 0x17, 0x87, 0xb0, 0xd2, 0x1b,
  0xa6, 0x48, 0x96, 0xc3, 0xcd, 0x0e, 0xd9, 0xf9, 0x89, 0x59, 0x81, 0x5d,
  0xce, 0x65, 0x5d, 0xac, 0x1d, 0xfa, 0xf5, 0xe9, 0xd3, 0x89, 0xb8, 0x90,
  0x9f, 0x54, 0x50, 0xb2, 0x87, 0x5e, 0xe3, 0xa6, 0x19, 0xd5, 0xa7, 0x03,
  0xfe, 0x8d, 0x51, 0x0d, 0xf4, 0x25, 0xf9, 0x9f, 0x2e, 0x2b, 0xdd, 0x3f,
  0x4e, 0x60, 0x6d, 0x77, 0xa4, 0xfb, 0x6a, 0x3f, 0x32, 0x2f, 0xce, 0x33,
  0x1f, 0x62, 0xc0, 0x8d, 0x39, 0xc4, 0x9a, 0xfc, 0xe8, 0xd6, 0x85, 0xeb,
  0x19, 0x1d, 0xf4, 0x62, 0x60, 0xfb, 0x9c, 0xa9, 0xc9, 0x1a, 0x1d, 0x36,
  0x33, 0x24, 0xe2, 0xc1, 0xd1, 0x3d, 0xea, 0xad, 0x38, 0xdc, 0x06, 0x1a,
  0x90, 0x52, 0xc8, 0x74, 0xa4, 0xc2, 0xc4, 0x81, 0x45, 0x38, 0xe2, 0xd9,
  0x72, 0xf7, 0x2a, 0x35, 0xde, 0x67, 0x0a, 0xc6, 0x1c, 0x58, 0x1a, 0xb2,
  0x21, 0xda, 0x73, 0xd9, 0xf7, 0x6e, 0xb0, 0xb0, 0x44, 0x38, 0x68, 0x6c,
  0x2d, 0x1b, 0x10, 0x27, 0x67, 0x75, 0x47, 0x1a, 0x55, 0x9e, 0x2c, 0x86,
  0xe3, 0xcf, 0x31, 0x01, 0x81, 0x48, 0x11, 0xf5, 0xcd, 0x03, 0x5d, 0xf0,
  0xb5, 0x9e, 0xd3, 0xeb, 0x66, 0xd3, 0xaf, 0x8c, 0x76, 0x38, 0xed, 0x95,
  0x8a, 0xe7, 0x56, 0x2b, 0xae, 0xf2, 0xff, 0xff, 0x04, 0x00, 0x00, 0x00,
  0x40, 0x00, 0x00, 0x00, 0xd4, 0xdf, 0xff, 0xff, 0xc5, 0x57, 0xff, 0xff,
  0x62, 0xc0, 0xff, 0xff, 0x6d, 0x4a, 0xff, 0xff, 0x4e, 0xb9, 0xff, 0xff,
  0xb5, 0xf9, 0xfd, 0xff, 0x5a, 0x9d, 0x00, 0x00, 0xcb, 0xdc, 0xff, 0xff,
  0x37, 0x95, 0xff, 0xff, 0xab, 0x89, 0xff, 0xff, 0x65, 0xd0, 0xff, 0xff,
  0x7d, 0xd3, 0xff, 0xff, 0x17, 0xb4, 0xff, 0xff, 0xb6, 0xd7, 0xff, 0xff,
  0x3a, 0xbd, 0xff, 0xff, 0x45, 0x50, 0xff, 0xff, 0xfa, 0xf2, 0xff, 0xff,
  0x04, 0x00, 0x00, 0x00, 0x00, 0x02, 0x00, 0x00, 0xcd, 0xdf, 0x4e, 0xb1,
  0x4d, 0x4b, 0x02, 0xdc, 0xd2, 0x6f, 0x81, 0xa7, 0xa6, 0xc3, 0x54, 0xee,
  0xf4, 0x0a, 0x4c, 0xeb, 0xac, 0x4b, 0xab, 0x4a, 0x5b, 0x81, 0x25, 0x46,
  0x20, 0xc2, 0x05, 0x04, 0x81, 0x89, 0xef, 0xe8, 0x12, 0xc2, 0x1c, 0x69,
  0x30, 0x46, 0x43, 0x38, 0x7d, 0x67, 0x0a, 0x73, 0xe7, 0xac, 0x07, 0xaa,
  0x17, 0xaf, 0xa3, 0x81, 0xd4, 0x69, 0xbc, 0x69, 0x5c, 0x13, 0xdc, 0xca,
  0xe6, 0xe5, 0x9e, 0xf9, 0xc1, 0xa5, 0xdd, 0xce, 0x7f, 0x27, 0x73, 0x09,
  0x6d, 0x40, 0x4f, 0xd5, 0x33, 0x37, 0x93, 0xaa, 0xf5, 0xfd, 0x01, 0x81,
  0x12, 0x07, 0x61, 0xc1, 0x8f, 0xcd, 0x3f, 0x88, 0xed, 0xe0, 0x45, 0x25,
  0x99, 0xd1, 0xec, 0x50, 0xd6, 0x09, 0x01, 0x40, 0xb0, 0x81, 0x68, 0x94,
  0xc0, 0x58, 0x29, 0xc2, 0x76, 0x0e, 0x2d, 0x5a, 0x50, 0x81, 0x3b, 0x46,
  0x6e, 0x10, 0xca, 0xa4, 0x3f, 0xe2, 0x8f, 0x83, 0xcc, 0xd8, 0x95, 0x96,
  0x21, 0x08, 0x1f, 0xf8, 0xf7, 0x25, 0xcb, 0x7f, 0xf9, 0x1d, 0xb3, 0xd6,
  0xfd, 0xc9, 0x81, 0x15, 0xa4, 0x3d, 0xc1, 0xd1, 0xb0, 0x5c, 0xed, 0xd0,
  0x14, 0x0b, 0x92, 0x51, 0xdf, 0xd7, 0xa7, 0xcc, 0x6e, 0x81, 0x64, 0xfa,
  0x32, 0x33, 0x0b, 0x08, 0x88, 0x20, 0x71, 0x5c, 0x7f, 0xed, 0xdb, 0x66,
  0x5d, 0x1a, 0x54, 0xe4, 0xb3, 0xe0, 0xc5, 0x65, 0x1a, 0x45, 0x8b, 0x2d,
  0x21, 0x17, 0x19, 0x26, 0x56, 0xdd, 0xf9, 0x8a, 0xd0, 0x81, 0xef, 0x0c,
  0x7c, 0x8c, 0xc9, 0x87, 0x64, 0xa8, 0x5d, 0xa2, 0x37, 0x50, 0x22, 0x9f,
  0x7f, 0xac, 0x0a, 0x31, 0x74, 0x74, 0x0c, 0x17, 0xfe, 0x92, 0xa4, 0xc8,
  0xb4, 0xaf, 0xa2, 0x8c, 0x0c, 0x81, 0xd6, 0xf6, 0xb6, 0xcb, 0x48, 0x7f,
  0x92, 0x2f, 0x42, 0x89, 0xe7, 0x58, 0x7f, 0xda, 0x5f, 0x3c, 0x9d, 0x65,
  0x1b, 0x8c, 0x7f, 0x9f, 0x18, 0x6b, 0x83, 0xc9, 0x19, 0xa2, 0x99, 0xcf,
  0xfd, 0x3e, 0x63, 0x43, 0x4b, 0x81, 0x94, 0x29, 0x43, 0xb7, 0x0f, 0xf1,
  0xa5, 0xb0, 0xaf, 0x96, 0x6d, 0xe5, 0xf1, 0xff, 0x20, 0xe8, 0xd6, 0xdd,
  0x29, 0x0a, 0x0a, 0x7a, 0x2e, 0x84, 0x63, 0x79, 0x46, 0x81, 0x30, 0x5f,
  0xcd, 0x99, 0x78, 0x42, 0x08, 0x8d, 0x81, 0xc7, 0xc8, 0xa1, 0xc3, 0xff,
  0x84, 0x71, 0xf7, 0xb0, 0x32, 0x62, 0x7f, 0xc5, 0x9b, 0xc7, 0xe8, 0x20,
  0x68, 0x9c, 0xea, 0x72, 0xd0, 0x11, 0x3a, 0x26, 0x7f, 0x72, 0x94, 0x64,
  0xb8, 0x73, 0x89, 0x7f, 0xc3, 0xfa, 0x14, 0x1b, 0xcf, 0xea, 0x30, 0xcf,
  0x61, 0xb1, 0xa6, 0x59, 0xd6, 0x7f, 0x1a, 0xbb, 0x4b, 0x2d, 0x29, 0xf4,
  0xb1, 0xee, 0x5f, 0x5d, 0x75, 0xb3, 0xa8, 0x2b, 0x44, 0xae, 0x2a, 0x0c,
  0x8b, 0xac, 0x5f, 0x5a, 0x30, 0xc5, 0x60, 0x81, 0x5f, 0x89, 0xbc, 0x58,
  0x69, 0x6c, 0x36, 0x6a, 0x26, 0x7f, 0x46, 0x24, 0xd4, 0xe5, 0xa6, 0x10,
  0x9f, 0x89, 0x9c, 0x2d, 0x30, 0xbb, 0xcc, 0xbf, 0x81, 0x92, 0xf7, 0x6d,
  0xe4, 0x54, 0x5f, 0x34, 0x96, 0x34, 0xd7, 0x86, 0xfb, 0x54, 0xe1, 0x23,
  0x08, 0x5c, 0x1b, 0xf6, 0x81, 0xe2, 0xc7, 0x7e, 0x2c, 0xfa, 0x64, 0x15,
  0x81, 0x3e, 0x16, 0xd5, 0xa7, 0x9e, 0x1d, 0x92, 0x25, 0xc4, 0xc6, 0x83,
  0x7f, 0xe0, 0x4c, 0x8e, 0x19, 0x3c, 0x88, 0x1b, 0x29, 0x0c, 0xd4, 0x9f,
  0x9c, 0x47, 0x7e, 0xfa, 0x50, 0x69, 0xfe, 0x7f, 0x1d, 0x6d, 0xce, 0x90,
  0x91, 0xee, 0xe6, 0x7a, 0xab, 0x26, 0xf4, 0x3a, 0x95, 0x1c, 0x8a, 0x98,
  0xb3, 0xb0, 0x4d, 0xb8, 0xa0, 0xb1, 0x8d, 0x2a, 0x71, 0x1e, 0x42, 0x7f,
  0x3a, 0x70, 0x0b, 0x79, 0x1e, 0xd2, 0x81, 0x99, 0x91, 0xf5, 0x97, 0xc8,
  0xe1, 0xb0, 0x77, 0x28, 0x06, 0xf5, 0xff, 0xff, 0x04, 0x00, 0x00, 0x00,
  0x80, 0x00, 0x00, 0x00, 0x21, 0x10, 0xff, 0xff, 0x82, 0xac, 0xff, 0xff,
  0xce, 0x37, 0xff, 0xff, 0x69, 0xda, 0xff, 0xff, 0xcc, 0xdc, 0xff, 0xff,
  0x76, 0xb5, 0xff, 0xff, 0x69, 0x6e, 0xff, 0xff, 0x8f, 0x47, 0xff, 0xff,
  0x35, 0xda, 0xff, 0xff, 0xaf, 0x2e, 0x00, 0x00, 0x02, 0x78, 0xff, 0xff,
  0xfb, 0xca, 0xff, 0xff, 0x79, 0x7e, 0xff, 0xff, 0x8d, 0x5b, 0xff, 0xff,
  0x00, 0x00, 0x00, 0x00, 0x92, 0x06, 0xff, 0xff, 0xa9, 0xbc, 0xff, 0xff,
  0x6a, 0x26, 0xff, 0xff, 0x28, 0x94, 0xff, 0xff, 0x00, 0x00, 0x00, 0x00,
  0x35, 0xf7, 0xfe, 0xff, 0x84, 0xd7, 0xff, 0xff, 0x3a, 0x69, 0xff, 0xff,
  0x99, 0x78, 0xff, 0xff, 0x74, 0x47, 0xff, 0xff, 0x5b, 0x03, 0x00, 0x00,
  0xb7, 0xf1, 0xff, 0xff, 0x61, 0x99, 0xff, 0xff, 0x6c, 0xff, 0xff, 0xff,
  0xd4, 0x93, 0xff, 0xff, 0x8d, 0x78, 0xfd, 0xff, 0xa2, 0x9a, 0xff, 0xff,
  0x92, 0xf5, 0xff, 0xff, 0x04, 0x00, 0x00, 0x00, 0x90, 0x00, 0x00, 0x00,
  0x3e, 0x4a, 0xfa, 0xcb, 0xee, 0xaa, 0x3c, 0xfa, 0x38, 0x7f, 0x11, 0xaa,
  0x49, 0xf4, 0xc2, 0x9d, 0x4b, 0x16, 0x45, 0x7f, 0xe6, 0x95, 0xb9, 0xcd,
  0x1c, 0xea, 0x65, 0x48, 0xc1, 0x81, 0xf6, 0x81, 0x71, 0x84, 0x54, 0xcc,
  0x7f, 0x7f, 0x27, 0xcd, 0x37, 0xb7, 0x1f, 0x5e, 0x57, 0x97, 0x16, 0x3f,
  0x2e, 0x8a, 0x56, 0x1c, 0xf7, 0xb7, 0x35, 0x28, 0x60, 0x23, 0xc2, 0xdc,
  0x92, 0xb1, 0x43, 0x94, 0x40, 0x81, 0x81, 0xab, 0xdb, 0xc0, 0x7f, 0x7f,
  0xe4, 0x88, 0x39, 0xab, 0xda, 0xa3, 0xe9, 0xe8, 0x81, 0x5e, 0x21, 0x58,
  0xe9, 0x41, 0x9f, 0xba, 0x08, 0x43, 0x81, 0xa2, 0xf0, 0xcd, 0x81, 0x95,
  0x23, 0x1b, 0x4e, 0x1b, 0x95, 0xe5, 0xac, 0x6d, 0xcc, 0x76, 0xf1, 0x81,
  0x92, 0x3b, 0xce, 0xde, 0x2f, 0xd5, 0xf2, 0x8a, 0xcb, 0x24, 0x65, 0x2d,
  0x7f, 0x9a, 0xf7, 0xc6, 0x7f, 0x6b, 0x14, 0x54, 0xbe, 0x26, 0x87, 0x8e,
  0xc1, 0x78, 0x99, 0x8e, 0x44, 0x60, 0x69, 0x81, 0x73, 0xb5, 0x4c, 0xc6,
  0x2e, 0xf6, 0xff, 0xff, 0x04, 0x00, 0x00, 0x00, 0x40, 0x00, 0x00, 0x00,
  0xd9, 0xde, 0xff, 0xff, 0x3c, 0xe1, 0xff, 0xff, 0x02, 0x45, 0x00, 0x00,
  0x34, 0xef, 0x00, 0x00, 0xf8, 0xbe, 0xff, 0xff, 0xe6, 0x5f, 0x00, 0x00,
  0x40, 0xa8, 0x00, 0x00, 0xd9, 0x64, 0x00, 0x00, 0x9c, 0x7a, 0x00, 0x00,
  0x67, 0x85, 0xff, 0xff, 0x1e, 0xcb, 0xfe, 0xff, 0x73, 0x88, 0xfe, 0xff,
  0x4a, 0x62, 0xff, 0xff, 0x76, 0x77, 0x00, 0x00, 0xb0, 0xaf, 0x00, 0x00,
  0x3d, 0x52, 0x00, 0x00, 0x7a, 0xf6, 0xff, 0xff, 0x04, 0x00, 0x00, 0x00,
  0x00, 0x02, 0x00, 0x00, 0xfd, 0x86, 0x7a, 0x63, 0x3a, 0x93, 0xff, 0x6f,
  0x14, 0x8c, 0xff, 0x47, 0x7f, 0x7f, 0xc1, 0xff, 0x34, 0x6b, 0xd8, 0x64,
  0x0f, 0x45, 0x81, 0x1b, 0xd5, 0x17, 0xa1, 0xad, 0x0c, 0xa2, 0x5c, 0x47,
  0x9f, 0x48, 0x62, 0xe6, 0xe9, 0x96, 0xaa, 0x5f, 0xf5, 0xdc, 0xc4, 0x8c,
  0xe6, 0xd3, 0x07, 0x81, 0xb1, 0x62, 0x2a, 0x11, 0xba, 0x06, 0xac, 0x08,
  0x09, 0x45, 0xbd, 0xcb, 0x7c, 0x7f, 0xe9, 0xc8, 0x9e, 0xa5, 0x7a, 0xeb,
  0x43, 0x15, 0xe1, 0xc2, 0xc1, 0x02, 0x7e, 0xa3, 0x33, 0x7f, 0x16, 0xe7,
  0xe2, 0x51, 0x9a, 0x7d, 0x0f, 0xc5, 0x9e, 0xa6, 0x8d, 0x1e, 0x13, 0x8c,
  0x7f, 0x03, 0x45, 0xdf, 0x8b, 0xd1, 0xe5, 0xcf, 0xfb, 0xf8, 0x09, 0x03,
  0x8c, 0x81, 0xf8, 0xb0, 0x4d, 0x20, 0x2d, 0x43, 0xf0, 0x62, 0x0c, 0xc8,
  0x2d, 0xc3, 0x9a, 0x28, 0xa2, 0x37, 0x45, 0x78, 0x90, 0x29, 0x7f, 0xd9,
  0x6d, 0xad, 0xb9, 0xf8, 0x0e, 0x81, 0xe9, 0x6a, 0xca, 0xb1, 0xa7, 0x53,
  0xab, 0xc6, 0x94, 0x6e, 0xd1, 0xc9, 0xcb, 0xc4, 0x42, 0xc2, 0xc3, 0x54,
  0xfb, 0x69, 0xba, 0x6a, 0xc4, 0x24, 0x81, 0xc1, 0x4a, 0xea, 0x13, 0xf9,
  0xe5, 0x09, 0xd5, 0xe1, 0xc8, 0x60, 0xfc, 0x58, 0x29, 0x7f, 0xcd, 0x03,
  0xfe, 0x54, 0x4e, 0xf3, 0x9b, 0xea, 0xdb, 0xa9, 0x66, 0x20, 0xc2, 0x7f,
  0xe4, 0xc5, 0x7c, 0xd9, 0x42, 0x8e, 0xa7, 0x1d, 0x4e, 0x2b, 0xfd, 0x39,
  0x52, 0xf3, 0x71, 0x60, 0xfb, 0xb2, 0x7f, 0xcc, 0x92, 0x02, 0x56, 0x25,
  0xfc, 0xc3, 0xf1, 0x08, 0x81, 0x79, 0xe2, 0xa3, 0x98, 0x0e, 0x72, 0x00,
  0x32, 0xc6, 0xae, 0x93, 0x03, 0x65, 0x3b, 0xbc, 0x7f, 0x7f, 0x4c, 0x69,
  0x6e, 0x89, 0xde, 0xbb, 0xdd, 0xd4, 0xfb, 0xc7, 0x4f, 0x08, 0x28, 0x8f,
  0x7f, 0x84, 0xec, 0x8d, 0x47, 0xc6, 0x67, 0x02, 0x0f, 0x2f, 0x34, 0xe2,
  0xf6, 0x2d, 0x93, 0x81, 0xaa, 0x96, 0xa9, 0x3f, 0x73, 0x91, 0x6a, 0x79,
  0xfd, 0xba, 0x81, 0x74, 0x95, 0x92, 0xd1, 0x25, 0x7b, 0x18, 0x67, 0x97,
  0x90, 0xf0, 0xf8, 0x83, 0x6d, 0x67, 0x55, 0x2e, 0x7c, 0x41, 0x58, 0x99,
  0x81, 0xae, 0xc0, 0x4c, 0x07, 0xda, 0x35, 0x7e, 0xd5, 0x06, 0x3b, 0xe3,
  0x8b, 0x71, 0x5d, 0x7b, 0xb6, 0xd3, 0xb6, 0xd4, 0x83, 0x18, 0x81, 0x3a,
  0x45, 0xce, 0x60, 0x0d, 0xe4, 0x8a, 0x92, 0xa3, 0x81, 0xb7, 0xcd, 0xf8,
  0xd0, 0x2c, 0x3e, 0x16, 0xfc, 0x81, 0xe7, 0xaf, 0xe0, 0xa7, 0x91, 0xa0,
  0x6e, 0x30, 0x1a, 0x6a, 0x0b, 0x29, 0x0f, 0xfa, 0x19, 0x0b, 0xe0, 0x5e,
  0x12, 0xa2, 0x13, 0x9f, 0xe9, 0x5d, 0x6f, 0x7f, 0x70, 0x2e, 0x90, 0x3f,
  0x9f, 0x4a, 0x2a, 0xda, 0x16, 0xf5, 0x67, 0x5f, 0x12, 0x08, 0x12, 0x7f,
  0x0d, 0xe7, 0x32, 0xdf, 0x34, 0x5a, 0xb8, 0xd1, 0x9a, 0x81, 0xae, 0xb6,
  0x1f, 0x06, 0xfd, 0x26, 0x4a, 0x43, 0x87, 0x15, 0xfe, 0x7f, 0x19, 0xc2,
  0x4f, 0x6f, 0xf0, 0xf8, 0xaf, 0x44, 0x4f, 0x23, 0xe0, 0xcb, 0xd3, 0xa6,
  0x66, 0x59, 0xce, 0x9a, 0xc5, 0xca, 0xa3, 0xc3, 0x7b, 0xdc, 0x96, 0x81,
  0xbc, 0x29, 0xa4, 0x23, 0xd4, 0xbf, 0xf4, 0xef, 0xd7, 0xb9, 0x18, 0x13,
  0x3d, 0x7f, 0x60, 0x09, 0x7c, 0x14, 0xac, 0x25, 0x47, 0x02, 0xce, 0x96,
  0xcc, 0xd9, 0xac, 0x33, 0xe2, 0x37, 0xc7, 0x81, 0x46, 0x81, 0xf4, 0x67,
  0x16, 0x44, 0x11, 0x81, 0xc0, 0x48, 0x6d, 0xdd, 0xe4, 0x98, 0x2c, 0x70,
  0x90, 0x42, 0xe5, 0x7c, 0x3f, 0xf7, 0x8c, 0xe6, 0xc9, 0xbc, 0xd9, 0x3e,
  0x81, 0xc4, 0xb8, 0x0c, 0xb9, 0x17, 0x68, 0x01, 0xbf, 0xb5, 0xb8, 0xed,
  0x57, 0xf3, 0xcc, 0x7f, 0x28, 0x9c, 0xcd, 0x74, 0x59, 0x94, 0x03, 0x33,
  0x86, 0xf8, 0xff, 0xff, 0x04, 0x00, 0x00, 0x00, 0x80, 0x00, 0x00, 0x00,
  0xc6, 0x70, 0xff, 0xff, 0x64, 0x8a, 0xff, 0xff, 0x51, 0xd8, 0xfe, 0xff,
  0x9b, 0x8a, 0xff, 0xff, 0xea, 0x59, 0xff, 0xff, 0x7b, 0xcc, 0xff, 0xff,
  0x32, 0x8c, 0xfe, 0xff, 0x38, 0xe0, 0xfe, 0xff, 0x69, 0xce, 0xfe, 0xff,
  0x79, 0xed, 0xff, 0xff, 0x85, 0xa5, 0xff, 0xff, 0x12, 0x78, 0xff, 0xff,
  0x04, 0x18, 0x00, 0x00, 0x6b, 0x28, 0xff, 0xff, 0xb3, 0x94, 0xfe, 0xff,
  0xca, 0xbd, 0xfe, 0xff, 0x3b, 0x19, 0xff, 0xff, 0x58, 0x17, 0xff, 0xff,
  0xaa, 0x8a, 0xfe, 0xff, 0xd4, 0x6c, 0xff, 0xff, 0x02, 0xb3, 0xfe, 0xff,
  0x9b, 0xab, 0xff, 0xff, 0x8a, 0x0a, 0xff, 0xff, 0x20, 0xd8, 0xfe, 0xff,
  0x38, 0x46, 0xff, 0xff, 0x98, 0xb0, 0xff, 0xff, 0x10, 0xb3, 0xff, 0xff,
  0x3a, 0x3c, 0xff, 0xff, 0x0c, 0xb4, 0xff, 0xff, 0xef, 0x71, 0xfe, 0xff,
  0xad, 0x64, 0xff, 0xff, 0xb6, 0xfa, 0xfd, 0xff, 0x12, 0xf9, 0xff, 0xff,
  0x04, 0x00, 0x00, 0x00, 0x80, 0x01, 0x00, 0x00, 0x4e, 0x8b, 0x60, 0x8f,
  0xbe, 0x20, 0xda, 0x29, 0x52, 0x6a, 0x99, 0xb7, 0x1d, 0x14, 0x63, 0xff,
  0xa8, 0xda, 0x2a, 0xc3, 0xa7, 0xa7, 0x1e, 0xdc, 0xfb, 0x94, 0x24, 0x18,
  0x1a, 0xac, 0x0a, 0x4c, 0x8a, 0x99, 0x41, 0x8e, 0x6f, 0x55, 0x9c, 0xa6,
  0xea, 0x62, 0x75, 0x48, 0xe5, 0x02, 0x4b, 0xe2, 0x2b, 0xfb, 0x71, 0xcd,
  0xe4, 0x79, 0xea, 0x30, 0xf7, 0x7f, 0xa6, 0x1f, 0x0d, 0x0f, 0xf6, 0x65,
  0xab, 0x8c, 0x16, 0x6b, 0xe8, 0xc1, 0xbc, 0x32, 0xb6, 0xf1, 0x65, 0xbf,
  0x95, 0x53, 0x9b, 0xf3, 0x34, 0x1e, 0x24, 0xa4, 0x24, 0x7f, 0x96, 0xd8,
  0xca, 0x2c, 0xf1, 0x31, 0x07, 0xa2, 0x5e, 0xae, 0xe4, 0x41, 0xf5, 0xc7,
  0x42, 0xf6, 0xee, 0xb0, 0xdd, 0x14, 0x4e, 0x55, 0x92, 0x93, 0x5e, 0xbb,
  0x2b, 0xe3, 0xd2, 0xe2, 0xf0, 0xb4, 0xf2, 0x2d, 0x60, 0xff, 0x6f, 0xb9,
  0xfe, 0x1b, 0x95, 0x5d, 0x58, 0x61, 0x61, 0x1f, 0x97, 0xf9, 0xa4, 0x4e,
  0x29, 0x81, 0x4a, 0x9a, 0xc9, 0x94, 0x45, 0x06, 0x19, 0x34, 0xff, 0x1f,
  0xe5, 0x65, 0x22, 0x54, 0x0a, 0x15, 0x59, 0x01, 0xd1, 0x0e, 0x62, 0xb2,
  0x21, 0xc7, 0x32, 0x64, 0x50, 0xbb, 0x32, 0x18, 0x0b, 0x26, 0x3d, 0x04,
  0x95, 0x41, 0x0d, 0x28, 0x2c, 0x9c, 0x29, 0xf0, 0x47, 0xdf, 0x53, 0x3c,
  0x1c, 0xe4, 0x89, 0xf5, 0xb2, 0x5d, 0x35, 0xb1, 0x4d, 0x98, 0xa8, 0xd0,
  0x58, 0x9c, 0x14, 0xd6, 0x0a, 0xfc, 0x21, 0x24, 0x3f, 0xcc, 0xf8, 0xc9,
  0x6d, 0x33, 0xea, 0xdb, 0xd4, 0xbe, 0x9e, 0xe4, 0x92, 0x8b, 0x4b, 0xb2,
  0x7f, 0x54, 0x31, 0x78, 0x22, 0x35, 0x2d, 0x26, 0x16, 0x9e, 0x00, 0x72,
  0xb0, 0x53, 0x65, 0xab, 0xca, 0xd7, 0xd8, 0x6b, 0x19, 0x29, 0x8c, 0x02,
  0x75, 0xaf, 0x10, 0x03, 0xb3, 0xc8, 0x2d, 0x91, 0x52, 0x96, 0x87, 0xec,
  0x42, 0x0f, 0x72, 0xe2, 0x1d, 0xa7, 0x4c, 0x41, 0x8f, 0xf7, 0xf2, 0x18,
  0xa8, 0x01, 0x1e, 0x3e, 0x71, 0x0d, 0x45, 0x14, 0xf6, 0xd4, 0x79, 0xc8,
  0xd7, 0xc7, 0xa0, 0xd9, 0x07, 0x6c, 0x38, 0xd5, 0xe1, 0xf5, 0x1a, 0xa1,
  0xc9, 0x9b, 0xe5, 0xd0, 0x30, 0x94, 0x47, 0x8e, 0x7f, 0x56, 0x8c, 0xd0,
  0xa8, 0x06, 0x94, 0x15, 0xc9, 0x8c, 0x40, 0x02, 0x15, 0xa1, 0x8e, 0xe9,
  0xa3, 0x1b, 0x7a, 0xf6, 0x37, 0x3c, 0xe2, 0xba, 0xb1, 0x4a, 0xb0, 0xef,
  0xa4, 0x34, 0x32, 0x36, 0x54, 0x7c, 0x02, 0xce, 0x38, 0xf0, 0x0e, 0xe2,
  0xe0, 0x7f, 0xd9, 0xec, 0xe3, 0xf2, 0x8a, 0xb1, 0x70, 0x8c, 0x3b, 0x8f,
  0x22, 0xfc, 0xbf, 0xb3, 0xfb, 0x0a, 0x00, 0x5a, 0x81, 0xfc, 0x9d, 0x66,
  0x5d, 0xb8, 0x53, 0x33, 0x6b, 0xe7, 0x9f, 0x23, 0xcd, 0x5a, 0xf1, 0xf3,
  0x01, 0xc7, 0x00, 0x86, 0x93, 0x93, 0xa7, 0x9c, 0x9e, 0xfa, 0xff, 0xff,
  0x04, 0x00, 0x00, 0x00, 0x18, 0x00, 0x00, 0x00, 0x9c, 0x53, 0x58, 0x02,
  0x78, 0x5d, 0x01, 0xfd, 0x68, 0xb9, 0xe1, 0xfa, 0xd0, 0x99, 0x38, 0xf9,
  0x9c, 0x07, 0xd8, 0xfc, 0x18, 0x7b, 0x2d, 0x05, 0xc2, 0xfa, 0xff, 0xff,
  0x04, 0x00, 0x00, 0x00, 0x08, 0x00, 0x00, 0x00, 0x01, 0x00, 0x00, 0x00,
  0x02, 0x00, 0x00, 0x00, 0xe8, 0xb8, 0xff, 0xff, 0xec, 0xb8, 0xff, 0xff,
  0x0f, 0x00, 0x00, 0x00, 0x4d, 0x4c, 0x49, 0x52, 0x20, 0x43, 0x6f, 0x6e,
  0x76, 0x65, 0x72, 0x74, 0x65, 0x64, 0x2e, 0x00, 0x01, 0x00, 0x00, 0x00,
  0x14, 0x00, 0x00, 0x00, 0x00, 0x00, 0x0e, 0x00, 0x18, 0x00, 0x14, 0x00,
  0x10, 0x00, 0x0c, 0x00, 0x08, 0x00, 0x04, 0x00, 0x0e, 0x00, 0x00, 0x00,
  0x14, 0x00, 0x00, 0x00, 0x1c, 0x00, 0x00, 0x00, 0xd4, 0x06, 0x00, 0x00,
  0xd8, 0x06, 0x00, 0x00, 0xdc, 0x06, 0x00, 0x00, 0x04, 0x00, 0x00, 0x00,
  0x6d, 0x61, 0x69, 0x6e, 0x00, 0x00, 0x00, 0x00, 0x1a, 0x00, 0x00, 0x00,
  0x70, 0x06, 0x00, 0x00, 0x0c, 0x06, 0x00, 0x00, 0xbc, 0x05, 0x00, 0x00,
  0x7c, 0x05, 0x00, 0x00, 0x2c, 0x05, 0x00, 0x00, 0xdc, 0x04, 0x00, 0x00,
  0x9c, 0x04, 0x00, 0x00, 0x5c, 0x04, 0x00, 0x00, 0x1c, 0x04, 0x00, 0x00,
  0xd8, 0x03, 0x00, 0x00, 0x98, 0x03, 0x00, 0x00, 0x60, 0x03, 0x00, 0x00,
  0x1c, 0x03, 0x00, 0x00, 0xdc, 0x02, 0x00, 0x00, 0x9c, 0x02, 0x00, 0x00,
  0x58, 0x02, 0x00, 0x00, 0x18, 0x02, 0x00, 0x00, 0xe0, 0x01, 0x00, 0x00,
  0xa0, 0x01, 0x00, 0x00, 0x60, 0x01, 0x00, 0x00, 0x1c, 0x01, 0x00, 0x00,
  0xdc, 0x00, 0x00, 0x00, 0xa4, 0x00, 0x00, 0x00, 0x70, 0x00, 0x00, 0x00,
  0x38, 0x00, 0x00, 0x00, 0x04, 0x00, 0x00, 0x00, 0x3a, 0xfb, 0xff, 0xff,
  0x14, 0x00, 0x00, 0x00, 0x00, 0x00, 0x00, 0x09, 0x14, 0x00, 0x00, 0x00,
  0x18, 0x00, 0x00, 0x00, 0x06, 0x00, 0x00, 0x00, 0xb2, 0xfb, 0xff, 0xff,
  0x00, 0x00, 0x80, 0x3f, 0x01, 0x00, 0x00, 0x00, 0x3f, 0x00, 0x00, 0x00,
  0x01, 0x00, 0x00, 0x00, 0x3e, 0x00, 0x00, 0x00, 0x6a, 0xfb, 0xff, 0xff,
  0x14, 0x00, 0x00, 0x00, 0x00, 0x00, 0x00, 0x08, 0x10, 0x00, 0x00, 0x00,
  0x14, 0x00, 0x00, 0x00, 0x05, 0x00, 0x00, 0x00, 0xf4, 0xb9, 0xff, 0xff,
  0x01, 0x00, 0x00, 0x00, 0x3e, 0x00, 0x00, 0x00, 0x03, 0x00, 0x00, 0x00,
  0x3d, 0x00, 0x00, 0x00, 0x03, 0x00, 0x00, 0x00, 0x02, 0x00, 0x00, 0x00,
  0x9e, 0xfb, 0xff, 0xff, 0x14, 0x00, 0x00, 0x00, 0x00, 0x00, 0x00, 0x1b,
  0x10, 0x00, 0x00, 0x00, 0x14, 0x00, 0x00, 0x00, 0x04, 0x00, 0x00, 0x00,
  0x28, 0xba, 0xff, 0xff, 0x01, 0x00, 0x00, 0x00, 0x3d, 0x00, 0x00, 0x00,
  0x02, 0x00, 0x00, 0x00, 0x3c, 0x00, 0x00, 0x00, 0x01, 0x00, 0x00, 0x00,
  0xce, 0xfb, 0xff, 0xff, 0x14, 0x00, 0x00, 0x00, 0x00, 0x00, 0x00, 0x0a,
  0x14, 0x00, 0x00, 0x00, 0x18, 0x00, 0x00, 0x00, 0x03, 0x00, 0x00, 0x00,
  0x46, 0xfc, 0xff, 0xff, 0xff, 0xff, 0xff, 0xff, 0x01, 0x00, 0x00, 0x00,
  0x3c, 0x00, 0x00, 0x00, 0x02, 0x00, 0x00, 0x00, 0x39, 0x00, 0x00, 0x00,
  0x3b, 0x00, 0x00, 0x00, 0xce, 0xfa, 0xff, 0xff, 0x10, 0x00, 0x00, 0x00,
  0x00, 0x00, 0x00, 0x01, 0x18, 0x00, 0x00, 0x00, 0x1c, 0x00, 0x00, 0x00,
  0xc0, 0xfa, 0xff, 0xff, 0x00, 0x00, 0x00, 0x01, 0x01, 0x00, 0x00, 0x00,
  0x01, 0x00, 0x00, 0x00, 0x01, 0x00, 0x00, 0x00, 0x3b, 0x00, 0x00, 0x00,
  0x03, 0x00, 0x00, 0x00, 0x3a, 0x00, 0x00, 0x00, 0x05, 0x00, 0x00, 0x00,
  0x04, 0x00, 0x00, 0x00, 0x3e, 0xfc, 0xff, 0xff, 0x14, 0x00, 0x00, 0x00,
  0x00, 0x00, 0x00, 0x02, 0x1c, 0x00, 0x00, 0x00, 0x20, 0x00, 0x00, 0x00,
  0x02, 0x00, 0x00, 0x00, 0x30, 0xfc, 0xff, 0xff, 0x01, 0x00, 0x00, 0x00,
  0x01, 0x00, 0x00, 0x00, 0x01, 0x00, 0x00, 0x00, 0x01, 0x00, 0x00, 0x00,
  0x3a, 0x00, 0x00, 0x00, 0x03, 0x00, 0x00, 0x00, 0x38, 0x00, 0x00, 0x00,
  0x07, 0x00, 0x00, 0x00, 0x06, 0x00, 0x00, 0x00, 0x4a, 0xfb, 0xff, 0xff,
  0x10, 0x00, 0x00, 0x00, 0x00, 0x00, 0x00, 0x01, 0x18, 0x00, 0x00, 0x00,
  0x1c, 0x00, 0x00, 0x00, 0x3c, 0xfb, 0xff, 0xff, 0x00, 0x00, 0x00, 0x01,
  0x01, 0x00, 0x00, 0x00, 0x01, 0x00, 0x00, 0x00, 0x01, 0x00, 0x00, 0x00,
  0x39, 0x00, 0x00, 0x00, 0x03, 0x00, 0x00, 0x00, 0x38, 0x00, 0x00, 0x00,
  0x09, 0x00, 0x00, 0x00, 0x08, 0x00, 0x00, 0x00, 0x86, 0xfb, 0xff, 0xff,
  0x10, 0x00, 0x00, 0x00, 0x00, 0x00, 0x00, 0x01, 0x18, 0x00, 0x00, 0x00,
  0x1c, 0x00, 0x00, 0x00, 0x78, 0xfb, 0xff, 0xff, 0x00, 0x00, 0x00, 0x01,
  0x01, 0x00, 0x00, 0x00, 0x01, 0x00, 0x00, 0x00, 0x01, 0x00, 0x00, 0x00,
  0x38, 0x00, 0x00, 0x00, 0x03, 0x00, 0x00, 0x00, 0x37, 0x00, 0x00, 0x00,
  0x0b, 0x00, 0x00, 0x00, 0x0a, 0x00, 0x00, 0x00, 0xf6, 0xfc, 0xff, 0xff,
  0x14, 0x00, 0x00, 0x00, 0x00, 0x00, 0x00, 0x0a, 0x14, 0x00, 0x00, 0x00,
  0x18, 0x00, 0x00, 0x00, 0x03, 0x00, 0x00, 0x00, 0x6e, 0xfd, 0xff, 0xff,
  0xff, 0xff, 0xff, 0xff, 0x01, 0x00, 0x00, 0x00, 0x37, 0x00, 0x00, 0x00,
  0x02, 0x00, 0x00, 0x00, 0x34, 0x00, 0x00, 0x00, 0x36, 0x00, 0x00, 0x00,
  0xf6, 0xfb, 0xff, 0xff, 0x10, 0x00, 0x00, 0x00, 0x00, 0x00, 0x00, 0x01,
  0x18, 0x00, 0x00, 0x00, 0x1c, 0x00, 0x00, 0x00, 0xe8, 0xfb, 0xff, 0xff,
  0x00, 0x00, 0x00, 0x01, 0x01, 0x00, 0x00, 0x00, 0x01, 0x00, 0x00, 0x00,
  0x01, 0x00, 0x00, 0x00, 0x36, 0x00, 0x00, 0x00, 0x03, 0x00, 0x00, 0x00,
  0x35, 0x00, 0x00, 0x00, 0x0d, 0x00, 0x00, 0x00, 0x0c, 0x00, 0x00, 0x00,
  0x66, 0xfd, 0xff, 0xff, 0x14, 0x00, 0x00, 0x00, 0x00, 0x00, 0x00, 0x02,
  0x1c, 0x00, 0x00, 0x00, 0x20, 0x00, 0x00, 0x00, 0x02, 0x00, 0x00, 0x00,
  0x58, 0xfd, 0xff, 0xff, 0x01, 0x00, 0x00, 0x00, 0x01, 0x00, 0x00, 0x00,
  0x01, 0x00, 0x00, 0x00, 0x01, 0x00, 0x00, 0x00, 0x35, 0x00, 0x00, 0x00,
  0x03, 0x00, 0x00, 0x00, 0x33, 0x00, 0x00, 0x00, 0x0f, 0x00, 0x00, 0x00,
  0x0e, 0x00, 0x00, 0x00, 0x72, 0xfc, 0xff, 0xff, 0x10, 0x00, 0x00, 0x00,
  0x00, 0x00, 0x00, 0x01, 0x18, 0x00, 0x00, 0x00, 0x1c, 0x00, 0x00, 0x00,
  0x64, 0xfc, 0xff, 0xff, 0x00, 0x00, 0x00, 0x01, 0x01, 0x00, 0x00, 0x00,
  0x01, 0x00, 0x00, 0x00, 0x01, 0x00, 0x00, 0x00, 0x34, 0x00, 0x00, 0x00,
  0x03, 0x00, 0x00, 0x00, 0x33, 0x00, 0x00, 0x00, 0x11, 0x00, 0x00, 0x00,
  0x10, 0x00, 0x00, 0x00, 0xae, 0xfc, 0xff, 0xff, 0x10, 0x00, 0x00, 0x00,
  0x00, 0x00, 0x00, 0x01, 0x18, 0x00, 0x00, 0x00, 0x1c, 0x00, 0x00, 0x00,
  0xa0, 0xfc, 0xff, 0xff, 0x00, 0x00, 0x00, 0x01, 0x01, 0x00, 0x00, 0x00,
  0x01, 0x00, 0x00, 0x00, 0x01, 0x00, 0x00, 0x00, 0x33, 0x00, 0x00, 0x00,
  0x03, 0x00, 0x00, 0x00, 0x32, 0x00, 0x00, 0x00, 0x13, 0x00, 0x00, 0x00,
  0x12, 0x00, 0x00, 0x00, 0x1e, 0xfe, 0xff, 0xff, 0x14, 0x00, 0x00, 0x00,
  0x00, 0x00, 0x00, 0x05, 0x24, 0x00, 0x00, 0x00, 0x28, 0x00, 0x00, 0x00,
  0x01, 0x00, 0x00, 0x00, 0x3a, 0xfd, 0xff, 0xff, 0x02, 0x00, 0x00, 0x00,
  0x02, 0x00, 0x00, 0x00, 0x02, 0x00, 0x00, 0x00, 0x02, 0x00, 0x00, 0x00,
  0x00, 0x00, 0x00, 0x01, 0x01, 0x00, 0x00, 0x00, 0x32, 0x00, 0x00, 0x00,
  0x01, 0x00, 0x00, 0x00, 0x31, 0x00, 0x00, 0x00, 0x5e, 0xfe, 0xff, 0xff,
  0x14, 0x00, 0x00, 0x00, 0x00, 0x00, 0x00, 0x0a, 0x14, 0x00, 0x00, 0x00,
  0x18, 0x00, 0x00, 0x00, 0x03, 0x00, 0x00, 0x00, 0xd6, 0xfe, 0xff, 0xff,
  0xff, 0xff, 0xff, 0xff, 0x01, 0x00, 0x00, 0x00, 0x31, 0x00, 0x00, 0x00,
  0x02, 0x00, 0x00, 0x00, 0x2e, 0x00, 0x00, 0x00, 0x30, 0x00, 0x00, 0x00,
  0x5e, 0xfd, 0xff, 0xff, 0x10, 0x00, 0x00, 0x00, 0x00, 0x00, 0x00, 0x01,
  0x18, 0x00, 0x00, 0x00, 0x1c, 0x00, 0x00, 0x00, 0x50, 0xfd, 0xff, 0xff,
  0x00, 0x00, 0x00, 0x01, 0x01, 0x00, 0x00, 0x00, 0x01, 0x00, 0x00, 0x00,
  0x01, 0x00, 0x00, 0x00, 0x30, 0x00, 0x00, 0x00, 0x03, 0x00, 0x00, 0x00,
  0x2f, 0x00, 0x00, 0x00, 0x15, 0x00, 0x00, 0x00, 0x14, 0x00, 0x00, 0x00,
  0xce, 0xfe, 0xff, 0xff, 0x14, 0x00, 0x00, 0x00, 0x00, 0x00, 0x00, 0x02,
  0x1c, 0x00, 0x00, 0x00, 0x20, 0x00, 0x00, 0x00, 0x02, 0x00, 0x00, 0x00,
  0xc0, 0xfe, 0xff, 0xff, 0x01, 0x00, 0x00, 0x00, 0x01, 0x00, 0x00, 0x00,
  0x01, 0x00, 0x00, 0x00, 0x01, 0x00, 0x00, 0x00, 0x2f, 0x00, 0x00, 0x00,
  0x03, 0x00, 0x00, 0x00, 0x2d, 0x00, 0x00, 0x00, 0x17, 0x00, 0x00, 0x00,
  0x16, 0x00, 0x00, 0x00, 0xda, 0xfd, 0xff, 0xff, 0x10, 0x00, 0x00, 0x00,
  0x00, 0x00, 0x00, 0x01, 0x18, 0x00, 0x00, 0x00, 0x1c, 0x00, 0x00, 0x00,
  0xcc, 0xfd, 0xff, 0xff, 0x00, 0x00, 0x00, 0x01, 0x01, 0x00, 0x00, 0x00,
  0x01, 0x00, 0x00, 0x00, 0x01, 0x00, 0x00, 0x00, 0x2e, 0x00, 0x00, 0x00,
  0x03, 0x00, 0x00, 0x00, 0x2d, 0x00, 0x00, 0x00, 0x19, 0x00, 0x00, 0x00,
  0x18, 0x00, 0x00, 0x00, 0x16, 0xfe, 0xff, 0xff, 0x10, 0x00, 0x00, 0x00,
  0x00, 0x00, 0x00, 0x01, 0x18, 0x00, 0x00, 0x00, 0x1c, 0x00, 0x00, 0x00,
  0x08, 0xfe, 0xff, 0xff, 0x00, 0x00, 0x00, 0x01, 0x01, 0x00, 0x00, 0x00,
  0x01, 0x00, 0x00, 0x00, 0x01, 0x00, 0x00, 0x00, 0x2d, 0x00, 0x00, 0x00,
  0x03, 0x00, 0x00, 0x00, 0x2c, 0x00, 0x00, 0x00, 0x1b, 0x00, 0x00, 0x00,
  0x1a, 0x00, 0x00, 0x00, 0xb2, 0xfe, 0xff, 0xff, 0x1c, 0x00, 0x00, 0x00,
  0x00, 0x00, 0x00, 0x0a, 0x1c, 0x00, 0x00, 0x00, 0x20, 0x00, 0x00, 0x00,
  0x03, 0x00, 0x00, 0x00, 0x00, 0x00, 0x06, 0x00, 0x08, 0x00, 0x04, 0x00,
  0x06, 0x00, 0x00, 0x00, 0xff, 0xff, 0xff, 0xff, 0x01, 0x00, 0x00, 0x00,
  0x2c, 0x00, 0x00, 0x00, 0x02, 0x00, 0x00, 0x00, 0x29, 0x00, 0x00, 0x00,
  0x2b, 0x00, 0x00, 0x00, 0x8e, 0xfe, 0xff, 0xff, 0x10, 0x00, 0x00, 0x00,
  0x00, 0x00, 0x00, 0x01, 0x18, 0x00, 0x00, 0x00, 0x1c, 0x00, 0x00, 0x00,
  0x80, 0xfe, 0xff, 0xff, 0x00, 0x00, 0x00, 0x01, 0x01, 0x00, 0x00, 0x00,
  0x01, 0x00, 0x00, 0x00, 0x01, 0x00, 0x00, 0x00, 0x2b, 0x00, 0x00, 0x00,
  0x03, 0x00, 0x00, 0x00, 0x2a, 0x00, 0x00, 0x00, 0x1d, 0x00, 0x00, 0x00,
  0x1c, 0x00, 0x00, 0x00, 0x00, 0x00, 0x0e, 0x00, 0x18, 0x00, 0x14, 0x00,
  0x10, 0x00, 0x0c, 0x00, 0x0b, 0x00, 0x04, 0x00, 0x0e, 0x00, 0x00, 0x00,
  0x20, 0x00, 0x00, 0x00, 0x00, 0x00, 0x00, 0x02, 0x28, 0x00, 0x00, 0x00,
  0x2c, 0x00, 0x00, 0x00, 0x02, 0x00, 0x00, 0x00, 0x0c, 0x00, 0x10, 0x00,
  0x00, 0x00, 0x0c, 0x00, 0x08, 0x00, 0x04, 0x00, 0x0c, 0x00, 0x00, 0x00,
  0x01, 0x00, 0x00, 0x00, 0x01, 0x00, 0x00, 0x00, 0x01, 0x00, 0x00, 0x00,
  0x01, 0x00, 0x00, 0x00, 0x2a, 0x00, 0x00, 0x00, 0x03, 0x00, 0x00, 0x00,
  0x28, 0x00, 0x00, 0x00, 0x1f, 0x00, 0x00, 0x00, 0x1e, 0x00, 0x00, 0x00,
  0x26, 0xff, 0xff, 0xff, 0x10, 0x00, 0x00, 0x00, 0x00, 0x00, 0x00, 0x01,
  0x18, 0x00, 0x00, 0x00, 0x1c, 0x00, 0x00, 0x00, 0x18, 0xff, 0xff, 0xff,
  0x00, 0x00, 0x00, 0x01, 0x01, 0x00, 0x00, 0x00, 0x01, 0x00, 0x00, 0x00,
  0x01, 0x00, 0x00, 0x00, 0x29, 0x00, 0x00, 0x00, 0x03, 0x00, 0x00, 0x00,
  0x28, 0x00, 0x00, 0x00, 0x21, 0x00, 0x00, 0x00, 0x20, 0x00, 0x00, 0x00,
  0x62, 0xff, 0xff, 0xff, 0x10, 0x00, 0x00, 0x00, 0x00, 0x00, 0x00, 0x01,
  0x18, 0x00, 0x00, 0x00, 0x1c, 0x00, 0x00, 0x00, 0x54, 0xff, 0xff, 0xff,
  0x00, 0x00, 0x00, 0x01, 0x01, 0x00, 0x00, 0x00, 0x01, 0x00, 0x00, 0x00,
  0x01, 0x00, 0x00, 0x00, 0x28, 0x00, 0x00, 0x00, 0x03, 0x00, 0x00, 0x00,
  0x27, 0x00, 0x00, 0x00, 0x23, 0x00, 0x00, 0x00, 0x22, 0x00, 0x00, 0x00,
  0x00, 0x00, 0x0e, 0x00, 0x1a, 0x00, 0x14, 0x00, 0x10, 0x00, 0x0c, 0x00,
  0x0b, 0x00, 0x04, 0x00, 0x0e, 0x00, 0x00, 0x00, 0x24, 0x00, 0x00, 0x00,
  0x00, 0x00, 0x00, 0x05, 0x34, 0x00, 0x00, 0x00, 0x38, 0x00, 0x00, 0x00,
  0x01, 0x00, 0x00, 0x00, 0x00, 0x00, 0x0e, 0x00, 0x18, 0x00, 0x17, 0x00,
  0x10, 0x00, 0x0c, 0x00, 0x08, 0x00, 0x04, 0x00, 0x0e, 0x00, 0x00, 0x00,
  0x02, 0x00, 0x00, 0x00, 0x02, 0x00, 0x00, 0x00, 0x02, 0x00, 0x00, 0x00,
  0x02, 0x00, 0x00, 0x00, 0x00, 0x00, 0x00, 0x01, 0x01, 0x00, 0x00, 0x00,
  0x27, 0x00, 0x00, 0x00, 0x01, 0x00, 0x00, 0x00, 0x26, 0x00, 0x00, 0x00,
  0x00, 0x00, 0x0e, 0x00, 0x14, 0x00, 0x00, 0x00, 0x10, 0x00, 0x0c, 0x00,
  0x0b, 0x00, 0x04, 0x00, 0x0e, 0x00, 0x00, 0x00, 0x1c, 0x00, 0x00, 0x00,
  0x00, 0x00, 0x00, 0x01, 0x24, 0x00, 0x00, 0x00, 0x28, 0x00, 0x00, 0x00,
  0x0c, 0x00, 0x10, 0x00, 0x00, 0x00, 0x0c, 0x00, 0x08, 0x00, 0x07, 0x00,
  0x0c, 0x00, 0x00, 0x00, 0x00, 0x00, 0x00, 0x01, 0x02, 0x00, 0x00, 0x00,
  0x02, 0x00, 0x00, 0x00, 0x01, 0x00, 0x00, 0x00, 0x26, 0x00, 0x00, 0x00,
  0x03, 0x00, 0x00, 0x00, 0x00, 0x00, 0x00, 0x00, 0x25, 0x00, 0x00, 0x00,
  0x24, 0x00, 0x00, 0x00, 0x01, 0x00, 0x00, 0x00, 0x3f, 0x00, 0x00, 0x00,
  0x01, 0x00, 0x00, 0x00, 0x00, 0x00, 0x00, 0x00, 0x40, 0x00, 0x00, 0x00,
  0x2c, 0x40, 0x00, 0x00, 0xd0, 0x3f, 0x00, 0x00, 0x18, 0x3f, 0x00, 0x00,
  0x74, 0x3e, 0x00, 0x00, 0xa0, 0x3c, 0x00, 0x00, 0xbc, 0x3a, 0x00, 0x00,
  0xa8, 0x39, 0x00, 0x00, 0x6c, 0x38, 0x00, 0x00, 0x80, 0x36, 0x00, 0x00,
  0x9c, 0x34, 0x00, 0x00, 0x88, 0x33, 0x00, 0x00, 0x64, 0x32, 0x00, 0x00,
  0x90, 0x30, 0x00, 0x00, 0xac, 0x2e, 0x00, 0x00, 0x98, 0x2d, 0x00, 0x00,
  0x70, 0x2c, 0x00, 0x00, 0x98, 0x2a, 0x00, 0x00, 0xb4, 0x28, 0x00, 0x00,
  0xa0, 0x27, 0x00, 0x00, 0x7c, 0x26, 0x00, 0x00, 0x68, 0x25, 0x00, 0x00,
  0x44, 0x24, 0x00, 0x00, 0x90, 0x23, 0x00, 0x00, 0xc8, 0x22, 0x00, 0x00,
  0xb0, 0x21, 0x00, 0x00, 0x8c, 0x20, 0x00, 0x00, 0xd8, 0x1f, 0x00, 0x00,
  0x14, 0x1f, 0x00, 0x00, 0x00, 0x1e, 0x00, 0x00, 0xdc, 0x1c, 0x00, 0x00,
  0x28, 0x1c, 0x00, 0x00, 0x60, 0x1b, 0x00, 0x00, 0x48, 0x1a, 0x00, 0x00,
  0x24, 0x19, 0x00, 0x00, 0x70, 0x18, 0x00, 0x00, 0xac, 0x17, 0x00, 0x00,
  0x98, 0x16, 0x00, 0x00, 0x74, 0x15, 0x00, 0x00, 0x88, 0x14, 0x00, 0x00,
  0xec, 0x13, 0x00, 0x00, 0xf8, 0x12, 0x00, 0x00, 0x04, 0x12, 0x00, 0x00,
  0x18, 0x11, 0x00, 0x00, 0x24, 0x10, 0x00, 0x00, 0x90, 0x0f, 0x00, 0x00,
  0x9c, 0x0e, 0x00, 0x00, 0xa8, 0x0d, 0x00, 0x00, 0xb4, 0x0c, 0x00, 0x00,
  0xc0, 0x0b, 0x00, 0x00, 0x2c, 0x0b, 0x00, 0x00, 0x90, 0x0a, 0x00, 0x00,
  0x9c, 0x09, 0x00, 0x00, 0xa8, 0x08, 0x00, 0x00, 0xb4, 0x07, 0x00, 0x00,
  0xc0, 0x06, 0x00, 0x00, 0x2c, 0x06, 0x00, 0x00, 0x30, 0x05, 0x00, 0x00,
  0x34, 0x04, 0x00, 0x00, 0x40, 0x03, 0x00, 0x00, 0x44, 0x02, 0x00, 0x00,
  0xb0, 0x01, 0x00, 0x00, 0x1c, 0x01, 0x00, 0x00, 0x80, 0x00, 0x00, 0x00,
  0x04, 0x00, 0x00, 0x00, 0xea, 0xc0, 0xff, 0xff, 0x00, 0x00, 0x00, 0x01,
  0x18, 0x00, 0x00, 0x00, 0x20, 0x00, 0x00, 0x00, 0x3c, 0x00, 0x00, 0x00,
  0x40, 0x00, 0x00, 0x00, 0x00, 0x00, 0x00, 0x09, 0x50, 0x00, 0x00, 0x00,
  0x02, 0x00, 0x00, 0x00, 0xff, 0xff, 0xff, 0xff, 0x06, 0x00, 0x00, 0x00,
  0xcc, 0xc0, 0xff, 0xff, 0x08, 0x00, 0x00, 0x00, 0x10, 0x00, 0x00, 0x00,
  0x01, 0x00, 0x00, 0x00, 0x80, 0xff, 0xff, 0xff, 0xff, 0xff, 0xff, 0xff,
  0x01, 0x00, 0x00, 0x00, 0x00, 0x00, 0x80, 0x3b, 0x1b, 0x00, 0x00, 0x00,
  0x53, 0x74, 0x61, 0x74, 0x65, 0x66, 0x75, 0x6c, 0x50, 0x61, 0x72, 0x74,
  0x69, 0x74, 0x69, 0x6f, 0x6e, 0x65, 0x64, 0x43, 0x61, 0x6c, 0x6c, 0x5f,
  0x31, 0x3a, 0x30, 0x00, 0x02, 0x00, 0x00, 0x00, 0x01, 0x00, 0x00, 0x00,
  0x06, 0x00, 0x00, 0x00, 0x62, 0xc1, 0xff, 0xff, 0x00, 0x00, 0x00, 0x01,
  0x18, 0x00, 0x00, 0x00, 0x20, 0x00, 0x00, 0x00, 0x3c, 0x00, 0x00, 0x00,
  0x3f, 0x00, 0x00, 0x00, 0x00, 0x00, 0x00, 0x09, 0x70, 0x00, 0x00, 0x00,
  0x02, 0x00, 0x00, 0x00, 0xff, 0xff, 0xff, 0xff, 0x06, 0x00, 0x00, 0x00,
  0x44, 0xc1, 0xff, 0xff, 0x08, 0x00, 0x00, 0x00, 0x10, 0x00, 0x00, 0x00,
  0x01, 0x00, 0x00, 0x00, 0x11, 0x00, 0x00, 0x00, 0x00, 0x00, 0x00, 0x00,
  0x01, 0x00, 0x00, 0x00, 0x53, 0x08, 0x64, 0x37, 0x38, 0x00, 0x00, 0x00,
  0x66, 0x75, 0x6e, 0x63, 0x74, 0x69, 0x6f, 0x6e, 0x61, 0x6c, 0x5f, 0x31,
  0x2f, 0x64, 0x65, 0x6e, 0x73, 0x65, 0x5f, 0x31, 0x2f, 0x4d, 0x61, 0x74,
  0x4d, 0x75, 0x6c, 0x3b, 0x66, 0x75, 0x6e, 0x63, 0x74, 0x69, 0x6f, 0x6e,
  0x61, 0x6c, 0x5f, 0x31, 0x2f, 0x64, 0x65, 0x6e, 0x73, 0x65, 0x5f, 0x31,
  0x2f, 0x42, 0x69, 0x61, 0x73, 0x41, 0x64, 0x64, 0x00, 0x00, 0x00, 0x00,
  0x02, 0x00, 0x00, 0x00, 0x01, 0x00, 0x00, 0x00, 0x06, 0x00, 0x00, 0x00,
  0xfa, 0xc1, 0xff, 0xff, 0x00, 0x00, 0x00, 0x01, 0x18, 0x00, 0x00, 0x00,
  0x20, 0x00, 0x00, 0x00, 0x40, 0x00, 0x00, 0x00, 0x3e, 0x00, 0x00, 0x00,
  0x00, 0x00, 0x00, 0x09, 0x68, 0x00, 0x00, 0x00, 0x02, 0x00, 0x00, 0x00,
  0xff, 0xff, 0xff, 0xff, 0x40, 0x00, 0x00, 0x00, 0xdc, 0xc1, 0xff, 0xff,
  0x08, 0x00, 0x00, 0x00, 0x14, 0x00, 0x00, 0x00, 0x01, 0x00, 0x00, 0x00,
  0x00, 0x00, 0x00, 0x00, 0x00, 0x00, 0x00, 0x00, 0x00, 0x00, 0x00, 0x00,
  0x01, 0x00, 0x00, 0x00, 0x7b, 0xbe, 0x06, 0x32, 0x2c, 0x00, 0x00, 0x00,
  0x66, 0x75, 0x6e, 0x63, 0x74, 0x69, 0x6f, 0x6e, 0x61, 0x6c, 0x5f, 0x31,
  0x2f, 0x67, 0x6c, 0x6f, 0x62, 0x61, 0x6c, 0x5f, 0x61, 0x76, 0x65, 0x72,
  0x61, 0x67, 0x65, 0x5f, 0x70, 0x6f, 0x6f, 0x6c, 0x69, 0x6e, 0x67, 0x32,
  0x64, 0x5f, 0x31, 0x2f, 0x4d, 0x65, 0x61, 0x6e, 0x00, 0x00, 0x00, 0x00,
  0x02, 0x00, 0x00, 0x00, 0x01, 0x00, 0x00, 0x00, 0x40, 0x00, 0x00, 0x00,
  0x8a, 0xc2, 0xff, 0xff, 0x00, 0x00, 0x00, 0x01, 0x18, 0x00, 0x00, 0x00,
  0x28, 0x00, 0x00, 0x00, 0x44, 0x00, 0x00, 0x00, 0x3d, 0x00, 0x00, 0x00,
  0x00, 0x00, 0x00, 0x09, 0x60, 0x00, 0x00, 0x00, 0x04, 0x00, 0x00, 0x00,
  0xff, 0xff, 0xff, 0xff, 0x0c, 0x00, 0x00, 0x00, 0x0c, 0x00, 0x00, 0x00,
  0x40, 0x00, 0x00, 0x00, 0x74, 0xc2, 0xff, 0xff, 0x08, 0x00, 0x00, 0x00,
  0x10, 0x00, 0x00, 0x00, 0x01, 0x00, 0x00, 0x00, 0x00, 0x00, 0x00, 0x00,
  0x00, 0x00, 0x00, 0x00, 0x01, 0x00, 0x00, 0x00, 0x7b, 0xbe, 0x06, 0x32,
  0x23, 0x00, 0x00, 0x00, 0x66, 0x75, 0x6e, 0x63, 0x74, 0x69, 0x6f, 0x6e,
  0x61, 0x6c, 0x5f, 0x31, 0x2f, 0x63, 0x6f, 0x6e, 0x63, 0x61, 0x74, 0x65,
  0x6e, 0x61, 0x74, 0x65, 0x5f, 0x33, 0x5f, 0x31, 0x2f, 0x63, 0x6f, 0x6e,
  0x63, 0x61, 0x74, 0x00, 0x04, 0x00, 0x00, 0x00, 0x01, 0x00, 0x00, 0x00,
  0x0c, 0x00, 0x00, 0x00, 0x0c, 0x00, 0x00, 0x00, 0x40, 0x00, 0x00, 0x00,
  0x1a, 0xc3, 0xff, 0xff, 0x00, 0x00, 0x00, 0x01, 0x18, 0x00, 0x00, 0x00,
  0x28, 0x00, 0x00, 0x00, 0x48, 0x00, 0x00, 0x00, 0x3c, 0x00, 0x00, 0x00,
  0x00, 0x00, 0x00, 0x09, 0xc8, 0x00, 0x00, 0x00, 0x04, 0x00, 0x00, 0x00,
  0xff, 0xff, 0xff, 0xff, 0x0c, 0x00, 0x00, 0x00, 0x0c, 0x00, 0x00, 0x00,
  0x20, 0x00, 0x00, 0x00, 0x04, 0xc3, 0xff, 0xff, 0x08, 0x00, 0x00, 0x00,
  0x14, 0x00, 0x00, 0x00, 0x01, 0x00, 0x00, 0x00, 0x00, 0x00, 0x00, 0x00,
  0x00, 0x00, 0x00, 0x00, 0x00, 0x00, 0x00, 0x00, 0x01, 0x00, 0x00, 0x00,
  0x7b, 0xbe, 0x06, 0x32, 0x84, 0x00, 0x00, 0x00, 0x66, 0x75, 0x6e, 0x63,
  0x74, 0x69, 0x6f, 0x6e, 0x61, 0x6c, 0x5f, 0x31, 0x2f, 0x63, 0x6f, 0x6e,
  0x76, 0x32, 0x64, 0x5f, 0x31, 0x32, 0x5f, 0x31, 0x2f, 0x52, 0x65, 0x6c,
  0x75, 0x3b, 0x66, 0x75, 0x6e, 0x63, 0x74, 0x69, 0x6f, 0x6e, 0x61, 0x6c,
  0x5f, 0x31, 0x2f, 0x63, 0x6f, 0x6e, 0x76, 0x32, 0x64, 0x5f, 0x31, 0x32,
  0x5f, 0x31, 0x2f, 0x42, 0x69, 0x61, 0x73, 0x41, 0x64, 0x64, 0x3b, 0x66,
  0x75, 0x6e, 0x63, 0x74, 0x69, 0x6f, 0x6e, 0x61, 0x6c, 0x5f, 0x31, 0x2f,
  0x63, 0x6f, 0x6e, 0x76, 0x32, 0x64, 0x5f, 0x31, 0x32, 0x5f, 0x31, 0x2f,
  0x63, 0x6f, 0x6e, 0x76, 0x6f, 0x6c, 0x75, 0x74, 0x69, 0x6f, 0x6e, 0x3b,
  0x66, 0x75, 0x6e, 0x63, 0x74, 0x69, 0x6f, 0x6e, 0x61, 0x6c, 0x5f, 0x31,
  0x2f, 0x63, 0x6f, 0x6e, 0x76, 0x32, 0x64, 0x5f, 0x31, 0x32, 0x5f, 0x31,
  0x2f, 0x53, 0x71, 0x75, 0x65, 0x65, 0x7a, 0x65, 0x00, 0x00, 0x00, 0x00,
  0x04, 0x00, 0x00, 0x00, 0x01, 0x00, 0x00, 0x00, 0x0c, 0x00, 0x00, 0x00,
  0x0c, 0x00, 0x00, 0x00, 0x20, 0x00, 0x00, 0x00, 0x12, 0xc4, 0xff, 0xff,
  0x00, 0x00, 0x00, 0x01, 0x18, 0x00, 0x00, 0x00, 0x28, 0x00, 0x00, 0x00,
  0x48, 0x00, 0x00, 0x00, 0x3b, 0x00, 0x00, 0x00, 0x00, 0x00, 0x00, 0x09,
  0xc0, 0x00, 0x00, 0x00, 0x04, 0x00, 0x00, 0x00, 0xff, 0xff, 0xff, 0xff,
  0x0c, 0x00, 0x00, 0x00, 0x0c, 0x00, 0x00, 0x00, 0x10, 0x00, 0x00, 0x00,
  0xfc, 0xc3, 0xff, 0xff, 0x08, 0x00, 0x00, 0x00, 0x14, 0x00, 0x00, 0x00,
  0x01, 0x00, 0x00, 0x00, 0x0b, 0x00, 0x00, 0x00, 0x00, 0x00, 0x00, 0x00,
  0x00, 0x00, 0x00, 0x00, 0x01, 0x00, 0x00, 0x00, 0xd7, 0x20, 0x0b, 0x39,
  0x7f, 0x00, 0x00, 0x00, 0x66, 0x75, 0x6e, 0x63, 0x74, 0x69, 0x6f, 0x6e,
  0x61, 0x6c, 0x5f, 0x31, 0x2f, 0x64, 0x65, 0x70, 0x74, 0x68, 0x77, 0x69,
  0x73, 0x65, 0x5f, 0x63, 0x6f, 0x6e, 0x76, 0x32, 0x64, 0x5f, 0x33, 0x5f,
  0x31, 0x2f, 0x42, 0x69, 0x61, 0x73, 0x41, 0x64, 0x64, 0x3b, 0x66, 0x75,
  0x6e, 0x63, 0x74, 0x69, 0x6f, 0x6e, 0x61, 0x6c, 0x5f, 0x31, 0x2f, 0x64,
  0x65, 0x70, 0x74, 0x68, 0x77, 0x69, 0x73, 0x65, 0x5f, 0x63, 0x6f, 0x6e,
  0x76, 0x32, 0x64, 0x5f, 0x33, 0x5f, 0x31, 0x2f, 0x64, 0x65, 0x70, 0x74,
  0x68, 0x77, 0x69, 0x73, 0x65, 0x3b, 0x66, 0x75, 0x6e, 0x63, 0x74, 0x69,
  0x6f, 0x6e, 0x61, 0x6c, 0x5f, 0x31, 0x2f, 0x64, 0x65, 0x70, 0x74, 0x68,
  0x77, 0x69, 0x73, 0x65, 0x5f, 0x63, 0x6f, 0x6e, 0x76, 0x32, 0x64, 0x5f,
  0x33, 0x5f, 0x31, 0x2f, 0x53, 0x71, 0x75, 0x65, 0x65, 0x7a, 0x65, 0x00,
  0x04, 0x00, 0x00, 0x00, 0x01, 0x00, 0x00, 0x00, 0x0c, 0x00, 0x00, 0x00,
  0x0c, 0x00, 0x00, 0x00, 0x10, 0x00, 0x00, 0x00, 0x02, 0xc5, 0xff, 0xff,
  0x00, 0x00, 0x00, 0x01, 0x18, 0x00, 0x00, 0x00, 0x28, 0x00, 0x00, 0x00,
  0x48, 0x00, 0x00, 0x00, 0x3a, 0x00, 0x00, 0x00, 0x00, 0x00, 0x00, 0x09,
  0xc8, 0x00, 0x00, 0x00, 0x04, 0x00, 0x00, 0x00, 0xff, 0xff, 0xff, 0xff,
  0x0c, 0x00, 0x00, 0x00, 0x0c, 0x00, 0x00, 0x00, 0x20, 0x00, 0x00, 0x00,
  0xec, 0xc4, 0xff, 0xff, 0x08, 0x00, 0x00, 0x00, 0x14, 0x00, 0x00, 0x00,
  0x01, 0x00, 0x00, 0x00, 0x00, 0x00, 0x00, 0x00, 0x00, 0x00, 0x00, 0x00,
  0x00, 0x00, 0x00, 0x00, 0x01, 0x00, 0x00, 0x00, 0x7b, 0xbe, 0x06, 0x32,
  0x84, 0x00, 0x00, 0x00, 0x66, 0x75, 0x6e, 0x63, 0x74, 0x69, 0x6f, 0x6e,
  0x61, 0x6c, 0x5f, 0x31, 0x2f, 0x63, 0x6f, 0x6e, 0x76, 0x32, 0x64, 0x5f,
  0x31, 0x31, 0x5f, 0x31, 0x2f, 0x52, 0x65, 0x6c, 0x75, 0x3b, 0x66, 0x75,
  0x6e, 0x63, 0x74, 0x69, 0x6f, 0x6e, 0x61, 0x6c, 0x5f, 0x31, 0x2f, 0x63,
  0x6f, 0x6e, 0x76, 0x32, 0x64, 0x5f, 0x31, 0x31, 0x5f, 0x31, 0x2f, 0x42,
  0x69, 0x61, 0x73, 0x41, 0x64, 0x64, 0x3b, 0x66, 0x75, 0x6e, 0x63, 0x74,
  0x69, 0x6f, 0x6e, 0x61, 0x6c, 0x5f, 0x31, 0x2f, 0x63, 0x6f, 0x6e, 0x76,
  0x32, 0x64, 0x5f, 0x31, 0x31, 0x5f, 0x31, 0x2f, 0x63, 0x6f, 0x6e, 0x76,
  0x6f, 0x6c, 0x75, 0x74, 0x69, 0x6f, 0x6e, 0x3b, 0x66, 0x75, 0x6e, 0x63,
  0x74, 0x69, 0x6f, 0x6e, 0x61, 0x6c, 0x5f, 0x31, 0x2f, 0x63, 0x6f, 0x6e,
  0x76, 0x32, 0x64, 0x5f, 0x31, 0x31, 0x5f, 0x31, 0x2f, 0x53, 0x71, 0x75,
  0x65, 0x65, 0x7a, 0x65, 0x00, 0x00, 0x00, 0x00, 0x04, 0x00, 0x00, 0x00,
  0x01, 0x00, 0x00, 0x00, 0x0c, 0x00, 0x00, 0x00, 0x0c, 0x00, 0x00, 0x00,
  0x20, 0x00, 0x00, 0x00, 0xfa, 0xc5, 0xff, 0xff, 0x00, 0x00, 0x00, 0x01,
  0x18, 0x00, 0x00, 0x00, 0x28, 0x00, 0x00, 0x00, 0x48, 0x00, 0x00, 0x00,
  0x39, 0x00, 0x00, 0x00, 0x00, 0x00, 0x00, 0x09, 0xc8, 0x00, 0x00, 0x00,
  0x04, 0x00, 0x00, 0x00, 0xff, 0xff, 0xff, 0xff, 0x0c, 0x00, 0x00, 0x00,
  0x0c, 0x00, 0x00, 0x00, 0x10, 0x00, 0x00, 0x00, 0xe4, 0xc5, 0xff, 0xff,
  0x08, 0x00, 0x00, 0x00, 0x14, 0x00, 0x00, 0x00, 0x01, 0x00, 0x00, 0x00,
  0x80, 0xff, 0xff, 0xff, 0xff, 0xff, 0xff, 0xff, 0x00, 0x00, 0x00, 0x00,
  0x01, 0x00, 0x00, 0x00, 0xd4, 0xd5, 0x06, 0x39, 0x84, 0x00, 0x00, 0x00,
  0x66, 0x75, 0x6e, 0x63, 0x74, 0x69, 0x6f, 0x6e, 0x61, 0x6c, 0x5f, 0x31,
  0x2f, 0x63, 0x6f, 0x6e, 0x76, 0x32, 0x64, 0x5f, 0x31, 0x30, 0x5f, 0x31,
  0x2f, 0x52, 0x65, 0x6c, 0x75, 0x3b, 0x66, 0x75, 0x6e, 0x63, 0x74, 0x69,
  0x6f, 0x6e, 0x61, 0x6c, 0x5f, 0x31, 0x2f, 0x63, 0x6f, 0x6e, 0x76, 0x32,
  0x64, 0x5f, 0x31, 0x30, 0x5f, 0x31, 0x2f, 0x42, 0x69, 0x61, 0x73, 0x41,
  0x64, 0x64, 0x3b, 0x66, 0x75, 0x6e, 0x63, 0x74, 0x69, 0x6f, 0x6e, 0x61,
  0x6c, 0x5f, 0x31, 0x2f, 0x63, 0x6f, 0x6e, 0x76, 0x32, 0x64, 0x5f, 0x31,
  0x30, 0x5f, 0x31, 0x2f, 0x63, 0x6f, 0x6e, 0x76, 0x6f, 0x6c, 0x75, 0x74,
  0x69, 0x6f, 0x6e, 0x3b, 0x66, 0x75, 0x6e, 0x63, 0x74, 0x69, 0x6f, 0x6e,
  0x61, 0x6c, 0x5f, 0x31, 0x2f, 0x63, 0x6f, 0x6e, 0x76, 0x32, 0x64, 0x5f,
  0x31, 0x30, 0x5f, 0x31, 0x2f, 0x53, 0x71, 0x75, 0x65, 0x65, 0x7a, 0x65,
  0x00, 0x00, 0x00, 0x00, 0x04, 0x00, 0x00, 0x00, 0x01, 0x00, 0x00, 0x00,
  0x0c, 0x00, 0x00, 0x00, 0x0c, 0x00, 0x00, 0x00, 0x10, 0x00, 0x00, 0x00,
  0xf2, 0xc6, 0xff, 0xff, 0x00, 0x00, 0x00, 0x01, 0x18, 0x00, 0x00, 0x00,
  0x28, 0x00, 0x00, 0x00, 0x44, 0x00, 0x00, 0x00, 0x38, 0x00, 0x00, 0x00,
  0x00, 0x00, 0x00, 0x09, 0x60, 0x00, 0x00, 0x00, 0x04, 0x00, 0x00, 0x00,
  0xff, 0xff, 0xff, 0xff, 0x0c, 0x00, 0x00, 0x00, 0x0c, 0x00, 0x00, 0x00,
  0x40, 0x00, 0x00, 0x00, 0xdc, 0xc6, 0xff, 0xff, 0x08, 0x00, 0x00, 0x00,
  0x10, 0x00, 0x00, 0x00, 0x01, 0x00, 0x00, 0x00, 0x80, 0xff, 0xff, 0xff,
  0xff, 0xff, 0xff, 0xff, 0x01, 0x00, 0x00, 0x00, 0x61, 0x85, 0x35, 0x39,
  0x23, 0x00, 0x00, 0x00, 0x66, 0x75, 0x6e, 0x63, 0x74, 0x69, 0x6f, 0x6e,
  0x61, 0x6c, 0x5f, 0x31, 0x2f, 0x63, 0x6f, 0x6e, 0x63, 0x61, 0x74, 0x65,
  0x6e, 0x61, 0x74, 0x65, 0x5f, 0x32, 0x5f, 0x31, 0x2f, 0x63, 0x6f, 0x6e,
  0x63, 0x61, 0x74, 0x00, 0x04, 0x00, 0x00, 0x00, 0x01, 0x00, 0x00, 0x00,
  0x0c, 0x00, 0x00, 0x00, 0x0c, 0x00, 0x00, 0x00, 0x40, 0x00, 0x00, 0x00,
  0x82, 0xc7, 0xff, 0xff, 0x00, 0x00, 0x00, 0x01, 0x18, 0x00, 0x00, 0x00,
  0x28, 0x00, 0x00, 0x00, 0x44, 0x00, 0x00, 0x00, 0x37, 0x00, 0x00, 0x00,
  0x00, 0x00, 0x00, 0x09, 0xc0, 0x00, 0x00, 0x00, 0x04, 0x00, 0x00, 0x00,
  0xff, 0xff, 0xff, 0xff, 0x0c, 0x00, 0x00, 0x00, 0x0c, 0x00, 0x00, 0x00,
  0x20, 0x00, 0x00, 0x00, 0x6c, 0xc7, 0xff, 0xff, 0x08, 0x00, 0x00, 0x00,
  0x10, 0x00, 0x00, 0x00, 0x01, 0x00, 0x00, 0x00, 0x80, 0xff, 0xff, 0xff,
  0xff, 0xff, 0xff, 0xff, 0x01, 0x00, 0x00, 0x00, 0x61, 0x85, 0x35, 0x39,
  0x80, 0x00, 0x00, 0x00, 0x66, 0x75, 0x6e, 0x63, 0x74, 0x69, 0x6f, 0x6e,
  0x61, 0x6c, 0x5f, 0x31, 0x2f, 0x63, 0x6f, 0x6e, 0x76, 0x32, 0x64, 0x5f,
  0x39, 0x5f, 0x31, 0x2f, 0x52, 0x65, 0x6c, 0x75, 0x3b, 0x66, 0x75, 0x6e,
  0x63, 0x74, 0x69, 0x6f, 0x6e, 0x61, 0x6c, 0x5f, 0x31, 0x2f, 0x63, 0x6f,
  0x6e, 0x76, 0x32, 0x64, 0x5f, 0x39, 0x5f, 0x31, 0x2f, 0x42, 0x69, 0x61,
  0x73, 0x41, 0x64, 0x64, 0x3b, 0x66, 0x75, 0x6e, 0x63, 0x74, 0x69, 0x6f,
  0x6e, 0x61, 0x6c, 0x5f, 0x31, 0x2f, 0x63, 0x6f, 0x6e, 0x76, 0x32, 0x64,
  0x5f, 0x39, 0x5f, 0x31, 0x2f, 0x63, 0x6f, 0x6e, 0x76, 0x6f, 0x6c, 0x75,
  0x74, 0x69, 0x6f, 0x6e, 0x3b, 0x66, 0x75, 0x6e, 0x63, 0x74, 0x69, 0x6f,
  0x6e, 0x61, 0x6c, 0x5f, 0x31, 0x2f, 0x63, 0x6f, 0x6e, 0x76, 0x32, 0x64,
  0x5f, 0x39, 0x5f, 0x31, 0x2f, 0x53, 0x71, 0x75, 0x65, 0x65, 0x7a, 0x65,
  0x00, 0x00, 0x00, 0x00, 0x04, 0x00, 0x00, 0x00, 0x01, 0x00, 0x00, 0x00,
  0x0c, 0x00, 0x00, 0x00, 0x0c, 0x00, 0x00, 0x00, 0x20, 0x00, 0x00, 0x00,
  0x72, 0xc8, 0xff, 0xff, 0x00, 0x00, 0x00, 0x01, 0x18, 0x00, 0x00, 0x00,
  0x28, 0x00, 0x00, 0x00, 0x48, 0x00, 0x00, 0x00, 0x36, 0x00, 0x00, 0x00,
  0x00, 0x00, 0x00, 0x09, 0xc0, 0x00, 0x00, 0x00, 0x04, 0x00, 0x00, 0x00,
  0xff, 0xff, 0xff, 0xff, 0x0c, 0x00, 0x00, 0x00, 0x0c, 0x00, 0x00, 0x00,
  0x10, 0x00, 0x00, 0x00, 0x5c, 0xc8, 0xff, 0xff, 0x08, 0x00, 0x00, 0x00,
  0x14, 0x00, 0x00, 0x00, 0x01, 0x00, 0x00, 0x00, 0x14, 0x00, 0x00, 0x00,
  0x00, 0x00, 0x00, 0x00, 0x00, 0x00, 0x00, 0x00, 0x01, 0x00, 0x00, 0x00,
  0xf7, 0xd5, 0x1b, 0x39, 0x7f, 0x00, 0x00, 0x00, 0x66, 0x75, 0x6e, 0x63,
  0x74, 0x69, 0x6f, 0x6e, 0x61, 0x6c, 0x5f, 0x31, 0x2f, 0x64, 0x65, 0x70,
  0x74, 0x68, 0x77, 0x69, 0x73, 0x65, 0x5f, 0x63, 0x6f, 0x6e, 0x76, 0x32,
  0x64, 0x5f, 0x32, 0x5f, 0x31, 0x2f, 0x42, 0x69, 0x61, 0x73, 0x41, 0x64,
  0x64, 0x3b, 0x66, 0x75, 0x6e, 0x63, 0x74, 0x69, 0x6f, 0x6e, 0x61, 0x6c,
  0x5f, 0x31, 0x2f, 0x64, 0x65, 0x70, 0x74, 0x68, 0x77, 0x69, 0x73, 0x65,
  0x5f, 0x63, 0x6f, 0x6e, 0x76, 0x32, 0x64, 0x5f, 0x32, 0x5f, 0x31, 0x2f,
  0x64, 0x65, 0x70, 0x74, 0x68, 0x77, 0x69, 0x73, 0x65, 0x3b, 0x66, 0x75,
  0x6e, 0x63, 0x74, 0x69, 0x6f, 0x6e, 0x61, 0x6c, 0x5f, 0x31, 0x2f, 0x64,
  0x65, 0x70, 0x74, 0x68, 0x77, 0x69, 0x73, 0x65, 0x5f, 0x63, 0x6f, 0x6e,
  0x76, 0x32, 0x64, 0x5f, 0x32, 0x5f, 0x31, 0x2f, 0x53, 0x71, 0x75, 0x65,
  0x65, 0x7a, 0x65, 0x00, 0x04, 0x00, 0x00, 0x00, 0x01, 0x00, 0x00, 0x00,
  0x0c, 0x00, 0x00, 0x00, 0x0c, 0x00, 0x00, 0x00, 0x10, 0x00, 0x00, 0x00,
  0x62, 0xc9, 0xff, 0xff, 0x00, 0x00, 0x00, 0x01, 0x18, 0x00, 0x00, 0x00,
  0x28, 0x00, 0x00, 0x00, 0x44, 0x00, 0x00, 0x00, 0x35, 0x00, 0x00, 0x00,
  0x00, 0x00, 0x00, 0x09, 0xc0, 0x00, 0x00, 0x00, 0x04, 0x00, 0x00, 0x00,
  0xff, 0xff, 0xff, 0xff, 0x0c, 0x00, 0x00, 0x00, 0x0c, 0x00, 0x00, 0x00,
  0x20, 0x00, 0x00, 0x00, 0x4c, 0xc9, 0xff, 0xff, 0x08, 0x00, 0x00, 0x00,
  0x10, 0x00, 0x00, 0x00, 0x01, 0x00, 0x00, 0x00, 0x80, 0xff, 0xff, 0xff,
  0xff, 0xff, 0xff, 0xff, 0x01, 0x00, 0x00, 0x00, 0x61, 0x85, 0x35, 0x39,
  0x80, 0x00, 0x00, 0x00, 0x66, 0x75, 0x6e, 0x63, 0x74, 0x69, 0x6f, 0x6e,
  0x61, 0x6c, 0x5f, 0x31, 0x2f, 0x63, 0x6f, 0x6e, 0x76, 0x32, 0x64, 0x5f,
  0x38, 0x5f, 0x31, 0x2f, 0x52, 0x65, 0x6c, 0x75, 0x3b, 0x66, 0x75, 0x6e,
  0x63, 0x74, 0x69, 0x6f, 0x6e, 0x61, 0x6c, 0x5f, 0x31, 0x2f, 0x63, 0x6f,
  0x6e, 0x76, 0x32, 0x64, 0x5f, 0x38, 0x5f, 0x31, 0x2f, 0x42, 0x69, 0x61,
  0x73, 0x41, 0x64, 0x64, 0x3b, 0x66, 0x75, 0x6e, 0x63, 0x74, 0x69, 0x6f,
  0x6e, 0x61, 0x6c, 0x5f, 0x31, 0x2f, 0x63, 0x6f, 0x6e, 0x76, 0x32, 0x64,
  0x5f, 0x38, 0x5f, 0x31, 0x2f, 0x63, 0x6f, 0x6e, 0x76, 0x6f, 0x6c, 0x75,
  0x74, 0x69, 0x6f, 0x6e, 0x3b, 0x66, 0x75, 0x6e, 0x63, 0x74, 0x69, 0x6f,
  0x6e, 0x61, 0x6c, 0x5f, 0x31, 0x2f, 0x63, 0x6f, 0x6e, 0x76, 0x32, 0x64,
  0x5f, 0x38, 0x5f, 0x31, 0x2f, 0x53, 0x71, 0x75, 0x65, 0x65, 0x7a, 0x65,
  0x00, 0x00, 0x00, 0x00, 0x04, 0x00, 0x00, 0x00, 0x01, 0x00, 0x00, 0x00,
  0x0c, 0x00, 0x00, 0x00, 0x0c, 0x00, 0x00, 0x00, 0x20, 0x00, 0x00, 0x00,
  0x52, 0xca, 0xff, 0xff, 0x00, 0x00, 0x00, 0x01, 0x18, 0x00, 0x00, 0x00,
  0x28, 0x00, 0x00, 0x00, 0x44, 0x00, 0x00, 0x00, 0x34, 0x00, 0x00, 0x00,
  0x00, 0x00, 0x00, 0x09, 0xc0, 0x00, 0x00, 0x00, 0x04, 0x00, 0x00, 0x00,
  0xff, 0xff, 0xff, 0xff, 0x0c, 0x00, 0x00, 0x00, 0x0c, 0x00, 0x00, 0x00,
  0x10, 0x00, 0x00, 0x00, 0x3c, 0xca, 0xff, 0xff, 0x08, 0x00, 0x00, 0x00,
  0x10, 0x00, 0x00, 0x00, 0x01, 0x00, 0x00, 0x00, 0x80, 0xff, 0xff, 0xff,
  0xff, 0xff, 0xff, 0xff, 0x01, 0x00, 0x00, 0x00, 0xb8, 0xee, 0x9c, 0x38,
  0x80, 0x00, 0x00, 0x00, 0x66, 0x75, 0x6e, 0x63, 0x74, 0x69, 0x6f, 0x6e,
  0x61, 0x6c, 0x5f, 0x31, 0x2f, 0x63, 0x6f, 0x6e, 0x76, 0x32, 0x64, 0x5f,
  0x37, 0x5f, 0x31, 0x2f, 0x52, 0x65, 0x6c, 0x75, 0x3b, 0x66, 0x75, 0x6e,
  0x63, 0x74, 0x69, 0x6f, 0x6e, 0x61, 0x6c, 0x5f, 0x31, 0x2f, 0x63, 0x6f,
  0x6e, 0x76, 0x32, 0x64, 0x5f, 0x37, 0x5f, 0x31, 0x2f, 0x42, 0x69, 0x61,
  0x73, 0x41, 0x64, 0x64, 0x3b, 0x66, 0x75, 0x6e, 0x63, 0x74, 0x69, 0x6f,
  0x6e, 0x61, 0x6c, 0x5f, 0x31, 0x2f, 0x63, 0x6f, 0x6e, 0x76, 0x32, 0x64,
  0x5f, 0x37, 0x5f, 0x31, 0x2f, 0x63, 0x6f, 0x6e, 0x76, 0x6f, 0x6c, 0x75,
  0x74, 0x69, 0x6f, 0x6e, 0x3b, 0x66, 0x75, 0x6e, 0x63, 0x74, 0x69, 0x6f,
  0x6e, 0x61, 0x6c, 0x5f, 0x31, 0x2f, 0x63, 0x6f, 0x6e, 0x76, 0x32, 0x64,
  0x5f, 0x37, 0x5f, 0x31, 0x2f, 0x53, 0x71, 0x75, 0x65, 0x65, 0x7a, 0x65,
  0x00, 0x00, 0x00, 0x00, 0x04, 0x00, 0x00, 0x00, 0x01, 0x00, 0x00, 0x00,
  0x0c, 0x00, 0x00, 0x00, 0x0c, 0x00, 0x00, 0x00, 0x10, 0x00, 0x00, 0x00,
  0x42, 0xcb, 0xff, 0xff, 0x00, 0x00, 0x00, 0x01, 0x18, 0x00, 0x00, 0x00,
  0x28, 0x00, 0x00, 0x00, 0x44, 0x00, 0x00, 0x00, 0x33, 0x00, 0x00, 0x00,
  0x00, 0x00, 0x00, 0x09, 0x68, 0x00, 0x00, 0x00, 0x04, 0x00, 0x00, 0x00,
  0xff, 0xff, 0xff, 0xff, 0x0c, 0x00, 0x00, 0x00, 0x0c, 0x00, 0x00, 0x00,
  0x20, 0x00, 0x00, 0x00, 0x2c, 0xcb, 0xff, 0xff, 0x08, 0x00, 0x00, 0x00,
  0x10, 0x00, 0x00, 0x00, 0x01, 0x00, 0x00, 0x00, 0x80, 0xff, 0xff, 0xff,
  0xff, 0xff, 0xff, 0xff, 0x01, 0x00, 0x00, 0x00, 0x2d, 0x3e, 0x78, 0x39,
  0x28, 0x00, 0x00, 0x00, 0x66, 0x75, 0x6e, 0x63, 0x74, 0x69, 0x6f, 0x6e,
  0x61, 0x6c, 0x5f, 0x31, 0x2f, 0x6d, 0x61, 0x78, 0x5f, 0x70, 0x6f, 0x6f,
  0x6c, 0x69, 0x6e, 0x67, 0x32, 0x64, 0x5f, 0x31, 0x5f, 0x32, 0x2f, 0x4d,
  0x61, 0x78, 0x50, 0x6f, 0x6f, 0x6c, 0x32, 0x64, 0x00, 0x00, 0x00, 0x00,
  0x04, 0x00, 0x00, 0x00, 0x01, 0x00, 0x00, 0x00, 0x0c, 0x00, 0x00, 0x00,
  0x0c, 0x00, 0x00, 0x00, 0x20, 0x00, 0x00, 0x00, 0xda, 0xcb, 0xff, 0xff,
  0x00, 0x00, 0x00, 0x01, 0x18, 0x00, 0x00, 0x00, 0x28, 0x00, 0x00, 0x00,
  0x44, 0x00, 0x00, 0x00, 0x32, 0x00, 0x00, 0x00, 0x00, 0x00, 0x00, 0x09,
  0x60, 0x00, 0x00, 0x00, 0x04, 0x00, 0x00, 0x00, 0xff, 0xff, 0xff, 0xff,
  0x18, 0x00, 0x00, 0x00, 0x18, 0x00, 0x00, 0x00, 0x20, 0x00, 0x00, 0x00,
  0xc4, 0xcb, 0xff, 0xff, 0x08, 0x00, 0x00, 0x00, 0x10, 0x00, 0x00, 0x00,
  0x01, 0x00, 0x00, 0x00, 0x80, 0xff, 0xff, 0xff, 0xff, 0xff, 0xff, 0xff,
  0x01, 0x00, 0x00, 0x00, 0x2d, 0x3e, 0x78, 0x39, 0x23, 0x00, 0x00, 0x00,
  0x66, 0x75, 0x6e, 0x63, 0x74, 0x69, 0x6f, 0x6e, 0x61, 0x6c, 0x5f, 0x31,
  0x2f, 0x63, 0x6f, 0x6e, 0x63, 0x61, 0x74, 0x65, 0x6e, 0x61, 0x74, 0x65,
  0x5f, 0x31, 0x5f, 0x32, 0x2f, 0x63, 0x6f, 0x6e, 0x63, 0x61, 0x74, 0x00,
  0x04, 0x00, 0x00, 0x00, 0x01, 0x00, 0x00, 0x00, 0x18, 0x00, 0x00, 0x00,
  0x18, 0x00, 0x00, 0x00, 0x20, 0x00, 0x00, 0x00, 0x6a, 0xcc, 0xff, 0xff,
  0x00, 0x00, 0x00, 0x01, 0x18, 0x00, 0x00, 0x00, 0x28, 0x00, 0x00, 0x00,
  0x44, 0x00, 0x00, 0x00, 0x31, 0x00, 0x00, 0x00, 0x00, 0x00, 0x00, 0x09,
  0xc0, 0x00, 0x00, 0x00, 0x04, 0x00, 0x00, 0x00, 0xff, 0xff, 0xff, 0xff,
  0x18, 0x00, 0x00, 0x00, 0x18, 0x00, 0x00, 0x00, 0x10, 0x00, 0x00, 0x00,
  0x54, 0xcc, 0xff, 0xff, 0x08, 0x00, 0x00, 0x00, 0x10, 0x00, 0x00, 0x00,
  0x01, 0x00, 0x00, 0x00, 0x80, 0xff, 0xff, 0xff, 0xff, 0xff, 0xff, 0xff,
  0x01, 0x00, 0x00, 0x00, 0x2d, 0x3e, 0x78, 0x39, 0x80, 0x00, 0x00, 0x00,
  0x66, 0x75, 0x6e, 0x63, 0x74, 0x69, 0x6f, 0x6e, 0x61, 0x6c, 0x5f, 0x31,
  0x2f, 0x63, 0x6f, 0x6e, 0x76, 0x32, 0x64, 0x5f, 0x36, 0x5f, 0x31, 0x2f,
  0x52, 0x65, 0x6c, 0x75, 0x3b, 0x66, 0x75, 0x6e, 0x63, 0x74, 0x69, 0x6f,
  0x6e, 0x61, 0x6c, 0x5f, 0x31, 0x2f, 0x63, 0x6f, 0x6e, 0x76, 0x32, 0x64,
  0x5f, 0x36, 0x5f, 0x31, 0x2f, 0x42, 0x69, 0x61, 0x73, 0x41, 0x64, 0x64,
  0x3b, 0x66, 0x75, 0x6e, 0x63, 0x74, 0x69, 0x6f, 0x6e, 0x61, 0x6c, 0x5f,
  0x31, 0x2f, 0x63, 0x6f, 0x6e, 0x76, 0x32, 0x64, 0x5f, 0x36, 0x5f, 0x31,
  0x2f, 0x63, 0x6f, 0x6e, 0x76, 0x6f, 0x6c, 0x75, 0x74, 0x69, 0x6f, 0x6e,
  0x3b, 0x66, 0x75, 0x6e, 0x63, 0x74, 0x69, 0x6f, 0x6e, 0x61, 0x6c, 0x5f,
  0x31, 0x2f, 0x63, 0x6f, 0x6e, 0x76, 0x32, 0x64, 0x5f, 0x36, 0x5f, 0x31,
  0x2f, 0x53, 0x71, 0x75, 0x65, 0x65, 0x7a, 0x65, 0x00, 0x00, 0x00, 0x00,
  0x04, 0x00, 0x00, 0x00, 0x01, 0x00, 0x00, 0x00, 0x18, 0x00, 0x00, 0x00,
  0x18, 0x00, 0x00, 0x00, 0x10, 0x00, 0x00, 0x00, 0x5a, 0xcd, 0xff, 0xff,
  0x00, 0x00, 0x00, 0x01, 0x18, 0x00, 0x00, 0x00, 0x28, 0x00, 0x00, 0x00,
  0x48, 0x00, 0x00, 0x00, 0x30, 0x00, 0x00, 0x00, 0x00, 0x00, 0x00, 0x09,
  0xc0, 0x00, 0x00, 0x00, 0x04, 0x00, 0x00, 0x00, 0xff, 0xff, 0xff, 0xff,
  0x18, 0x00, 0x00, 0x00, 0x18, 0x00, 0x00, 0x00, 0x08, 0x00, 0x00, 0x00,
  0x44, 0xcd, 0xff, 0xff, 0x08, 0x00, 0x00, 0x00, 0x14, 0x00, 0x00, 0x00,
  0x01, 0x00, 0x00, 0x00, 0xfc, 0xff, 0xff, 0xff, 0xff, 0xff, 0xff, 0xff,
  0x00, 0x00, 0x00, 0x00, 0x01, 0x00, 0x00, 0x00, 0x9b, 0xba, 0x72, 0x39,
  0x7f, 0x00, 0x00, 0x00, 0x66, 0x75, 0x6e, 0x63, 0x74, 0x69, 0x6f, 0x6e,
  0x61, 0x6c, 0x5f, 0x31, 0x2f, 0x64, 0x65, 0x70, 0x74, 0x68, 0x77, 0x69,
  0x73, 0x65, 0x5f, 0x63, 0x6f, 0x6e, 0x76, 0x32, 0x64, 0x5f, 0x31, 0x5f,
  0x32, 0x2f, 0x42, 0x69, 0x61, 0x73, 0x41, 0x64, 0x64, 0x3b, 0x66, 0x75,
  0x6e, 0x63, 0x74, 0x69, 0x6f, 0x6e, 0x61, 0x6c, 0x5f, 0x31, 0x2f, 0x64,
  0x65, 0x70, 0x74, 0x68, 0x77, 0x69, 0x73, 0x65, 0x5f, 0x63, 0x6f, 0x6e,
  0x76, 0x32, 0x64, 0x5f, 0x31, 0x5f, 0x32, 0x2f, 0x64, 0x65, 0x70, 0x74,
  0x68, 0x77, 0x69, 0x73, 0x65, 0x3b, 0x66, 0x75, 0x6e, 0x63, 0x74, 0x69,
  0x6f, 0x6e, 0x61, 0x6c, 0x5f, 0x31, 0x2f, 0x64, 0x65, 0x70, 0x74, 0x68,
  0x77, 0x69, 0x73, 0x65, 0x5f, 0x63, 0x6f, 0x6e, 0x76, 0x32, 0x64, 0x5f,
  0x31, 0x5f, 0x32, 0x2f, 0x53, 0x71, 0x75, 0x65, 0x65, 0x7a, 0x65, 0x00,
  0x04, 0x00, 0x00, 0x00, 0x01, 0x00, 0x00, 0x00, 0x18, 0x00, 0x00, 0x00,
  0x18, 0x00, 0x00, 0x00, 0x08, 0x00, 0x00, 0x00, 0x4a, 0xce, 0xff, 0xff,
  0x00, 0x00, 0x00, 0x01, 0x18, 0x00, 0x00, 0x00, 0x28, 0x00, 0x00, 0x00,
  0x44, 0x00, 0x00, 0x00, 0x2f, 0x00, 0x00, 0x00, 0x00, 0x00, 0x00, 0x09,
  0xc0, 0x00, 0x00, 0x00, 0x04, 0x00, 0x00, 0x00, 0xff, 0xff, 0xff, 0xff,
  0x18, 0x00, 0x00, 0x00, 0x18, 0x00, 0x00, 0x00, 0x10, 0x00, 0x00, 0x00,
  0x34, 0xce, 0xff, 0xff, 0x08, 0x00, 0x00, 0x00, 0x10, 0x00, 0x00, 0x00,
  0x01, 0x00, 0x00, 0x00, 0x80, 0xff, 0xff, 0xff, 0xff, 0xff, 0xff, 0xff,
  0x01, 0x00, 0x00, 0x00, 0x2d, 0x3e, 0x78, 0x39, 0x80, 0x00, 0x00, 0x00,
  0x66, 0x75, 0x6e, 0x63, 0x74, 0x69, 0x6f, 0x6e, 0x61, 0x6c, 0x5f, 0x31,
  0x2f, 0x63, 0x6f, 0x6e, 0x76, 0x32, 0x64, 0x5f, 0x35, 0x5f, 0x31, 0x2f,
  0x52, 0x65, 0x6c, 0x75, 0x3b, 0x66, 0x75, 0x6e, 0x63, 0x74, 0x69, 0x6f,
  0x6e, 0x61, 0x6c, 0x5f, 0x31, 0x2f, 0x63, 0x6f, 0x6e, 0x76, 0x32, 0x64,
  0x5f, 0x35, 0x5f, 0x31, 0x2f, 0x42, 0x69, 0x61, 0x73, 0x41, 0x64, 0x64,
  0x3b, 0x66, 0x75, 0x6e, 0x63, 0x74, 0x69, 0x6f, 0x6e, 0x61, 0x6c, 0x5f,
  0x31, 0x2f, 0x63, 0x6f, 0x6e, 0x76, 0x32, 0x64, 0x5f, 0x35, 0x5f, 0x31,
  0x2f, 0x63, 0x6f, 0x6e, 0x76, 0x6f, 0x6c, 0x75, 0x74, 0x69, 0x6f, 0x6e,
  0x3b, 0x66, 0x75, 0x6e, 0x63, 0x74, 0x69, 0x6f, 0x6e, 0x61, 0x6c, 0x5f,
  0x31, 0x2f, 0x63, 0x6f, 0x6e, 0x76, 0x32, 0x64, 0x5f, 0x35, 0x5f, 0x31,
  0x2f, 0x53, 0x71, 0x75, 0x65, 0x65, 0x7a, 0x65, 0x00, 0x00, 0x00, 0x00,
  0x04, 0x00, 0x00, 0x00, 0x01, 0x00, 0x00, 0x00, 0x18, 0x00, 0x00, 0x00,
  0x18, 0x00, 0x00, 0x00, 0x10, 0x00, 0x00, 0x00, 0x3a, 0xcf, 0xff, 0xff,
  0x00, 0x00, 0x00, 0x01, 0x18, 0x00, 0x00, 0x00, 0x28, 0x00, 0x00, 0x00,
  0x44, 0x00, 0x00, 0x00, 0x2e, 0x00, 0x00, 0x00, 0x00, 0x00, 0x00, 0x09,
  0xc0, 0x00, 0x00, 0x00, 0x04, 0x00, 0x00, 0x00, 0xff, 0xff, 0xff, 0xff,
  0x18, 0x00, 0x00, 0x00, 0x18, 0x00, 0x00, 0x00, 0x08, 0x00, 0x00, 0x00,
  0x24, 0xcf, 0xff, 0xff, 0x08, 0x00, 0x00, 0x00, 0x10, 0x00, 0x00, 0x00,
  0x01, 0x00, 0x00, 0x00, 0x80, 0xff, 0xff, 0xff, 0xff, 0xff, 0xff, 0xff,
  0x01, 0x00, 0x00, 0x00, 0xde, 0x31, 0x80, 0x39, 0x80, 0x00, 0x00, 0x00,
  0x66, 0x75, 0x6e, 0x63, 0x74, 0x69, 0x6f, 0x6e, 0x61, 0x6c, 0x5f, 0x31,
  0x2f, 0x63, 0x6f, 0x6e, 0x76, 0x32, 0x64, 0x5f, 0x34, 0x5f, 0x31, 0x2f,
  0x52, 0x65, 0x6c, 0x75, 0x3b, 0x66, 0x75, 0x6e, 0x63, 0x74, 0x69, 0x6f,
  0x6e, 0x61, 0x6c, 0x5f, 0x31, 0x2f, 0x63, 0x6f, 0x6e, 0x76, 0x32, 0x64,
  0x5f, 0x34, 0x5f, 0x31, 0x2f, 0x42, 0x69, 0x61, 0x73, 0x41, 0x64, 0x64,
  0x3b, 0x66, 0x75, 0x6e, 0x63, 0x74, 0x69, 0x6f, 0x6e, 0x61, 0x6c, 0x5f,
  0x31, 0x2f, 0x63, 0x6f, 0x6e, 0x76, 0x32, 0x64, 0x5f, 0x34, 0x5f, 0x31,
  0x2f, 0x63, 0x6f, 0x6e, 0x76, 0x6f, 0x6c, 0x75, 0x74, 0x69, 0x6f, 0x6e,
  0x3b, 0x66, 0x75, 0x6e, 0x63, 0x74, 0x69, 0x6f, 0x6e, 0x61, 0x6c, 0x5f,
  0x31, 0x2f, 0x63, 0x6f, 0x6e, 0x76, 0x32, 0x64, 0x5f, 0x34, 0x5f, 0x31,
  0x2f, 0x53, 0x71, 0x75, 0x65, 0x65, 0x7a, 0x65, 0x00, 0x00, 0x00, 0x00,
  0x04, 0x00, 0x00, 0x00, 0x01, 0x00, 0x00, 0x00, 0x18, 0x00, 0x00, 0x00,
  0x18, 0x00, 0x00, 0x00, 0x08, 0x00, 0x00, 0x00, 0x2a, 0xd0, 0xff, 0xff,
  0x00, 0x00, 0x00, 0x01, 0x18, 0x00, 0x00, 0x00, 0x28, 0x00, 0x00, 0x00,
  0x44, 0x00, 0x00, 0x00, 0x2d, 0x00, 0x00, 0x00, 0x00, 0x00, 0x00, 0x09,
  0x60, 0x00, 0x00, 0x00, 0x04, 0x00, 0x00, 0x00, 0xff, 0xff, 0xff, 0xff,
  0x18, 0x00, 0x00, 0x00, 0x18, 0x00, 0x00, 0x00, 0x20, 0x00, 0x00, 0x00,
  0x14, 0xd0, 0xff, 0xff, 0x08, 0x00, 0x00, 0x00, 0x10, 0x00, 0x00, 0x00,
  0x01, 0x00, 0x00, 0x00, 0x80, 0xff, 0xff, 0xff, 0xff, 0xff, 0xff, 0xff,
  0x01, 0x00, 0x00, 0x00, 0xd3, 0x6a, 0x61, 0x3a, 0x21, 0x00, 0x00, 0x00,
  0x66, 0x75, 0x6e, 0x63, 0x74, 0x69, 0x6f, 0x6e, 0x61, 0x6c, 0x5f, 0x31,
  0x2f, 0x63, 0x6f, 0x6e, 0x63, 0x61, 0x74, 0x65, 0x6e, 0x61, 0x74, 0x65,
  0x5f, 0x31, 0x2f, 0x63, 0x6f, 0x6e, 0x63, 0x61, 0x74, 0x00, 0x00, 0x00,
  0x04, 0x00, 0x00, 0x00, 0x01, 0x00, 0x00, 0x00, 0x18, 0x00, 0x00, 0x00,
  0x18, 0x00, 0x00, 0x00, 0x20, 0x00, 0x00, 0x00, 0xba, 0xd0, 0xff, 0xff,
  0x00, 0x00, 0x00, 0x01, 0x18, 0x00, 0x00, 0x00, 0x28, 0x00, 0x00, 0x00,
  0x44, 0x00, 0x00, 0x00, 0x2c, 0x00, 0x00, 0x00, 0x00, 0x00, 0x00, 0x09,
  0xc0, 0x00, 0x00, 0x00, 0x04, 0x00, 0x00, 0x00, 0xff, 0xff, 0xff, 0xff,
  0x18, 0x00, 0x00, 0x00, 0x18, 0x00, 0x00, 0x00, 0x10, 0x00, 0x00, 0x00,
  0xa4, 0xd0, 0xff, 0xff, 0x08, 0x00, 0x00, 0x00, 0x10, 0x00, 0x00, 0x00,
  0x01, 0x00, 0x00, 0x00, 0x80, 0xff, 0xff, 0xff, 0xff, 0xff, 0xff, 0xff,
  0x01, 0x00, 0x00, 0x00, 0xd3, 0x6a, 0x61, 0x3a, 0x80, 0x00, 0x00, 0x00,
  0x66, 0x75, 0x6e, 0x63, 0x74, 0x69, 0x6f, 0x6e, 0x61, 0x6c, 0x5f, 0x31,
  0x2f, 0x63, 0x6f, 0x6e, 0x76, 0x32, 0x64, 0x5f, 0x33, 0x5f, 0x31, 0x2f,
  0x52, 0x65, 0x6c, 0x75, 0x3b, 0x66, 0x75, 0x6e, 0x63, 0x74, 0x69, 0x6f,
  0x6e, 0x61, 0x6c, 0x5f, 0x31, 0x2f, 0x63, 0x6f, 0x6e, 0x76, 0x32, 0x64,
  0x5f, 0x33, 0x5f, 0x31, 0x2f, 0x42, 0x69, 0x61, 0x73, 0x41, 0x64, 0x64,
  0x3b, 0x66, 0x75, 0x6e, 0x63, 0x74, 0x69, 0x6f, 0x6e, 0x61, 0x6c, 0x5f,
  0x31, 0x2f, 0x63, 0x6f, 0x6e, 0x76, 0x32, 0x64, 0x5f, 0x33, 0x5f, 0x31,
  0x2f, 0x63, 0x6f, 0x6e, 0x76, 0x6f, 0x6c, 0x75, 0x74, 0x69, 0x6f, 0x6e,
  0x3b, 0x66, 0x75, 0x6e, 0x63, 0x74, 0x69, 0x6f, 0x6e, 0x61, 0x6c, 0x5f,
  0x31, 0x2f, 0x63, 0x6f, 0x6e, 0x76, 0x32, 0x64, 0x5f, 0x33, 0x5f, 0x31,
  0x2f, 0x53, 0x71, 0x75, 0x65, 0x65, 0x7a, 0x65, 0x00, 0x00, 0x00, 0x00,
  0x04, 0x00, 0x00, 0x00, 0x01, 0x00, 0x00, 0x00, 0x18, 0x00, 0x00, 0x00,
  0x18, 0x00, 0x00, 0x00, 0x10, 0x00, 0x00, 0x00, 0xaa, 0xd1, 0xff, 0xff,
  0x00, 0x00, 0x00, 0x01, 0x18, 0x00, 0x00, 0x00, 0x28, 0x00, 0x00, 0x00,
  0x44, 0x00, 0x00, 0x00, 0x2b, 0x00, 0x00, 0x00, 0x00, 0x00, 0x00, 0x09,
  0xb8, 0x00, 0x00, 0x00, 0x04, 0x00, 0x00, 0x00, 0xff, 0xff, 0xff, 0xff,
  0x18, 0x00, 0x00, 0x00, 0x18, 0x00, 0x00, 0x00, 0x08, 0x00, 0x00, 0x00,
  0x94, 0xd1, 0xff, 0xff, 0x08, 0x00, 0x00, 0x00, 0x10, 0x00, 0x00, 0x00,
  0x01, 0x00, 0x00, 0x00, 0xbf, 0xff, 0xff, 0xff, 0xff, 0xff, 0xff, 0xff,
  0x01, 0x00, 0x00, 0x00, 0x31, 0x43, 0xe7, 0x3a, 0x79, 0x00, 0x00, 0x00,
  0x66, 0x75, 0x6e, 0x63, 0x74, 0x69, 0x6f, 0x6e, 0x61, 0x6c, 0x5f, 0x31,
  0x2f, 0x64, 0x65, 0x70, 0x74, 0x68, 0x77, 0x69, 0x73, 0x65, 0x5f, 0x63,
  0x6f, 0x6e, 0x76, 0x32, 0x64, 0x5f, 0x31, 0x2f, 0x42, 0x69, 0x61, 0x73,
  0x41, 0x64, 0x64, 0x3b, 0x66, 0x75, 0x6e, 0x63, 0x74, 0x69, 0x6f, 0x6e,
  0x61, 0x6c, 0x5f, 0x31, 0x2f, 0x64, 0x65, 0x70, 0x74, 0x68, 0x77, 0x69,
  0x73, 0x65, 0x5f, 0x63, 0x6f, 0x6e, 0x76, 0x32, 0x64, 0x5f, 0x31, 0x2f,
  0x64, 0x65, 0x70, 0x74, 0x68, 0x77, 0x69, 0x73, 0x65, 0x3b, 0x66, 0x75,
  0x6e, 0x63, 0x74, 0x69, 0x6f, 0x6e, 0x61, 0x6c, 0x5f, 0x31, 0x2f, 0x64,
  0x65, 0x70, 0x74, 0x68, 0x77, 0x69, 0x73, 0x65, 0x5f, 0x63, 0x6f, 0x6e,
  0x76, 0x32, 0x64, 0x5f, 0x31, 0x2f, 0x53, 0x71, 0x75, 0x65, 0x65, 0x7a,
  0x65, 0x00, 0x00, 0x00, 0x04, 0x00, 0x00, 0x00, 0x01, 0x00, 0x00, 0x00,
  0x18, 0x00, 0x00, 0x00, 0x18, 0x00, 0x00, 0x00, 0x08, 0x00, 0x00, 0x00,
  0x92, 0xd2, 0xff, 0xff, 0x00, 0x00, 0x00, 0x01, 0x18, 0x00, 0x00, 0x00,
  0x28, 0x00, 0x00, 0x00, 0x44, 0x00, 0x00, 0x00, 0x2a, 0x00, 0x00, 0x00,
  0x00, 0x00, 0x00, 0x09, 0xc0, 0x00, 0x00, 0x00, 0x04, 0x00, 0x00, 0x00,
  0xff, 0xff, 0xff, 0xff, 0x18, 0x00, 0x00, 0x00, 0x18, 0x00, 0x00, 0x00,
  0x10, 0x00, 0x00, 0x00, 0x7c, 0xd2, 0xff, 0xff, 0x08, 0x00, 0x00, 0x00,
  0x10, 0x00, 0x00, 0x00, 0x01, 0x00, 0x00, 0x00, 0x80, 0xff, 0xff, 0xff,
  0xff, 0xff, 0xff, 0xff, 0x01, 0x00, 0x00, 0x00, 0xd3, 0x6a, 0x61, 0x3a,
  0x80, 0x00, 0x00, 0x00, 0x66, 0x75, 0x6e, 0x63, 0x74, 0x69, 0x6f, 0x6e,
  0x61, 0x6c, 0x5f, 0x31, 0x2f, 0x63, 0x6f, 0x6e, 0x76, 0x32, 0x64, 0x5f,
  0x32, 0x5f, 0x31, 0x2f, 0x52, 0x65, 0x6c, 0x75, 0x3b, 0x66, 0x75, 0x6e,
  0x63, 0x74, 0x69, 0x6f, 0x6e, 0x61, 0x6c, 0x5f, 0x31, 0x2f, 0x63, 0x6f,
  0x6e, 0x76, 0x32, 0x64, 0x5f, 0x32, 0x5f, 0x31, 0x2f, 0x42, 0x69, 0x61,
  0x73, 0x41, 0x64, 0x64, 0x3b, 0x66, 0x75, 0x6e, 0x63, 0x74, 0x69, 0x6f,
  0x6e, 0x61, 0x6c, 0x5f, 0x31, 0x2f, 0x63, 0x6f, 0x6e, 0x76, 0x32, 0x64,
  0x5f, 0x32, 0x5f, 0x31, 0x2f, 0x63, 0x6f, 0x6e, 0x76, 0x6f, 0x6c, 0x75,
  0x74, 0x69, 0x6f, 0x6e, 0x3b, 0x66, 0x75, 0x6e, 0x63, 0x74, 0x69, 0x6f,
  0x6e, 0x61, 0x6c, 0x5f, 0x31, 0x2f, 0x63, 0x6f, 0x6e, 0x76, 0x32, 0x64,
  0x5f, 0x32, 0x5f, 0x31, 0x2f, 0x53, 0x71, 0x75, 0x65, 0x65, 0x7a, 0x65,
  0x00, 0x00, 0x00, 0x00, 0x04, 0x00, 0x00, 0x00, 0x01, 0x00, 0x00, 0x00,
  0x18, 0x00, 0x00, 0x00, 0x18, 0x00, 0x00, 0x00, 0x10, 0x00, 0x00, 0x00,
  0x82, 0xd3, 0xff, 0xff, 0x00, 0x00, 0x00, 0x01, 0x18, 0x00, 0x00, 0x00,
  0x28, 0x00, 0x00, 0x00, 0x44, 0x00, 0x00, 0x00, 0x29, 0x00, 0x00, 0x00,
  0x00, 0x00, 0x00, 0x09, 0xc0, 0x00, 0x00, 0x00, 0x04, 0x00, 0x00, 0x00,
  0xff, 0xff, 0xff, 0xff, 0x18, 0x00, 0x00, 0x00, 0x18, 0x00, 0x00, 0x00,
  0x08, 0x00, 0x00, 0x00, 0x6c, 0xd3, 0xff, 0xff, 0x08, 0x00, 0x00, 0x00,
  0x10, 0x00, 0x00, 0x00, 0x01, 0x00, 0x00, 0x00, 0x80, 0xff, 0xff, 0xff,
  0xff, 0xff, 0xff, 0xff, 0x01, 0x00, 0x00, 0x00, 0x85, 0x35, 0x2c, 0x3b,
  0x80, 0x00, 0x00, 0x00, 0x66, 0x75, 0x6e, 0x63, 0x74, 0x69, 0x6f, 0x6e,
  0x61, 0x6c, 0x5f, 0x31, 0x2f, 0x63, 0x6f, 0x6e, 0x76, 0x32, 0x64, 0x5f,
  0x31, 0x5f, 0x32, 0x2f, 0x52, 0x65, 0x6c, 0x75, 0x3b, 0x66, 0x75, 0x6e,
  0x63, 0x74, 0x69, 0x6f, 0x6e, 0x61, 0x6c, 0x5f, 0x31, 0x2f, 0x63, 0x6f,
  0x6e, 0x76, 0x32, 0x64, 0x5f, 0x31, 0x5f, 0x32, 0x2f, 0x42, 0x69, 0x61,
  0x73, 0x41, 0x64, 0x64, 0x3b, 0x66, 0x75, 0x6e, 0x63, 0x74, 0x69, 0x6f,
  0x6e, 0x61, 0x6c, 0x5f, 0x31, 0x2f, 0x63, 0x6f, 0x6e, 0x76, 0x32, 0x64,
  0x5f, 0x31, 0x5f, 0x32, 0x2f, 0x63, 0x6f, 0x6e, 0x76, 0x6f, 0x6c, 0x75,
  0x74, 0x69, 0x6f, 0x6e, 0x3b, 0x66, 0x75, 0x6e, 0x63, 0x74, 0x69, 0x6f,
  0x6e, 0x61, 0x6c, 0x5f, 0x31, 0x2f, 0x63, 0x6f, 0x6e, 0x76, 0x32, 0x64,
  0x5f, 0x31, 0x5f, 0x32, 0x2f, 0x53, 0x71, 0x75, 0x65, 0x65, 0x7a, 0x65,
  0x00, 0x00, 0x00, 0x00, 0x04, 0x00, 0x00, 0x00, 0x01, 0x00, 0x00, 0x00,
  0x18, 0x00, 0x00, 0x00, 0x18, 0x00, 0x00, 0x00, 0x08, 0x00, 0x00, 0x00,
  0x72, 0xd4, 0xff, 0xff, 0x00, 0x00, 0x00, 0x01, 0x18, 0x00, 0x00, 0x00,
  0x28, 0x00, 0x00, 0x00, 0x48, 0x00, 0x00, 0x00, 0x28, 0x00, 0x00, 0x00,
  0x00, 0x00, 0x00, 0x09, 0x68, 0x00, 0x00, 0x00, 0x04, 0x00, 0x00, 0x00,
  0xff, 0xff, 0xff, 0xff, 0x18, 0x00, 0x00, 0x00, 0x18, 0x00, 0x00, 0x00,
  0x10, 0x00, 0x00, 0x00, 0x5c, 0xd4, 0xff, 0xff, 0x08, 0x00, 0x00, 0x00,
  0x14, 0x00, 0x00, 0x00, 0x01, 0x00, 0x00, 0x00, 0x80, 0xff, 0xff, 0xff,
  0xff, 0xff, 0xff, 0xff, 0x00, 0x00, 0x00, 0x00, 0x01, 0x00, 0x00, 0x00,
  0x5d, 0x23, 0x3e, 0x3b, 0x26, 0x00, 0x00, 0x00, 0x66, 0x75, 0x6e, 0x63,
  0x74, 0x69, 0x6f, 0x6e, 0x61, 0x6c, 0x5f, 0x31, 0x2f, 0x6d, 0x61, 0x78,
  0x5f, 0x70, 0x6f, 0x6f, 0x6c, 0x69, 0x6e, 0x67, 0x32, 0x64, 0x5f, 0x31,
  0x2f, 0x4d, 0x61, 0x78, 0x50, 0x6f, 0x6f, 0x6c, 0x32, 0x64, 0x00, 0x00,
  0x04, 0x00, 0x00, 0x00, 0x01, 0x00, 0x00, 0x00, 0x18, 0x00, 0x00, 0x00,
  0x18, 0x00, 0x00, 0x00, 0x10, 0x00, 0x00, 0x00, 0x0a, 0xd5, 0xff, 0xff,
  0x00, 0x00, 0x00, 0x01, 0x18, 0x00, 0x00, 0x00, 0x28, 0x00, 0x00, 0x00,
  0x44, 0x00, 0x00, 0x00, 0x27, 0x00, 0x00, 0x00, 0x00, 0x00, 0x00, 0x09,
  0xb8, 0x00, 0x00, 0x00, 0x04, 0x00, 0x00, 0x00, 0xff, 0xff, 0xff, 0xff,
  0x30, 0x00, 0x00, 0x00, 0x30, 0x00, 0x00, 0x00, 0x10, 0x00, 0x00, 0x00,
  0xf4, 0xd4, 0xff, 0xff, 0x08, 0x00, 0x00, 0x00, 0x10, 0x00, 0x00, 0x00,
  0x01, 0x00, 0x00, 0x00, 0x80, 0xff, 0xff, 0xff, 0xff, 0xff, 0xff, 0xff,
  0x01, 0x00, 0x00, 0x00, 0x5d, 0x23, 0x3e, 0x3b, 0x79, 0x00, 0x00, 0x00,
  0x66, 0x75, 0x6e, 0x63, 0x74, 0x69, 0x6f, 0x6e, 0x61, 0x6c, 0x5f, 0x31,
  0x2f, 0x63, 0x6f, 0x6e, 0x76, 0x32, 0x64, 0x5f, 0x31, 0x2f, 0x52, 0x65,
  0x6c, 0x75, 0x3b, 0x66, 0x75, 0x6e, 0x63, 0x74, 0x69, 0x6f, 0x6e, 0x61,
  0x6c, 0x5f, 0x31, 0x2f, 0x63, 0x6f, 0x6e, 0x76, 0x32, 0x64, 0x5f, 0x31,
  0x2f, 0x42, 0x69, 0x61, 0x73, 0x41, 0x64, 0x64, 0x3b, 0x66, 0x75, 0x6e,
  0x63, 0x74, 0x69, 0x6f, 0x6e, 0x61, 0x6c, 0x5f, 0x31, 0x2f, 0x63, 0x6f,
  0x6e, 0x76, 0x32, 0x64, 0x5f, 0x31, 0x2f, 0x63, 0x6f, 0x6e, 0x76, 0x6f,
  0x6c, 0x75, 0x74, 0x69, 0x6f, 0x6e, 0x3b, 0x66, 0x75, 0x6e, 0x63, 0x74,
  0x69, 0x6f, 0x6e, 0x61, 0x6c, 0x5f, 0x31, 0x2f, 0x63, 0x6f, 0x6e, 0x76,
  0x32, 0x64, 0x5f, 0x31, 0x2f, 0x53, 0x71, 0x75, 0x65, 0x65, 0x7a, 0x65,
  0x31, 0x00, 0x00, 0x00, 0x04, 0x00, 0x00, 0x00, 0x01, 0x00, 0x00, 0x00,
  0x30, 0x00, 0x00, 0x00, 0x30, 0x00, 0x00, 0x00, 0x10, 0x00, 0x00, 0x00,
  0x4a, 0xd6, 0xff, 0xff, 0x00, 0x00, 0x00, 0x01, 0x14, 0x00, 0x00, 0x00,
  0xe8, 0x00, 0x00, 0x00, 0x26, 0x00, 0x00, 0x00, 0x00, 0x00, 0x00, 0x09,
  0xf4, 0x00, 0x00, 0x00, 0xc4, 0xd5, 0xff, 0xff, 0x08, 0x00, 0x00, 0x00,
  0x8c, 0x00, 0x00, 0x00, 0x10, 0x00, 0x00, 0x00, 0x00, 0x00, 0x00, 0x00,
  0x00, 0x00, 0x00, 0x00, 0x00, 0x00, 0x00, 0x00, 0x00, 0x00, 0x00, 0x00,
  0x00, 0x00, 0x00, 0x00, 0x00, 0x00, 0x00, 0x00, 0x00, 0x00, 0x00, 0x00,
  0x00, 0x00, 0x00, 0x00, 0x00, 0x00, 0x00, 0x00, 0x00, 0x00, 0x00, 0x00,
  0x00, 0x00, 0x00, 0x00, 0x00, 0x00, 0x00, 0x00, 0x00, 0x00, 0x00, 0x00,
  0x00, 0x00, 0x00, 0x00, 0x00, 0x00, 0x00, 0x00, 0x00, 0x00, 0x00, 0x00,
  0x00, 0x00, 0x00, 0x00, 0x00, 0x00, 0x00, 0x00, 0x00, 0x00, 0x00, 0x00,
  0x00, 0x00, 0x00, 0x00, 0x00, 0x00, 0x00, 0x00, 0x00, 0x00, 0x00, 0x00,
  0x00, 0x00, 0x00, 0x00, 0x00, 0x00, 0x00, 0x00, 0x00, 0x00, 0x00, 0x00,
  0x00, 0x00, 0x00, 0x00, 0x00, 0x00, 0x00, 0x00, 0x00, 0x00, 0x00, 0x00,
  0x00, 0x00, 0x00, 0x00, 0x00, 0x00, 0x00, 0x00, 0x00, 0x00, 0x00, 0x00,
  0x00, 0x00, 0x00, 0x00, 0x00, 0x00, 0x00, 0x00, 0x10, 0x00, 0x00, 0x00,
  0x7b, 0x21, 0xda, 0x3a, 0x61, 0x24, 0xb9, 0x3a, 0x26, 0x67, 0xc0, 0x3a,
  0x62, 0x4a, 0xe0, 0x3a, 0xa0, 0xd8, 0xc1, 0x3a, 0xef, 0x2c, 0xa2, 0x3a,
  0x99, 0xe6, 0xa9, 0x3a, 0xdd, 0xbe, 0xaa, 0x3a, 0x1f, 0x1a, 0xd0, 0x3a,
  0xfd, 0xa8, 0xac, 0x3a, 0xba, 0x41, 0xc8, 0x3a, 0x60, 0xc1, 0xc0, 0x3a,
  0x43, 0x64, 0xc0, 0x3a, 0xd5, 0x7c, 0xd2, 0x3a, 0xd9, 0x2e, 0xc0, 0x3a,
  0xcf, 0xbd, 0xb8, 0x3a, 0x13, 0x00, 0x00, 0x00, 0x74, 0x66, 0x6c, 0x2e,
  0x70, 0x73, 0x65, 0x75, 0x64, 0x6f, 0x5f, 0x71, 0x63, 0x6f, 0x6e, 0x73,
  0x74, 0x33, 0x35, 0x00, 0x04, 0x00, 0x00, 0x00, 0x10, 0x00, 0x00, 0x00,
  0x03, 0x00, 0x00, 0x00, 0x03, 0x00, 0x00, 0x00, 0x01, 0x00, 0x00, 0x00,
  0x6a, 0xd7, 0xff, 0xff, 0x00, 0x00, 0x00, 0x01, 0x14, 0x00, 0x00, 0x00,
  0xe4, 0x00, 0x00, 0x00, 0x25, 0x00, 0x00, 0x00, 0x00, 0x00, 0x00, 0x02,
  0xf0, 0x00, 0x00, 0x00, 0xe4, 0xd6, 0xff, 0xff, 0x08, 0x00, 0x00, 0x00,
  0x88, 0x00, 0x00, 0x00, 0x10, 0x00, 0x00, 0x00, 0x00, 0x00, 0x00, 0x00,
  0x00, 0x00, 0x00, 0x00, 0x00, 0x00, 0x00, 0x00, 0x00, 0x00, 0x00, 0x00,
  0x00, 0x00, 0x00, 0x00, 0x00, 0x00, 0x00, 0x00, 0x00, 0x00, 0x00, 0x00,
  0x00, 0x00, 0x00, 0x00, 0x00, 0x00, 0x00, 0x00, 0x00, 0x00, 0x00, 0x00,
  0x00, 0x00, 0x00, 0x00, 0x00, 0x00, 0x00, 0x00, 0x00, 0x00, 0x00, 0x00,
  0x00, 0x00, 0x00, 0x00, 0x00, 0x00, 0x00, 0x00, 0x00, 0x00, 0x00, 0x00,
  0x00, 0x00, 0x00, 0x00, 0x00, 0x00, 0x00, 0x00, 0x00, 0x00, 0x00, 0x00,
  0x00, 0x00, 0x00, 0x00, 0x00, 0x00, 0x00, 0x00, 0x00, 0x00, 0x00, 0x00,
  0x00, 0x00, 0x00, 0x00, 0x00, 0x00, 0x00, 0x00, 0x00, 0x00, 0x00, 0x00,
  0x00, 0x00, 0x00, 0x00, 0x00, 0x00, 0x00, 0x00, 0x00, 0x00, 0x00, 0x00,
  0x00, 0x00, 0x00, 0x00, 0x00, 0x00, 0x00, 0x00, 0x00, 0x00, 0x00, 0x00,
  0x00, 0x00, 0x00, 0x00, 0x10, 0x00, 0x00, 0x00, 0x78, 0xfc, 0xda, 0x36,
  0x40, 0xde, 0xb9, 0x36, 0x4f, 0x28, 0xc1, 0x36, 0x8e, 0x2b, 0xe1, 0x36,
  0x3c, 0x9b, 0xc2, 0x36, 0xbf, 0xcf, 0xa2, 0x36, 0x2b, 0x91, 0xaa, 0x36,
  0x48, 0x6a, 0xab, 0x36, 0x0b, 0xeb, 0xd0, 0x36, 0x54, 0x56, 0xad, 0x36,
  0xc6, 0x0a, 0xc9, 0x36, 0xe4, 0x82, 0xc1, 0x36, 0x69, 0x25, 0xc1, 0x36,
  0x26, 0x50, 0xd3, 0x36, 0xca, 0xef, 0xc0, 0x36, 0x47, 0x77, 0xb9, 0x36,
  0x13, 0x00, 0x00, 0x00, 0x74, 0x66, 0x6c, 0x2e, 0x70, 0x73, 0x65, 0x75,
  0x64, 0x6f, 0x5f, 0x71, 0x63, 0x6f, 0x6e, 0x73, 0x74, 0x33, 0x34, 0x00,
  0x01, 0x00, 0x00, 0x00, 0x10, 0x00, 0x00, 0x00, 0x7a, 0xd8, 0xff, 0xff,
  0x00, 0x00, 0x00, 0x01, 0x14, 0x00, 0x00, 0x00, 0x88, 0x00, 0x00, 0x00,
  0x24, 0x00, 0x00, 0x00, 0x00, 0x00, 0x00, 0x09, 0x94, 0x00, 0x00, 0x00,
  0xf4, 0xd7, 0xff, 0xff, 0x08, 0x00, 0x00, 0x00, 0x4c, 0x00, 0x00, 0x00,
  0x08, 0x00, 0x00, 0x00, 0x00, 0x00, 0x00, 0x00, 0x00, 0x00, 0x00, 0x00,
  0x00, 0x00, 0x00, 0x00, 0x00, 0x00, 0x00, 0x00, 0x00, 0x00, 0x00, 0x00,
  0x00, 0x00, 0x00, 0x00, 0x00, 0x00, 0x00, 0x00, 0x00, 0x00, 0x00, 0x00,
  0x00, 0x00, 0x00, 0x00, 0x00, 0x00, 0x00, 0x00, 0x00, 0x00, 0x00, 0x00,
  0x00, 0x00, 0x00, 0x00, 0x00, 0x00, 0x00, 0x00, 0x00, 0x00, 0x00, 0x00,
  0x00, 0x00, 0x00, 0x00, 0x00, 0x00, 0x00, 0x00, 0x00, 0x00, 0x00, 0x00,
  0x08, 0x00, 0x00, 0x00, 0x56, 0x77, 0x74, 0x3b, 0xc1, 0xed, 0x77, 0x3b,
  0x83, 0xc1, 0x88, 0x3b, 0xdd, 0xe8, 0x6a, 0x3b, 0x46, 0xed, 0x78, 0x3b,
  0xb8, 0xc5, 0x78, 0x3b, 0x31, 0x37, 0x88, 0x3b, 0x02, 0xd0, 0x79, 0x3b,
  0x13, 0x00, 0x00, 0x00, 0x74, 0x66, 0x6c, 0x2e, 0x70, 0x73, 0x65, 0x75,
