
#ifndef A1_TINYESP32CNN_INT8_H
#define A1_TINYESP32CNN_INT8_H

#include <cstdint>

alignas(16) const unsigned char A1_TinyESP32CNN_INT8[] = {
  0x20, 0x00, 0x00, 0x00, 0x54, 0x46, 0x4c, 0x33, 0x00, 0x00, 0x00, 0x00,
  0x14, 0x00, 0x20, 0x00, 0x1c, 0x00, 0x18, 0x00, 0x14, 0x00, 0x10, 0x00,
  0x0c, 0x00, 0x00, 0x00, 0x08, 0x00, 0x04, 0x00, 0x14, 0x00, 0x00, 0x00,
  0x1c, 0x00, 0x00, 0x00, 0x98, 0x00, 0x00, 0x00, 0x18, 0x01, 0x00, 0x00,
  0xe0, 0x1f, 0x00, 0x00, 0xf0, 0x1f, 0x00, 0x00, 0x54, 0x37, 0x00, 0x00,
  0x03, 0x00, 0x00, 0x00, 0x01, 0x00, 0x00, 0x00, 0x10, 0x00, 0x00, 0x00,
  0x00, 0x00, 0x0a, 0x00, 0x10, 0x00, 0x0c, 0x00, 0x08, 0x00, 0x04, 0x00,
  0x0a, 0x00, 0x00, 0x00, 0x0c, 0x00, 0x00, 0x00, 0x1c, 0x00, 0x00, 0x00,
  0x3c, 0x00, 0x00, 0x00, 0x0f, 0x00, 0x00, 0x00, 0x73, 0x65, 0x72, 0x76,
  0x69, 0x6e, 0x67, 0x5f, 0x64, 0x65, 0x66, 0x61, 0x75, 0x6c, 0x74, 0x00,
  0x01, 0x00, 0x00, 0x00, 0x04, 0x00, 0x00, 0x00, 0x68, 0xff, 0xff, 0xff,
  0x15, 0x00, 0x00, 0x00, 0x04, 0x00, 0x00, 0x00, 0x08, 0x00, 0x00, 0x00,
  0x6f, 0x75, 0x74, 0x70, 0x75, 0x74, 0x5f, 0x30, 0x00, 0x00, 0x00, 0x00,
  0x01, 0x00, 0x00, 0x00, 0x04, 0x00, 0x00, 0x00, 0xfe, 0xdf, 0xff, 0xff,
  0x04, 0x00, 0x00, 0x00, 0x0f, 0x00, 0x00, 0x00, 0x6b, 0x65, 0x72, 0x61,
  0x73, 0x5f, 0x74, 0x65, 0x6e, 0x73, 0x6f, 0x72, 0x5f, 0x31, 0x30, 0x00,
  0x03, 0x00, 0x00, 0x00, 0x5c, 0x00, 0x00, 0x00, 0x2c, 0x00, 0x00, 0x00,
  0x04, 0x00, 0x00, 0x00, 0xb8, 0xff, 0xff, 0xff, 0x19, 0x00, 0x00, 0x00,
  0x04, 0x00, 0x00, 0x00, 0x13, 0x00, 0x00, 0x00, 0x43, 0x4f, 0x4e, 0x56,
  0x45, 0x52, 0x53, 0x49, 0x4f, 0x4e, 0x5f, 0x4d, 0x45, 0x54, 0x41, 0x44,
  0x41, 0x54, 0x41, 0x00, 0xdc, 0xff, 0xff, 0xff, 0x18, 0x00, 0x00, 0x00,
  0x04, 0x00, 0x00, 0x00, 0x13, 0x00, 0x00, 0x00, 0x6d, 0x69, 0x6e, 0x5f,
  0x72, 0x75, 0x6e, 0x74, 0x69, 0x6d, 0x65, 0x5f, 0x76, 0x65, 0x72, 0x73,
  0x69, 0x6f, 0x6e, 0x00, 0x08, 0x00, 0x0c, 0x00, 0x08, 0x00, 0x04, 0x00,
  0x08, 0x00, 0x00, 0x00, 0x17, 0x00, 0x00, 0x00, 0x04, 0x00, 0x00, 0x00,
  0x13, 0x00, 0x00, 0x00, 0x6d, 0x69, 0x6e, 0x5f, 0x72, 0x75, 0x6e, 0x74,
  0x69, 0x6d, 0x65, 0x5f, 0x76, 0x65, 0x72, 0x73, 0x69, 0x6f, 0x6e, 0x00,
  0x1a, 0x00, 0x00, 0x00, 0xc4, 0x1e, 0x00, 0x00, 0xbc, 0x1e, 0x00, 0x00,
  0xa4, 0x1e, 0x00, 0x00, 0x7c, 0x1e, 0x00, 0x00, 0xac, 0x1d, 0x00, 0x00,
  0x1c, 0x1d, 0x00, 0x00, 0x0c, 0x19, 0x00, 0x00, 0x7c, 0x18, 0x00, 0x00,
  0x6c, 0x06, 0x00, 0x00, 0x1c, 0x06, 0x00, 0x00, 0x8c, 0x01, 0x00, 0x00,
  0x5c, 0x01, 0x00, 0x00, 0x04, 0x01, 0x00, 0x00, 0xfc, 0x00, 0x00, 0x00,
  0xf4, 0x00, 0x00, 0x00, 0xec, 0x00, 0x00, 0x00, 0xe4, 0x00, 0x00, 0x00,
  0xdc, 0x00, 0x00, 0x00, 0xd4, 0x00, 0x00, 0x00, 0xcc, 0x00, 0x00, 0x00,
  0xc4, 0x00, 0x00, 0x00, 0xbc, 0x00, 0x00, 0x00, 0xb4, 0x00, 0x00, 0x00,
  0x94, 0x00, 0x00, 0x00, 0x74, 0x00, 0x00, 0x00, 0x04, 0x00, 0x00, 0x00,
  0x0a, 0xe1, 0xff, 0xff, 0x04, 0x00, 0x00, 0x00, 0x60, 0x00, 0x00, 0x00,
  0x0c, 0x00, 0x00, 0x00, 0x08, 0x00, 0x0e, 0x00, 0x08, 0x00, 0x04, 0x00,
  0x08, 0x00, 0x00, 0x00, 0x10, 0x00, 0x00, 0x00, 0x28, 0x00, 0x00, 0x00,
  0x00, 0x00, 0x06, 0x00, 0x08, 0x00, 0x04, 0x00, 0x06, 0x00, 0x00, 0x00,
  0x04, 0x00, 0x00, 0x00, 0x01, 0x00, 0x00, 0x00, 0xeb, 0x03, 0x00, 0x00,
  0x0c, 0x00, 0x18, 0x00, 0x14, 0x00, 0x10, 0x00, 0x0c, 0x00, 0x04, 0x00,
  0x0c, 0x00, 0x00, 0x00, 0x2a, 0xc7, 0x24, 0x85, 0x8c, 0xd8, 0xac, 0x6f,
  0x02, 0x00, 0x00, 0x00, 0x02, 0x00, 0x00, 0x00, 0x04, 0x00, 0x00, 0x00,
  0x06, 0x00, 0x00, 0x00, 0x32, 0x2e, 0x31, 0x39, 0x2e, 0x30, 0x00, 0x00,
  0x76, 0xe1, 0xff, 0xff, 0x04, 0x00, 0x00, 0x00, 0x10, 0x00, 0x00, 0x00,
  0x00, 0x00, 0x00, 0x00, 0x00, 0x00, 0x00, 0x00, 0x00, 0x00, 0x00, 0x00,
  0x00, 0x00, 0x00, 0x00, 0x92, 0xe1, 0xff, 0xff, 0x04, 0x00, 0x00, 0x00,
  0x10, 0x00, 0x00, 0x00, 0x31, 0x2e, 0x31, 0x34, 0x2e, 0x30, 0x00, 0x00,
  0x00, 0x00, 0x00, 0x00, 0x00, 0x00, 0x00, 0x00, 0xa0, 0xcb, 0xff, 0xff,
  0xa4, 0xcb, 0xff, 0xff, 0xa8, 0xcb, 0xff, 0xff, 0xac, 0xcb, 0xff, 0xff,
  0xb0, 0xcb, 0xff, 0xff, 0xb4, 0xcb, 0xff, 0xff, 0xb8, 0xcb, 0xff, 0xff,
  0xbc, 0xcb, 0xff, 0xff, 0xc0, 0xcb, 0xff, 0xff, 0xc4, 0xcb, 0xff, 0xff,
  0xd6, 0xe1, 0xff, 0xff, 0x04, 0x00, 0x00, 0x00, 0x48, 0x00, 0x00, 0x00,
  0x76, 0x14, 0xaa, 0x7f, 0xbc, 0xb3, 0xda, 0x0b, 0xf5, 0x29, 0x1c, 0xa2,
  0x81, 0xe2, 0x10, 0x4e, 0xe3, 0x69, 0xd9, 0x90, 0x01, 0xf4, 0xc0, 0xd2,
  0x1d, 0x81, 0xce, 0x7f, 0xfa, 0xbb, 0x2d, 0xbf, 0xf9, 0x2c, 0xb6, 0x0a,
  0x90, 0x6e, 0x9c, 0xfe, 0x34, 0x63, 0x81, 0x33, 0x46, 0x14, 0xf2, 0x6c,
  0x81, 0x8d, 0xd9, 0x8a, 0x6e, 0x73, 0x7f, 0xff, 0x61, 0xb9, 0x2d, 0xfd,
  0x4d, 0xdb, 0x25, 0xb4, 0x2f, 0xbc, 0x7f, 0x24, 0xc3, 0x68, 0x3a, 0x5e,
  0x2a, 0xe2, 0xff, 0xff, 0x04, 0x00, 0x00, 0x00, 0x20, 0x00, 0x00, 0x00,
  0xb8, 0xfa, 0xff, 0xff, 0x38, 0x01, 0x00, 0x00, 0x0b, 0xfd, 0xff, 0xff,
  0x79, 0xfa, 0xff, 0xff, 0x6f, 0xdf, 0xff, 0xff, 0x8c, 0x12, 0x00, 0x00,
  0x55, 0xab, 0xff, 0xff, 0x0c, 0xbf, 0xff, 0xff, 0x56, 0xe2, 0xff, 0xff,
  0x04, 0x00, 0x00, 0x00, 0x80, 0x04, 0x00, 0x00, 0x59, 0x1b, 0x2a, 0x0b,
  0x09, 0x24, 0xf7, 0xf4, 0xda, 0xf2, 0xce, 0xd9, 0xed, 0x30, 0xbb, 0x16,
  0x7f, 0xd7, 0x0a, 0x4b, 0xde, 0x1b, 0xc8, 0x2b, 0x54, 0x11, 0xfa, 0x36,
  0xfe, 0x23, 0xdf, 0x1e, 0xf8, 0x3b, 0x2d, 0x2e, 0x3f, 0x52, 0xe6, 0xbf,
  0x27, 0x4a, 0x09, 0x6d, 0xd8, 0x00, 0xe6, 0x29, 0x48, 0xed, 0x1e, 0x15,
  0xe4, 0x4b, 0xc3, 0x02, 0xc2, 0x35, 0xeb, 0xa4, 0x1e, 0x45, 0xfd, 0x16,
  0x26, 0xf2, 0x25, 0x63, 0x09, 0xef, 0xc3, 0xf4, 0x52, 0x2f, 0x28, 0x2a,
  0x13, 0x09, 0xd5, 0x3b, 0x49, 0x12, 0xe4, 0x7f, 0xf2, 0x00, 0xae, 0xf1,
  0x1d, 0x41, 0xe5, 0x33, 0xc0, 0x3e, 0xc9, 0x14, 0x79, 0x16, 0xcd, 0x26,
  0xd9, 0x6d, 0xcf, 0xba, 0x33, 0x63, 0xcb, 0x46, 0x1c, 0x3c, 0xdd, 0xce,
  0xf1, 0x52, 0xca, 0x07, 0xe8, 0x70, 0xce, 0x35, 0x01, 0x2f, 0xe3, 0x2e,
  0xff, 0x3c, 0x95, 0xee, 0xc4, 0xf8, 0x0b, 0xd2, 0xb3, 0x38, 0xad, 0x0a,
  0x27, 0xf3, 0xde, 0xd8, 0xf5, 0x38, 0x0a, 0xcb, 0x2b, 0x25, 0xef, 0x2e,
  0xef, 0x2e, 0x1b, 0xf0, 0xdb, 0xd5, 0xfa, 0xef, 0x81, 0xd8, 0xcb, 0x04,
  0xb5, 0xe5, 0xf0, 0xb4, 0xd1, 0xf2, 0xb0, 0xf8, 0x0b, 0x39, 0xf0, 0x1e,
  0xe2, 0x01, 0xf6, 0x0c, 0xca, 0xab, 0xf3, 0xf1, 0xab, 0xea, 0xcb, 0x03,
  0xd9, 0xc7, 0x00, 0xe4, 0xeb, 0x11, 0xcc, 0xd8, 0x24, 0x2c, 0xf0, 0x26,
  0xd9, 0xfe, 0xf4, 0xf6, 0xd4, 0xd9, 0x16, 0xed, 0xbb, 0x00, 0xc2, 0xe8,
  0xb8, 0xa3, 0xf1, 0xb3, 0xda, 0xe5, 0xa9, 0xc8, 0xd9, 0xc6, 0xe8, 0xef,
  0xfd, 0x08, 0x25, 0x22, 0xc1, 0x93, 0x06, 0xb8, 0x00, 0xab, 0x18, 0x2b,
  0xe7, 0xd5, 0x08, 0xcb, 0xde, 0xaa, 0x0b, 0x2b, 0xbd, 0x88, 0x05, 0xbe,
  0x0d, 0xf4, 0x1d, 0x02, 0xbc, 0x81, 0xec, 0xa1, 0xe3, 0xb2, 0x21, 0x26,
  0xd1, 0x97, 0x14, 0xc9, 0xfe, 0xa4, 0x0c, 0x0a, 0xa7, 0xbf, 0x06, 0xc0,
  0x17, 0xd6, 0xfb, 0x1d, 0xad, 0xa4, 0x15, 0xc1, 0xf1, 0xb1, 0x15, 0xfd,
  0x0c, 0xb3, 0x0a, 0xe7, 0x07, 0xdc, 0x1c, 0xfa, 0x63, 0x5b, 0xda, 0x7a,
  0x33, 0x3d, 0x11, 0xeb, 0x12, 0x4c, 0x24, 0x38, 0x2f, 0x45, 0xdc, 0xd0,
  0xf4, 0x26, 0x17, 0x38, 0x24, 0x2c, 0x15, 0xea, 0x77, 0x6b, 0x2c, 0x59,
  0x09, 0xf8, 0x19, 0xf9, 0x67, 0x59, 0x1b, 0x3c, 0xee, 0x54, 0xef, 0xfd,
  0x46, 0x5e, 0x22, 0x0c, 0xfb, 0x1f, 0xfa, 0x13, 0x70, 0x2c, 0x24, 0x31,
  0x46, 0x44, 0x10, 0xef, 0x29, 0x7f, 0x05, 0x62, 0x41, 0x1f, 0xf4, 0xda,
  0x38, 0x52, 0xeb, 0x52, 0x4a, 0x5a, 0xed, 0xf1, 0x81, 0x0d, 0xeb, 0xa2,
  0xdb, 0x0a, 0xda, 0xf6, 0xfd, 0x2b, 0x16, 0xda, 0x2c, 0x45, 0x0e, 0xfc,
  0xfa, 0x1f, 0xe1, 0xe1, 0x28, 0x15, 0x24, 0x09, 0x8f, 0xb4, 0x04, 0xc5,
  0xe9, 0x0c, 0xdd, 0xd4, 0xf3, 0xfe, 0xf7, 0xee, 0x0e, 0x0e, 0x17, 0x05,
  0xca, 0xf2, 0x03, 0xf4, 0x0e, 0xfa, 0x03, 0x23, 0xa3, 0x19, 0x1e, 0xd3,
  0xea, 0x20, 0xdf, 0x02, 0xd0, 0x49, 0x0b, 0xe9, 0x30, 0x35, 0xee, 0x1f,
  0xea, 0x39, 0x0d, 0xca, 0x13, 0x31, 0x0e, 0x30, 0x05, 0xe6, 0xd7, 0xf2,
  0x35, 0xe0, 0x1e, 0x12, 0x2d, 0xde, 0xe4, 0x2a, 0xbb, 0x98, 0xff, 0x39,
  0xf6, 0xac, 0xfc, 0xac, 0xb7, 0xc9, 0xf6, 0x1c, 0x89, 0xc9, 0x2c, 0xa5,
  0xec, 0x0a, 0x1f, 0x03, 0xe5, 0xcf, 0x23, 0xa7, 0x31, 0xc6, 0x02, 0xee,
  0x04, 0x81, 0x0c, 0x10, 0xe0, 0xca, 0x01, 0xfc, 0xfb, 0xcb, 0xea, 0x9d,
  0xb8, 0xfe, 0xfd, 0x37, 0xce, 0xdd, 0x08, 0xe0, 0x16, 0x06, 0x17, 0x2d,
  0x68, 0xbb, 0xd4, 0x2e, 0x19, 0xd2, 0x18, 0x27, 0x58, 0x62, 0xf0, 0x79,
  0x1f, 0x30, 0xf7, 0xe4, 0x01, 0x11, 0x20, 0x35, 0x37, 0x0b, 0x04, 0xd1,
  0x47, 0x56, 0xcd, 0x60, 0x04, 0x21, 0x0f, 0xd2, 0x5d, 0x62, 0xec, 0x38,
  0xfe, 0x2b, 0x0d, 0xfb, 0xdf, 0x64, 0x12, 0x34, 0xda, 0x64, 0x24, 0x0a,
  0xe4, 0x6f, 0xd9, 0xdd, 0x2a, 0x57, 0xd7, 0x12, 0x67, 0x7f, 0xe9, 0x7c,
  0x44, 0x71, 0xde, 0x16, 0xfa, 0x6c, 0xce, 0x7a, 0xf7, 0x4b, 0x04, 0xf2,
  0xdb, 0x2e, 0x11, 0x19, 0x50, 0x3b, 0xee, 0xdd, 0x46, 0x34, 0xee, 0x5f,
  0xc6, 0x92, 0x46, 0x28, 0x28, 0x0a, 0x1b, 0x6c, 0xfc, 0x85, 0x15, 0xe8,
  0xe5, 0xc1, 0xf4, 0x05, 0xe9, 0xe9, 0xd7, 0xc8, 0x42, 0xff, 0x27, 0x3b,
  0xd0, 0xad, 0x23, 0x2e, 0x54, 0xc0, 0x1c, 0x44, 0xd1, 0x9d, 0xf1, 0x0b,
  0x0d, 0x81, 0xfa, 0xfb, 0xe3, 0xb5, 0xde, 0x0d, 0x55, 0xf1, 0xf1, 0x36,
  0xd5, 0xac, 0x27, 0x02, 0x32, 0xdd, 0xd9, 0x65, 0xd4, 0x8b, 0x23, 0x1e,
  0x0e, 0xd7, 0xe6, 0xe9, 0xd1, 0xfa, 0x0d, 0xc7, 0xed, 0x2f, 0x30, 0x43,
  0xef, 0xd0, 0xcc, 0xd0, 0xbc, 0x4c, 0x21, 0xca, 0x0c, 0xf0, 0x0b, 0xd2,
  0x62, 0x07, 0xcd, 0x66, 0x12, 0x2b, 0x0f, 0x0e, 0x2d, 0x0c, 0x2e, 0xd8,
  0xc8, 0x28, 0xde, 0x08, 0xc2, 0x16, 0xcf, 0xd3, 0x29, 0x50, 0xf5, 0x21,
  0x64, 0x53, 0xd5, 0x7f, 0xf2, 0xf7, 0x17, 0x34, 0x37, 0xfb, 0xd4, 0x16,
  0xea, 0x2d, 0x23, 0xce, 0xbe, 0x30, 0x31, 0x11, 0xec, 0x1e, 0x2d, 0x01,
  0x48, 0x42, 0x24, 0x62, 0x46, 0x46, 0xfa, 0xcc, 0xbe, 0x0e, 0x01, 0xfa,
  0x1a, 0xee, 0xb7, 0xe8, 0x84, 0x3d, 0x0c, 0xa2, 0x09, 0x22, 0xdb, 0xe1,
  0x8d, 0xcc, 0x1a, 0xaa, 0x3c, 0x4a, 0x24, 0x14, 0xdb, 0xda, 0xf1, 0xc6,
  0xf6, 0xf6, 0xb5, 0xfe, 0x89, 0x0b, 0xf2, 0xba, 0xf2, 0x1b, 0xf9, 0xc8,
  0x85, 0xd3, 0xd1, 0x89, 0x28, 0x2d, 0xd7, 0xdd, 0xf8, 0x17, 0x31, 0xd0,
  0xe0, 0x11, 0xf5, 0x31, 0xa6, 0x23, 0x05, 0xaa, 0x10, 0x2d, 0xe0, 0x23,
  0xa2, 0x2c, 0xea, 0x81, 0x03, 0x5e, 0x17, 0x43, 0xdb, 0xb9, 0x1a, 0xda,
  0x0d, 0x16, 0xd8, 0xe1, 0x81, 0xd1, 0x0b, 0xb9, 0xfb, 0xf1, 0x09, 0xee,
  0x98, 0xe9, 0xf1, 0xea, 0x32, 0x4d, 0x11, 0x00, 0xb3, 0xbb, 0x13, 0xc2,
  0xe5, 0xe3, 0xc7, 0xf5, 0x96, 0xd2, 0xd9, 0xa0, 0x15, 0xe1, 0x0d, 0xdd,
  0xb8, 0xcd, 0xe4, 0xa6, 0x30, 0x20, 0xe4, 0xd8, 0xb6, 0x02, 0xe4, 0xd4,
  0xdb, 0xf7, 0x08, 0xe6, 0xc0, 0x4c, 0x01, 0x96, 0xe0, 0x12, 0xdc, 0x0f,
  0xbc, 0x23, 0xd8, 0x89, 0x05, 0x58, 0x2b, 0x2d, 0x8f, 0x37, 0x17, 0x9d,
  0x4e, 0x05, 0x09, 0x3c, 0x10, 0x79, 0x2a, 0xf0, 0x44, 0x49, 0x17, 0x4d,
  0x26, 0x7e, 0x3c, 0xd3, 0x2f, 0xff, 0x4d, 0x05, 0xb2, 0x0b, 0x01, 0xa6,
  0x0b, 0x70, 0xef, 0xfa, 0xe4, 0x5b, 0xf8, 0x02, 0x4b, 0x58, 0x46, 0x04,
  0xe8, 0x59, 0xfa, 0x07, 0xf8, 0x2d, 0x59, 0xce, 0xae, 0x0d, 0x3f, 0xa4,
  0xd0, 0x7f, 0x00, 0xba, 0xc6, 0x45, 0x26, 0x10, 0x50, 0xf0, 0x43, 0xef,
  0xeb, 0xeb, 0x3e, 0x16, 0xdb, 0xf5, 0xfc, 0x1b, 0xf5, 0xec, 0x28, 0xd8,
  0xd6, 0x2d, 0xc2, 0xc7, 0x2c, 0xf5, 0xdb, 0x12, 0x03, 0x0e, 0xff, 0xdf,
  0x1b, 0x26, 0xf5, 0x3b, 0xd2, 0xd1, 0xde, 0x1e, 0x1d, 0xe4, 0x0b, 0x26,
  0xe6, 0xfe, 0xfa, 0x07, 0xe1, 0x01, 0xdb, 0xd8, 0x3a, 0x3b, 0xde, 0x08,
  0x0b, 0x14, 0x27, 0x46, 0xec, 0xf7, 0x1c, 0x1b, 0xf9, 0x04, 0x07, 0xf9,
  0xfa, 0x19, 0xf5, 0xea, 0xdb, 0x32, 0x1f, 0xdb, 0x2c, 0x28, 0x03, 0xdd,
  0x5b, 0xea, 0xe8, 0x7f, 0xd6, 0xe6, 0x0a, 0x29, 0x21, 0xdb, 0xd7, 0x19,
  0xeb, 0xfd, 0xce, 0x08, 0x94, 0x36, 0x0e, 0x84, 0xe7, 0x16, 0xf8, 0x17,
  0x14, 0x18, 0x2a, 0x51, 0x35, 0x4d, 0x13, 0x2e, 0x32, 0xd4, 0x2a, 0x62,
  0xdd, 0x0f, 0x23, 0xf7, 0xa6, 0xe7, 0xdd, 0x81, 0xfd, 0x2b, 0xe2, 0xd8,
  0xf4, 0x0a, 0x1e, 0x1e, 0x5d, 0x27, 0x25, 0x08, 0x2c, 0xda, 0x1e, 0x63,
  0x2a, 0xdc, 0x09, 0x16, 0xc0, 0x15, 0x0d, 0xea, 0x12, 0x20, 0xd6, 0xd4,
  0xf4, 0x34, 0x18, 0xfc, 0x1c, 0x27, 0x0f, 0x16, 0x00, 0x70, 0xe0, 0x34,
  0xb5, 0xe7, 0xb6, 0xff, 0xd6, 0x7f, 0x00, 0x39, 0xbe, 0x2d, 0xa1, 0xfb,
  0xfc, 0x06, 0x0f, 0xb9, 0xf7, 0x42, 0xda, 0xed, 0x05, 0x66, 0xfb, 0xf0,
  0xc7, 0xe1, 0xac, 0xef, 0xa4, 0x08, 0x0b, 0xda, 0xd4, 0x1d, 0x01, 0x15,
  0xa9, 0xf0, 0x37, 0xaf, 0xbe, 0x18, 0xc2, 0xcb, 0x02, 0x17, 0x24, 0xe9,
  0xf5, 0xb0, 0xfb, 0x3c, 0xd6, 0x28, 0x36, 0xaa, 0xf8, 0x2b, 0xf4, 0x58,
  0xa7, 0x30, 0xe8, 0x9c, 0xf9, 0x26, 0x36, 0xf4, 0xe2, 0xe6, 0xff, 0xff,
  0x04, 0x00, 0x00, 0x00, 0x40, 0x00, 0x00, 0x00, 0xec, 0x0f, 0x00, 0x00,
  0x6f, 0x35, 0x00, 0x00, 0x01, 0x1b, 0x00, 0x00, 0xc0, 0x13, 0x00, 0x00,
  0x9b, 0xfb, 0xff, 0xff, 0x0a, 0xdc, 0xff, 0xff, 0x26, 0x1a, 0x00, 0x00,
  0x3f, 0xfa, 0xff, 0xff, 0x4b, 0xd9, 0xff, 0xff, 0x8d, 0xd5, 0xff, 0xff,
  0xab, 0x2f, 0x00, 0x00, 0x37, 0x2b, 0x00, 0x00, 0xcd, 0xb9, 0xff, 0xff,
  0xa5, 0x0e, 0x00, 0x00, 0xda, 0xea, 0xff, 0xff, 0x54, 0x39, 0x00, 0x00,
  0x2e, 0xe7, 0xff, 0xff, 0x04, 0x00, 0x00, 0x00, 0x00, 0x12, 0x00, 0x00,
  0x3d, 0xec, 0xe7, 0xa8, 0xf9, 0x2e, 0xe7, 0xf0, 0x3e, 0x35, 0x3b, 0x39,
  0x17, 0x41, 0x6e, 0x2e, 0xf8, 0xee, 0x22, 0xd0, 0x12, 0x57, 0x22, 0x17,
  0x66, 0x10, 0x41, 0x29, 0x1f, 0x15, 0x48, 0x07, 0xf8, 0x1b, 0x1e, 0xc6,
  0x10, 0x39, 0x0b, 0xfb, 0x5f, 0x26, 0x0b, 0xff, 0x2c, 0x13, 0x1f, 0xe9,
  0x0d, 0x0d, 0x3c, 0xba, 0xff, 0x2a, 0xe8, 0xf7, 0x68, 0x13, 0x3d, 0x1d,
  0x05, 0xf9, 0x71, 0x1d, 0x02, 0xec, 0x5e, 0xd1, 0xf3, 0x5a, 0xfd, 0x0a,
  0x53, 0x1b, 0x3d, 0x3d, 0x50, 0x0f, 0x33, 0x05, 0x31, 0xe5, 0x32, 0xf2,
  0x09, 0x38, 0x1d, 0x1f, 0x7f, 0x14, 0xee, 0x0e, 0xff, 0x10, 0x36, 0x05,
  0xfb, 0x04, 0x4a, 0xa0, 0xf3, 0x51, 0xe8, 0x15, 0x4b, 0x34, 0x5b, 0x2b,
  0x21, 0x10, 0x5e, 0x0b, 0x1f, 0x0e, 0x52, 0xd1, 0xe6, 0x3b, 0xe7, 0x10,
  0x62, 0x1f, 0x32, 0x49, 0x4b, 0xff, 0x4e, 0x1d, 0x1b, 0x0a, 0x2c, 0xc1,
  0x04, 0x2c, 0xf5, 0x1c, 0x75, 0x17, 0xfe, 0x17, 0xec, 0x3d, 0x43, 0xd9,
  0xe6, 0xed, 0x81, 0x1b, 0xd5, 0x09, 0xfa, 0xec, 0xed, 0x01, 0xca, 0xb8,
  0x2e, 0xe9, 0xef, 0xab, 0xd9, 0xce, 0xb5, 0x07, 0xea, 0xba, 0xf8, 0xdf,
  0x1f, 0xe9, 0x9d, 0xa4, 0x1c, 0xe4, 0xef, 0x9c, 0xd4, 0xd3, 0x8b, 0x12,
  0x02, 0xfd, 0x04, 0xed, 0x0b, 0xee, 0xb7, 0xa3, 0x02, 0xe4, 0xf7, 0x8b,
  0x38, 0x23, 0x1d, 0xfa, 0x25, 0xef, 0xee, 0x08, 0x18, 0xfd, 0x20, 0x04,
  0x18, 0x0f, 0x2b, 0x1d, 0x25, 0x1b, 0x1e, 0xf8, 0x13, 0xea, 0xf1, 0x1a,
  0x05, 0xfd, 0x22, 0x00, 0x0a, 0x01, 0x21, 0x0a, 0x14, 0x1a, 0x14, 0x07,
  0x0a, 0x11, 0x09, 0x25, 0xf4, 0xe8, 0x06, 0x11, 0x26, 0x05, 0x09, 0x0f,
  0x11, 0x27, 0xff, 0xff, 0x06, 0xcc, 0xeb, 0x01, 0x13, 0xdc, 0x17, 0x0a,
  0xde, 0x0b, 0xe2, 0x36, 0x09, 0x2a, 0xff, 0xe6, 0x0c, 0xc7, 0xf1, 0x0e,
  0x06, 0xe9, 0x29, 0x25, 0xf6, 0x13, 0x07, 0x49, 0xff, 0x22, 0xf2, 0xf4,
  0xee, 0xe5, 0xf6, 0xe9, 0xdd, 0xd1, 0x30, 0x15, 0x0e, 0x14, 0xeb, 0x3f,
  0x11, 0x27, 0x81, 0x09, 0x1f, 0xf4, 0x0b, 0x06, 0xca, 0x09, 0xf0, 0xe2,
  0x03, 0x18, 0x1a, 0xf1, 0x29, 0x27, 0xe8, 0x01, 0x16, 0xc3, 0x05, 0x29,
  0xcb, 0x02, 0xec, 0xd7, 0xf4, 0xf9, 0xfe, 0xfc, 0x22, 0x26, 0xa8, 0xe2,
  0x1e, 0xf7, 0xf0, 0x14, 0xc4, 0x03, 0xf5, 0xf6, 0x03, 0x0a, 0x15, 0xfe,
  0x23, 0x1f, 0x9e, 0xf0, 0x30, 0xe5, 0xed, 0x11, 0xd8, 0x05, 0xfc, 0xd8,
  0x00, 0x05, 0x0a, 0xf8, 0x20, 0x2e, 0xe9, 0xf3, 0x1e, 0xcc, 0xfd, 0x2b,
  0xdf, 0x00, 0xe8, 0xda, 0x00, 0x19, 0x12, 0x13, 0x34, 0x12, 0xba, 0xf0,
  0x33, 0xd7, 0xff, 0x0c, 0xc8, 0x1e, 0x00, 0xf0, 0x0e, 0x21, 0x16, 0xfd,
  0x2d, 0x17, 0xc4, 0xf1, 0x19, 0xe9, 0x07, 0x19, 0xe9, 0x15, 0xfa, 0xdd,
  0xef, 0x20, 0x06, 0x05, 0x08, 0x1e, 0xe7, 0xe6, 0x19, 0xc1, 0x0a, 0x2a,
  0xe0, 0x09, 0xef, 0xe9, 0xf3, 0x08, 0x11, 0x20, 0x17, 0x24, 0xb6, 0x04,
  0x29, 0xdb, 0x13, 0x23, 0xce, 0x23, 0x1b, 0xf4, 0xfb, 0x1c, 0x05, 0x11,
  0xea, 0x06, 0x44, 0xbe, 0x26, 0x39, 0xd2, 0x1e, 0x21, 0x12, 0x0b, 0x45,
  0x3d, 0xe1, 0xf4, 0x20, 0x1f, 0xe3, 0x58, 0xd9, 0x0e, 0x7f, 0xdd, 0x10,
  0x68, 0x13, 0x35, 0x17, 0x2a, 0xfb, 0x1e, 0x40, 0x0d, 0xde, 0x3a, 0xc5,
  0xfd, 0x59, 0xeb, 0x04, 0x06, 0x35, 0x09, 0x16, 0x32, 0xe1, 0x32, 0x29,
  0xd3, 0xeb, 0x3d, 0xb8, 0xe9, 0x5e, 0xed, 0x0c, 0xf5, 0xf0, 0x34, 0x23,
  0x36, 0xda, 0x1f, 0x37, 0xe4, 0xe3, 0x51, 0xd8, 0x18, 0x6c, 0xf2, 0x1b,
  0x3f, 0x01, 0x31, 0x3d, 0x49, 0xf4, 0x12, 0x17, 0xe7, 0xec, 0x34, 0xe5,
  0x05, 0x41, 0x0f, 0x0d, 0x08, 0x0b, 0x1f, 0x13, 0x04, 0x09, 0x1d, 0x27,
  0x03, 0x04, 0x79, 0xd1, 0x19, 0x3f, 0xd4, 0x29, 0x18, 0x0f, 0x19, 0x27,
  0x43, 0x13, 0x31, 0x17, 0x02, 0x02, 0x79, 0xdc, 0x09, 0x7d, 0xe6, 0x27,
  0x3b, 0x1d, 0xf4, 0x14, 0x68, 0x09, 0x3d, 0x0f, 0xff, 0x0d, 0x69, 0xe4,
  0x06, 0x27, 0xde, 0x35, 0x13, 0x30, 0xee, 0x0f, 0x46, 0xf4, 0x30, 0x26,
  0x1e, 0x09, 0xfa, 0x21, 0x1d, 0x1b, 0x11, 0x0c, 0xf6, 0x19, 0xf2, 0xbc,
  0x18, 0x18, 0x02, 0xb9, 0x08, 0x11, 0x0b, 0xfb, 0x21, 0xe4, 0x07, 0x17,
  0x07, 0xef, 0xde, 0xe7, 0xef, 0x15, 0x38, 0xed, 0x28, 0x01, 0x81, 0x1d,
  0x08, 0x08, 0x0c, 0x22, 0xed, 0xfe, 0xd4, 0xdc, 0x03, 0x07, 0x0d, 0xb4,
  0x42, 0xee, 0xd1, 0x1c, 0x02, 0x2b, 0xf0, 0x2b, 0xd2, 0xff, 0xc9, 0xca,
  0xf1, 0x34, 0x2b, 0xa4, 0x29, 0x0f, 0x1d, 0xee, 0x12, 0xe7, 0x1b, 0xfe,
  0x09, 0x0d, 0xd7, 0xcd, 0x0b, 0xf5, 0x18, 0xd5, 0x47, 0xef, 0xaa, 0xf9,
  0x0e, 0x16, 0x0a, 0x0d, 0xf3, 0xff, 0xe7, 0xbe, 0xea, 0x38, 0x1c, 0xbb,
  0x33, 0x1c, 0xf1, 0xee, 0x1b, 0x16, 0x04, 0x2b, 0x0e, 0x1b, 0xf4, 0xc0,
  0x00, 0x2d, 0x0d, 0xa1, 0x38, 0xe6, 0x0f, 0x21, 0x02, 0xf3, 0xf6, 0x0f,
  0x02, 0x01, 0xf2, 0xd1, 0x14, 0xf1, 0x2b, 0xe5, 0x0e, 0x0b, 0x8d, 0xec,
  0x1e, 0x1a, 0x23, 0x0c, 0xf5, 0x2d, 0xf0, 0xc8, 0xfd, 0x27, 0x12, 0x9e,
  0x3d, 0x30, 0x05, 0xd5, 0x32, 0xe6, 0xfc, 0x37, 0x77, 0xde, 0x52, 0x34,
  0xae, 0x0b, 0xdb, 0x5b, 0xfe, 0x3c, 0x0b, 0xdd, 0x2c, 0xe9, 0xf4, 0x16,
  0x4f, 0xbb, 0x63, 0x68, 0x07, 0x05, 0x2a, 0x42, 0xe9, 0x2c, 0x10, 0xfa,
  0xbe, 0x22, 0xfa, 0xe7, 0xcc, 0xc7, 0x42, 0x4d, 0x1f, 0x04, 0xd8, 0x26,
  0x2c, 0x1e, 0xe7, 0x02, 0x17, 0xf1, 0x13, 0xf3, 0x7f, 0xc2, 0x30, 0x11,
  0x9f, 0xca, 0xde, 0x2e, 0xeb, 0x03, 0xdd, 0xf2, 0x1e, 0x0e, 0xee, 0x00,
  0x2a, 0xc1, 0x47, 0x5d, 0xea, 0xac, 0x47, 0x2c, 0xda, 0xf2, 0xce, 0x0d,
  0xab, 0x35, 0xf1, 0xb1, 0xe8, 0xbf, 0x50, 0x2d, 0x1f, 0xb3, 0xd8, 0x20,
  0x14, 0xf6, 0x04, 0x1c, 0xdc, 0x09, 0x1a, 0xef, 0x67, 0xba, 0x46, 0x13,
  0xd6, 0xd4, 0xf8, 0x1c, 0xc8, 0xf0, 0xf7, 0x15, 0xe4, 0xf1, 0xf5, 0xbe,
  0x16, 0xc3, 0x3b, 0x39, 0xef, 0xc4, 0x3e, 0x33, 0xd6, 0xe5, 0xca, 0x2e,
  0xda, 0x16, 0x15, 0xde, 0x17, 0xd3, 0x27, 0x36, 0x20, 0x04, 0xe6, 0x0c,
  0x9d, 0xcc, 0x35, 0xe9, 0x30, 0x12, 0xa4, 0xd5, 0x0b, 0x8d, 0x84, 0xf5,
  0xa7, 0xbb, 0xf7, 0x01, 0x92, 0x13, 0x0f, 0xd4, 0x33, 0xe4, 0x37, 0x3f,
  0x3f, 0xe1, 0x32, 0xfb, 0x95, 0xd2, 0x8d, 0x95, 0xf2, 0x2b, 0xec, 0x33,
  0xa0, 0x02, 0x9c, 0x10, 0x3d, 0xd3, 0xa9, 0x33, 0xd8, 0x31, 0x24, 0x4d,
  0x3c, 0xd0, 0x13, 0xd7, 0x99, 0x38, 0x09, 0x96, 0x42, 0xc0, 0x99, 0xbf,
  0xc1, 0xba, 0xbb, 0x05, 0xdc, 0x0d, 0xf3, 0xa7, 0xc2, 0x2f, 0x9f, 0xa5,
  0xe9, 0x1f, 0x44, 0x15, 0x2c, 0x01, 0x2a, 0xf8, 0x39, 0x81, 0x0a, 0xa6,
  0xb2, 0xe3, 0xaa, 0x8f, 0xf0, 0xc4, 0xa0, 0xa9, 0xc4, 0x4b, 0x2e, 0x45,
  0x0c, 0x1a, 0x25, 0x24, 0xb5, 0x9d, 0xdf, 0xdc, 0x0c, 0xb6, 0x18, 0x35,
  0x9b, 0x38, 0xf7, 0x4c, 0x2b, 0xaf, 0xd3, 0xd5, 0x00, 0xa4, 0xbe, 0xcc,
  0xcf, 0x23, 0xc3, 0xb7, 0x9e, 0x00, 0xf6, 0x21, 0xd2, 0xb6, 0x4c, 0x1f,
  0x2b, 0xc1, 0x96, 0x26, 0xb1, 0x13, 0xbb, 0x2d, 0x3c, 0x0c, 0x91, 0x4d,
  0x0d, 0x19, 0xab, 0x02, 0x15, 0x16, 0x23, 0x08, 0x07, 0xf1, 0x4a, 0x11,
  0x13, 0xdc, 0xf7, 0x50, 0x1c, 0x2a, 0xb3, 0x1e, 0xf4, 0x11, 0x03, 0xf0,
  0x14, 0xda, 0x2c, 0x1a, 0x1b, 0xf8, 0xf5, 0x4f, 0xf8, 0x3d, 0xda, 0x2a,
  0xd8, 0xdb, 0x14, 0x08, 0x0c, 0xda, 0x0d, 0x14, 0x2f, 0xfc, 0x05, 0x2d,
  0x00, 0x14, 0x81, 0x22, 0xe0, 0xfe, 0x0f, 0xd5, 0x2b, 0xfb, 0x10, 0x0e,
  0x35, 0xd4, 0x2c, 0x1d, 0x07, 0x1e, 0x9e, 0x0f, 0xcb, 0xec, 0x1c, 0xf7,
  0x28, 0xb9, 0x20, 0x10, 0x32, 0xdf, 0xfe, 0xff, 0xe8, 0x0e, 0xaa, 0x30,
  0xc4, 0xe4, 0x23, 0xbf, 0x00, 0xb5, 0x03, 0xf4, 0x02, 0xe3, 0xdd, 0xef,
  0x04, 0x06, 0x82, 0x35, 0xdf, 0x08, 0x2b, 0xf0, 0x0f, 0xf3, 0x1d, 0xe3,
  0x1e, 0x0d, 0x29, 0x20, 0xef, 0x17, 0xaf, 0x34, 0xed, 0xff, 0x26, 0x0a,
  0x10, 0xee, 0x22, 0xdc, 0x2e, 0xd7, 0xec, 0x12, 0xe5, 0x1e, 0xba, 0x0f,
  0x0c, 0xe6, 0xf5, 0x03, 0x29, 0xdc, 0xf6, 0xeb, 0x15, 0xf2, 0x00, 0x03,
  0x05, 0xf0, 0xc9, 0x2b, 0x06, 0x30, 0x22, 0x23, 0xc3, 0x38, 0xaa, 0xca,
  0x13, 0x37, 0xd5, 0xb2, 0xc4, 0xdf, 0xc8, 0x2c, 0xd2, 0xec, 0x05, 0xd7,
  0xf6, 0x02, 0xa3, 0xc8, 0x05, 0x2b, 0xd0, 0xb1, 0xf5, 0xe7, 0xf1, 0x37,
  0xc3, 0x01, 0x26, 0xc3, 0xed, 0x22, 0x81, 0xd1, 0x22, 0x20, 0xdf, 0x8e,
  0x10, 0xe2, 0xbd, 0x11, 0x07, 0xfc, 0x23, 0x16, 0xde, 0x1f, 0x9c, 0xb6,
  0xe0, 0x31, 0xdf, 0xbd, 0x05, 0xe4, 0x03, 0x29, 0xcd, 0xc8, 0xfa, 0xd9,
  0xfb, 0x03, 0xbf, 0xf6, 0xde, 0x0d, 0xcd, 0xe1, 0xec, 0xe0, 0xd1, 0x0b,
  0xcb, 0xf8, 0x18, 0xc4, 0xce, 0x09, 0xa9, 0xf6, 0xf1, 0x00, 0xcf, 0xb6,
  0x29, 0xf4, 0xea, 0x29, 0xfa, 0xfe, 0x1a, 0x10, 0xbe, 0x0d, 0xad, 0xc2,
  0xe0, 0x12, 0xde, 0xdc, 0x09, 0xf3, 0xe0, 0x02, 0xc7, 0xdb, 0x29, 0xbf,
  0xd2, 0xe4, 0xd4, 0x0f, 0xe6, 0xfc, 0xb8, 0xd5, 0x17, 0xe3, 0xd1, 0x28,
  0xbe, 0xdf, 0x22, 0xd2, 0xf0, 0x22, 0xc4, 0xe3, 0xe8, 0x06, 0xe0, 0xc8,
  0x04, 0x1a, 0xa1, 0xfa, 0xfb, 0xdd, 0xf8, 0xee, 0xf9, 0x15, 0xf4, 0x0d,
  0x06, 0xfc, 0xef, 0x0d, 0x38, 0x23, 0xf3, 0xe7, 0x12, 0xb0, 0xfa, 0x00,
  0xb5, 0x03, 0xe6, 0xe1, 0xc7, 0x2b, 0x0e, 0xf6, 0x37, 0x2f, 0xb0, 0x0e,
  0x14, 0xbc, 0x0c, 0x23, 0xac, 0x08, 0xe0, 0xf1, 0xd1, 0x19, 0x1e, 0xea,
  0x31, 0xef, 0x92, 0xf8, 0x3a, 0xc0, 0xff, 0x1b, 0x13, 0x45, 0xd9, 0xcb,
  0xe5, 0x34, 0x09, 0xe7, 0x4b, 0x2b, 0xb9, 0xec, 0x30, 0x90, 0xe3, 0x12,
  0xbf, 0x28, 0xe9, 0xbf, 0xb8, 0x38, 0x19, 0xe5, 0x50, 0x1f, 0xc2, 0xf2,
  0x4d, 0xb1, 0xe9, 0x59, 0xf2, 0x16, 0xdf, 0xf1, 0xf1, 0x47, 0x54, 0x06,
  0x56, 0x14, 0x94, 0xf3, 0x13, 0xdc, 0x17, 0x31, 0xed, 0x0d, 0xf7, 0xd8,
  0xe6, 0x13, 0x1b, 0xe4, 0x30, 0x15, 0xbe, 0xd7, 0x3f, 0x94, 0x14, 0x3d,
  0xd6, 0x20, 0xd3, 0xa8, 0xd0, 0x4c, 0x24, 0xf7, 0x5a, 0x20, 0x81, 0x0e,
  0x43, 0xd9, 0xeb, 0x2c, 0xb2, 0x16, 0x02, 0xfe, 0xed, 0x47, 0x46, 0x10,
  0xe4, 0xf4, 0x23, 0xe4, 0x28, 0x3a, 0xf2, 0xfc, 0x6c, 0xbf, 0x37, 0x33,
  0xf9, 0x02, 0xee, 0x23, 0xfd, 0x28, 0x44, 0x00, 0x1f, 0x25, 0x1c, 0x0f,
  0x46, 0xcf, 0x56, 0x56, 0x06, 0xee, 0xe1, 0x1e, 0xcb, 0xef, 0x24, 0xea,
  0xe8, 0x44, 0xe3, 0xf4, 0x3b, 0xe5, 0x3e, 0x18, 0x1c, 0xd2, 0xd2, 0x11,
  0xce, 0xe6, 0x24, 0x13, 0x1a, 0x2a, 0xfe, 0x19, 0x7f, 0xcc, 0x14, 0x0b,
  0x06, 0xcd, 0xed, 0xec, 0xe4, 0x01, 0x40, 0x15, 0xfb, 0x12, 0xef, 0xf1,
  0x71, 0xdb, 0x23, 0x44, 0x1d, 0xc9, 0x06, 0x10, 0xdb, 0x13, 0xf7, 0xe9,
  0x1f, 0x4c, 0xea, 0x2f, 0x40, 0xc7, 0x07, 0x1b, 0x34, 0xcd, 0xdc, 0x34,
  0xf1, 0xf7, 0x34, 0xef, 0xee, 0x1b, 0x1e, 0xff, 0x6b, 0xdb, 0x46, 0x17,
  0xf1, 0xb6, 0xf3, 0x3b, 0xdd, 0xfb, 0x65, 0x17, 0x1f, 0x34, 0x0b, 0xef,
  0x7d, 0xc8, 0x46, 0x32, 0xef, 0xd5, 0xe1, 0x22, 0xeb, 0x10, 0x16, 0xe5,
  0xfc, 0x41, 0xfe, 0x19, 0x5d, 0xf1, 0x3a, 0x1b, 0x2d, 0xd0, 0xea, 0x2b,
  0x17, 0xe6, 0x4c, 0x33, 0xfe, 0x39, 0x36, 0x18, 0x3f, 0x0c, 0xb1, 0xc7,
  0x0c, 0x18, 0xe6, 0xa5, 0xfc, 0x0b, 0xe6, 0x15, 0xf6, 0x1b, 0x22, 0xf3,
  0x03, 0xf6, 0xf9, 0xde, 0xf2, 0x13, 0x24, 0xb4, 0x1c, 0x18, 0xbe, 0x20,
  0x11, 0xfb, 0x28, 0xef, 0x39, 0x03, 0xaa, 0xc8, 0x1c, 0x07, 0xff, 0x81,
  0xfe, 0x09, 0x02, 0x49, 0x19, 0x10, 0x2d, 0xea, 0x10, 0xee, 0xe4, 0xf6,
  0xfb, 0x1b, 0x0d, 0xc4, 0xf8, 0xe4, 0x07, 0x38, 0x04, 0xdb, 0x30, 0xf0,
  0x28, 0xd9, 0xd7, 0xf1, 0xfa, 0xf3, 0xe6, 0xcf, 0x0d, 0xfd, 0xb2, 0x13,
  0xed, 0x0d, 0x20, 0xd8, 0x1e, 0x0f, 0xce, 0xdf, 0xf8, 0x21, 0xf8, 0xcd,
  0x1d, 0x08, 0xf8, 0x17, 0x19, 0x29, 0x3e, 0x01, 0x27, 0x0b, 0xc3, 0xc1,
  0x18, 0x14, 0xe4, 0xc6, 0xf7, 0xea, 0xdd, 0x38, 0xda, 0xf2, 0x1f, 0x04,
  0x01, 0xe7, 0xca, 0xfc, 0xd7, 0xdf, 0x15, 0xd0, 0x21, 0x14, 0xba, 0x3e,
  0xe4, 0x20, 0x3c, 0xd2, 0x0c, 0x15, 0xd9, 0xe3, 0xda, 0x25, 0xe9, 0xd1,
  0xeb, 0x1b, 0x21, 0xf5, 0x02, 0xec, 0xe2, 0x27, 0x50, 0x0c, 0x44, 0x30,
  0xd8, 0x08, 0xc5, 0x57, 0xef, 0x1e, 0x31, 0x0e, 0x28, 0xfa, 0xe2, 0x2b,
  0x4d, 0x05, 0x67, 0x52, 0xdf, 0xd0, 0x03, 0x50, 0xf3, 0x09, 0x0b, 0x0b,
  0xe9, 0x2e, 0x05, 0xe2, 0xd8, 0xc2, 0x5c, 0x59, 0x05, 0xf3, 0xdc, 0x56,
  0xe8, 0x1a, 0x17, 0x0f, 0x22, 0x21, 0x01, 0x1f, 0x7f, 0xf3, 0x0d, 0x37,
  0xd2, 0xc9, 0xcc, 0x5f, 0xfe, 0x1e, 0x29, 0xf1, 0x01, 0x0a, 0xfe, 0x19,
  0x24, 0x07, 0x55, 0x5b, 0xed, 0xbc, 0x17, 0x6c, 0xdb, 0xf0, 0xef, 0x02,
  0xb3, 0x09, 0xf2, 0xc0, 0xc0, 0xd7, 0x3d, 0x48, 0x03, 0xd1, 0xe7, 0x59,
  0xc7, 0x04, 0x20, 0xf9, 0xe0, 0x36, 0x26, 0xf5, 0x5a, 0xbb, 0x42, 0x06,
  0xc3, 0xed, 0xe3, 0x36, 0xd8, 0x0c, 0x0e, 0xea, 0xf6, 0x0e, 0xe1, 0xc3,
  0xf6, 0xef, 0x35, 0x5f, 0xfb, 0xa3, 0x18, 0x59, 0xae, 0xdf, 0xfe, 0x2a,
  0xcd, 0x52, 0x1a, 0xb7, 0xd2, 0xa9, 0x4c, 0x0e, 0x13, 0xee, 0xcb, 0x2b,
  0x15, 0xe2, 0xec, 0x0d, 0x33, 0xc2, 0x0d, 0x15, 0x93, 0x2b, 0xa8, 0xd5,
  0xf2, 0xe7, 0x0b, 0x81, 0x03, 0xfa, 0x1a, 0xf9, 0x47, 0xd5, 0x10, 0x27,
  0xe9, 0x52, 0x8e, 0xe4, 0x06, 0x0e, 0x0d, 0x8c, 0x08, 0xe8, 0xfb, 0x06,
  0x10, 0xb4, 0xef, 0x23, 0xdf, 0x2f, 0x96, 0xb7, 0x1e, 0xeb, 0x0f, 0xa7,
  0xf0, 0xe8, 0x0a, 0x18, 0x15, 0xe3, 0xf2, 0x1a, 0xb0, 0x22, 0xbb, 0xf3,
  0x11, 0xe3, 0xf6, 0xcb, 0x19, 0x03, 0xee, 0xec, 0x36, 0x00, 0xf0, 0x2f,
  0xdb, 0x29, 0xaf, 0xf5, 0x15, 0x04, 0x21, 0xbd, 0x06, 0xdd, 0xdb, 0x11,
  0x19, 0xba, 0xee, 0x13, 0xb6, 0x06, 0xa9, 0xe8, 0x1d, 0xfc, 0x0e, 0xbb,
  0x0e, 0xdc, 0xda, 0x03, 0x20, 0xe0, 0xf9, 0x0d, 0x91, 0x29, 0xd4, 0xd6,
  0x01, 0xec, 0x1c, 0xc5, 0x1b, 0xed, 0x02, 0xfa, 0x4a, 0xfe, 0x01, 0x48,
  0xe4, 0x4a, 0xca, 0xf2, 0x1a, 0x21, 0x1f, 0xb7, 0xff, 0xf5, 0xde, 0x0e,
  0x39, 0xce, 0xf3, 0x2f, 0xc6, 0x37, 0xc1, 0xc6, 0x0b, 0xee, 0x21, 0xd4,
  0x2a, 0xfd, 0x64, 0x9a, 0x0b, 0x12, 0xdc, 0x23, 0x35, 0x1a, 0xf3, 0x0a,
  0xe0, 0x16, 0x0f, 0xe4, 0x1d, 0xf0, 0x94, 0xc2, 0x19, 0x64, 0x17, 0xda,
  0xd8, 0x21, 0x1b, 0x0a, 0xfb, 0x40, 0x14, 0xbd, 0x0a, 0x17, 0x34, 0xc8,
  0xff, 0xe4, 0xee, 0x29, 0x26, 0xea, 0x03, 0xc2, 0xf1, 0x24, 0x14, 0xcb,
  0x10, 0xf5, 0x3c, 0xa0, 0x03, 0x00, 0xe1, 0x18, 0x0f, 0x32, 0xcd, 0xce,
  0x00, 0x37, 0x43, 0xc1, 0x17, 0xcb, 0xc0, 0xe1, 0xe8, 0x4b, 0x17, 0x08,
  0x1e, 0x0b, 0xf4, 0xef, 0xff, 0x41, 0x2a, 0xb0, 0x33, 0xd5, 0x05, 0xf1,
  0x2f, 0xe1, 0xf7, 0x02, 0x26, 0xeb, 0xd2, 0x87, 0xef, 0x1c, 0x41, 0x91,
  0x22, 0xf2, 0x17, 0xc1, 0xe5, 0x0f, 0xcd, 0x0b, 0x31, 0x0a, 0xc6, 0xe9,
  0xdf, 0xd8, 0x09, 0xf4, 0xfe, 0x04, 0xa4, 0xfb, 0x15, 0x47, 0xf6, 0xf1,
  0xbc, 0x04, 0x1d, 0x15, 0x21, 0x26, 0x2c, 0xc9, 0x2c, 0xcc, 0x04, 0xe7,
  0x2e, 0x06, 0x1e, 0x34, 0x23, 0x18, 0xbf, 0xa4, 0x06, 0x18, 0x01, 0x81,
  0xd9, 0x1e, 0x47, 0x1d, 0x16, 0x24, 0x24, 0x24, 0x47, 0x06, 0x41, 0x2e,
  0x04, 0xd0, 0xe7, 0x66, 0xd7, 0x13, 0x37, 0xe9, 0x3b, 0xf3, 0x02, 0x42,
  0x3a, 0x02, 0x72, 0x55, 0xf2, 0xad, 0x05, 0x6f, 0xba, 0x25, 0x23, 0xea,
  0xf0, 0x0e, 0xf4, 0xdf, 0x00, 0xe4, 0x57, 0x60, 0x08, 0xc5, 0xca, 0x3e,
  0xd5, 0xfa, 0x49, 0x06, 0x0a, 0x03, 0xf8, 0xfa, 0x67, 0xf9, 0x17, 0x0d,
  0xf6, 0xc5, 0xc3, 0x1d, 0xf8, 0xf8, 0x3d, 0xe2, 0x17, 0xf6, 0xf8, 0x27,
  0x0b, 0x07, 0x6a, 0x59, 0x0d, 0xd9, 0x38, 0x36, 0xc7, 0x0e, 0x0f, 0xfa,
  0xb8, 0x26, 0xe0, 0xb3, 0xb4, 0x9f, 0x52, 0x44, 0x37, 0xe0, 0xc1, 0x50,
  0xde, 0x07, 0x38, 0x0a, 0x13, 0x1b, 0x1b, 0xe1, 0x71, 0xdb, 0x3e, 0x42,
  0xe9, 0xe5, 0xf3, 0x31, 0xbd, 0xe5, 0x46, 0xf0, 0xf7, 0x33, 0xe7, 0x08,
  0xe9, 0xf1, 0x63, 0x67, 0xff, 0xa1, 0x1d, 0x78, 0x82, 0xd2, 0x0f, 0x37,
  0xb5, 0xfc, 0x00, 0x81, 0x9e, 0x8e, 0x45, 0x38, 0x15, 0xae, 0xb3, 0x4d,
  0x00, 0x1f, 0x0b, 0xcc, 0xe9, 0x33, 0xca, 0x02, 0xf4, 0x12, 0xc6, 0x1d,
  0x9a, 0x51, 0x59, 0xbc, 0xde, 0x1b, 0x04, 0xf9, 0xeb, 0xf3, 0xee, 0xfe,
  0xce, 0xf6, 0xe6, 0xa6, 0xce, 0xcc, 0x8c, 0xdd, 0xde, 0xea, 0xdc, 0xfb,
  0x0a, 0x00, 0xe5, 0xe3, 0xf0, 0xb7, 0xde, 0xb3, 0xe2, 0xba, 0x3a, 0xef,
  0xe1, 0x26, 0xb9, 0xec, 0x37, 0xcb, 0xab, 0x50, 0xdd, 0x44, 0xff, 0x0b,
  0xa0, 0x34, 0xf4, 0xac, 0x01, 0x2e, 0xc8, 0x3c, 0xac, 0xe7, 0xaa, 0xa8,
  0xfd, 0x0c, 0x2b, 0xbb, 0x29, 0xe2, 0x97, 0xbe, 0x2b, 0xc8, 0xaa, 0xdd,
  0x19, 0xdd, 0x0a, 0x31, 0xf8, 0xd6, 0xea, 0x8d, 0xd3, 0xb1, 0xdf, 0x1f,
  0x2f, 0x1c, 0x2e, 0xf3, 0x11, 0x01, 0xe2, 0xad, 0x28, 0xdc, 0x06, 0xa0,
  0xf0, 0x08, 0xce, 0x34, 0xf8, 0x31, 0x2a, 0x08, 0xf8, 0x28, 0x0b, 0xba,
  0xc0, 0xcb, 0xbd, 0xf8, 0x0f, 0xdb, 0x1b, 0xca, 0xcb, 0xd0, 0x3d, 0xa5,
  0xe8, 0xce, 0x18, 0xd9, 0x23, 0xeb, 0xc9, 0x21, 0xe7, 0xca, 0x0b, 0x7f,
  0x20, 0x18, 0xfa, 0xfc, 0x13, 0x0c, 0x00, 0x17, 0x0e, 0x17, 0xb4, 0xc5,
  0x32, 0x32, 0xef, 0xcd, 0xe8, 0xf1, 0x11, 0xfd, 0x09, 0xd7, 0x03, 0x0b,
  0xf9, 0xfb, 0xd7, 0xf6, 0xeb, 0xf2, 0x2a, 0xcd, 0x23, 0x0a, 0xb0, 0x0e,
  0xf1, 0xf8, 0x18, 0xe5, 0xcd, 0x1d, 0xdc, 0xf3, 0x0f, 0x3b, 0x2e, 0xce,
  0x21, 0x12, 0xd4, 0x1e, 0xff, 0x27, 0x0a, 0xec, 0xd0, 0x29, 0xd3, 0xbd,
  0xf9, 0x40, 0x00, 0x98, 0x1c, 0x0e, 0x25, 0xf7, 0x0d, 0xf4, 0x0b, 0x04,
  0x04, 0x15, 0xc7, 0xec, 0x04, 0x0b, 0x05, 0xbd, 0x17, 0xff, 0x8d, 0x02,
  0xdb, 0xfd, 0xff, 0x0d, 0xd4, 0x18, 0xc8, 0xd4, 0xe9, 0x2d, 0x20, 0xa5,
  0x17, 0x03, 0xef, 0x01, 0x04, 0x20, 0x1f, 0x05, 0xf7, 0x1b, 0xc8, 0xf8,
  0xfd, 0x33, 0x0a, 0xd3, 0x23, 0xfe, 0xee, 0x21, 0x10, 0x29, 0xfe, 0xee,
  0xed, 0x1b, 0xd8, 0xf5, 0xdf, 0x25, 0x25, 0xc3, 0x21, 0xfb, 0x81, 0xf6,
  0x08, 0x2b, 0x09, 0x02, 0xe8, 0x23, 0xee, 0xc9, 0xdd, 0x3c, 0x21, 0xae,
  0xd4, 0xdc, 0x29, 0x01, 0xf6, 0x15, 0xfd, 0xf7, 0x44, 0x02, 0x14, 0xfd,
  0xe3, 0xf2, 0x92, 0x1c, 0xd8, 0x03, 0x56, 0xe4, 0x0d, 0x04, 0x0a, 0x16,
  0x4e, 0x09, 0x3b, 0x70, 0xf4, 0xf3, 0x18, 0x76, 0xc1, 0x10, 0xf5, 0xf5,
  0x1f, 0x3d, 0xea, 0xff, 0xda, 0xe3, 0x7f, 0x53, 0x32, 0xe9, 0x01, 0x5f,
  0xce, 0xf3, 0x3d, 0x0c, 0xea, 0xf2, 0xfc, 0xb6, 0x78, 0xcc, 0x11, 0xf4,
  0x86, 0x9e, 0xbe, 0x41, 0xdc, 0x06, 0x2e, 0xce, 0x0b, 0xf6, 0x01, 0xea,
  0x5a, 0x23, 0x53, 0x49, 0xd0, 0x94, 0x54, 0x5f, 0xbd, 0x02, 0x00, 0x29,
  0xd8, 0x5f, 0x0f, 0xf3, 0xb6, 0xda, 0x50, 0x5a, 0xfe, 0xbf, 0x21, 0x2e,
  0xc8, 0x14, 0x3e, 0x18, 0xec, 0x1c, 0xf0, 0x04, 0x4a, 0xd6, 0x49, 0x16,
  0xda, 0xad, 0x89, 0x40, 0xce, 0xea, 0x37, 0xe0, 0xfa, 0x28, 0xe6, 0x0d,
  0x34, 0xf4, 0x50, 0x62, 0xe8, 0xc8, 0x18, 0x69, 0xc0, 0x0b, 0xdd, 0x3c,
  0xc7, 0x65, 0x14, 0xe5, 0xd4, 0xe2, 0x45, 0x69, 0xfc, 0xf7, 0xfb, 0x4d,
  0xca, 0xc8, 0x16, 0x2b, 0xe1, 0xee, 0xf5, 0xc5, 0xcf, 0xd6, 0xe9, 0x02,
  0xe4, 0xf2, 0xbd, 0xf6, 0x09, 0xd8, 0x55, 0x0e, 0x1f, 0x18, 0x0e, 0x0c,
  0x4a, 0x23, 0x05, 0x0f, 0xea, 0xf1, 0x04, 0xe4, 0x06, 0xed, 0x5f, 0xfc,
  0x2b, 0x41, 0xdd, 0x4a, 0x4a, 0x31, 0x09, 0x26, 0x10, 0x16, 0x56, 0x01,
  0xb1, 0xb0, 0x2f, 0x0b, 0xb8, 0xc3, 0xf8, 0xa1, 0xcf, 0xdf, 0xeb, 0xe7,
  0xda, 0xd8, 0xa0, 0xda, 0x0d, 0xd5, 0x4f, 0x14, 0x36, 0xee, 0x0a, 0x25,
  0x49, 0x18, 0xe7, 0x12, 0xe7, 0xf4, 0xef, 0xe7, 0x1c, 0x1a, 0x65, 0xfa,
  0x4f, 0x41, 0xeb, 0x5c, 0x38, 0x27, 0x20, 0x2b, 0x1d, 0x09, 0x3e, 0xdc,
  0xe0, 0xaf, 0x13, 0x29, 0xd8, 0xb9, 0x02, 0xaf, 0xe9, 0xf5, 0xd2, 0xe4,
  0xdd, 0xeb, 0x81, 0xed, 0x19, 0xeb, 0x44, 0x0d, 0x3c, 0xdd, 0xfa, 0x23,
  0x47, 0x2a, 0xe4, 0x21, 0xd4, 0xff, 0xf4, 0xc8, 0x2e, 0x11, 0x5c, 0xe7,
  0x3c, 0x33, 0xeb, 0x49, 0x54, 0x27, 0x00, 0x31, 0xf0, 0x16, 0x32, 0xf4,
  0xf5, 0x0f, 0x12, 0x07, 0x09, 0x17, 0xfe, 0x25, 0x78, 0xd3, 0x44, 0x48,
  0xfd, 0xf9, 0xfd, 0x43, 0xe8, 0x0e, 0x10, 0xea, 0x0f, 0x18, 0xee, 0x0b,
  0x5b, 0xbc, 0x6a, 0x45, 0xf7, 0xd4, 0x2b, 0x66, 0xcf, 0x0d, 0xf4, 0xf6,
  0xe3, 0x30, 0x0a, 0xff, 0xf0, 0xd1, 0x68, 0x38, 0x10, 0xd2, 0xf2, 0x4c,
  0xf0, 0x13, 0xfd, 0x09, 0xf5, 0x08, 0x0d, 0xe6, 0x7f, 0xd9, 0x4c, 0x2b,
  0x0b, 0xbf, 0x0a, 0x41, 0xcf, 0x02, 0x06, 0x02, 0x0f, 0x11, 0xf0, 0x1d,
  0x38, 0xc9, 0x6a, 0x4f, 0x19, 0xc0, 0x12, 0x48, 0xb6, 0xf7, 0x01, 0x11,
  0xd4, 0x1c, 0xec, 0xce, 0xed, 0xd3, 0x2e, 0x3c, 0x26, 0xb1, 0xe3, 0x2b,
  0xeb, 0x13, 0x24, 0x00, 0xe6, 0x1d, 0x1d, 0x11, 0x7b, 0xd0, 0x6a, 0x32,
  0xee, 0xfd, 0xf2, 0x4d, 0xea, 0x05, 0x08, 0x11, 0xfe, 0x3e, 0xe5, 0xff,
  0x17, 0xc3, 0x63, 0x40, 0x06, 0xca, 0x21, 0x60, 0xcd, 0xee, 0x06, 0x00,
  0xf9, 0x2a, 0xf3, 0xdc, 0xec, 0xd4, 0x40, 0x37, 0x14, 0xdf, 0xf9, 0x36,
  0x2f, 0x01, 0x45, 0xab, 0x20, 0x3b, 0xc5, 0x04, 0x5f, 0x16, 0x22, 0x4e,
  0x31, 0x22, 0x40, 0x38, 0x25, 0xf6, 0x38, 0xb1, 0x05, 0x77, 0xf9, 0x24,
  0x5b, 0x29, 0x4a, 0x24, 0x31, 0x24, 0x45, 0x04, 0x23, 0xe6, 0x4f, 0xe8,
  0x0d, 0x3d, 0xf4, 0x13, 0x55, 0x2d, 0x31, 0x15, 0x2d, 0x24, 0x2e, 0xe0,
  0xf2, 0xe0, 0x35, 0xb0, 0xe0, 0x41, 0xe3, 0x12, 0x33, 0xff, 0x2b, 0x6a,
  0x35, 0xdd, 0x31, 0x14, 0xe2, 0xea, 0x57, 0xca, 0xfb, 0x7f, 0xf2, 0x12,
  0x0e, 0x0e, 0x17, 0x28, 0x59, 0xfa, 0x00, 0x19, 0xf0, 0xeb, 0x4c, 0xbd,
  0xf9, 0x54, 0xf4, 0x0f, 0x37, 0x15, 0x29, 0x35, 0x04, 0x08, 0x30, 0x19,
  0x05, 0xd8, 0x64, 0x83, 0x27, 0x63, 0xe0, 0x0f, 0x54, 0xf9, 0x38, 0x6c,
  0x3d, 0x11, 0x4e, 0x41, 0x27, 0xe9, 0x71, 0xd0, 0x32, 0x7b, 0xfe, 0x2d,
  0x24, 0x06, 0x2e, 0x4a, 0x3e, 0x3f, 0x45, 0x00, 0x29, 0xee, 0x5a, 0xc6,
  0x0e, 0x68, 0xe0, 0x1c, 0x5d, 0x3d, 0xfb, 0x23, 0x27, 0x35, 0x42, 0xee,
  0x06, 0xf7, 0x3f, 0xa8, 0x12, 0x22, 0x0e, 0x0e, 0x29, 0x20, 0x53, 0x54,
  0xf4, 0x11, 0x2a, 0x38, 0x27, 0xf2, 0x56, 0xef, 0xfe, 0x4d, 0xea, 0x24,
  0x49, 0x05, 0x42, 0x32, 0x18, 0x2b, 0x13, 0x1f, 0x24, 0x0e, 0x6b, 0xbd,
  0x03, 0xfd, 0x10, 0x19, 0x39, 0xe6, 0x08, 0x2c, 0xdc, 0xe9, 0x4d, 0x02,
  0xf4, 0xfe, 0x2f, 0xa7, 0x03, 0x4b, 0xdd, 0x14, 0x0e, 0xdd, 0x16, 0x60,
  0x31, 0x24, 0x0e, 0x28, 0x01, 0xde, 0x7f, 0xd5, 0xf5, 0x4c, 0xfa, 0x1f,
  0x3d, 0xfb, 0x36, 0x46, 0x3f, 0x27, 0x40, 0xf1, 0x08, 0x0d, 0x7c, 0xd0,
  0x09, 0xf9, 0x07, 0x2e, 0x61, 0xf4, 0xf7, 0x1d, 0xf9, 0xfb, 0x03, 0xe7,
  0x27, 0x0b, 0x36, 0xb3, 0xf3, 0x3b, 0x0f, 0x06, 0xe2, 0xf7, 0x27, 0x4a,
  0xec, 0x3d, 0x1a, 0x29, 0x1f, 0xee, 0x78, 0xdb, 0xf4, 0x38, 0xf0, 0xfd,
  0x30, 0x12, 0x2b, 0x47, 0x39, 0x0c, 0x3e, 0x1e, 0x15, 0xe4, 0x54, 0xc3,
  0x02, 0x18, 0x15, 0x0a, 0x4d, 0x07, 0xff, 0x37, 0x10, 0xfb, 0x32, 0x0b,
  0x21, 0x0e, 0xc2, 0xe9, 0x1d, 0xd0, 0xd7, 0x3a, 0xa8, 0x3f, 0xfc, 0x22,
  0xca, 0x26, 0x20, 0x31, 0x1c, 0x2d, 0xc3, 0xf3, 0x38, 0xbc, 0xf4, 0x2a,
  0xcc, 0x19, 0x3f, 0x53, 0x96, 0x2a, 0xe1, 0x48, 0x01, 0x2c, 0xb0, 0x22,
  0x01, 0xce, 0xe3, 0x18, 0xc1, 0xf8, 0x32, 0x1f, 0xdd, 0x3b, 0x0a, 0x3e,
  0x20, 0x3a, 0xe9, 0x19, 0x47, 0xd1, 0x0f, 0x53, 0xd0, 0x5b, 0xf0, 0xbe,
  0xa8, 0x1e, 0x25, 0x0a, 0x4d, 0x4a, 0xdf, 0xdf, 0x2c, 0xb5, 0xf8, 0x23,
  0xde, 0x18, 0x23, 0x21, 0xb6, 0x06, 0x0c, 0x35, 0x22, 0x16, 0xac, 0x0e,
  0x33, 0xf0, 0x26, 0x15, 0xcb, 0x1d, 0x41, 0x08, 0xcc, 0xf1, 0xd0, 0x2e,
  0x22, 0xf7, 0x92, 0x16, 0xf6, 0xa6, 0xc6, 0x2c, 0xb4, 0x28, 0xc7, 0xe0,
  0xae, 0x29, 0xc2, 0x0e, 0xf5, 0x2f, 0xcc, 0xde, 0x3e, 0xd1, 0xf5, 0x34,
  0x9f, 0x18, 0xfb, 0x1a, 0x87, 0x15, 0xec, 0x39, 0x1b, 0xec, 0x8c, 0x2c,
  0x1b, 0xe3, 0x01, 0x2b, 0x81, 0x0f, 0x1d, 0x16, 0xb5, 0xfe, 0xdb, 0xf9,
  0xde, 0xea, 0x2e, 0xcb, 0x0e, 0x4e, 0xec, 0x0b, 0x7f, 0x09, 0x19, 0x3b,
  0xee, 0xe8, 0x29, 0xfe, 0xf8, 0xea, 0x34, 0x07, 0x1a, 0x47, 0xee, 0x22,
  0x41, 0x03, 0x22, 0x1c, 0x27, 0x0b, 0x2b, 0xfa, 0xd9, 0xd8, 0x18, 0xf8,
  0xf3, 0x37, 0x0a, 0xf1, 0xf1, 0xee, 0xfe, 0x1b, 0x1c, 0xff, 0xf2, 0x15,
  0xe8, 0xe5, 0x33, 0xd4, 0x01, 0x50, 0xe4, 0xef, 0x6c, 0x05, 0xfd, 0x37,
  0x18, 0xe2, 0x08, 0xfb, 0xe2, 0xf0, 0x2d, 0x0c, 0x09, 0x2d, 0x12, 0x15,
  0x37, 0x0c, 0x02, 0x08, 0x2e, 0xff, 0x13, 0x0b, 0xdc, 0xd7, 0x29, 0x04,
  0xf0, 0x3c, 0x10, 0xe6, 0xe8, 0xe8, 0x06, 0x05, 0x2d, 0xfc, 0xf8, 0x0d,
  0xf3, 0xdb, 0x4c, 0xdc, 0x24, 0x41, 0xf2, 0x10, 0x7d, 0x0b, 0x0b, 0x3d,
  0x09, 0xf4, 0x25, 0xfa, 0xf0, 0xf8, 0x32, 0xfd, 0x1c, 0x37, 0xee, 0x13,
  0x24, 0x1b, 0x1a, 0x1a, 0x40, 0x05, 0x25, 0xec, 0xfb, 0xd6, 0x30, 0x03,
  0xf6, 0x3a, 0x15, 0xf9, 0xe9, 0x05, 0x0b, 0x1e, 0x23, 0x00, 0xf5, 0x01,
  0x0d, 0xe8, 0x33, 0xd8, 0x12, 0x22, 0xf3, 0x1a, 0x11, 0x0f, 0xf9, 0x1e,
  0x12, 0xe2, 0x23, 0xfd, 0x0d, 0xed, 0x41, 0xd5, 0x09, 0xd9, 0xf9, 0x0e,
  0x23, 0xfc, 0x1c, 0x29, 0x12, 0xeb, 0xe9, 0x0e, 0xec, 0xf9, 0x5e, 0xd7,
  0x25, 0x04, 0xfc, 0x26, 0x2e, 0x18, 0x30, 0x19, 0x1e, 0x16, 0x1f, 0x19,
  0xf9, 0x06, 0x48, 0xc8, 0x1b, 0x1f, 0xea, 0x03, 0x24, 0xf4, 0x25, 0x38,
  0x17, 0xf6, 0x04, 0x08, 0xf0, 0xee, 0x3d, 0xcb, 0x11, 0xe4, 0x06, 0xea,
  0x1e, 0x03, 0x0f, 0x31, 0x0d, 0xce, 0xe1, 0x12, 0xf4, 0xe8, 0x5d, 0xd7,
  0x27, 0x20, 0xe8, 0xf9, 0x39, 0x09, 0x14, 0x24, 0x1e, 0xf7, 0x16, 0x28,
  0xfa, 0xf0, 0x63, 0xc7, 0x1c, 0x21, 0xff, 0x04, 0x33, 0x04, 0x10, 0x41,
  0x0f, 0xe5, 0x1a, 0x13, 0x08, 0x01, 0x6b, 0xcf, 0xff, 0xf0, 0xed, 0x10,
  0x35, 0x01, 0x25, 0x14, 0x17, 0x01, 0xe6, 0x0b, 0x04, 0xf3, 0x7f, 0xd1,
  0x0c, 0xf9, 0xef, 0x1d, 0x2d, 0x18, 0x37, 0x32, 0x11, 0x1c, 0x2e, 0x30,
  0x36, 0x2a, 0x84, 0xdc, 0x08, 0xf9, 0xe8, 0x1f, 0xbd, 0x2e, 0x03, 0xdd,
  0xe9, 0x36, 0x1f, 0x13, 0x1b, 0x2b, 0xd0, 0xe4, 0xee, 0xc0, 0x06, 0xf3,
  0xcd, 0x18, 0xfe, 0xc4, 0xd2, 0xde, 0x29, 0x2f, 0x11, 0x2a, 0x96, 0xcc,
  0x10, 0x21, 0xe3, 0x0f, 0xc3, 0x1a, 0xfb, 0xc9, 0xde, 0x29, 0xf7, 0xf0,
  0x1f, 0x19, 0xad, 0xb2, 0x18, 0xf0, 0xfb, 0x1d, 0xc8, 0x25, 0xff, 0xf2,
  0xed, 0x3d, 0x23, 0xe5, 0x22, 0x2c, 0xdd, 0xce, 0x1f, 0xe3, 0xe7, 0x02,
  0xe8, 0x02, 0x07, 0xd2, 0xd4, 0xf6, 0x1a, 0x18, 0x20, 0x03, 0x90, 0xaf,
  0x14, 0xf5, 0xf9, 0x06, 0xb1, 0x47, 0xf3, 0xc4, 0x05, 0x3f, 0x1c, 0x09,
  0x10, 0x0c, 0xb0, 0xbf, 0x0a, 0x0b, 0x04, 0x22, 0xd3, 0x18, 0x0c, 0x07,
  0xf6, 0x32, 0x0c, 0x0d, 0x11, 0x04, 0xfd, 0xd4, 0xfb, 0xf5, 0xec, 0x1c,
  0xd1, 0x1e, 0x01, 0xc6, 0xfe, 0x02, 0x1e, 0x00, 0x37, 0x0b, 0x81, 0xcb,
  0x24, 0xf0, 0xee, 0x11, 0xe2, 0x32, 0xdf, 0xcf, 0xe3, 0x36, 0x26, 0xe7,
  0x15, 0xd5, 0x30, 0xe7, 0x2b, 0x41, 0xe6, 0x3e, 0xe3, 0x0f, 0xbb, 0x2d,
  0xfb, 0x28, 0x20, 0xdc, 0xfb, 0xc3, 0x4f, 0xdc, 0x52, 0x1c, 0x1e, 0x2f,
  0x39, 0x2d, 0xd3, 0x2e, 0x2e, 0x09, 0x20, 0xed, 0x08, 0xed, 0x11, 0xd0,
  0x0b, 0xdc, 0xd1, 0x3f, 0x4a, 0x08, 0xfc, 0xd1, 0xea, 0xd9, 0x37, 0xd0,
  0xc5, 0xe6, 0x4e, 0xe3, 0xed, 0x1f, 0xd3, 0xfe, 0xb8, 0x11, 0x1f, 0x1e,
  0xfc, 0x94, 0x15, 0xe4, 0xf9, 0xe9, 0x27, 0xcc, 0x1a, 0x5a, 0x0e, 0x3c,
  0x37, 0x04, 0x06, 0x3d, 0x0e, 0xf6, 0x2c, 0x31, 0xf6, 0xce, 0x16, 0x0b,
  0x02, 0x2c, 0xfd, 0xe6, 0x2d, 0x19, 0x1e, 0x0b, 0xe4, 0xc7, 0xe6, 0x12,
  0xdc, 0xa4, 0xe3, 0xb3, 0x26, 0x4c, 0x0c, 0x0e, 0x81, 0x1f, 0x04, 0x41,
  0x25, 0xd5, 0x35, 0xef, 0xfb, 0xba, 0xf0, 0xd2, 0x41, 0x67, 0xed, 0x41,
  0xf4, 0x4d, 0xe0, 0x25, 0x13, 0x2f, 0x5b, 0xdf, 0xfe, 0xbf, 0x1a, 0xc1,
  0x3e, 0xe2, 0xd7, 0x34, 0x0a, 0x0a, 0x94, 0x87, 0x0f, 0xe0, 0xe6, 0xa6,
  0x25, 0x35, 0x0d, 0x01, 0xf4, 0x04, 0xf0, 0x05, 0x18, 0xfe, 0x53, 0x19,
  0xf4, 0x07, 0xcf, 0x48, 0x15, 0x3a, 0x43, 0xe9, 0x00, 0x2c, 0xe1, 0x22,
  0x1a, 0x0f, 0x5b, 0x7f, 0xf7, 0xd7, 0x33, 0x60, 0x04, 0x26, 0x2c, 0x1e,
  0xda, 0x2b, 0xe0, 0xfa, 0xbb, 0x10, 0x63, 0x33, 0x24, 0x10, 0x26, 0x58,
  0xe2, 0xdf, 0x06, 0x05, 0xef, 0x09, 0x1e, 0xd1, 0x1c, 0xad, 0x4a, 0x3c,
  0xac, 0xff, 0xa8, 0x6d, 0xd9, 0x1c, 0x16, 0xda, 0x00, 0x0b, 0x10, 0xde,
  0x1b, 0xf0, 0x7c, 0x35, 0xe5, 0xa3, 0x12, 0x49, 0xe1, 0x0d, 0x09, 0xf5,
  0xb6, 0x3f, 0xe3, 0xf9, 0xe5, 0xc5, 0x4b, 0x34, 0x05, 0xce, 0xfc, 0x4c,
  0xca, 0xee, 0x13, 0x18, 0xac, 0x21, 0x21, 0xc6, 0xfa, 0xd7, 0x36, 0x0a,
  0xf6, 0xdb, 0xb6, 0x58, 0xc1, 0x00, 0xf6, 0xf2, 0xc2, 0x2c, 0xf2, 0xb9,
  0x19, 0x04, 0x5f, 0x33, 0xf5, 0xa8, 0x0f, 0x32, 0xe6, 0x07, 0x01, 0x2c,
  0xf7, 0x18, 0x1b, 0xfb, 0x0d, 0xe8, 0x44, 0x46, 0x0a, 0x0c, 0xd5, 0x4d,
  0x14, 0x13, 0xaa, 0xf7, 0x11, 0xe3, 0x0e, 0xe5, 0xaa, 0xfe, 0x19, 0xf8,
  0xe7, 0xfe, 0xe9, 0x23, 0x3d, 0x38, 0xd7, 0x05, 0x1e, 0xbd, 0x01, 0x2a,
  0xc4, 0x0b, 0xf8, 0xf1, 0xf3, 0x0c, 0xe8, 0x0e, 0x4f, 0x2e, 0xc9, 0xe2,
  0x1f, 0xc3, 0x0e, 0x30, 0xd1, 0xf2, 0x11, 0x0a, 0xf8, 0x26, 0x26, 0x32,
  0x29, 0x15, 0x81, 0xea, 0x37, 0xc5, 0xfb, 0x31, 0xf2, 0x29, 0xeb, 0xdd,
  0xe7, 0x18, 0x0e, 0x1b, 0x52, 0x41, 0xd0, 0xe1, 0x32, 0xa0, 0x02, 0x29,
  0xee, 0x14, 0x00, 0xf2, 0xef, 0x0a, 0x10, 0x17, 0x43, 0x3c, 0xd5, 0xe0,
  0x36, 0xc0, 0xf7, 0x2d, 0xe6, 0x06, 0x13, 0x18, 0xdf, 0x22, 0x20, 0x30,
  0x34, 0x3a, 0x91, 0xe3, 0x3b, 0xca, 0x0b, 0x32, 0xeb, 0x2c, 0xdc, 0xb5,
  0xf6, 0x19, 0x1d, 0x00, 0x31, 0x2f, 0xac, 0x05, 0x38, 0x99, 0xf6, 0x26,
  0xbf, 0xf1, 0x0d, 0xd3, 0xc1, 0x0c, 0x0f, 0x18, 0x15, 0x3b, 0xa7, 0xfe,
  0x05, 0xb7, 0xfb, 0x29, 0xb6, 0xf9, 0x15, 0x02, 0xf0, 0x22, 0x04, 0x12,
  0x82, 0xcb, 0x04, 0x29, 0x86, 0xd6, 0x14, 0x85, 0xd3, 0xe6, 0xca, 0xac,
  0xf9, 0xec, 0xae, 0xdb, 0xe6, 0xcc, 0xfa, 0x38, 0xd1, 0x45, 0x19, 0xff,
  0xb3, 0x04, 0xd9, 0xb9, 0x14, 0x2f, 0xc3, 0xe5, 0xdc, 0xdd, 0xcd, 0x19,
  0xb3, 0xee, 0x2a, 0xc1, 0x18, 0x04, 0xcc, 0xf2, 0xfa, 0x07, 0xdc, 0xf4,
  0xce, 0xfc, 0xf4, 0x28, 0xb8, 0xc3, 0x03, 0xca, 0xbe, 0x07, 0xb5, 0xc8,
  0xf2, 0xee, 0xe4, 0xec, 0x14, 0x06, 0x04, 0x2b, 0x03, 0x49, 0x2c, 0x17,
  0xba, 0x20, 0xfb, 0xcb, 0x15, 0x40, 0xfe, 0xf2, 0xdb, 0x01, 0xdb, 0x20,
  0xda, 0x00, 0x28, 0xe8, 0x30, 0x1e, 0xfb, 0x05, 0x12, 0xf6, 0xf3, 0x0c,
  0x97, 0xdb, 0x2a, 0x16, 0x90, 0xcc, 0xfe, 0x85, 0xa4, 0xbb, 0xcb, 0xd1,
  0xc0, 0xab, 0x81, 0x0c, 0xdb, 0xfb, 0x27, 0x2b, 0xdf, 0x31, 0xfc, 0xdc,
  0xd2, 0xfc, 0xff, 0xfc, 0x08, 0x09, 0xda, 0x08, 0xe3, 0xef, 0x18, 0x16,
  0xaf, 0xfb, 0x05, 0x95, 0x21, 0x0b, 0x1c, 0x0e, 0xdf, 0xda, 0xe5, 0x1b,
  0x01, 0xe8, 0xfa, 0xfc, 0x37, 0xe4, 0x04, 0x26, 0xdb, 0x1e, 0xdc, 0xcd,
  0xf7, 0xf6, 0xff, 0xff, 0xf9, 0xf4, 0x07, 0xf9, 0x27, 0x0f, 0xe9, 0x29,
  0x9f, 0x19, 0xf5, 0xe9, 0x03, 0x09, 0xef, 0x17, 0xf7, 0xe7, 0xf4, 0x08,
  0x2e, 0xe1, 0xea, 0x25, 0xa9, 0x24, 0xf9, 0xfc, 0x0e, 0xe0, 0xd4, 0x12,
  0xff, 0x13, 0x11, 0x04, 0x1b, 0xe8, 0x04, 0x1f, 0xb5, 0x0e, 0xae, 0xd6,
  0x2b, 0xde, 0x1a, 0xb5, 0xfd, 0x04, 0x03, 0x1d, 0x30, 0xf0, 0xf6, 0x16,
  0x81, 0x0c, 0xc8, 0xdf, 0x35, 0x09, 0xf8, 0xda, 0xff, 0x07, 0xe7, 0x19,
  0x0e, 0xae, 0xee, 0x23, 0x86, 0x2f, 0xa4, 0xbc, 0x23, 0xfc, 0xe8, 0xc4,
  0xe6, 0xe5, 0x1e, 0xd5, 0x25, 0xd2, 0xce, 0x30, 0xa3, 0x1a, 0xe2, 0xe3,
  0x0f, 0xea, 0xf3, 0xf8, 0x09, 0x00, 0x25, 0xe4, 0x3b, 0x06, 0xdf, 0x37,
  0x90, 0x16, 0xde, 0xda, 0x2c, 0xf4, 0xec, 0xf3, 0xf2, 0xf0, 0xf4, 0xf1,
  0x27, 0xc2, 0xe4, 0x11, 0x8f, 0x0f, 0xc3, 0xfa, 0x19, 0xdf, 0xf1, 0x09,
  0x3a, 0xf9, 0xff, 0xff, 0x04, 0x00, 0x00, 0x00, 0x80, 0x00, 0x00, 0x00,
  0x7b, 0xfe, 0xff, 0xff, 0xc2, 0x00, 0x00, 0x00, 0xfe, 0x01, 0x00, 0x00,
  0xe0, 0xf0, 0xff, 0xff, 0xb9, 0x06, 0x00, 0x00, 0xe0, 0x00, 0x00, 0x00,
  0x63, 0xef, 0xff, 0xff, 0x84, 0x0c, 0x00, 0x00, 0x20, 0x0e, 0x00, 0x00,
  0xf4, 0x06, 0x00, 0x00, 0xf1, 0xfa, 0xff, 0xff, 0x78, 0x12, 0x00, 0x00,
  0x93, 0xff, 0xff, 0xff, 0x83, 0xf3, 0xff, 0xff, 0xbe, 0xf6, 0xff, 0xff,
  0x64, 0xff, 0xff, 0xff, 0xcd, 0xf5, 0xff, 0xff, 0xce, 0x07, 0x00, 0x00,
  0xc3, 0xfb, 0xff, 0xff, 0x9a, 0xf4, 0xff, 0xff, 0xd1, 0x00, 0x00, 0x00,
  0xf7, 0xf0, 0xff, 0xff, 0x88, 0xfd, 0xff, 0xff, 0xe1, 0xff, 0xff, 0xff,
  0x1a, 0xf3, 0xff, 0xff, 0x3b, 0xf9, 0xff, 0xff, 0x75, 0xff, 0xff, 0xff,
  0x3a, 0xeb, 0xff, 0xff, 0xef, 0x02, 0x00, 0x00, 0x63, 0x07, 0x00, 0x00,
  0x1f, 0x04, 0x00, 0x00, 0x84, 0xf0, 0xff, 0xff, 0xc6, 0xf9, 0xff, 0xff,
  0x04, 0x00, 0x00, 0x00, 0x00, 0x04, 0x00, 0x00, 0x35, 0xbc, 0xf8, 0xf6,
  0x3e, 0xbb, 0xf7, 0x52, 0x36, 0x3d, 0x07, 0x49, 0xaf, 0xc3, 0x05, 0xaa,
  0x01, 0x2f, 0xbd, 0xfc, 0x1c, 0xc9, 0x1c, 0xec, 0xef, 0xc6, 0x0f, 0xe0,
  0xb1, 0x19, 0xf4, 0x81, 0x27, 0x81, 0x02, 0x27, 0x2c, 0xba, 0xd2, 0x37,
  0xfa, 0xe5, 0x27, 0x53, 0xa8, 0xda, 0x37, 0xa4, 0xf3, 0x4b, 0xc7, 0xe2,
  0xdc, 0x5a, 0x3e, 0xa1, 0x11, 0x2d, 0x1d, 0x3d, 0x9d, 0xb4, 0x20, 0xe5,
  0xfc, 0x65, 0xd7, 0xb2, 0x6d, 0x84, 0x82, 0xed, 0xd2, 0x49, 0x61, 0xc0,
  0xa8, 0xda, 0x59, 0x81, 0x1b, 0x9d, 0xe7, 0x88, 0xd0, 0xdf, 0x4d, 0x2d,
  0xaf, 0xdc, 0x0e, 0x51, 0x14, 0xb0, 0x38, 0xaf, 0x19, 0x7f, 0x24, 0x23,
  0xe2, 0x14, 0x0e, 0x29, 0x24, 0xe3, 0xe9, 0x30, 0xdd, 0x25, 0xed, 0xf2,
  0xea, 0xbf, 0x21, 0xf2, 0x20, 0x2e, 0xfb, 0x09, 0xcb, 0x29, 0x35, 0xe8,
  0x13, 0xc1, 0xca, 0xf2, 0x3c, 0xa7, 0xc4, 0xc1, 0xc9, 0x22, 0xf8, 0xba,
  0x23, 0x26, 0xc3, 0xab, 0x2f, 0x81, 0xd5, 0xa7, 0x55, 0x94, 0xfe, 0xcb,
  0x0d, 0xfa, 0xdf, 0x0d, 0x93, 0x08, 0xd5, 0xb8, 0x58, 0x1a, 0xab, 0xbc,
  0x36, 0xbd, 0x0b, 0x0b, 0xfc, 0x32, 0x14, 0xb5, 0xc5, 0x27, 0xec, 0xf0,
  0xd3, 0x36, 0x0f, 0x19, 0xc8, 0x06, 0x1e, 0x7f, 0x3d, 0x4f, 0x4a, 0xef,
  0x74, 0x31, 0xca, 0x06, 0xcb, 0x26, 0x99, 0x20, 0x2d, 0x4a, 0xbd, 0xfc,
  0xb9, 0x4c, 0x18, 0x4a, 0xe1, 0x2c, 0xf7, 0xe0, 0x09, 0x18, 0x9d, 0x46,
  0x0c, 0xc5, 0x60, 0x7f, 0x48, 0xb8, 0xbb, 0x27, 0x09, 0xec, 0xfb, 0x1d,
  0x74, 0xc1, 0xe7, 0x4e, 0x4e, 0x07, 0x0f, 0x81, 0x20, 0xb2, 0x04, 0xb4,
  0x3b, 0x1d, 0x36, 0xc1, 0x87, 0xbe, 0x82, 0xee, 0x5c, 0x97, 0x96, 0x3d,
  0x32, 0xf6, 0x0b, 0x09, 0xb2, 0x07, 0xa7, 0x28, 0xc1, 0x13, 0x06, 0x2a,
  0xbc, 0xb6, 0x81, 0xcf, 0xda, 0x0b, 0xca, 0xfd, 0x3c, 0x86, 0x31, 0x15,
  0x2b, 0xbe, 0x1c, 0x1d, 0xf6, 0x0e, 0xe2, 0xcb, 0x27, 0x12, 0x00, 0xab,
  0x3f, 0xbc, 0xcc, 0x20, 0x10, 0x9e, 0x3d, 0xa4, 0x36, 0xdf, 0x2c, 0x06,
  0x30, 0x81, 0x49, 0x40, 0x64, 0x93, 0x2b, 0xb7, 0xf7, 0x35, 0xf6, 0xf0,
  0xd8, 0x4f, 0xcf, 0x9a, 0x2e, 0x6c, 0x48, 0xaa, 0xfa, 0x35, 0x06, 0x65,
  0xbb, 0xfa, 0x6d, 0x19, 0xf8, 0x16, 0xb7, 0x50, 0xf0, 0x29, 0xdb, 0xf9,
  0x35, 0x96, 0x42, 0x44, 0x5d, 0xd6, 0xbc, 0x1e, 0x2a, 0xce, 0x0e, 0x11,
  0x4b, 0x3b, 0xda, 0x96, 0x7f, 0x0e, 0x8a, 0xd1, 0x09, 0xa7, 0x34, 0xc5,
  0x4e, 0x5e, 0x49, 0x33, 0xe6, 0xaa, 0x46, 0xed, 0xe6, 0xe3, 0xb3, 0x09,
  0xe3, 0x15, 0x42, 0xf1, 0x53, 0x6b, 0x43, 0xc8, 0x72, 0x15, 0x12, 0x1c,
  0xb3, 0xdc, 0x55, 0xc3, 0xca, 0x3f, 0x7f, 0x16, 0xe7, 0x7f, 0x27, 0x1b,
  0xef, 0x01, 0xd5, 0x3c, 0xe0, 0x60, 0x18, 0x11, 0x61, 0xc6, 0xec, 0xd2,
  0x0c, 0x12, 0xf4, 0x20, 0x2e, 0xf0, 0xdf, 0x52, 0xb2, 0xd6, 0x0c, 0xb2,
  0x4b, 0x49, 0xfe, 0x14, 0xeb, 0xb3, 0x02, 0x37, 0x3a, 0x96, 0x2e, 0xde,
  0x4e, 0x06, 0xc5, 0x3e, 0xcf, 0x0f, 0x3b, 0x81, 0x04, 0x44, 0xcd, 0x26,
  0xbe, 0x3b, 0x0c, 0xd1, 0x35, 0xbd, 0x23, 0x38, 0xcb, 0xde, 0x1a, 0x08,
  0x0f, 0x81, 0xa8, 0x1c, 0xe2, 0xfc, 0xcd, 0xde, 0x2d, 0xc5, 0x26, 0x12,
  0x25, 0xfb, 0xe9, 0x1a, 0x03, 0xcf, 0x09, 0x5c, 0xf9, 0x46, 0x43, 0x12,
  0x72, 0x27, 0xab, 0xee, 0x13, 0xac, 0x1c, 0x11, 0xa8, 0x97, 0x42, 0x8e,
  0x22, 0x30, 0x2a, 0x09, 0x11, 0x31, 0x1b, 0x4a, 0x2e, 0x4d, 0x00, 0xe3,
  0xd6, 0x19, 0xf2, 0x4f, 0x05, 0x86, 0xa6, 0x21, 0x16, 0x81, 0xce, 0xed,
  0x21, 0x1b, 0xc1, 0xf1, 0xdf, 0x7f, 0x28, 0xa4, 0x20, 0x3a, 0xe1, 0x22,
  0xe9, 0x2c, 0x39, 0x29, 0x21, 0x91, 0xe6, 0x41, 0xef, 0xb3, 0x37, 0x3b,
  0x3e, 0xd1, 0xd1, 0xdc, 0xf3, 0xe9, 0xd8, 0xab, 0x33, 0x51, 0xf5, 0xab,
  0x1e, 0x7f, 0xf6, 0xf7, 0x08, 0x53, 0x3d, 0x36, 0xe1, 0xeb, 0x06, 0x40,
  0x27, 0xa1, 0x31, 0xef, 0x41, 0xc6, 0x14, 0xed, 0x51, 0xdf, 0x39, 0x23,
  0x44, 0x3c, 0x40, 0x05, 0x1a, 0xce, 0xfe, 0xa4, 0x36, 0x81, 0xbe, 0xe7,
  0xcf, 0xfb, 0xc9, 0xd7, 0xb5, 0xd9, 0xed, 0xcd, 0x44, 0x31, 0x61, 0xfc,
  0xb1, 0xb8, 0x53, 0x0b, 0x4f, 0x22, 0x20, 0x46, 0x37, 0x3a, 0x1f, 0x0e,
  0x44, 0xdb, 0x12, 0xef, 0xe5, 0xbe, 0x4e, 0x50, 0xd4, 0xbe, 0xfc, 0xb9,
  0xba, 0xdc, 0x2b, 0x81, 0xe3, 0xd2, 0x01, 0x42, 0x08, 0xf4, 0xb3, 0xdd,
  0x1b, 0x1f, 0x37, 0xe3, 0x25, 0xd0, 0x56, 0x0a, 0x4a, 0x06, 0xc6, 0x11,
  0xd5, 0x1c, 0xcb, 0x89, 0xed, 0x3f, 0xbd, 0x37, 0x1d, 0x04, 0xc7, 0x32,
  0xee, 0x57, 0xc0, 0xf8, 0x29, 0x39, 0xf8, 0x20, 0x27, 0x86, 0xef, 0x41,
  0x81, 0xeb, 0x19, 0xec, 0x22, 0xfc, 0x05, 0x08, 0xeb, 0x3b, 0x2d, 0x28,
  0xfd, 0xd0, 0xe3, 0x12, 0xd7, 0x15, 0xd7, 0x27, 0x14, 0x5b, 0xf5, 0x41,
  0xf8, 0xd7, 0x1f, 0x37, 0x2d, 0xd0, 0xd8, 0xf4, 0xde, 0x06, 0x36, 0x1a,
  0x24, 0xf6, 0xd0, 0x7f, 0x42, 0x5d, 0xe3, 0x3e, 0x20, 0x19, 0x22, 0x4c,
  0xbb, 0xd4, 0x63, 0xe8, 0x36, 0xd4, 0x11, 0x2a, 0x32, 0xfc, 0x1d, 0x3b,
  0x3a, 0xe6, 0xa7, 0xc1, 0x79, 0xd7, 0x81, 0xeb, 0xed, 0xf0, 0x1c, 0xc4,
  0x63, 0xd1, 0xf0, 0x7f, 0xfc, 0x1c, 0xbc, 0x58, 0x7f, 0xfd, 0x95, 0x1a,
  0xb8, 0x1b, 0xc4, 0xd0, 0x4e, 0x28, 0xa9, 0x04, 0x49, 0xe3, 0x07, 0x2c,
  0x6e, 0x00, 0xfd, 0xb7, 0x42, 0xe7, 0x19, 0x02, 0xd6, 0x81, 0x9c, 0x4c,
  0xe2, 0xbd, 0xd5, 0x0c, 0x35, 0xbb, 0x34, 0x0e, 0x09, 0x17, 0xca, 0x06,
  0xe5, 0x28, 0x40, 0x67, 0x10, 0xf5, 0x36, 0xce, 0x78, 0x6c, 0xb0, 0x35,
  0x21, 0x87, 0x52, 0xf5, 0xd8, 0x4f, 0xf3, 0x9f, 0x81, 0x2e, 0xb5, 0xc9,
  0x06, 0x66, 0xb1, 0x0d, 0x11, 0xbc, 0x0c, 0x02, 0x72, 0x9a, 0xdf, 0xcb,
  0x29, 0x9d, 0xd5, 0xaf, 0x86, 0xb8, 0xf8, 0xe9, 0x55, 0xf6, 0x12, 0x38,
  0x44, 0x7a, 0x06, 0xfc, 0x0e, 0xd7, 0xfd, 0xe0, 0x81, 0x53, 0xb9, 0xef,
  0xdb, 0x4c, 0xd7, 0x0e, 0x31, 0xf4, 0xce, 0x88, 0x10, 0x37, 0xd8, 0x18,
  0xb1, 0x0a, 0x1e, 0x1c, 0xba, 0x50, 0xb2, 0x03, 0x81, 0x2b, 0x52, 0xd5,
  0xb3, 0xa8, 0xda, 0xe9, 0x51, 0xbb, 0xd2, 0x87, 0x84, 0x62, 0x04, 0xe2,
  0xf2, 0x17, 0xf2, 0x5c, 0x5d, 0x3b, 0x9d, 0x2b, 0xb7, 0x0f, 0xe7, 0x95,
  0x0b, 0x18, 0x61, 0xce, 0x21, 0x5a, 0xdc, 0xdd, 0xcb, 0x15, 0xf8, 0x22,
  0x1d, 0xe1, 0x1d, 0xf3, 0x31, 0x87, 0xcd, 0x1d, 0x2b, 0xe6, 0x07, 0xd7,
  0x14, 0xb5, 0x81, 0xed, 0x39, 0xa5, 0x13, 0xcc, 0x1b, 0xd8, 0x1d, 0xe1,
  0xef, 0x7f, 0x05, 0xd2, 0x22, 0x57, 0xbf, 0x09, 0xbf, 0x17, 0x3d, 0xef,
  0x49, 0x4f, 0xde, 0x11, 0x05, 0xfd, 0x4c, 0x4d, 0x04, 0xa9, 0xb4, 0x34,
  0x24, 0xce, 0xf0, 0x20, 0x4a, 0x2f, 0xf7, 0x31, 0x1f, 0x81, 0xf4, 0xfc,
  0x23, 0xbb, 0xe5, 0x33, 0x36, 0xe5, 0xfb, 0x3d, 0xcc, 0x29, 0x32, 0xbf,
  0x03, 0xea, 0x14, 0x24, 0xe7, 0x44, 0xd7, 0x0c, 0x4f, 0xec, 0xe5, 0x29,
  0x91, 0xb3, 0x23, 0x62, 0xee, 0xa9, 0x6f, 0x87, 0xc7, 0xfa, 0xc7, 0xab,
  0x85, 0xdf, 0xe6, 0x94, 0x81, 0xa7, 0xa4, 0xc3, 0x9c, 0x9a, 0xa2, 0x78,
  0x87, 0x4c, 0xcd, 0x21, 0x3d, 0x72, 0x0d, 0x8b, 0xf6, 0xdd, 0x18, 0x85,
  0xd2, 0xfd, 0xff, 0xff, 0x04, 0x00, 0x00, 0x00, 0x80, 0x00, 0x00, 0x00,
  0xa1, 0x08, 0x00, 0x00, 0x7a, 0x07, 0x00, 0x00, 0x28, 0xfe, 0xff, 0xff,
  0x23, 0xfe, 0xff, 0xff, 0xbf, 0xfa, 0xff, 0xff, 0x55, 0xef, 0xff, 0xff,
  0xb7, 0x00, 0x00, 0x00, 0x4a, 0xfe, 0xff, 0xff, 0x4b, 0x05, 0x00, 0x00,
  0xa5, 0xfe, 0xff, 0xff, 0x7c, 0x03, 0x00, 0x00, 0xb1, 0x0b, 0x00, 0x00,
  0x91, 0x00, 0x00, 0x00, 0x79, 0x01, 0x00, 0x00, 0x31, 0xfe, 0xff, 0xff,
  0x99, 0x05, 0x00, 0x00, 0x03, 0x02, 0x00, 0x00, 0x5b, 0xfe, 0xff, 0xff,
  0x90, 0xfd, 0xff, 0xff, 0x59, 0xfe, 0xff, 0xff, 0x22, 0x01, 0x00, 0x00,
  0x77, 0xfc, 0xff, 0xff, 0xb7, 0xff, 0xff, 0xff, 0xd7, 0x05, 0x00, 0x00,
  0xf3, 0xfd, 0xff, 0xff, 0x7e, 0xfa, 0xff, 0xff, 0x94, 0x0a, 0x00, 0x00,
  0x01, 0xff, 0xff, 0xff, 0xdd, 0x00, 0x00, 0x00, 0x06, 0xfe, 0xff, 0xff,
  0x12, 0xff, 0xff, 0xff, 0x71, 0xfc, 0xff, 0xff, 0x5e, 0xfe, 0xff, 0xff,
  0x04, 0x00, 0x00, 0x00, 0xc0, 0x00, 0x00, 0x00, 0x45, 0xaf, 0xe7, 0xe6,
  0xd7, 0xeb, 0x26, 0xd7, 0xce, 0xa0, 0xd0, 0xe6, 0x38, 0x8f, 0x95, 0x6a,
  0x53, 0xed, 0x89, 0xc4, 0x34, 0xf3, 0xe8, 0xfe, 0x8d, 0xe8, 0x23, 0x42,
  0x2a, 0x45, 0x81, 0xf8, 0xa3, 0x9b, 0x19, 0x1f, 0xe7, 0x06, 0x28, 0x2b,
  0x4e, 0xe1, 0x21, 0xf8, 0x14, 0x81, 0x13, 0xa7, 0x0a, 0x25, 0x97, 0xef,
  0xe4, 0x26, 0x1c, 0xdb, 0xef, 0xce, 0xe1, 0x14, 0x37, 0x39, 0xd4, 0xf0,
  0x51, 0x59, 0xee, 0x14, 0xed, 0xa2, 0xa7, 0xc5, 0x82, 0x0b, 0x81, 0x54,
  0x04, 0x27, 0xc1, 0xac, 0xad, 0xe6, 0xca, 0x1d, 0xef, 0xdd, 0x88, 0x2e,
  0xc9, 0x37, 0xf7, 0xed, 0xa2, 0x94, 0x1d, 0x3a, 0xd8, 0xd1, 0xf1, 0xf7,
  0xfe, 0xfd, 0x3c, 0x2d, 0x56, 0xd0, 0xf1, 0xf2, 0x00, 0x34, 0x3f, 0x3e,
  0xd1, 0xcb, 0x52, 0x1d, 0x1a, 0x0d, 0xe8, 0xe0, 0x1c, 0x20, 0x81, 0x17,
  0x0e, 0x25, 0x3e, 0xea, 0x40, 0x41, 0x19, 0x04, 0x07, 0x7f, 0xa0, 0x03,
  0x11, 0xd7, 0x23, 0xd5, 0xbe, 0xd8, 0xf2, 0xcb, 0xf0, 0x21, 0x16, 0xdc,
  0xc7, 0x8f, 0xe6, 0x06, 0x1b, 0xd9, 0xa9, 0x02, 0xee, 0xac, 0x31, 0xc2,
  0xb1, 0x29, 0xc2, 0xce, 0x3f, 0x07, 0xf9, 0xc0, 0x03, 0x18, 0x49, 0xc4,
  0x9e, 0xcc, 0x7a, 0xe9, 0xdc, 0xe8, 0xb9, 0xf0, 0x89, 0x4c, 0xf8, 0x4a,
  0x7f, 0xd2, 0x45, 0xbd, 0xd3, 0xdf, 0xf7, 0xf9, 0x2a, 0xff, 0xff, 0xff,
  0x04, 0x00, 0x00, 0x00, 0x18, 0x00, 0x00, 0x00, 0x6f, 0x02, 0x00, 0x00,
  0x94, 0xfd, 0xff, 0xff, 0xa0, 0x04, 0x00, 0x00, 0x72, 0xfd, 0xff, 0xff,
  0xda, 0x00, 0x00, 0x00, 0x57, 0xfe, 0xff, 0xff, 0x4e, 0xff, 0xff, 0xff,
  0x04, 0x00, 0x00, 0x00, 0x08, 0x00, 0x00, 0x00, 0x01, 0x00, 0x00, 0x00,
  0x02, 0x00, 0x00, 0x00, 0x54, 0xe9, 0xff, 0xff, 0x58, 0xe9, 0xff, 0xff,
  0x0f, 0x00, 0x00, 0x00, 0x4d, 0x4c, 0x49, 0x52, 0x20, 0x43, 0x6f, 0x6e,
  0x76, 0x65, 0x72, 0x74, 0x65, 0x64, 0x2e, 0x00, 0x01, 0x00, 0x00, 0x00,
  0x14, 0x00, 0x00, 0x00, 0x00, 0x00, 0x0e, 0x00, 0x18, 0x00, 0x14, 0x00,
  0x10, 0x00, 0x0c, 0x00, 0x08, 0x00, 0x04, 0x00, 0x0e, 0x00, 0x00, 0x00,
  0x14, 0x00, 0x00, 0x00, 0x1c, 0x00, 0x00, 0x00, 0xe0, 0x02, 0x00, 0x00,
  0xe4, 0x02, 0x00, 0x00, 0xe8, 0x02, 0x00, 0x00, 0x04, 0x00, 0x00, 0x00,
  0x6d, 0x61, 0x69, 0x6e, 0x00, 0x00, 0x00, 0x00, 0x0a, 0x00, 0x00, 0x00,
  0x7c, 0x02, 0x00, 0x00, 0x18, 0x02, 0x00, 0x00, 0xc8, 0x01, 0x00, 0x00,
  0x84, 0x01, 0x00, 0x00, 0x34, 0x01, 0x00, 0x00, 0xf0, 0x00, 0x00, 0x00,
  0xbc, 0x00, 0x00, 0x00, 0x78, 0x00, 0x00, 0x00, 0x40, 0x00, 0x00, 0x00,
  0x04, 0x00, 0x00, 0x00, 0x1a, 0xfe, 0xff, 0xff, 0x1c, 0x00, 0x00, 0x00,
  0x00, 0x00, 0x00, 0x09, 0x1c, 0x00, 0x00, 0x00, 0x20, 0x00, 0x00, 0x00,
  0x04, 0x00, 0x00, 0x00, 0x00, 0x00, 0x06, 0x00, 0x08, 0x00, 0x04, 0x00,
  0x06, 0x00, 0x00, 0x00, 0x00, 0x00, 0x80, 0x3f, 0x01, 0x00, 0x00, 0x00,
  0x15, 0x00, 0x00, 0x00, 0x01, 0x00, 0x00, 0x00, 0x14, 0x00, 0x00, 0x00,
  0xde, 0xfe, 0xff, 0xff, 0x14, 0x00, 0x00, 0x00, 0x00, 0x00, 0x00, 0x08,
  0x10, 0x00, 0x00, 0x00, 0x14, 0x00, 0x00, 0x00, 0x03, 0x00, 0x00, 0x00,
  0x28, 0xea, 0xff, 0xff, 0x01, 0x00, 0x00, 0x00, 0x14, 0x00, 0x00, 0x00,
  0x03, 0x00, 0x00, 0x00, 0x13, 0x00, 0x00, 0x00, 0x03, 0x00, 0x00, 0x00,
  0x02, 0x00, 0x00, 0x00, 0x86, 0xfe, 0xff, 0xff, 0x1c, 0x00, 0x00, 0x00,
  0x00, 0x00, 0x00, 0x08, 0x1c, 0x00, 0x00, 0x00, 0x20, 0x00, 0x00, 0x00,
  0x03, 0x00, 0x00, 0x00, 0x00, 0x00, 0x06, 0x00, 0x08, 0x00, 0x07, 0x00,
  0x06, 0x00, 0x00, 0x00, 0x00, 0x00, 0x00, 0x01, 0x01, 0x00, 0x00, 0x00,
  0x13, 0x00, 0x00, 0x00, 0x03, 0x00, 0x00, 0x00, 0x12, 0x00, 0x00, 0x00,
  0x05, 0x00, 0x00, 0x00, 0x04, 0x00, 0x00, 0x00, 0x52, 0xff, 0xff, 0xff,
  0x14, 0x00, 0x00, 0x00, 0x00, 0x00, 0x00, 0x1b, 0x10, 0x00, 0x00, 0x00,
  0x14, 0x00, 0x00, 0x00, 0x02, 0x00, 0x00, 0x00, 0x9c, 0xea, 0xff, 0xff,
  0x01, 0x00, 0x00, 0x00, 0x12, 0x00, 0x00, 0x00, 0x02, 0x00, 0x00, 0x00,
  0x11, 0x00, 0x00, 0x00, 0x01, 0x00, 0x00, 0x00, 0x82, 0xff, 0xff, 0xff,
  0x14, 0x00, 0x00, 0x00, 0x00, 0x00, 0x00, 0x05, 0x24, 0x00, 0x00, 0x00,
  0x28, 0x00, 0x00, 0x00, 0x01, 0x00, 0x00, 0x00, 0xe6, 0xfe, 0xff, 0xff,
  0x02, 0x00, 0x00, 0x00, 0x02, 0x00, 0x00, 0x00, 0x02, 0x00, 0x00, 0x00,
  0x02, 0x00, 0x00, 0x00, 0x00, 0x00, 0x00, 0x01, 0x01, 0x00, 0x00, 0x00,
  0x11, 0x00, 0x00, 0x00, 0x01, 0x00, 0x00, 0x00, 0x10, 0x00, 0x00, 0x00,
  0xd6, 0xfe, 0xff, 0xff, 0x10, 0x00, 0x00, 0x00, 0x00, 0x00, 0x00, 0x01,
  0x18, 0x00, 0x00, 0x00, 0x1c, 0x00, 0x00, 0x00, 0xc8, 0xfe, 0xff, 0xff,
  0x00, 0x00, 0x00, 0x01, 0x01, 0x00, 0x00, 0x00, 0x01, 0x00, 0x00, 0x00,
  0x01, 0x00, 0x00, 0x00, 0x10, 0x00, 0x00, 0x00, 0x03, 0x00, 0x00, 0x00,
  0x0f, 0x00, 0x00, 0x00, 0x07, 0x00, 0x00, 0x00, 0x06, 0x00, 0x00, 0x00,
  0x00, 0x00, 0x0e, 0x00, 0x18, 0x00, 0x14, 0x00, 0x10, 0x00, 0x0c, 0x00,
  0x0b, 0x00, 0x04, 0x00, 0x0e, 0x00, 0x00, 0x00, 0x14, 0x00, 0x00, 0x00,
  0x00, 0x00, 0x00, 0x05, 0x24, 0x00, 0x00, 0x00, 0x28, 0x00, 0x00, 0x00,
  0x01, 0x00, 0x00, 0x00, 0x72, 0xff, 0xff, 0xff, 0x02, 0x00, 0x00, 0x00,
  0x02, 0x00, 0x00, 0x00, 0x02, 0x00, 0x00, 0x00, 0x02, 0x00, 0x00, 0x00,
  0x00, 0x00, 0x00, 0x01, 0x01, 0x00, 0x00, 0x00, 0x0f, 0x00, 0x00, 0x00,
  0x01, 0x00, 0x00, 0x00, 0x0e, 0x00, 0x00, 0x00, 0x62, 0xff, 0xff, 0xff,
  0x10, 0x00, 0x00, 0x00, 0x00, 0x00, 0x00, 0x01, 0x18, 0x00, 0x00, 0x00,
  0x1c, 0x00, 0x00, 0x00, 0x54, 0xff, 0xff, 0xff, 0x00, 0x00, 0x00, 0x01,
  0x01, 0x00, 0x00, 0x00, 0x01, 0x00, 0x00, 0x00, 0x01, 0x00, 0x00, 0x00,
  0x0e, 0x00, 0x00, 0x00, 0x03, 0x00, 0x00, 0x00, 0x0d, 0x00, 0x00, 0x00,
  0x09, 0x00, 0x00, 0x00, 0x08, 0x00, 0x00, 0x00, 0x00, 0x00, 0x0e, 0x00,
  0x1a, 0x00, 0x14, 0x00, 0x10, 0x00, 0x0c, 0x00, 0x0b, 0x00, 0x04, 0x00,
  0x0e, 0x00, 0x00, 0x00, 0x24, 0x00, 0x00, 0x00, 0x00, 0x00, 0x00, 0x05,
  0x34, 0x00, 0x00, 0x00, 0x38, 0x00, 0x00, 0x00, 0x01, 0x00, 0x00, 0x00,
  0x00, 0x00, 0x0e, 0x00, 0x18, 0x00, 0x17, 0x00, 0x10, 0x00, 0x0c, 0x00,
  0x08, 0x00, 0x04, 0x00, 0x0e, 0x00, 0x00, 0x00, 0x02, 0x00, 0x00, 0x00,
  0x02, 0x00, 0x00, 0x00, 0x02, 0x00, 0x00, 0x00, 0x02, 0x00, 0x00, 0x00,
  0x00, 0x00, 0x00, 0x01, 0x01, 0x00, 0x00, 0x00, 0x0d, 0x00, 0x00, 0x00,
  0x01, 0x00, 0x00, 0x00, 0x0c, 0x00, 0x00, 0x00, 0x00, 0x00, 0x0e, 0x00,
  0x14, 0x00, 0x00, 0x00, 0x10, 0x00, 0x0c, 0x00, 0x0b, 0x00, 0x04, 0x00,
  0x0e, 0x00, 0x00, 0x00, 0x1c, 0x00, 0x00, 0x00, 0x00, 0x00, 0x00, 0x01,
  0x24, 0x00, 0x00, 0x00, 0x28, 0x00, 0x00, 0x00, 0x0c, 0x00, 0x10, 0x00,
  0x00, 0x00, 0x0c, 0x00, 0x08, 0x00, 0x07, 0x00, 0x0c, 0x00, 0x00, 0x00,
  0x00, 0x00, 0x00, 0x01, 0x01, 0x00, 0x00, 0x00, 0x01, 0x00, 0x00, 0x00,
  0x01, 0x00, 0x00, 0x00, 0x0c, 0x00, 0x00, 0x00, 0x03, 0x00, 0x00, 0x00,
  0x00, 0x00, 0x00, 0x00, 0x0b, 0x00, 0x00, 0x00, 0x0a, 0x00, 0x00, 0x00,
  0x01, 0x00, 0x00, 0x00, 0x15, 0x00, 0x00, 0x00, 0x01, 0x00, 0x00, 0x00,
  0x00, 0x00, 0x00, 0x00, 0x16, 0x00, 0x00, 0x00, 0xb4, 0x13, 0x00, 0x00,
  0x58, 0x13, 0x00, 0x00, 0xa0, 0x12, 0x00, 0x00, 0xfc, 0x11, 0x00, 0x00,
  0x28, 0x10, 0x00, 0x00, 0x4c, 0x0e, 0x00, 0x00, 0x78, 0x0c, 0x00, 0x00,
  0x94, 0x0a, 0x00, 0x00, 0x80, 0x09, 0x00, 0x00, 0x5c, 0x08, 0x00, 0x00,
  0xa8, 0x07, 0x00, 0x00, 0xe4, 0x06, 0x00, 0x00, 0x08, 0x06, 0x00, 0x00,
  0x6c, 0x05, 0x00, 0x00, 0x90, 0x04, 0x00, 0x00, 0xf4, 0x03, 0x00, 0x00,
  0x18, 0x03, 0x00, 0x00, 0x7c, 0x02, 0x00, 0x00, 0xe8, 0x01, 0x00, 0x00,
  0x24, 0x01, 0x00, 0x00, 0x80, 0x00, 0x00, 0x00, 0x04, 0x00, 0x00, 0x00,
  0xba, 0xec, 0xff, 0xff, 0x00, 0x00, 0x00, 0x01, 0x18, 0x00, 0x00, 0x00,
  0x20, 0x00, 0x00, 0x00, 0x3c, 0x00, 0x00, 0x00, 0x16, 0x00, 0x00, 0x00,
  0x00, 0x00, 0x00, 0x09, 0x50, 0x00, 0x00, 0x00, 0x02, 0x00, 0x00, 0x00,
  0xff, 0xff, 0xff, 0xff, 0x06, 0x00, 0x00, 0x00, 0x9c, 0xec, 0xff, 0xff,
  0x08, 0x00, 0x00, 0x00, 0x10, 0x00, 0x00, 0x00, 0x01, 0x00, 0x00, 0x00,
  0x80, 0xff, 0xff, 0xff, 0xff, 0xff, 0xff, 0xff, 0x01, 0x00, 0x00, 0x00,
  0x00, 0x00, 0x80, 0x3b, 0x1b, 0x00, 0x00, 0x00, 0x53, 0x74, 0x61, 0x74,
  0x65, 0x66, 0x75, 0x6c, 0x50, 0x61, 0x72, 0x74, 0x69, 0x74, 0x69, 0x6f,
  0x6e, 0x65, 0x64, 0x43, 0x61, 0x6c, 0x6c, 0x5f, 0x31, 0x3a, 0x30, 0x00,
  0x02, 0x00, 0x00, 0x00, 0x01, 0x00, 0x00, 0x00, 0x06, 0x00, 0x00, 0x00,
  0x32, 0xed, 0xff, 0xff, 0x00, 0x00, 0x00, 0x01, 0x18, 0x00, 0x00, 0x00,
  0x20, 0x00, 0x00, 0x00, 0x3c, 0x00, 0x00, 0x00, 0x15, 0x00, 0x00, 0x00,
  0x00, 0x00, 0x00, 0x09, 0x78, 0x00, 0x00, 0x00, 0x02, 0x00, 0x00, 0x00,
  0xff, 0xff, 0xff, 0xff, 0x06, 0x00, 0x00, 0x00, 0x14, 0xed, 0xff, 0xff,
  0x08, 0x00, 0x00, 0x00, 0x10, 0x00, 0x00, 0x00, 0x01, 0x00, 0x00, 0x00,
  0x3b, 0x00, 0x00, 0x00, 0x00, 0x00, 0x00, 0x00, 0x01, 0x00, 0x00, 0x00,
  0xa3, 0xc7, 0xfe, 0x3c, 0x40, 0x00, 0x00, 0x00, 0x73, 0x65, 0x71, 0x75,
  0x65, 0x6e, 0x74, 0x69, 0x61, 0x6c, 0x5f, 0x31, 0x5f, 0x31, 0x2f, 0x64,
  0x65, 0x6e, 0x73, 0x65, 0x5f, 0x33, 0x5f, 0x31, 0x2f, 0x4d, 0x61, 0x74,
  0x4d, 0x75, 0x6c, 0x3b, 0x73, 0x65, 0x71, 0x75, 0x65, 0x6e, 0x74, 0x69,
  0x61, 0x6c, 0x5f, 0x31, 0x5f, 0x31, 0x2f, 0x64, 0x65, 0x6e, 0x73, 0x65,
  0x5f, 0x33, 0x5f, 0x31, 0x2f, 0x42, 0x69, 0x61, 0x73, 0x41, 0x64, 0x64,
  0x00, 0x00, 0x00, 0x00, 0x02, 0x00, 0x00, 0x00, 0x01, 0x00, 0x00, 0x00,
  0x06, 0x00, 0x00, 0x00, 0xd2, 0xed, 0xff, 0xff, 0x00, 0x00, 0x00, 0x01,
  0x18, 0x00, 0x00, 0x00, 0x20, 0x00, 0x00, 0x00, 0x40, 0x00, 0x00, 0x00,
  0x14, 0x00, 0x00, 0x00, 0x00, 0x00, 0x00, 0x09, 0x98, 0x00, 0x00, 0x00,
  0x02, 0x00, 0x00, 0x00, 0xff, 0xff, 0xff, 0xff, 0x20, 0x00, 0x00, 0x00,
  0xb4, 0xed, 0xff, 0xff, 0x08, 0x00, 0x00, 0x00, 0x14, 0x00, 0x00, 0x00,
  0x01, 0x00, 0x00, 0x00, 0x80, 0xff, 0xff, 0xff, 0xff, 0xff, 0xff, 0xff,
  0x00, 0x00, 0x00, 0x00, 0x01, 0x00, 0x00, 0x00, 0x16, 0x6c, 0x62, 0x3c,
  0x5e, 0x00, 0x00, 0x00, 0x73, 0x65, 0x71, 0x75, 0x65, 0x6e, 0x74, 0x69,
  0x61, 0x6c, 0x5f, 0x31, 0x5f, 0x31, 0x2f, 0x64, 0x65, 0x6e, 0x73, 0x65,
  0x5f, 0x32, 0x5f, 0x31, 0x2f, 0x4d, 0x61, 0x74, 0x4d, 0x75, 0x6c, 0x3b,
  0x73, 0x65, 0x71, 0x75, 0x65, 0x6e, 0x74, 0x69, 0x61, 0x6c, 0x5f, 0x31,
  0x5f, 0x31, 0x2f, 0x64, 0x65, 0x6e, 0x73, 0x65, 0x5f, 0x32, 0x5f, 0x31,
  0x2f, 0x52, 0x65, 0x6c, 0x75, 0x3b, 0x73, 0x65, 0x71, 0x75, 0x65, 0x6e,
  0x74, 0x69, 0x61, 0x6c, 0x5f, 0x31, 0x5f, 0x31, 0x2f, 0x64, 0x65, 0x6e,
  0x73, 0x65, 0x5f, 0x32, 0x5f, 0x31, 0x2f, 0x42, 0x69, 0x61, 0x73, 0x41,
  0x64, 0x64, 0x00, 0x00, 0x02, 0x00, 0x00, 0x00, 0x01, 0x00, 0x00, 0x00,
  0x20, 0x00, 0x00, 0x00, 0x92, 0xee, 0xff, 0xff, 0x00, 0x00, 0x00, 0x01,
  0x18, 0x00, 0x00, 0x00, 0x20, 0x00, 0x00, 0x00, 0x3c, 0x00, 0x00, 0x00,
  0x13, 0x00, 0x00, 0x00, 0x00, 0x00, 0x00, 0x09, 0x68, 0x00, 0x00, 0x00,
  0x02, 0x00, 0x00, 0x00, 0xff, 0xff, 0xff, 0xff, 0x20, 0x00, 0x00, 0x00,
  0x74, 0xee, 0xff, 0xff, 0x08, 0x00, 0x00, 0x00, 0x10, 0x00, 0x00, 0x00,
  0x01, 0x00, 0x00, 0x00, 0x80, 0xff, 0xff, 0xff, 0xff, 0xff, 0xff, 0xff,
  0x01, 0x00, 0x00, 0x00, 0xce, 0xfd, 0x21, 0x3c, 0x30, 0x00, 0x00, 0x00,
  0x73, 0x65, 0x71, 0x75, 0x65, 0x6e, 0x74, 0x69, 0x61, 0x6c, 0x5f, 0x31,
  0x5f, 0x31, 0x2f, 0x67, 0x6c, 0x6f, 0x62, 0x61, 0x6c, 0x5f, 0x61, 0x76,
  0x65, 0x72, 0x61, 0x67, 0x65, 0x5f, 0x70, 0x6f, 0x6f, 0x6c, 0x69, 0x6e,
  0x67, 0x32, 0x64, 0x5f, 0x31, 0x5f, 0x31, 0x2f, 0x4d, 0x65, 0x61, 0x6e,
  0x00, 0x00, 0x00, 0x00, 0x02, 0x00, 0x00, 0x00, 0x01, 0x00, 0x00, 0x00,
  0x20, 0x00, 0x00, 0x00, 0x22, 0xef, 0xff, 0xff, 0x00, 0x00, 0x00, 0x01,
  0x18, 0x00, 0x00, 0x00, 0x28, 0x00, 0x00, 0x00, 0x44, 0x00, 0x00, 0x00,
  0x12, 0x00, 0x00, 0x00, 0x00, 0x00, 0x00, 0x09, 0x68, 0x00, 0x00, 0x00,
  0x04, 0x00, 0x00, 0x00, 0xff, 0xff, 0xff, 0xff, 0x0c, 0x00, 0x00, 0x00,
  0x0c, 0x00, 0x00, 0x00, 0x20, 0x00, 0x00, 0x00, 0x0c, 0xef, 0xff, 0xff,
  0x08, 0x00, 0x00, 0x00, 0x10, 0x00, 0x00, 0x00, 0x01, 0x00, 0x00, 0x00,
  0x80, 0xff, 0xff, 0xff, 0xff, 0xff, 0xff, 0xff, 0x01, 0x00, 0x00, 0x00,
  0x22, 0x9e, 0x0c, 0x3d, 0x2a, 0x00, 0x00, 0x00, 0x73, 0x65, 0x71, 0x75,
  0x65, 0x6e, 0x74, 0x69, 0x61, 0x6c, 0x5f, 0x31, 0x5f, 0x31, 0x2f, 0x6d,
  0x61, 0x78, 0x5f, 0x70, 0x6f, 0x6f, 0x6c, 0x69, 0x6e, 0x67, 0x32, 0x64,
  0x5f, 0x35, 0x5f, 0x31, 0x2f, 0x4d, 0x61, 0x78, 0x50, 0x6f, 0x6f, 0x6c,
  0x32, 0x64, 0x00, 0x00, 0x04, 0x00, 0x00, 0x00, 0x01, 0x00, 0x00, 0x00,
  0x0c, 0x00, 0x00, 0x00, 0x0c, 0x00, 0x00, 0x00, 0x20, 0x00, 0x00, 0x00,
  0xba, 0xef, 0xff, 0xff, 0x00, 0x00, 0x00, 0x01, 0x18, 0x00, 0x00, 0x00,
  0x28, 0x00, 0x00, 0x00, 0x48, 0x00, 0x00, 0x00, 0x11, 0x00, 0x00, 0x00,
  0x00, 0x00, 0x00, 0x09, 0xa8, 0x00, 0x00, 0x00, 0x04, 0x00, 0x00, 0x00,
  0xff, 0xff, 0xff, 0xff, 0x18, 0x00, 0x00, 0x00, 0x18, 0x00, 0x00, 0x00,
  0x20, 0x00, 0x00, 0x00, 0xa4, 0xef, 0xff, 0xff, 0x08, 0x00, 0x00, 0x00,
  0x14, 0x00, 0x00, 0x00, 0x01, 0x00, 0x00, 0x00, 0x80, 0xff, 0xff, 0xff,
  0xff, 0xff, 0xff, 0xff, 0x00, 0x00, 0x00, 0x00, 0x01, 0x00, 0x00, 0x00,
  0x22, 0x9e, 0x0c, 0x3d, 0x67, 0x00, 0x00, 0x00, 0x73, 0x65, 0x71, 0x75,
  0x65, 0x6e, 0x74, 0x69, 0x61, 0x6c, 0x5f, 0x31, 0x5f, 0x31, 0x2f, 0x63,
  0x6f, 0x6e, 0x76, 0x32, 0x64, 0x5f, 0x35, 0x5f, 0x31, 0x2f, 0x52, 0x65,
  0x6c, 0x75, 0x3b, 0x73, 0x65, 0x71, 0x75, 0x65, 0x6e, 0x74, 0x69, 0x61,
  0x6c, 0x5f, 0x31, 0x5f, 0x31, 0x2f, 0x63, 0x6f, 0x6e, 0x76, 0x32, 0x64,
  0x5f, 0x35, 0x5f, 0x31, 0x2f, 0x42, 0x69, 0x61, 0x73, 0x41, 0x64, 0x64,
  0x3b, 0x73, 0x65, 0x71, 0x75, 0x65, 0x6e, 0x74, 0x69, 0x61, 0x6c, 0x5f,
  0x31, 0x5f, 0x31, 0x2f, 0x63, 0x6f, 0x6e, 0x76, 0x32, 0x64, 0x5f, 0x35,
  0x5f, 0x31, 0x2f, 0x63, 0x6f, 0x6e, 0x76, 0x6f, 0x6c, 0x75, 0x74, 0x69,
  0x6f, 0x6e, 0x3b, 0x00, 0x04, 0x00, 0x00, 0x00, 0x01, 0x00, 0x00, 0x00,
  0x18, 0x00, 0x00, 0x00, 0x18, 0x00, 0x00, 0x00, 0x20, 0x00, 0x00, 0x00,
  0x92, 0xf0, 0xff, 0xff, 0x00, 0x00, 0x00, 0x01, 0x18, 0x00, 0x00, 0x00,
  0x28, 0x00, 0x00, 0x00, 0x44, 0x00, 0x00, 0x00, 0x10, 0x00, 0x00, 0x00,
  0x00, 0x00, 0x00, 0x09, 0x68, 0x00, 0x00, 0x00, 0x04, 0x00, 0x00, 0x00,
  0xff, 0xff, 0xff, 0xff, 0x18, 0x00, 0x00, 0x00, 0x18, 0x00, 0x00, 0x00,
  0x10, 0x00, 0x00, 0x00, 0x7c, 0xf0, 0xff, 0xff, 0x08, 0x00, 0x00, 0x00,
  0x10, 0x00, 0x00, 0x00, 0x01, 0x00, 0x00, 0x00, 0x80, 0xff, 0xff, 0xff,
  0xff, 0xff, 0xff, 0xff, 0x01, 0x00, 0x00, 0x00, 0x6f, 0x5f, 0x08, 0x3c,
  0x2a, 0x00, 0x00, 0x00, 0x73, 0x65, 0x71, 0x75, 0x65, 0x6e, 0x74, 0x69,
  0x61, 0x6c, 0x5f, 0x31, 0x5f, 0x31, 0x2f, 0x6d, 0x61, 0x78, 0x5f, 0x70,
  0x6f, 0x6f, 0x6c, 0x69, 0x6e, 0x67, 0x32, 0x64, 0x5f, 0x34, 0x5f, 0x31,
  0x2f, 0x4d, 0x61, 0x78, 0x50, 0x6f, 0x6f, 0x6c, 0x32, 0x64, 0x00, 0x00,
  0x04, 0x00, 0x00, 0x00, 0x01, 0x00, 0x00, 0x00, 0x18, 0x00, 0x00, 0x00,
  0x18, 0x00, 0x00, 0x00, 0x10, 0x00, 0x00, 0x00, 0x2a, 0xf1, 0xff, 0xff,
  0x00, 0x00, 0x00, 0x01, 0x18, 0x00, 0x00, 0x00, 0x28, 0x00, 0x00, 0x00,
  0x48, 0x00, 0x00, 0x00, 0x0f, 0x00, 0x00, 0x00, 0x00, 0x00, 0x00, 0x09,
  0xa8, 0x00, 0x00, 0x00, 0x04, 0x00, 0x00, 0x00, 0xff, 0xff, 0xff, 0xff,
  0x30, 0x00, 0x00, 0x00, 0x30, 0x00, 0x00, 0x00, 0x10, 0x00, 0x00, 0x00,
  0x14, 0xf1, 0xff, 0xff, 0x08, 0x00, 0x00, 0x00, 0x14, 0x00, 0x00, 0x00,
  0x01, 0x00, 0x00, 0x00, 0x80, 0xff, 0xff, 0xff, 0xff, 0xff, 0xff, 0xff,
  0x00, 0x00, 0x00, 0x00, 0x01, 0x00, 0x00, 0x00, 0x6f, 0x5f, 0x08, 0x3c,
  0x67, 0x00, 0x00, 0x00, 0x73, 0x65, 0x71, 0x75, 0x65, 0x6e, 0x74, 0x69,
  0x61, 0x6c, 0x5f, 0x31, 0x5f, 0x31, 0x2f, 0x63, 0x6f, 0x6e, 0x76, 0x32,
  0x64, 0x5f, 0x34, 0x5f, 0x31, 0x2f, 0x52, 0x65, 0x6c, 0x75, 0x3b, 0x73,
  0x65, 0x71, 0x75, 0x65, 0x6e, 0x74, 0x69, 0x61, 0x6c, 0x5f, 0x31, 0x5f,
  0x31, 0x2f, 0x63, 0x6f, 0x6e, 0x76, 0x32, 0x64, 0x5f, 0x34, 0x5f, 0x31,
  0x2f, 0x42, 0x69, 0x61, 0x73, 0x41, 0x64, 0x64, 0x3b, 0x73, 0x65, 0x71,
  0x75, 0x65, 0x6e, 0x74, 0x69, 0x61, 0x6c, 0x5f, 0x31, 0x5f, 0x31, 0x2f,
  0x63, 0x6f, 0x6e, 0x76, 0x32, 0x64, 0x5f, 0x34, 0x5f, 0x31, 0x2f, 0x63,
  0x6f, 0x6e, 0x76, 0x6f, 0x6c, 0x75, 0x74, 0x69, 0x6f, 0x6e, 0x3b, 0x00,
  0x04, 0x00, 0x00, 0x00, 0x01, 0x00, 0x00, 0x00, 0x30, 0x00, 0x00, 0x00,
  0x30, 0x00, 0x00, 0x00, 0x10, 0x00, 0x00, 0x00, 0x02, 0xf2, 0xff, 0xff,
  0x00, 0x00, 0x00, 0x01, 0x18, 0x00, 0x00, 0x00, 0x28, 0x00, 0x00, 0x00,
  0x44, 0x00, 0x00, 0x00, 0x0e, 0x00, 0x00, 0x00, 0x00, 0x00, 0x00, 0x09,
  0x68, 0x00, 0x00, 0x00, 0x04, 0x00, 0x00, 0x00, 0xff, 0xff, 0xff, 0xff,
  0x30, 0x00, 0x00, 0x00, 0x30, 0x00, 0x00, 0x00, 0x08, 0x00, 0x00, 0x00,
  0xec, 0xf1, 0xff, 0xff, 0x08, 0x00, 0x00, 0x00, 0x10, 0x00, 0x00, 0x00,
  0x01, 0x00, 0x00, 0x00, 0x80, 0xff, 0xff, 0xff, 0xff, 0xff, 0xff, 0xff,
  0x01, 0x00, 0x00, 0x00, 0x7a, 0x60, 0x57, 0x3b, 0x2a, 0x00, 0x00, 0x00,
  0x73, 0x65, 0x71, 0x75, 0x65, 0x6e, 0x74, 0x69, 0x61, 0x6c, 0x5f, 0x31,
  0x5f, 0x31, 0x2f, 0x6d, 0x61, 0x78, 0x5f, 0x70, 0x6f, 0x6f, 0x6c, 0x69,
  0x6e, 0x67, 0x32, 0x64, 0x5f, 0x33, 0x5f, 0x31, 0x2f, 0x4d, 0x61, 0x78,
  0x50, 0x6f, 0x6f, 0x6c, 0x32, 0x64, 0x00, 0x00, 0x04, 0x00, 0x00, 0x00,
  0x01, 0x00, 0x00, 0x00, 0x30, 0x00, 0x00, 0x00, 0x30, 0x00, 0x00, 0x00,
  0x08, 0x00, 0x00, 0x00, 0x9a, 0xf2, 0xff, 0xff, 0x00, 0x00, 0x00, 0x01,
  0x18, 0x00, 0x00, 0x00, 0x28, 0x00, 0x00, 0x00, 0x44, 0x00, 0x00, 0x00,
  0x0d, 0x00, 0x00, 0x00, 0x00, 0x00, 0x00, 0x09, 0xa8, 0x00, 0x00, 0x00,
  0x04, 0x00, 0x00, 0x00, 0xff, 0xff, 0xff, 0xff, 0x60, 0x00, 0x00, 0x00,
  0x60, 0x00, 0x00, 0x00, 0x08, 0x00, 0x00, 0x00, 0x84, 0xf2, 0xff, 0xff,
  0x08, 0x00, 0x00, 0x00, 0x10, 0x00, 0x00, 0x00, 0x01, 0x00, 0x00, 0x00,
  0x80, 0xff, 0xff, 0xff, 0xff, 0xff, 0xff, 0xff, 0x01, 0x00, 0x00, 0x00,
  0x7a, 0x60, 0x57, 0x3b, 0x68, 0x00, 0x00, 0x00, 0x73, 0x65, 0x71, 0x75,
  0x65, 0x6e, 0x74, 0x69, 0x61, 0x6c, 0x5f, 0x31, 0x5f, 0x31, 0x2f, 0x63,
  0x6f, 0x6e, 0x76, 0x32, 0x64, 0x5f, 0x33, 0x5f, 0x31, 0x2f, 0x52, 0x65,
  0x6c, 0x75, 0x3b, 0x73, 0x65, 0x71, 0x75, 0x65, 0x6e, 0x74, 0x69, 0x61,
  0x6c, 0x5f, 0x31, 0x5f, 0x31, 0x2f, 0x63, 0x6f, 0x6e, 0x76, 0x32, 0x64,
  0x5f, 0x33, 0x5f, 0x31, 0x2f, 0x42, 0x69, 0x61, 0x73, 0x41, 0x64, 0x64,
  0x3b, 0x73, 0x65, 0x71, 0x75, 0x65, 0x6e, 0x74, 0x69, 0x61, 0x6c, 0x5f,
  0x31, 0x5f, 0x31, 0x2f, 0x63, 0x6f, 0x6e, 0x76, 0x32, 0x64, 0x5f, 0x33,
  0x5f, 0x31, 0x2f, 0x63, 0x6f, 0x6e, 0x76, 0x6f, 0x6c, 0x75, 0x74, 0x69,
  0x6f, 0x6e, 0x3b, 0x31, 0x00, 0x00, 0x00, 0x00, 0x04, 0x00, 0x00, 0x00,
  0x01, 0x00, 0x00, 0x00, 0x60, 0x00, 0x00, 0x00, 0x60, 0x00, 0x00, 0x00,
  0x08, 0x00, 0x00, 0x00, 0xca, 0xf3, 0xff, 0xff, 0x00, 0x00, 0x00, 0x01,
  0x14, 0x00, 0x00, 0x00, 0x88, 0x00, 0x00, 0x00, 0x0c, 0x00, 0x00, 0x00,
  0x00, 0x00, 0x00, 0x09, 0x94, 0x00, 0x00, 0x00, 0x44, 0xf3, 0xff, 0xff,
  0x08, 0x00, 0x00, 0x00, 0x4c, 0x00, 0x00, 0x00, 0x08, 0x00, 0x00, 0x00,
  0x00, 0x00, 0x00, 0x00, 0x00, 0x00, 0x00, 0x00, 0x00, 0x00, 0x00, 0x00,
  0x00, 0x00, 0x00, 0x00, 0x00, 0x00, 0x00, 0x00, 0x00, 0x00, 0x00, 0x00,
  0x00, 0x00, 0x00, 0x00, 0x00, 0x00, 0x00, 0x00, 0x00, 0x00, 0x00, 0x00,
  0x00, 0x00, 0x00, 0x00, 0x00, 0x00, 0x00, 0x00, 0x00, 0x00, 0x00, 0x00,
  0x00, 0x00, 0x00, 0x00, 0x00, 0x00, 0x00, 0x00, 0x00, 0x00, 0x00, 0x00,
  0x00, 0x00, 0x00, 0x00, 0x00, 0x00, 0x00, 0x00, 0x08, 0x00, 0x00, 0x00,
  0xbc, 0x2f, 0x37, 0x3b, 0x8d, 0xdc, 0x13, 0x3b, 0x99, 0x5b, 0x04, 0x3b,
  0xf8, 0xcf, 0x48, 0x3b, 0xd4, 0x10, 0x2d, 0x3b, 0x22, 0x46, 0x06, 0x3b,
  0x48, 0x74, 0x10, 0x3b, 0x5b, 0x26, 0x0f, 0x3b, 0x12, 0x00, 0x00, 0x00,
  0x74, 0x66, 0x6c, 0x2e, 0x70, 0x73, 0x65, 0x75, 0x64, 0x6f, 0x5f, 0x71,
  0x63, 0x6f, 0x6e, 0x73, 0x74, 0x39, 0x00, 0x00, 0x04, 0x00, 0x00, 0x00,
  0x08, 0x00, 0x00, 0x00, 0x03, 0x00, 0x00, 0x00, 0x03, 0x00, 0x00, 0x00,
  0x01, 0x00, 0x00, 0x00, 0x8a, 0xf4, 0xff, 0xff, 0x00, 0x00, 0x00, 0x01,
  0x14, 0x00, 0x00, 0x00, 0x84, 0x00, 0x00, 0x00, 0x0b, 0x00, 0x00, 0x00,
  0x00, 0x00, 0x00, 0x02, 0x90, 0x00, 0x00, 0x00, 0x04, 0xf4, 0xff, 0xff,
  0x08, 0x00, 0x00, 0x00, 0x48, 0x00, 0x00, 0x00, 0x08, 0x00, 0x00, 0x00,
  0x00, 0x00, 0x00, 0x00, 0x00, 0x00, 0x00, 0x00, 0x00, 0x00, 0x00, 0x00,
  0x00, 0x00, 0x00, 0x00, 0x00, 0x00, 0x00, 0x00, 0x00, 0x00, 0x00, 0x00,
  0x00, 0x00, 0x00, 0x00, 0x00, 0x00, 0x00, 0x00, 0x00, 0x00, 0x00, 0x00,
  0x00, 0x00, 0x00, 0x00, 0x00, 0x00, 0x00, 0x00, 0x00, 0x00, 0x00, 0x00,
  0x00, 0x00, 0x00, 0x00, 0x00, 0x00, 0x00, 0x00, 0x00, 0x00, 0x00, 0x00,
  0x00, 0x00, 0x00, 0x00, 0x08, 0x00, 0x00, 0x00, 0xa4, 0xe7, 0x37, 0x37,
  0xff, 0x70, 0x14, 0x37, 0x7a, 0xe0, 0x04, 0x37, 0x92, 0x99, 0x49, 0x37,
  0x93, 0xbe, 0x2d, 0x37, 0xef, 0xcc, 0x06, 0x37, 0x4e, 0x05, 0x11, 0x37,
  0x12, 0xb6, 0x0f, 0x37, 0x12, 0x00, 0x00, 0x00, 0x74, 0x66, 0x6c, 0x2e,
  0x70, 0x73, 0x65, 0x75, 0x64, 0x6f, 0x5f, 0x71, 0x63, 0x6f, 0x6e, 0x73,
  0x74, 0x38, 0x00, 0x00, 0x01, 0x00, 0x00, 0x00, 0x08, 0x00, 0x00, 0x00,
  0x3a, 0xf5, 0xff, 0xff, 0x00, 0x00, 0x00, 0x01, 0x14, 0x00, 0x00, 0x00,
  0xe8, 0x00, 0x00, 0x00, 0x0a, 0x00, 0x00, 0x00, 0x00, 0x00, 0x00, 0x09,
  0xf4, 0x00, 0x00, 0x00, 0xb4, 0xf4, 0xff, 0xff, 0x08, 0x00, 0x00, 0x00,
  0x8c, 0x00, 0x00, 0x00, 0x10, 0x00, 0x00, 0x00, 0x00, 0x00, 0x00, 0x00,
  0x00, 0x00, 0x00, 0x00, 0x00, 0x00, 0x00, 0x00, 0x00, 0x00, 0x00, 0x00,
  0x00, 0x00, 0x00, 0x00, 0x00, 0x00, 0x00, 0x00, 0x00, 0x00, 0x00, 0x00,
  0x00, 0x00, 0x00, 0x00, 0x00, 0x00, 0x00, 0x00, 0x00, 0x00, 0x00, 0x00,
  0x00, 0x00, 0x00, 0x00, 0x00, 0x00, 0x00, 0x00, 0x00, 0x00, 0x00, 0x00,
  0x00, 0x00, 0x00, 0x00, 0x00, 0x00, 0x00, 0x00, 0x00, 0x00, 0x00, 0x00,
  0x00, 0x00, 0x00, 0x00, 0x00, 0x00, 0x00, 0x00, 0x00, 0x00, 0x00, 0x00,
  0x00, 0x00, 0x00, 0x00, 0x00, 0x00, 0x00, 0x00, 0x00, 0x00, 0x00, 0x00,
  0x00, 0x00, 0x00, 0x00, 0x00, 0x00, 0x00, 0x00, 0x00, 0x00, 0x00, 0x00,
  0x00, 0x00, 0x00, 0x00, 0x00, 0x00, 0x00, 0x00, 0x00, 0x00, 0x00, 0x00,
  0x00, 0x00, 0x00, 0x00, 0x00, 0x00, 0x00, 0x00, 0x00, 0x00, 0x00, 0x00,
  0x00, 0x00, 0x00, 0x00, 0x00, 0x00, 0x00, 0x00, 0x10, 0x00, 0x00, 0x00,
  0xf3, 0xda, 0x54, 0x3b, 0xcd, 0x55, 0x23, 0x3b, 0x36, 0xe1, 0xdf, 0x3b,
  0x2b, 0xd2, 0xc9, 0x3b, 0x70, 0x5a, 0x69, 0x3b, 0xff, 0xbb, 0xab, 0x3b,
  0xcf, 0xbe, 0x50, 0x3b, 0x0b, 0x75, 0x51, 0x3b, 0xb5, 0x54, 0x87, 0x3b,
  0x20, 0x99, 0x49, 0x3b, 0x9d, 0x66, 0x57, 0x3b, 0x5f, 0x83, 0x7f, 0x3b,
  0xb9, 0x3a, 0x2d, 0x3b, 0x4c, 0xc1, 0x84, 0x3b, 0x5c, 0xc3, 0x79, 0x3b,
  0xf6, 0x93, 0x2f, 0x3b, 0x12, 0x00, 0x00, 0x00, 0x74, 0x66, 0x6c, 0x2e,
  0x70, 0x73, 0x65, 0x75, 0x64, 0x6f, 0x5f, 0x71, 0x63, 0x6f, 0x6e, 0x73,
  0x74, 0x37, 0x00, 0x00, 0x04, 0x00, 0x00, 0x00, 0x10, 0x00, 0x00, 0x00,
  0x03, 0x00, 0x00, 0x00, 0x03, 0x00, 0x00, 0x00, 0x08, 0x00, 0x00, 0x00,
  0x5a, 0xf6, 0xff, 0xff, 0x00, 0x00, 0x00, 0x01, 0x14, 0x00, 0x00, 0x00,
  0xe4, 0x00, 0x00, 0x00, 0x09, 0x00, 0x00, 0x00, 0x00, 0x00, 0x00, 0x02,
  0xf0, 0x00, 0x00, 0x00, 0xd4, 0xf5, 0xff, 0xff, 0x08, 0x00, 0x00, 0x00,
  0x88, 0x00, 0x00, 0x00, 0x10, 0x00, 0x00, 0x00, 0x00, 0x00, 0x00, 0x00,
  0x00, 0x00, 0x00, 0x00, 0x00, 0x00, 0x00, 0x00, 0x00, 0x00, 0x00, 0x00,
  0x00, 0x00, 0x00, 0x00, 0x00, 0x00, 0x00, 0x00, 0x00, 0x00, 0x00, 0x00,
  0x00, 0x00, 0x00, 0x00, 0x00, 0x00, 0x00, 0x00, 0x00, 0x00, 0x00, 0x00,
  0x00, 0x00, 0x00, 0x00, 0x00, 0x00, 0x00, 0x00, 0x00, 0x00, 0x00, 0x00,
  0x00, 0x00, 0x00, 0x00, 0x00, 0x00, 0x00, 0x00, 0x00, 0x00, 0x00, 0x00,
  0x00, 0x00, 0x00, 0x00, 0x00, 0x00, 0x00, 0x00, 0x00, 0x00, 0x00, 0x00,
  0x00, 0x00, 0x00, 0x00, 0x00, 0x00, 0x00, 0x00, 0x00, 0x00, 0x00, 0x00,
  0x00, 0x00, 0x00, 0x00, 0x00, 0x00, 0x00, 0x00, 0x00, 0x00, 0x00, 0x00,
  0x00, 0x00, 0x00, 0x00, 0x00, 0x00, 0x00, 0x00, 0x00, 0x00, 0x00, 0x00,
  0x00, 0x00, 0x00, 0x00, 0x00, 0x00, 0x00, 0x00, 0x00, 0x00, 0x00, 0x00,
  0x00, 0x00, 0x00, 0x00, 0x10, 0x00, 0x00, 0x00, 0x1a, 0x14, 0x33, 0x37,
  0x9d, 0x6a, 0x09, 0x37, 0x83, 0x5a, 0xbc, 0x37, 0x91, 0xcb, 0xa9, 0x37,
  0xe5, 0x52, 0x44, 0x37, 0x9c, 0x7b, 0x90, 0x37, 0xeb, 0x9e, 0x2f, 0x37,
  0x3c, 0x38, 0x30, 0x37, 0x49, 0xb6, 0x63, 0x37, 0x93, 0x9b, 0x29, 0x37,
  0x5b, 0x38, 0x35, 0x37, 0xa0, 0xf7, 0x56, 0x37, 0x9a, 0xbd, 0x11, 0x37,
  0xbd, 0x60, 0x5f, 0x37, 0x33, 0x21, 0x52, 0x37, 0x6f, 0xb7, 0x13, 0x37,
  0x12, 0x00, 0x00, 0x00, 0x74, 0x66, 0x6c, 0x2e, 0x70, 0x73, 0x65, 0x75,
  0x64, 0x6f, 0x5f, 0x71, 0x63, 0x6f, 0x6e, 0x73, 0x74, 0x36, 0x00, 0x00,
  0x01, 0x00, 0x00, 0x00, 0x10, 0x00, 0x00, 0x00, 0x6a, 0xf7, 0xff, 0xff,
  0x00, 0x00, 0x00, 0x01, 0x14, 0x00, 0x00, 0x00, 0xa8, 0x01, 0x00, 0x00,
  0x08, 0x00, 0x00, 0x00, 0x00, 0x00, 0x00, 0x09, 0xb4, 0x01, 0x00, 0x00,
  0xe4, 0xf6, 0xff, 0xff, 0x08, 0x00, 0x00, 0x00, 0x0c, 0x01, 0x00, 0x00,
  0x20, 0x00, 0x00, 0x00, 0x00, 0x00, 0x00, 0x00, 0x00, 0x00, 0x00, 0x00,
  0x00, 0x00, 0x00, 0x00, 0x00, 0x00, 0x00, 0x00, 0x00, 0x00, 0x00, 0x00,
  0x00, 0x00, 0x00, 0x00, 0x00, 0x00, 0x00, 0x00, 0x00, 0x00, 0x00, 0x00,
  0x00, 0x00, 0x00, 0x00, 0x00, 0x00, 0x00, 0x00, 0x00, 0x00, 0x00, 0x00,
  0x00, 0x00, 0x00, 0x00, 0x00, 0x00, 0x00, 0x00, 0x00, 0x00, 0x00, 0x00,
  0x00, 0x00, 0x00, 0x00, 0x00, 0x00, 0x00, 0x00, 0x00, 0x00, 0x00, 0x00,
  0x00, 0x00, 0x00, 0x00, 0x00, 0x00, 0x00, 0x00, 0x00, 0x00, 0x00, 0x00,
  0x00, 0x00, 0x00, 0x00, 0x00, 0x00, 0x00, 0x00, 0x00, 0x00, 0x00, 0x00,
  0x00, 0x00, 0x00, 0x00, 0x00, 0x00, 0x00, 0x00, 0x00, 0x00, 0x00, 0x00,
  0x00, 0x00, 0x00, 0x00, 0x00, 0x00, 0x00, 0x00, 0x00, 0x00, 0x00, 0x00,
  0x00, 0x00, 0x00, 0x00, 0x00, 0x00, 0x00, 0x00, 0x00, 0x00, 0x00, 0x00,
  0x00, 0x00, 0x00, 0x00, 0x00, 0x00, 0x00, 0x00, 0x00, 0x00, 0x00, 0x00,
  0x00, 0x00, 0x00, 0x00, 0x00, 0x00, 0x00, 0x00, 0x00, 0x00, 0x00, 0x00,
  0x00, 0x00, 0x00, 0x00, 0x00, 0x00, 0x00, 0x00, 0x00, 0x00, 0x00, 0x00,
  0x00, 0x00, 0x00, 0x00, 0x00, 0x00, 0x00, 0x00, 0x00, 0x00, 0x00, 0x00,
  0x00, 0x00, 0x00, 0x00, 0x00, 0x00, 0x00, 0x00, 0x00, 0x00, 0x00, 0x00,
  0x00, 0x00, 0x00, 0x00, 0x00, 0x00, 0x00, 0x00, 0x00, 0x00, 0x00, 0x00,
  0x00, 0x00, 0x00, 0x00, 0x00, 0x00, 0x00, 0x00, 0x00, 0x00, 0x00, 0x00,
  0x00, 0x00, 0x00, 0x00, 0x00, 0x00, 0x00, 0x00, 0x00, 0x00, 0x00, 0x00,
  0x00, 0x00, 0x00, 0x00, 0x00, 0x00, 0x00, 0x00, 0x00, 0x00, 0x00, 0x00,
  0x00, 0x00, 0x00, 0x00, 0x00, 0x00, 0x00, 0x00, 0x00, 0x00, 0x00, 0x00,
  0x00, 0x00, 0x00, 0x00, 0x00, 0x00, 0x00, 0x00, 0x00, 0x00, 0x00, 0x00,
  0x20, 0x00, 0x00, 0x00, 0x10, 0xa4, 0x6d, 0x3b, 0x9c, 0x98, 0xdc, 0x3b,
  0x84, 0xf6, 0xbf, 0x3b, 0x0b, 0x13, 0x89, 0x3b, 0xb6, 0xd0, 0x89, 0x3b,
  0x7c, 0xab, 0x8a, 0x3b, 0xfc, 0x4a, 0x99, 0x3a, 0x63, 0x3d, 0x88, 0x3b,
  0xb1, 0xf4, 0x9a, 0x3b, 0x49, 0x93, 0x82, 0x3b, 0xf2, 0xc1, 0x5c, 0x3b,
  0x80, 0xf2, 0x84, 0x3b, 0x71, 0x05, 0x6d, 0x3b, 0xdc, 0x48, 0xba, 0x3b,
  0xb3, 0xdf, 0x58, 0x3b, 0x83, 0x0d, 0x69, 0x3b, 0x78, 0x18, 0xb6, 0x3a,
  0xd8, 0x0e, 0x89, 0x3b, 0x25, 0x22, 0x42, 0x3b, 0x5c, 0x45, 0x9c, 0x3b,
  0x36, 0x78, 0x8b, 0x3b, 0x37, 0xa6, 0x72, 0x3b, 0x46, 0xef, 0x68, 0x3b,
  0x26, 0x36, 0x5f, 0x3b, 0x72, 0xd0, 0xbd, 0x3b, 0x0c, 0xfd, 0xa6, 0x3b,
  0x2c, 0x22, 0x95, 0x3b, 0x63, 0x43, 0x34, 0x3b, 0x20, 0x4a, 0x6b, 0x3b,
  0x45, 0x59, 0xaa, 0x3b, 0xca, 0xf9, 0x90, 0x3b, 0x9e, 0x4a, 0xba, 0x3b,
  0x12, 0x00, 0x00, 0x00, 0x74, 0x66, 0x6c, 0x2e, 0x70, 0x73, 0x65, 0x75,
  0x64, 0x6f, 0x5f, 0x71, 0x63, 0x6f, 0x6e, 0x73, 0x74, 0x35, 0x00, 0x00,
  0x04, 0x00, 0x00, 0x00, 0x20, 0x00, 0x00, 0x00, 0x03, 0x00, 0x00, 0x00,
  0x03, 0x00, 0x00, 0x00, 0x10, 0x00, 0x00, 0x00, 0x4a, 0xf9, 0xff, 0xff,
  0x00, 0x00, 0x00, 0x01, 0x14, 0x00, 0x00, 0x00, 0xa4, 0x01, 0x00, 0x00,
  0x07, 0x00, 0x00, 0x00, 0x00, 0x00, 0x00, 0x02, 0xb0, 0x01, 0x00, 0x00,
  0xc4, 0xf8, 0xff, 0xff, 0x08, 0x00, 0x00, 0x00, 0x08, 0x01, 0x00, 0x00,
  0x20, 0x00, 0x00, 0x00, 0x00, 0x00, 0x00, 0x00, 0x00, 0x00, 0x00, 0x00,
  0x00, 0x00, 0x00, 0x00, 0x00, 0x00, 0x00, 0x00, 0x00, 0x00, 0x00, 0x00,
  0x00, 0x00, 0x00, 0x00, 0x00, 0x00, 0x00, 0x00, 0x00, 0x00, 0x00, 0x00,
  0x00, 0x00, 0x00, 0x00, 0x00, 0x00, 0x00, 0x00, 0x00, 0x00, 0x00, 0x00,
  0x00, 0x00, 0x00, 0x00, 0x00, 0x00, 0x00, 0x00, 0x00, 0x00, 0x00, 0x00,
  0x00, 0x00, 0x00, 0x00, 0x00, 0x00, 0x00, 0x00, 0x00, 0x00, 0x00, 0x00,
  0x00, 0x00, 0x00, 0x00, 0x00, 0x00, 0x00, 0x00, 0x00, 0x00, 0x00, 0x00,
  0x00, 0x00, 0x00, 0x00, 0x00, 0x00, 0x00, 0x00, 0x00, 0x00, 0x00, 0x00,
  0x00, 0x00, 0x00, 0x00, 0x00, 0x00, 0x00, 0x00, 0x00, 0x00, 0x00, 0x00,
  0x00, 0x00, 0x00, 0x00, 0x00, 0x00, 0x00, 0x00, 0x00, 0x00, 0x00, 0x00,
  0x00, 0x00, 0x00, 0x00, 0x00, 0x00, 0x00, 0x00, 0x00, 0x00, 0x00, 0x00,
  0x00, 0x00, 0x00, 0x00, 0x00, 0x00, 0x00, 0x00, 0x00, 0x00, 0x00, 0x00,
  0x00, 0x00, 0x00, 0x00, 0x00, 0x00, 0x00, 0x00, 0x00, 0x00, 0x00, 0x00,
  0x00, 0x00, 0x00, 0x00, 0x00, 0x00, 0x00, 0x00, 0x00, 0x00, 0x00, 0x00,
  0x00, 0x00, 0x00, 0x00, 0x00, 0x00, 0x00, 0x00, 0x00, 0x00, 0x00, 0x00,
  0x00, 0x00, 0x00, 0x00, 0x00, 0x00, 0x00, 0x00, 0x00, 0x00, 0x00, 0x00,
  0x00, 0x00, 0x00, 0x00, 0x00, 0x00, 0x00, 0x00, 0x00, 0x00, 0x00, 0x00,
  0x00, 0x00, 0x00, 0x00, 0x00, 0x00, 0x00, 0x00, 0x00, 0x00, 0x00, 0x00,
  0x00, 0x00, 0x00, 0x00, 0x00, 0x00, 0x00, 0x00, 0x00, 0x00, 0x00, 0x00,
  0x00, 0x00, 0x00, 0x00, 0x00, 0x00, 0x00, 0x00, 0x00, 0x00, 0x00, 0x00,
  0x00, 0x00, 0x00, 0x00, 0x00, 0x00, 0x00, 0x00, 0x00, 0x00, 0x00, 0x00,
  0x00, 0x00, 0x00, 0x00, 0x00, 0x00, 0x00, 0x00, 0x20, 0x00, 0x00, 0x00,
  0x7f, 0x2f, 0xfd, 0x37, 0x9e, 0x06, 0x6b, 0x38, 0x0c, 0x85, 0x4c, 0x38,
  0x6f, 0x0a, 0x12, 0x38, 0x82, 0xd4, 0x12, 0x38, 0x97, 0xbd, 0x13, 0x38,
  0xf6, 0x51, 0x23, 0x37, 0xcd, 0x26, 0x11, 0x38, 0x84, 0x17, 0x25, 0x38,
  0xd8, 0x1d, 0x0b, 0x38, 0xa9, 0x32, 0xeb, 0x37, 0xc7, 0xa4, 0x0d, 0x38,
  0x80, 0x86, 0xfc, 0x37, 0x4d, 0x78, 0x46, 0x38, 0x60, 0x0f, 0xe7, 0x37,
  0x1d, 0x4c, 0xf8, 0x37, 0xc4, 0x01, 0x42, 0x37, 0xf5, 0x05, 0x12, 0x38,
  0x05, 0xd5, 0xce, 0x37, 0x35, 0x7e, 0x26, 0x38, 0xb6, 0x97, 0x14, 0x38,
  0xc2, 0x42, 0x01, 0x38, 0xe6, 0x2b, 0xf8, 0x37, 0xf4, 0xcf, 0xed, 0x37,
  0xfe, 0x3a, 0x4a, 0x38, 0x5d, 0xe9, 0x31, 0x38, 0x7f, 0xe3, 0x1e, 0x38,
  0x00, 0x0e, 0xc0, 0x37, 0x2f, 0xae, 0xfa, 0x37, 0xdb, 0x7d, 0x35, 0x38,
  0x7e, 0x75, 0x1a, 0x38, 0x2d, 0x7a, 0x46, 0x38, 0x12, 0x00, 0x00, 0x00,
  0x74, 0x66, 0x6c, 0x2e, 0x70, 0x73, 0x65, 0x75, 0x64, 0x6f, 0x5f, 0x71,
  0x63, 0x6f, 0x6e, 0x73, 0x74, 0x34, 0x00, 0x00, 0x01, 0x00, 0x00, 0x00,
  0x20, 0x00, 0x00, 0x00, 0x1a, 0xfb, 0xff, 0xff, 0x00, 0x00, 0x00, 0x01,
  0x14, 0x00, 0x00, 0x00, 0xa8, 0x01, 0x00, 0x00, 0x06, 0x00, 0x00, 0x00,
  0x00, 0x00, 0x00, 0x09, 0xb4, 0x01, 0x00, 0x00, 0x94, 0xfa, 0xff, 0xff,
  0x08, 0x00, 0x00, 0x00, 0x0c, 0x01, 0x00, 0x00, 0x20, 0x00, 0x00, 0x00,
  0x00, 0x00, 0x00, 0x00, 0x00, 0x00, 0x00, 0x00, 0x00, 0x00, 0x00, 0x00,
  0x00, 0x00, 0x00, 0x00, 0x00, 0x00, 0x00, 0x00, 0x00, 0x00, 0x00, 0x00,
  0x00, 0x00, 0x00, 0x00, 0x00, 0x00, 0x00, 0x00, 0x00, 0x00, 0x00, 0x00,
  0x00, 0x00, 0x00, 0x00, 0x00, 0x00, 0x00, 0x00, 0x00, 0x00, 0x00, 0x00,
  0x00, 0x00, 0x00, 0x00, 0x00, 0x00, 0x00, 0x00, 0x00, 0x00, 0x00, 0x00,
  0x00, 0x00, 0x00, 0x00, 0x00, 0x00, 0x00, 0x00, 0x00, 0x00, 0x00, 0x00,
  0x00, 0x00, 0x00, 0x00, 0x00, 0x00, 0x00, 0x00, 0x00, 0x00, 0x00, 0x00,
  0x00, 0x00, 0x00, 0x00, 0x00, 0x00, 0x00, 0x00, 0x00, 0x00, 0x00, 0x00,
  0x00, 0x00, 0x00, 0x00, 0x00, 0x00, 0x00, 0x00, 0x00, 0x00, 0x00, 0x00,
  0x00, 0x00, 0x00, 0x00, 0x00, 0x00, 0x00, 0x00, 0x00, 0x00, 0x00, 0x00,
  0x00, 0x00, 0x00, 0x00, 0x00, 0x00, 0x00, 0x00, 0x00, 0x00, 0x00, 0x00,
  0x00, 0x00, 0x00, 0x00, 0x00, 0x00, 0x00, 0x00, 0x00, 0x00, 0x00, 0x00,
  0x00, 0x00, 0x00, 0x00, 0x00, 0x00, 0x00, 0x00, 0x00, 0x00, 0x00, 0x00,
  0x00, 0x00, 0x00, 0x00, 0x00, 0x00, 0x00, 0x00, 0x00, 0x00, 0x00, 0x00,
  0x00, 0x00, 0x00, 0x00, 0x00, 0x00, 0x00, 0x00, 0x00, 0x00, 0x00, 0x00,
  0x00, 0x00, 0x00, 0x00, 0x00, 0x00, 0x00, 0x00, 0x00, 0x00, 0x00, 0x00,
  0x00, 0x00, 0x00, 0x00, 0x00, 0x00, 0x00, 0x00, 0x00, 0x00, 0x00, 0x00,
  0x00, 0x00, 0x00, 0x00, 0x00, 0x00, 0x00, 0x00, 0x00, 0x00, 0x00, 0x00,
  0x00, 0x00, 0x00, 0x00, 0x00, 0x00, 0x00, 0x00, 0x00, 0x00, 0x00, 0x00,
  0x00, 0x00, 0x00, 0x00, 0x00, 0x00, 0x00, 0x00, 0x00, 0x00, 0x00, 0x00,
  0x00, 0x00, 0x00, 0x00, 0x00, 0x00, 0x00, 0x00, 0x00, 0x00, 0x00, 0x00,
  0x00, 0x00, 0x00, 0x00, 0x00, 0x00, 0x00, 0x00, 0x20, 0x00, 0x00, 0x00,
  0xd4, 0x01, 0x9e, 0x3b, 0xa7, 0x87, 0x9e, 0x3b, 0x19, 0x6b, 0x1d, 0x3b,
  0x15, 0x9f, 0x9b, 0x3b, 0x3a, 0x5c, 0x2e, 0x3b, 0x6b, 0x79, 0x9d, 0x3b,
  0xf2, 0xac, 0x8a, 0x3b, 0x1f, 0x1b, 0x2d, 0x3b, 0xfe, 0xfc, 0xae, 0x3b,
  0x34, 0x0b, 0x6e, 0x3b, 0x89, 0x48, 0xa6, 0x3b, 0x6c, 0x54, 0x54, 0x3b,
  0x58, 0xa8, 0x8b, 0x3b, 0x6c, 0x1c, 0xc7, 0x3b, 0x5c, 0xa3, 0xb0, 0x3b,
  0x3c, 0xb4, 0xa4, 0x3b, 0xda, 0x79, 0xb7, 0x3b, 0xeb, 0x13, 0x98, 0x3b,
  0xb2, 0x1c, 0xab, 0x3b, 0xb9, 0xb4, 0x6d, 0x3b, 0x03, 0x77, 0xa6, 0x3b,
  0x2f, 0x41, 0xb0, 0x3b, 0xa3, 0xca, 0x84, 0x3b, 0xdd, 0xf2, 0x2b, 0x3b,
  0x8e, 0x73, 0x9e, 0x3b, 0x2e, 0xec, 0x1a, 0x3b, 0x6d, 0x95, 0x8c, 0x3b,
  0x62, 0x03, 0x36, 0x3b, 0x31, 0xa0, 0x8c, 0x3b, 0xc1, 0xc7, 0xa7, 0x3b,
  0xc5, 0x3a, 0xa0, 0x3b, 0xf6, 0x9a, 0x1b, 0x3b, 0x12, 0x00, 0x00, 0x00,
  0x74, 0x66, 0x6c, 0x2e, 0x70, 0x73, 0x65, 0x75, 0x64, 0x6f, 0x5f, 0x71,
  0x63, 0x6f, 0x6e, 0x73, 0x74, 0x33, 0x00, 0x00, 0x02, 0x00, 0x00, 0x00,
  0x20, 0x00, 0x00, 0x00, 0x20, 0x00, 0x00, 0x00, 0xf2, 0xfc, 0xff, 0xff,
  0x00, 0x00, 0x00, 0x01, 0x14, 0x00, 0x00, 0x00, 0xa4, 0x01, 0x00, 0x00,
  0x05, 0x00, 0x00, 0x00, 0x00, 0x00, 0x00, 0x02, 0xb0, 0x01, 0x00, 0x00,
  0x6c, 0xfc, 0xff, 0xff, 0x08, 0x00, 0x00, 0x00, 0x08, 0x01, 0x00, 0x00,
  0x20, 0x00, 0x00, 0x00, 0x00, 0x00, 0x00, 0x00, 0x00, 0x00, 0x00, 0x00,
  0x00, 0x00, 0x00, 0x00, 0x00, 0x00, 0x00, 0x00, 0x00, 0x00, 0x00, 0x00,
  0x00, 0x00, 0x00, 0x00, 0x00, 0x00, 0x00, 0x00, 0x00, 0x00, 0x00, 0x00,
  0x00, 0x00, 0x00, 0x00, 0x00, 0x00, 0x00, 0x00, 0x00, 0x00, 0x00, 0x00,
  0x00, 0x00, 0x00, 0x00, 0x00, 0x00, 0x00, 0x00, 0x00, 0x00, 0x00, 0x00,
  0x00, 0x00, 0x00, 0x00, 0x00, 0x00, 0x00, 0x00, 0x00, 0x00, 0x00, 0x00,
  0x00, 0x00, 0x00, 0x00, 0x00, 0x00, 0x00, 0x00, 0x00, 0x00, 0x00, 0x00,
  0x00, 0x00, 0x00, 0x00, 0x00, 0x00, 0x00, 0x00, 0x00, 0x00, 0x00, 0x00,
  0x00, 0x00, 0x00, 0x00, 0x00, 0x00, 0x00, 0x00, 0x00, 0x00, 0x00, 0x00,
  0x00, 0x00, 0x00, 0x00, 0x00, 0x00, 0x00, 0x00, 0x00, 0x00, 0x00, 0x00,
  0x00, 0x00, 0x00, 0x00, 0x00, 0x00, 0x00, 0x00, 0x00, 0x00, 0x00, 0x00,
  0x00, 0x00, 0x00, 0x00, 0x00, 0x00, 0x00, 0x00, 0x00, 0x00, 0x00, 0x00,
  0x00, 0x00, 0x00, 0x00, 0x00, 0x00, 0x00, 0x00, 0x00, 0x00, 0x00, 0x00,
  0x00, 0x00, 0x00, 0x00, 0x00, 0x00, 0x00, 0x00, 0x00, 0x00, 0x00, 0x00,
  0x00, 0x00, 0x00, 0x00, 0x00, 0x00, 0x00, 0x00, 0x00, 0x00, 0x00, 0x00,
  0x00, 0x00, 0x00, 0x00, 0x00, 0x00, 0x00, 0x00, 0x00, 0x00, 0x00, 0x00,
  0x00, 0x00, 0x00, 0x00, 0x00, 0x00, 0x00, 0x00, 0x00, 0x00, 0x00, 0x00,
  0x00, 0x00, 0x00, 0x00, 0x00, 0x00, 0x00, 0x00, 0x00, 0x00, 0x00, 0x00,
  0x00, 0x00, 0x00, 0x00, 0x00, 0x00, 0x00, 0x00, 0x00, 0x00, 0x00, 0x00,
  0x00, 0x00, 0x00, 0x00, 0x00, 0x00, 0x00, 0x00, 0x00, 0x00, 0x00, 0x00,
  0x00, 0x00, 0x00, 0x00, 0x00, 0x00, 0x00, 0x00, 0x00, 0x00, 0x00, 0x00,
  0x00, 0x00, 0x00, 0x00, 0x00, 0x00, 0x00, 0x00, 0x20, 0x00, 0x00, 0x00,
  0x9b, 0xf7, 0x47, 0x38, 0xf7, 0xa0, 0x48, 0x38, 0xd8, 0x38, 0xc7, 0x37,
  0xab, 0xf2, 0x44, 0x38, 0xbc, 0xa9, 0xdc, 0x37, 0xf8, 0x4a, 0x47, 0x38,
  0x81, 0x80, 0x2f, 0x38, 0x5b, 0x13, 0xdb, 0x37, 0x31, 0x75, 0x5d, 0x38,
  0x0c, 0xa1, 0x16, 0x38, 0xf3, 0x70, 0x52, 0x38, 0x9a, 0x5b, 0x06, 0x38,
  0xaa, 0xbe, 0x30, 0x38, 0x8e, 0xfc, 0x7b, 0x38, 0xb9, 0x8b, 0x5f, 0x38,
  0x49, 0x71, 0x50, 0x38, 0x12, 0x33, 0x68, 0x38, 0x9a, 0x76, 0x40, 0x38,
  0x62, 0x8d, 0x58, 0x38, 0x53, 0x6a, 0x16, 0x38, 0xc5, 0xab, 0x52, 0x38,
  0x7a, 0x0f, 0x5f, 0x38, 0x2f, 0x0e, 0x28, 0x38, 0x6d, 0x9c, 0xd9, 0x37,
  0x88, 0x87, 0x48, 0x38, 0x42, 0x10, 0xc4, 0x37, 0xb5, 0xea, 0x31, 0x38,
  0x29, 0x59, 0xe6, 0x37, 0x55, 0xf8, 0x31, 0x38, 0xf0, 0x55, 0x54, 0x38,
  0xa2, 0xc7, 0x4a, 0x38, 0x74, 0xed, 0xc4, 0x37, 0x12, 0x00, 0x00, 0x00,
  0x74, 0x66, 0x6c, 0x2e, 0x70, 0x73, 0x65, 0x75, 0x64, 0x6f, 0x5f, 0x71,
  0x63, 0x6f, 0x6e, 0x73, 0x74, 0x32, 0x00, 0x00, 0x01, 0x00, 0x00, 0x00,
  0x20, 0x00, 0x00, 0x00, 0xc2, 0xfe, 0xff, 0xff, 0x00, 0x00, 0x00, 0x01,
  0x14, 0x00, 0x00, 0x00, 0x70, 0x00, 0x00, 0x00, 0x04, 0x00, 0x00, 0x00,
  0x00, 0x00, 0x00, 0x09, 0x7c, 0x00, 0x00, 0x00, 0x3c, 0xfe, 0xff, 0xff,
  0x08, 0x00, 0x00, 0x00, 0x3c, 0x00, 0x00, 0x00, 0x06, 0x00, 0x00, 0x00,
  0x00, 0x00, 0x00, 0x00, 0x00, 0x00, 0x00, 0x00, 0x00, 0x00, 0x00, 0x00,
  0x00, 0x00, 0x00, 0x00, 0x00, 0x00, 0x00, 0x00, 0x00, 0x00, 0x00, 0x00,
  0x00, 0x00, 0x00, 0x00, 0x00, 0x00, 0x00, 0x00, 0x00, 0x00, 0x00, 0x00,
  0x00, 0x00, 0x00, 0x00, 0x00, 0x00, 0x00, 0x00, 0x00, 0x00, 0x00, 0x00,
  0x00, 0x00, 0x00, 0x00, 0x06, 0x00, 0x00, 0x00, 0xb8, 0x19, 0xac, 0x3b,
  0x92, 0xb8, 0xc2, 0x3b, 0x92, 0x56, 0xa7, 0x3b, 0xa4, 0x6a, 0xfc, 0x3b,
  0xbb, 0xfe, 0xb0, 0x3b, 0x9d, 0xf1, 0x9e, 0x3b, 0x12, 0x00, 0x00, 0x00,
  0x74, 0x66, 0x6c, 0x2e, 0x70, 0x73, 0x65, 0x75, 0x64, 0x6f, 0x5f, 0x71,
  0x63, 0x6f, 0x6e, 0x73, 0x74, 0x31, 0x00, 0x00, 0x02, 0x00, 0x00, 0x00,
  0x06, 0x00, 0x00, 0x00, 0x20, 0x00, 0x00, 0x00, 0x62, 0xff, 0xff, 0xff,
  0x00, 0x00, 0x00, 0x01, 0x14, 0x00, 0x00, 0x00, 0x70, 0x00, 0x00, 0x00,
  0x03, 0x00, 0x00, 0x00, 0x00, 0x00, 0x00, 0x02, 0x7c, 0x00, 0x00, 0x00,
  0xdc, 0xfe, 0xff, 0xff, 0x08, 0x00, 0x00, 0x00, 0x3c, 0x00, 0x00, 0x00,
  0x06, 0x00, 0x00, 0x00, 0x00, 0x00, 0x00, 0x00, 0x00, 0x00, 0x00, 0x00,
  0x00, 0x00, 0x00, 0x00, 0x00, 0x00, 0x00, 0x00, 0x00, 0x00, 0x00, 0x00,
  0x00, 0x00, 0x00, 0x00, 0x00, 0x00, 0x00, 0x00, 0x00, 0x00, 0x00, 0x00,
  0x00, 0x00, 0x00, 0x00, 0x00, 0x00, 0x00, 0x00, 0x00, 0x00, 0x00, 0x00,
  0x00, 0x00, 0x00, 0x00, 0x00, 0x00, 0x00, 0x00, 0x06, 0x00, 0x00, 0x00,
  0x5e, 0x37, 0x98, 0x38, 0x27, 0x39, 0xac, 0x38, 0x14, 0x01, 0x94, 0x38,
  0xb7, 0x40, 0xdf, 0x38, 0x9c, 0x8b, 0x9c, 0x38, 0x68, 0x94, 0x8c, 0x38,
  0x11, 0x00, 0x00, 0x00, 0x74, 0x66, 0x6c, 0x2e, 0x70, 0x73, 0x65, 0x75,
  0x64, 0x6f, 0x5f, 0x71, 0x63, 0x6f, 0x6e, 0x73, 0x74, 0x00, 0x00, 0x00,
  0x01, 0x00, 0x00, 0x00, 0x06, 0x00, 0x00, 0x00, 0x00, 0x00, 0x16, 0x00,
  0x1c, 0x00, 0x18, 0x00, 0x17, 0x00, 0x10, 0x00, 0x0c, 0x00, 0x08, 0x00,
  0x00, 0x00, 0x00, 0x00, 0x00, 0x00, 0x07, 0x00, 0x16, 0x00, 0x00, 0x00,
  0x00, 0x00, 0x00, 0x01, 0x18, 0x00, 0x00, 0x00, 0x18, 0x00, 0x00, 0x00,
  0x02, 0x00, 0x00, 0x00, 0x00, 0x00, 0x00, 0x02, 0x20, 0x00, 0x00, 0x00,
  0x04, 0x00, 0x04, 0x00, 0x04, 0x00, 0x00, 0x00, 0x0e, 0x00, 0x00, 0x00,
  0x61, 0x72, 0x69, 0x74, 0x68, 0x2e, 0x63, 0x6f, 0x6e, 0x73, 0x74, 0x61,
  0x6e, 0x74, 0x00, 0x00, 0x01, 0x00, 0x00, 0x00, 0x02, 0x00, 0x00, 0x00,
  0x00, 0x00, 0x16, 0x00, 0x20, 0x00, 0x1c, 0x00, 0x1b, 0x00, 0x14, 0x00,
  0x10, 0x00, 0x0c, 0x00, 0x00, 0x00, 0x00, 0x00, 0x08, 0x00, 0x07, 0x00,
  0x16, 0x00, 0x00, 0x00, 0x00, 0x00, 0x00, 0x01, 0x18, 0x00, 0x00, 0x00,
  0x34, 0x00, 0x00, 0x00, 0x50, 0x00, 0x00, 0x00, 0x01, 0x00, 0x00, 0x00,
  0x00, 0x00, 0x00, 0x09, 0x6c, 0x00, 0x00, 0x00, 0x04, 0x00, 0x00, 0x00,
  0xff, 0xff, 0xff, 0xff, 0x60, 0x00, 0x00, 0x00, 0x60, 0x00, 0x00, 0x00,
  0x01, 0x00, 0x00, 0x00, 0x0c, 0x00, 0x0c, 0x00, 0x00, 0x00, 0x00, 0x00,
  0x08, 0x00, 0x04, 0x00, 0x0c, 0x00, 0x00, 0x00, 0x08, 0x00, 0x00, 0x00,
  0x10, 0x00, 0x00, 0x00, 0x01, 0x00, 0x00, 0x00, 0x80, 0xff, 0xff, 0xff,
  0xff, 0xff, 0xff, 0xff, 0x01, 0x00, 0x00, 0x00, 0x81, 0x80, 0x80, 0x3b,
  0x21, 0x00, 0x00, 0x00, 0x73, 0x65, 0x72, 0x76, 0x69, 0x6e, 0x67, 0x5f,
  0x64, 0x65, 0x66, 0x61, 0x75, 0x6c, 0x74, 0x5f, 0x6b, 0x65, 0x72, 0x61,
  0x73, 0x5f, 0x74, 0x65, 0x6e, 0x73, 0x6f, 0x72, 0x5f, 0x31, 0x30, 0x3a,
  0x30, 0x00, 0x00, 0x00, 0x04, 0x00, 0x00, 0x00, 0x01, 0x00, 0x00, 0x00,
  0x60, 0x00, 0x00, 0x00, 0x60, 0x00, 0x00, 0x00, 0x01, 0x00, 0x00, 0x00,
  0x05, 0x00, 0x00, 0x00, 0x60, 0x00, 0x00, 0x00, 0x40, 0x00, 0x00, 0x00,
  0x2c, 0x00, 0x00, 0x00, 0x18, 0x00, 0x00, 0x00, 0x04, 0x00, 0x00, 0x00,
  0xc0, 0xff, 0xff, 0xff, 0x19, 0x00, 0x00, 0x00, 0x02, 0x00, 0x00, 0x00,
  0x00, 0x00, 0x00, 0x19, 0xd0, 0xff, 0xff, 0xff, 0x09, 0x00, 0x00, 0x00,
  0x04, 0x00, 0x00, 0x00, 0x00, 0x00, 0x00, 0x09, 0xe0, 0xff, 0xff, 0xff,
  0x28, 0x00, 0x00, 0x00, 0x02, 0x00, 0x00, 0x00, 0x00, 0x00, 0x00, 0x28,
  0xf0, 0xff, 0xff, 0xff, 0x11, 0x00, 0x00, 0x00, 0x02, 0x00, 0x00, 0x00,
  0x00, 0x00, 0x00, 0x11, 0x0c, 0x00, 0x10, 0x00, 0x0f, 0x00, 0x00, 0x00,
  0x08, 0x00, 0x04, 0x00, 0x0c, 0x00, 0x00, 0x00, 0x03, 0x00, 0x00, 0x00,
  0x03, 0x00, 0x00, 0x00, 0x00, 0x00, 0x00, 0x03
};

const unsigned int A1_TinyESP32CNN_INT8_len = 14336;

#endif
