
#ifndef C1_MINIMOBILENETV2_INT8_H
#define C1_MINIMOBILENETV2_INT8_H

#include <cstdint>

alignas(16) const unsigned char C1_MiniMobileNetV2_INT8[] = {
  0x1c, 0x00, 0x00, 0x00, 0x54, 0x46, 0x4c, 0x33, 0x14, 0x00, 0x20, 0x00,
  0x1c, 0x00, 0x18, 0x00, 0x14, 0x00, 0x10, 0x00, 0x0c, 0x00, 0x00, 0x00,
  0x08, 0x00, 0x04, 0x00, 0x14, 0x00, 0x00, 0x00, 0x1c, 0x00, 0x00, 0x00,
  0x98, 0x00, 0x00, 0x00, 0x18, 0x01, 0x00, 0x00, 0x6c, 0x21, 0x00, 0x00,
  0x7c, 0x21, 0x00, 0x00, 0x28, 0x72, 0x00, 0x00, 0x03, 0x00, 0x00, 0x00,
  0x01, 0x00, 0x00, 0x00, 0x10, 0x00, 0x00, 0x00, 0x00, 0x00, 0x0a, 0x00,
  0x10, 0x00, 0x0c, 0x00, 0x08, 0x00, 0x04, 0x00, 0x0a, 0x00, 0x00, 0x00,
  0x0c, 0x00, 0x00, 0x00, 0x1c, 0x00, 0x00, 0x00, 0x3c, 0x00, 0x00, 0x00,
  0x0f, 0x00, 0x00, 0x00, 0x73, 0x65, 0x72, 0x76, 0x69, 0x6e, 0x67, 0x5f,
  0x64, 0x65, 0x66, 0x61, 0x75, 0x6c, 0x74, 0x00, 0x01, 0x00, 0x00, 0x00,
  0x04, 0x00, 0x00, 0x00, 0x68, 0xff, 0xff, 0xff, 0x33, 0x00, 0x00, 0x00,
  0x04, 0x00, 0x00, 0x00, 0x08, 0x00, 0x00, 0x00, 0x6f, 0x75, 0x74, 0x70,
  0x75, 0x74, 0x5f, 0x30, 0x00, 0x00, 0x00, 0x00, 0x01, 0x00, 0x00, 0x00,
  0x04, 0x00, 0x00, 0x00, 0x52, 0xde, 0xff, 0xff, 0x04, 0x00, 0x00, 0x00,
  0x0c, 0x00, 0x00, 0x00, 0x6b, 0x65, 0x72, 0x61, 0x73, 0x5f, 0x74, 0x65,
  0x6e, 0x73, 0x6f, 0x72, 0x00, 0x00, 0x00, 0x00, 0x03, 0x00, 0x00, 0x00,
  0x5c, 0x00, 0x00, 0x00, 0x2c, 0x00, 0x00, 0x00, 0x04, 0x00, 0x00, 0x00,
  0xb8, 0xff, 0xff, 0xff, 0x37, 0x00, 0x00, 0x00, 0x04, 0x00, 0x00, 0x00,
  0x13, 0x00, 0x00, 0x00, 0x43, 0x4f, 0x4e, 0x56, 0x45, 0x52, 0x53, 0x49,
  0x4f, 0x4e, 0x5f, 0x4d, 0x45, 0x54, 0x41, 0x44, 0x41, 0x54, 0x41, 0x00,
  0xdc, 0xff, 0xff, 0xff, 0x36, 0x00, 0x00, 0x00, 0x04, 0x00, 0x00, 0x00,
  0x13, 0x00, 0x00, 0x00, 0x6d, 0x69, 0x6e, 0x5f, 0x72, 0x75, 0x6e, 0x74,
  0x69, 0x6d, 0x65, 0x5f, 0x76, 0x65, 0x72, 0x73, 0x69, 0x6f, 0x6e, 0x00,
  0x08, 0x00, 0x0c, 0x00, 0x08, 0x00, 0x04, 0x00, 0x08, 0x00, 0x00, 0x00,
  0x35, 0x00, 0x00, 0x00, 0x04, 0x00, 0x00, 0x00, 0x13, 0x00, 0x00, 0x00,
  0x6d, 0x69, 0x6e, 0x5f, 0x72, 0x75, 0x6e, 0x74, 0x69, 0x6d, 0x65, 0x5f,
  0x76, 0x65, 0x72, 0x73, 0x69, 0x6f, 0x6e, 0x00, 0x38, 0x00, 0x00, 0x00,
  0x50, 0x20, 0x00, 0x00, 0x48, 0x20, 0x00, 0x00, 0x30, 0x20, 0x00, 0x00,
  0x08, 0x20, 0x00, 0x00, 0xb4, 0x1f, 0x00, 0x00, 0x78, 0x1f, 0x00, 0x00,
  0x90, 0x1c, 0x00, 0x00, 0x78, 0x1b, 0x00, 0x00, 0x14, 0x19, 0x00, 0x00,
  0xfc, 0x17, 0x00, 0x00, 0x14, 0x15, 0x00, 0x00, 0xd8, 0x14, 0x00, 0x00,
  0xb8, 0x12, 0x00, 0x00, 0xe8, 0x11, 0x00, 0x00, 0x28, 0x10, 0x00, 0x00,
  0x58, 0x0f, 0x00, 0x00, 0xc8, 0x0d, 0x00, 0x00, 0x98, 0x0d, 0x00, 0x00,
  0x08, 0x0c, 0x00, 0x00, 0x38, 0x0b, 0x00, 0x00, 0x78, 0x09, 0x00, 0x00,
  0xa8, 0x08, 0x00, 0x00, 0x18, 0x07, 0x00, 0x00, 0xe8, 0x06, 0x00, 0x00,
  0xe8, 0x05, 0x00, 0x00, 0x60, 0x05, 0x00, 0x00, 0x40, 0x04, 0x00, 0x00,
  0xb8, 0x03, 0x00, 0x00, 0x10, 0x03, 0x00, 0x00, 0xec, 0x02, 0x00, 0x00,
  0xa4, 0x02, 0x00, 0x00, 0x68, 0x02, 0x00, 0x00, 0xf4, 0x01, 0x00, 0x00,
  0xb8, 0x01, 0x00, 0x00, 0x44, 0x01, 0x00, 0x00, 0x3c, 0x01, 0x00, 0x00,
  0x34, 0x01, 0x00, 0x00, 0x2c, 0x01, 0x00, 0x00, 0x24, 0x01, 0x00, 0x00,
  0x1c, 0x01, 0x00, 0x00, 0x14, 0x01, 0x00, 0x00, 0x0c, 0x01, 0x00, 0x00,
  0x04, 0x01, 0x00, 0x00, 0xfc, 0x00, 0x00, 0x00, 0xf4, 0x00, 0x00, 0x00,
  0xec, 0x00, 0x00, 0x00, 0xe4, 0x00, 0x00, 0x00, 0xdc, 0x00, 0x00, 0x00,
  0xd4, 0x00, 0x00, 0x00, 0xcc, 0x00, 0x00, 0x00, 0xc4, 0x00, 0x00, 0x00,
  0xbc, 0x00, 0x00, 0x00, 0xb4, 0x00, 0x00, 0x00, 0x94, 0x00, 0x00, 0x00,
  0x74, 0x00, 0x00, 0x00, 0x04, 0x00, 0x00, 0x00, 0xd6, 0xdf, 0xff, 0xff,
  0x04, 0x00, 0x00, 0x00, 0x60, 0x00, 0x00, 0x00, 0x0c, 0x00, 0x00, 0x00,
  0x08, 0x00, 0x0e, 0x00, 0x08, 0x00, 0x04, 0x00, 0x08, 0x00, 0x00, 0x00,
  0x10, 0x00, 0x00, 0x00, 0x28, 0x00, 0x00, 0x00, 0x00, 0x00, 0x06, 0x00,
  0x08, 0x00, 0x04, 0x00, 0x06, 0x00, 0x00, 0x00, 0x04, 0x00, 0x00, 0x00,
  0x01, 0x00, 0x00, 0x00, 0xeb, 0x03, 0x00, 0x00, 0x0c, 0x00, 0x18, 0x00,
  0x14, 0x00, 0x10, 0x00, 0x0c, 0x00, 0x04, 0x00, 0x0c, 0x00, 0x00, 0x00,
  0x14, 0xed, 0xc3, 0x24, 0x15, 0x0b, 0xbe, 0x5e, 0x02, 0x00, 0x00, 0x00,
  0x02, 0x00, 0x00, 0x00, 0x04, 0x00, 0x00, 0x00, 0x06, 0x00, 0x00, 0x00,
  0x32, 0x2e, 0x31, 0x39, 0x2e, 0x30, 0x00, 0x00, 0x42, 0xe0, 0xff, 0xff,
  0x04, 0x00, 0x00, 0x00, 0x10, 0x00, 0x00, 0x00, 0x00, 0x00, 0x00, 0x00,
  0x00, 0x00, 0x00, 0x00, 0x00, 0x00, 0x00, 0x00, 0x00, 0x00, 0x00, 0x00,
  0x5e, 0xe0, 0xff, 0xff, 0x04, 0x00, 0x00, 0x00, 0x10, 0x00, 0x00, 0x00,
  0x31, 0x2e, 0x31, 0x34, 0x2e, 0x30, 0x00, 0x00, 0x00, 0x00, 0x00, 0x00,
  0x00, 0x00, 0x00, 0x00, 0x44, 0x91, 0xff, 0xff, 0x48, 0x91, 0xff, 0xff,
  0x4c, 0x91, 0xff, 0xff, 0x50, 0x91, 0xff, 0xff, 0x54, 0x91, 0xff, 0xff,
  0x58, 0x91, 0xff, 0xff, 0x5c, 0x91, 0xff, 0xff, 0x60, 0x91, 0xff, 0xff,
  0x64, 0x91, 0xff, 0xff, 0x68, 0x91, 0xff, 0xff, 0x6c, 0x91, 0xff, 0xff,
  0x70, 0x91, 0xff, 0xff, 0x74, 0x91, 0xff, 0xff, 0x78, 0x91, 0xff, 0xff,
  0x7c, 0x91, 0xff, 0xff, 0x80, 0x91, 0xff, 0xff, 0x84, 0x91, 0xff, 0xff,
  0x88, 0x91, 0xff, 0xff, 0xc2, 0xe0, 0xff, 0xff, 0x04, 0x00, 0x00, 0x00,
  0x63, 0x00, 0x00, 0x00, 0x69, 0xbd, 0x7f, 0xe5, 0x57, 0x5e, 0xc7, 0x21,
  0x14, 0x3b, 0x7f, 0xcb, 0xc0, 0xe9, 0xf4, 0xf0, 0x0f, 0x0f, 0xaf, 0xfa,
  0x4e, 0x81, 0xf8, 0xaf, 0x57, 0x9a, 0xfd, 0x76, 0xec, 0x8e, 0x35, 0xa5,
  0x81, 0x53, 0xae, 0x29, 0xa8, 0x20, 0xd8, 0xb4, 0x90, 0x81, 0x46, 0x77,
  0x1a, 0x21, 0x81, 0x0b, 0x36, 0x34, 0x36, 0x6c, 0x9a, 0xa6, 0x7f, 0xcf,
  0x07, 0x22, 0x11, 0x3b, 0x26, 0xd5, 0x45, 0x81, 0xe9, 0xb0, 0x9d, 0xf3,
  0xe0, 0xd8, 0xc9, 0xf2, 0xfb, 0x81, 0xb6, 0xfa, 0x8e, 0x1c, 0x0a, 0xbc,
  0x33, 0x08, 0x90, 0x7f, 0xcd, 0xa2, 0xd5, 0x8e, 0x58, 0x64, 0xab, 0x57,
  0xa1, 0x0d, 0x6b, 0x47, 0x7f, 0x53, 0xea, 0x00, 0x32, 0xe1, 0xff, 0xff,
  0x04, 0x00, 0x00, 0x00, 0x2c, 0x00, 0x00, 0x00, 0xf0, 0x4a, 0xff, 0xff,
  0x6c, 0xf4, 0xff, 0xff, 0xb3, 0x87, 0x00, 0x00, 0xbb, 0x45, 0x00, 0x00,
  0x9a, 0x6d, 0x00, 0x00, 0xaf, 0xff, 0xff, 0xff, 0x1a, 0x6c, 0xff, 0xff,
  0x11, 0x0c, 0x01, 0x00, 0x3a, 0xac, 0x00, 0x00, 0xa6, 0x33, 0x00, 0x00,
  0x2a, 0x5f, 0xff, 0xff, 0x6a, 0xe1, 0xff, 0xff, 0x04, 0x00, 0x00, 0x00,
  0x63, 0x00, 0x00, 0x00, 0x7b, 0xe5, 0x30, 0x5e, 0x51, 0x81, 0x42, 0xe3,
  0x81, 0xe7, 0xdd, 0x15, 0x19, 0x1d, 0x04, 0xa1, 0x59, 0x75, 0x81, 0x09,
  0x37, 0x65, 0x14, 0x59, 0x32, 0x7f, 0xf3, 0x98, 0x2a, 0xf3, 0xad, 0x12,
  0x50, 0x67, 0xb5, 0xa6, 0x82, 0x95, 0x96, 0xda, 0xb2, 0x78, 0x06, 0x65,
  0x38, 0x7f, 0x92, 0x9f, 0xb7, 0xc8, 0x5a, 0x56, 0x7c, 0x26, 0x5c, 0x3d,
  0x05, 0x5a, 0x31, 0xc3, 0x56, 0xa2, 0xba, 0xe7, 0x18, 0x1f, 0xfe, 0xce,
  0x1e, 0x8c, 0x7f, 0x1d, 0x81, 0xed, 0x37, 0x7f, 0x7f, 0x81, 0x00, 0x81,
  0x40, 0x02, 0x5f, 0x70, 0x68, 0xdb, 0xbe, 0x22, 0xeb, 0xc0, 0xb7, 0x6b,
  0x9c, 0x40, 0xc2, 0xaf, 0x22, 0xe5, 0x28, 0x00, 0xda, 0xe1, 0xff, 0xff,
  0x04, 0x00, 0x00, 0x00, 0x2c, 0x00, 0x00, 0x00, 0x06, 0xf0, 0xff, 0xff,
  0xe8, 0xfe, 0xff, 0xff, 0xdf, 0x0b, 0x00, 0x00, 0xfa, 0xf8, 0xff, 0xff,
  0xa4, 0x0d, 0x00, 0x00, 0x9f, 0xff, 0xff, 0xff, 0x5a, 0xf7, 0xff, 0xff,
  0xe6, 0x0b, 0x00, 0x00, 0x98, 0xfb, 0xff, 0xff, 0xc8, 0xf9, 0xff, 0xff,
  0x2c, 0xdc, 0xff, 0xff, 0x12, 0xe2, 0xff, 0xff, 0x04, 0x00, 0x00, 0x00,
  0x37, 0x00, 0x00, 0x00, 0x5a, 0x64, 0xd2, 0xd3, 0xf6, 0x50, 0x47, 0x46,
  0x18, 0xf9, 0x81, 0xf4, 0x91, 0x34, 0xf2, 0x67, 0x3c, 0x40, 0x2f, 0x7f,
  0xfb, 0xd4, 0xde, 0xec, 0xce, 0x19, 0x9b, 0x16, 0x81, 0x1b, 0xa0, 0x54,
  0xcc, 0xa9, 0x96, 0x7f, 0xe0, 0xba, 0x5f, 0x15, 0xcd, 0x97, 0x3c, 0x19,
  0xf0, 0x97, 0x1f, 0x03, 0xa2, 0xb5, 0x7f, 0xbc, 0x29, 0x65, 0xde, 0x00,
  0x56, 0xe2, 0xff, 0xff, 0x04, 0x00, 0x00, 0x00, 0x14, 0x00, 0x00, 0x00,
  0x52, 0xf7, 0xff, 0xff, 0xe3, 0xee, 0xff, 0xff, 0x42, 0x15, 0x00, 0x00,
  0x2f, 0x05, 0x00, 0x00, 0x8b, 0x02, 0x00, 0x00, 0x76, 0xe2, 0xff, 0xff,
  0x04, 0x00, 0x00, 0x00, 0x96, 0x00, 0x00, 0x00, 0x61, 0x7f, 0x7c, 0xea,
  0x68, 0x2a, 0xf7, 0x48, 0x7f, 0x9c, 0x11, 0x81, 0x48, 0xef, 0xe8, 0x2f,
  0x96, 0x81, 0xd5, 0xd9, 0x61, 0x7f, 0xd7, 0x0c, 0x59, 0x3b, 0x7f, 0x2c,
  0x6e, 0xd0, 0x7f, 0xb3, 0xe7, 0xf9, 0xc4, 0x74, 0xe3, 0x7f, 0x28, 0xa4,
  0xa8, 0x7f, 0xbe, 0xaa, 0x74, 0x28, 0x07, 0x18, 0x49, 0x7f, 0xc0, 0x3e,
  0x88, 0xd4, 0x7f, 0x6a, 0x81, 0x60, 0xda, 0xbf, 0xf2, 0x35, 0x81, 0x11,
  0xf0, 0xe7, 0x35, 0x54, 0x81, 0xed, 0x02, 0x07, 0x81, 0xb2, 0x8f, 0x8c,
  0x7f, 0x7c, 0xc1, 0x4e, 0xaf, 0x81, 0x25, 0x51, 0xca, 0xf8, 0x81, 0x13,
  0x12, 0x44, 0x7f, 0x36, 0x92, 0x6b, 0xd1, 0xeb, 0xd5, 0x3c, 0x7f, 0xb2,
  0xfc, 0xa3, 0x7f, 0x8c, 0x89, 0xeb, 0xac, 0xd8, 0x81, 0x7a, 0x7d, 0x7f,
  0xa9, 0x99, 0xd5, 0x7d, 0xc3, 0x7f, 0xaf, 0x38, 0x8e, 0x02, 0x81, 0xba,
  0x68, 0xef, 0x0a, 0x59, 0x7f, 0x01, 0x7f, 0x1b, 0xec, 0x9a, 0xda, 0x81,
  0x4f, 0x06, 0x4e, 0xc8, 0x7f, 0x62, 0xa4, 0x67, 0xde, 0xf4, 0x3d, 0x1c,
  0x7f, 0xfb, 0x00, 0x00, 0x1a, 0xe3, 0xff, 0xff, 0x04, 0x00, 0x00, 0x00,
  0x78, 0x00, 0x00, 0x00, 0xc1, 0xff, 0xff, 0xff, 0xab, 0xff, 0xff, 0xff,
  0x28, 0x00, 0x00, 0x00, 0x78, 0x00, 0x00, 0x00, 0xf7, 0xff, 0xff, 0xff,
  0x4c, 0x00, 0x00, 0x00, 0x8c, 0xff, 0xff, 0xff, 0xa8, 0x00, 0x00, 0x00,
  0x4f, 0xff, 0xff, 0xff, 0xb5, 0xff, 0xff, 0xff, 0x10, 0x00, 0x00, 0x00,
  0xdf, 0xfe, 0xff, 0xff, 0x12, 0x00, 0x00, 0x00, 0x77, 0x00, 0x00, 0x00,
  0x53, 0xff, 0xff, 0xff, 0x52, 0x00, 0x00, 0x00, 0x08, 0x00, 0x00, 0x00,
  0x73, 0x00, 0x00, 0x00, 0xeb, 0xfe, 0xff, 0xff, 0xa5, 0xff, 0xff, 0xff,
  0xec, 0xff, 0xff, 0xff, 0xf8, 0xff, 0xff, 0xff, 0xdd, 0x00, 0x00, 0x00,
  0xf0, 0xff, 0xff, 0xff, 0xd4, 0xff, 0xff, 0xff, 0xa8, 0x00, 0x00, 0x00,
  0xe6, 0x00, 0x00, 0x00, 0x85, 0x00, 0x00, 0x00, 0x25, 0x00, 0x00, 0x00,
  0x83, 0x00, 0x00, 0x00, 0x9e, 0xe3, 0xff, 0xff, 0x04, 0x00, 0x00, 0x00,
  0x0e, 0x01, 0x00, 0x00, 0x70, 0x81, 0x6d, 0x81, 0x2a, 0xb4, 0xc2, 0xa9,
  0x4a, 0xb9, 0x13, 0x4a, 0xb9, 0x31, 0xe5, 0xde, 0x26, 0xd9, 0xef, 0x3f,
  0xbb, 0x16, 0x0e, 0x92, 0xe1, 0xed, 0xd2, 0x0d, 0xb7, 0x3f, 0x0b, 0xa3,
  0x2a, 0x0e, 0x7f, 0xcd, 0xff, 0x2c, 0x86, 0x2b, 0x81, 0xf0, 0xb9, 0x60,
  0xad, 0x70, 0xff, 0x86, 0xda, 0x3b, 0xd8, 0x49, 0x13, 0x0e, 0x81, 0xe0,
  0x81, 0xde, 0x81, 0x45, 0xe4, 0xbc, 0xbb, 0xe2, 0x24, 0x27, 0xa4, 0xf8,
  0x74, 0xf3, 0xc9, 0x83, 0x40, 0x4a, 0xe9, 0x51, 0x81, 0x95, 0x89, 0x81,
  0xd6, 0x26, 0x85, 0x9d, 0xe4, 0x04, 0x1e, 0x50, 0xba, 0x47, 0x38, 0x96,
  0xd8, 0x00, 0xc7, 0x22, 0x23, 0xd9, 0x99, 0xfc, 0xdf, 0xee, 0xad, 0x4e,
  0xc2, 0x8d, 0x43, 0xcc, 0xec, 0xdd, 0x2e, 0x36, 0xd7, 0x81, 0xc5, 0x2d,
  0x00, 0x51, 0xcd, 0xd2, 0xf0, 0xd1, 0xdf, 0x34, 0xc0, 0x81, 0xcb, 0x18,
  0xda, 0xda, 0xcf, 0x7f, 0xd3, 0xe9, 0x8e, 0xbe, 0x19, 0xe5, 0xfb, 0xd6,
  0x2b, 0xea, 0x11, 0x4f, 0xa8, 0xdf, 0x9b, 0x4f, 0x3b, 0x4c, 0xc9, 0x81,
  0x7f, 0x21, 0xe5, 0xd1, 0xcc, 0xd6, 0x48, 0x81, 0xd7, 0x1a, 0x7f, 0x2d,
  0xcb, 0x5c, 0x0a, 0x85, 0x05, 0x08, 0x81, 0x25, 0xee, 0xc2, 0x30, 0x41,
  0xb1, 0x7f, 0x9f, 0xf4, 0x99, 0x0b, 0x11, 0x4d, 0xfd, 0xcf, 0x14, 0x06,
  0x76, 0xd7, 0xe0, 0xea, 0x02, 0xdb, 0x4a, 0xcf, 0x18, 0x81, 0x9e, 0xbb,
  0x3d, 0x7f, 0xe5, 0xed, 0x33, 0xe3, 0x6f, 0x27, 0xae, 0xe9, 0x81, 0x4e,
  0xc2, 0xcb, 0xd3, 0x14, 0x81, 0x7f, 0x81, 0xcc, 0xb1, 0x34, 0x6f, 0x81,
  0x7f, 0x81, 0x5c, 0x22, 0xf1, 0x31, 0x70, 0x10, 0x81, 0xcd, 0xf8, 0xf3,
  0xad, 0x65, 0x96, 0x81, 0xb5, 0x4f, 0xb4, 0xe3, 0x38, 0xe9, 0xb0, 0xe4,
  0x4e, 0xad, 0xf7, 0x65, 0x51, 0x30, 0x43, 0xe5, 0x08, 0x6d, 0x81, 0xd1,
  0x0a, 0x4f, 0x45, 0x08, 0x41, 0x7f, 0x4d, 0xf3, 0x79, 0x0d, 0x00, 0x00,
  0xba, 0xe4, 0xff, 0xff, 0x04, 0x00, 0x00, 0x00, 0x78, 0x00, 0x00, 0x00,
  0x4c, 0x0c, 0x00, 0x00, 0x67, 0x15, 0x00, 0x00, 0x15, 0xfe, 0xff, 0xff,
  0xf9, 0x01, 0x00, 0x00, 0xb1, 0xf9, 0xff, 0xff, 0xe2, 0x0f, 0x00, 0x00,
  0x74, 0x16, 0x00, 0x00, 0xe1, 0xfc, 0xff, 0xff, 0x0e, 0xff, 0xff, 0xff,
  0x0c, 0x15, 0x00, 0x00, 0xc7, 0x18, 0x00, 0x00, 0x50, 0xf7, 0xff, 0xff,
  0x35, 0xfb, 0xff, 0xff, 0x93, 0xf6, 0xff, 0xff, 0x28, 0x07, 0x00, 0x00,
  0x0e, 0x06, 0x00, 0x00, 0x84, 0xf6, 0xff, 0xff, 0xab, 0x1b, 0x00, 0x00,
  0x75, 0x17, 0x00, 0x00, 0xd4, 0x08, 0x00, 0x00, 0xba, 0xfd, 0xff, 0xff,
  0x3e, 0xe8, 0xff, 0xff, 0x6c, 0x0b, 0x00, 0x00, 0x12, 0x14, 0x00, 0x00,
  0x14, 0x0c, 0x00, 0x00, 0xa3, 0xf9, 0xff, 0xff, 0x0a, 0x11, 0x00, 0x00,
  0x5e, 0xe7, 0xff, 0xff, 0x46, 0x1d, 0x00, 0x00, 0xe2, 0xf9, 0xff, 0xff,
  0x3e, 0xe5, 0xff, 0xff, 0x04, 0x00, 0x00, 0x00, 0xf0, 0x00, 0x00, 0x00,
  0x47, 0xf1, 0x45, 0x0b, 0x39, 0xdf, 0x61, 0x53, 0x45, 0x00, 0xda, 0x03,
  0xe3, 0x0c, 0x63, 0xaa, 0x7f, 0xb4, 0x3e, 0xfa, 0xdd, 0x3d, 0xee, 0x17,
  0x54, 0x51, 0xed, 0x3d, 0xb4, 0x2e, 0xbe, 0x3e, 0xf5, 0x74, 0x62, 0xcd,
  0xcc, 0x52, 0x9d, 0x0a, 0x1f, 0x5b, 0xe8, 0x12, 0x76, 0xb8, 0x8e, 0x13,
  0x54, 0x19, 0x7f, 0x46, 0x71, 0x36, 0x22, 0x2f, 0x71, 0x16, 0xc0, 0x59,
  0xde, 0xe5, 0x7f, 0x11, 0x37, 0x76, 0x0b, 0x57, 0xde, 0x86, 0x4e, 0x43,
  0xe5, 0xbe, 0x9a, 0x90, 0x88, 0xaf, 0xfb, 0x82, 0x52, 0x98, 0xc5, 0xdc,
  0x79, 0x50, 0x9c, 0xa5, 0xc3, 0x43, 0x06, 0x71, 0x15, 0x71, 0xef, 0xe3,
  0xce, 0xe0, 0x96, 0xc8, 0xe9, 0x9e, 0x0a, 0x85, 0x6a, 0x5e, 0xb1, 0x5c,
  0x12, 0xce, 0x93, 0xb4, 0xa9, 0x37, 0x76, 0x1e, 0x7f, 0x94, 0xa9, 0x6b,
  0x6c, 0x81, 0x0f, 0x47, 0xe8, 0x2e, 0xc0, 0x4e, 0xc7, 0x6e, 0x6c, 0x2f,
  0x70, 0x88, 0xd4, 0x42, 0xf7, 0x00, 0xa7, 0x9c, 0xeb, 0x7c, 0xb2, 0xe9,
  0xe2, 0xc5, 0x73, 0x2a, 0x00, 0x37, 0xcf, 0x81, 0x29, 0x28, 0x8a, 0x1e,
  0xe1, 0x7b, 0x5a, 0xfa, 0x1a, 0x15, 0x29, 0x9e, 0xc8, 0x18, 0x60, 0xc9,
  0x4c, 0x52, 0x22, 0x2e, 0x0a, 0xce, 0x5b, 0x9b, 0xb5, 0xb2, 0xa6, 0xc7,
  0x68, 0x13, 0xa2, 0xd2, 0xd8, 0x49, 0x34, 0xb6, 0xe2, 0x62, 0xc3, 0xcd,
  0xa2, 0xaf, 0xbc, 0xca, 0x28, 0xb3, 0x81, 0x0f, 0x47, 0xed, 0x77, 0x28,
  0x50, 0xae, 0x16, 0x08, 0xa0, 0x24, 0x64, 0xe3, 0x51, 0xbc, 0xf4, 0x7e,
  0xec, 0x62, 0x68, 0xbf, 0x1c, 0x55, 0x20, 0x3e, 0x4e, 0x94, 0xca, 0x3b,
  0xfa, 0xcb, 0x69, 0x25, 0x86, 0x36, 0x5f, 0xcf, 0xf4, 0x9e, 0x81, 0x42,
  0x3a, 0xe6, 0xff, 0xff, 0x04, 0x00, 0x00, 0x00, 0x20, 0x00, 0x00, 0x00,
  0x4b, 0xdc, 0xff, 0xff, 0xf7, 0xd2, 0xff, 0xff, 0x53, 0x20, 0x00, 0x00,
  0xd2, 0x09, 0x00, 0x00, 0xf4, 0xf0, 0xff, 0xff, 0x79, 0x08, 0x00, 0x00,
  0x29, 0x0d, 0x00, 0x00, 0xd7, 0xee, 0xff, 0xff, 0x66, 0xe6, 0xff, 0xff,
  0x04, 0x00, 0x00, 0x00, 0x80, 0x01, 0x00, 0x00, 0x74, 0x20, 0x8f, 0xe3,
  0xab, 0x33, 0xaf, 0x7f, 0xf4, 0xd4, 0x6a, 0x74, 0x7f, 0x73, 0x86, 0xc0,
  0x79, 0x81, 0x0b, 0xaa, 0x49, 0x0a, 0x47, 0x87, 0xb1, 0xae, 0x55, 0xeb,
  0x81, 0xa1, 0xe4, 0xfa, 0x1d, 0x4c, 0x05, 0x35, 0xc9, 0xfb, 0x81, 0x0e,
  0x7f, 0xa5, 0x51, 0xf2, 0x71, 0x97, 0x68, 0x82, 0x7f, 0x87, 0x85, 0xdb,
  0x84, 0xb4, 0x2c, 0xde, 0x3f, 0xff, 0x4d, 0xd4, 0x61, 0xc7, 0x81, 0xdc,
  0xe8, 0xed, 0x31, 0x6b, 0x0f, 0x7f, 0x9e, 0xcb, 0x03, 0x5e, 0xb1, 0x69,
  0x81, 0xf5, 0xad, 0x9d, 0x45, 0x30, 0x7f, 0x34, 0x0e, 0xab, 0xf0, 0x46,
  0x40, 0xf0, 0x2e, 0x19, 0x81, 0x4d, 0x10, 0x66, 0xfd, 0xa6, 0x45, 0x3f,
  0x81, 0x22, 0xc7, 0x55, 0xbf, 0x7f, 0xf8, 0xdb, 0xc9, 0x3d, 0x24, 0x8a,
  0x25, 0x05, 0xbb, 0x59, 0x81, 0x92, 0x58, 0x2f, 0xc1, 0xd3, 0x7f, 0xc4,
  0x9e, 0xc8, 0xda, 0x45, 0x0d, 0x5f, 0x7f, 0x4d, 0x41, 0xa2, 0xa6, 0xf2,
  0xcb, 0xf3, 0xe4, 0xdb, 0xa7, 0xe1, 0x26, 0x81, 0x69, 0x0e, 0x6a, 0x49,
  0x7f, 0x90, 0x25, 0x57, 0x2d, 0x34, 0x15, 0xef, 0xd5, 0x3b, 0x81, 0x44,
  0xb1, 0x44, 0x81, 0xb6, 0x51, 0x02, 0x09, 0x3a, 0x13, 0xa7, 0x71, 0xa5,
  0xc6, 0x81, 0xaf, 0xea, 0x44, 0xc3, 0x7f, 0xa7, 0xe9, 0x31, 0xdf, 0x05,
  0x0e, 0x81, 0xba, 0xcc, 0x51, 0xa2, 0x01, 0xec, 0x7f, 0x6a, 0x65, 0x16,
  0xcf, 0x09, 0x30, 0x0d, 0xed, 0x44, 0xd0, 0xfd, 0x81, 0x1b, 0x9d, 0xda,
  0x88, 0x92, 0x2d, 0x7f, 0x18, 0x2b, 0xfa, 0x0d, 0x2a, 0x95, 0x26, 0xe3,
  0x81, 0xd5, 0xd9, 0xba, 0x82, 0x0e, 0x98, 0x38, 0x05, 0xe0, 0xe3, 0x81,
  0x57, 0x45, 0xa8, 0x63, 0x7f, 0x90, 0x37, 0x08, 0x01, 0xd0, 0xd7, 0x81,
  0xfa, 0x96, 0xe0, 0xe8, 0x9b, 0x81, 0xfc, 0x47, 0xf1, 0xae, 0x48, 0xc5,
  0x47, 0x62, 0x0e, 0x78, 0x90, 0x7f, 0xd5, 0x78, 0x4c, 0x7f, 0x58, 0x43,
  0xb0, 0x5b, 0xa6, 0xcb, 0xa8, 0x99, 0xcc, 0x0b, 0x6d, 0xb0, 0x7f, 0x06,
  0x7f, 0x26, 0x1d, 0xa8, 0x24, 0xef, 0x7f, 0x22, 0x02, 0x81, 0x25, 0xd2,
  0xd9, 0xe3, 0xad, 0x4c, 0x69, 0x26, 0xf9, 0x94, 0x81, 0x9f, 0xb3, 0xff,
  0xe8, 0x7f, 0x5e, 0xe3, 0x84, 0x18, 0xc4, 0x90, 0x1d, 0x66, 0x0c, 0x9a,
  0xe4, 0x1c, 0x81, 0x50, 0x42, 0xe7, 0x81, 0xfa, 0xe1, 0xfb, 0x84, 0x19,
  0x7f, 0xe6, 0xa6, 0xbc, 0x60, 0x2d, 0x66, 0xe3, 0x81, 0xc5, 0xbd, 0x56,
  0xa9, 0xdb, 0x67, 0xf6, 0xc9, 0xac, 0x81, 0x5e, 0xe5, 0x9d, 0xd1, 0xf8,
  0xcd, 0xc5, 0xe4, 0x46, 0x32, 0x7f, 0xff, 0xe1, 0xf4, 0x00, 0x7f, 0x81,
  0x57, 0xea, 0x15, 0xba, 0x53, 0x27, 0x81, 0x4b, 0x5c, 0x82, 0xd7, 0x41,
  0x7b, 0x33, 0xf6, 0x71, 0x81, 0x08, 0x5f, 0xf2, 0xf2, 0xe7, 0xff, 0xff,
  0x04, 0x00, 0x00, 0x00, 0xc0, 0x00, 0x00, 0x00, 0x3f, 0x00, 0x00, 0x00,
  0xf8, 0xff, 0xff, 0xff, 0xd6, 0xff, 0xff, 0xff, 0x38, 0xfe, 0xff, 0xff,
  0x68, 0x00, 0x00, 0x00, 0x88, 0xff, 0xff, 0xff, 0xd5, 0x00, 0x00, 0x00,
  0x30, 0x00, 0x00, 0x00, 0x6f, 0xff, 0xff, 0xff, 0x70, 0x01, 0x00, 0x00,
  0x48, 0x00, 0x00, 0x00, 0x68, 0x00, 0x00, 0x00, 0x55, 0x00, 0x00, 0x00,
  0x7d, 0x00, 0x00, 0x00, 0x83, 0x00, 0x00, 0x00, 0x1c, 0x00, 0x00, 0x00,
  0x85, 0x00, 0x00, 0x00, 0x13, 0xff, 0xff, 0xff, 0x6d, 0x02, 0x00, 0x00,
  0xfd, 0xfe, 0xff, 0xff, 0xa6, 0xff, 0xff, 0xff, 0xdb, 0xfe, 0xff, 0xff,
  0xf0, 0xff, 0xff, 0xff, 0x94, 0x00, 0x00, 0x00, 0xbb, 0xff, 0xff, 0xff,
  0x8d, 0x00, 0x00, 0x00, 0x11, 0x00, 0x00, 0x00, 0x4c, 0xff, 0xff, 0xff,
  0x2d, 0x00, 0x00, 0x00, 0xf2, 0x00, 0x00, 0x00, 0x90, 0xff, 0xff, 0xff,
  0x90, 0x01, 0x00, 0x00, 0xa8, 0x00, 0x00, 0x00, 0x60, 0x00, 0x00, 0x00,
  0x84, 0x01, 0x00, 0x00, 0x15, 0x00, 0x00, 0x00, 0x54, 0x00, 0x00, 0x00,
  0xc7, 0xff, 0xff, 0xff, 0xa2, 0x00, 0x00, 0x00, 0x04, 0x00, 0x00, 0x00,
  0xa0, 0xff, 0xff, 0xff, 0xd1, 0xfe, 0xff, 0xff, 0x81, 0xfe, 0xff, 0xff,
  0xb5, 0xff, 0xff, 0xff, 0x2c, 0x00, 0x00, 0x00, 0x7a, 0x00, 0x00, 0x00,
  0xf8, 0xfe, 0xff, 0xff, 0xc0, 0xff, 0xff, 0xff, 0xbe, 0xe8, 0xff, 0xff,
  0x04, 0x00, 0x00, 0x00, 0xb0, 0x01, 0x00, 0x00, 0xfd, 0xf7, 0x7f, 0x52,
  0x3e, 0x7f, 0x81, 0x01, 0x1e, 0x16, 0xe6, 0x31, 0x5c, 0x22, 0x50, 0xe0,
  0x0b, 0x84, 0x7f, 0x88, 0xc6, 0x20, 0x31, 0x95, 0x37, 0xec, 0x11, 0x1e,
  0xee, 0x17, 0xf4, 0x8e, 0xfa, 0x16, 0xfe, 0x7b, 0x35, 0xef, 0x7f, 0x1e,
  0xd9, 0x81, 0x45, 0x51, 0x51, 0x3e, 0x68, 0x7f, 0xdc, 0x46, 0xd8, 0xf2,
  0x86, 0x02, 0x5b, 0x34, 0x7f, 0xe7, 0x14, 0x81, 0xa4, 0xb9, 0x03, 0xaa,
  0x18, 0x81, 0x37, 0x03, 0x81, 0x13, 0xd6, 0xf8, 0xfd, 0x3f, 0x7f, 0x85,
  0x11, 0xcb, 0x34, 0xae, 0x68, 0x33, 0x74, 0xc0, 0xf8, 0x9a, 0x21, 0x1c,
  0xba, 0x04, 0x5c, 0xbc, 0x34, 0x10, 0x19, 0xcc, 0xfa, 0x1b, 0x0c, 0x42,
  0xb3, 0x3c, 0x26, 0x4e, 0x64, 0xf7, 0x22, 0x21, 0x95, 0x4c, 0xae, 0xbe,
  0x2a, 0x14, 0xb6, 0x71, 0x6a, 0xdf, 0x71, 0x81, 0x4d, 0x65, 0x1e, 0x29,
  0x4a, 0x0e, 0x60, 0xf6, 0x3c, 0x57, 0xe3, 0x0e, 0x30, 0x24, 0x1e, 0xf2,
  0x7f, 0x32, 0x36, 0xe0, 0x15, 0xef, 0x25, 0x8d, 0xce, 0xe7, 0x60, 0x1c,
  0x90, 0x24, 0xdc, 0xae, 0x5d, 0x45, 0xc6, 0x1f, 0xf9, 0xe6, 0x05, 0x55,
  0x1e, 0x77, 0x56, 0x6f, 0xf9, 0x01, 0x15, 0x12, 0x47, 0x86, 0x5f, 0xfa,
  0x2f, 0xc5, 0x7f, 0xcd, 0x28, 0xf6, 0x40, 0x39, 0x81, 0xda, 0x35, 0x7f,
  0xe3, 0xd7, 0x7f, 0xb6, 0x1b, 0x7f, 0x24, 0x1b, 0x12, 0x7f, 0xd3, 0xb2,
  0x81, 0x1d, 0x72, 0x27, 0x12, 0xf4, 0xdd, 0x2f, 0xb3, 0x73, 0x50, 0x32,
  0x7f, 0x0e, 0x21, 0x81, 0x3c, 0x7f, 0xd7, 0x6a, 0xd4, 0xb2, 0x23, 0xcc,
  0x7f, 0xfe, 0xf8, 0xdf, 0x81, 0x52, 0x7f, 0xb8, 0xde, 0xf4, 0x55, 0x33,
  0x7d, 0x27, 0xb1, 0x10, 0xa5, 0x4a, 0x3c, 0x6a, 0xb5, 0x26, 0x06, 0x46,
  0xdf, 0x47, 0xaf, 0x7f, 0x6a, 0xeb, 0xfd, 0xa9, 0x77, 0x0e, 0x6a, 0x38,
  0xa9, 0xec, 0x97, 0xbe, 0xda, 0x44, 0x7f, 0x12, 0x81, 0x62, 0xc8, 0x20,
  0xc6, 0xf8, 0xee, 0x35, 0xe7, 0x37, 0xc6, 0x7f, 0xb9, 0xed, 0xe3, 0x28,
  0xa9, 0x4a, 0xf5, 0x90, 0x99, 0xcb, 0x07, 0xe9, 0x7f, 0xf3, 0x68, 0x64,
  0x5e, 0x34, 0xf5, 0xef, 0x63, 0x81, 0x81, 0xf9, 0x1a, 0xc6, 0x81, 0xf9,
  0xd9, 0x68, 0x03, 0x0d, 0xb4, 0x42, 0x4b, 0x33, 0xc7, 0x81, 0x3e, 0x51,
  0x18, 0xcb, 0x20, 0x49, 0xf9, 0x7f, 0xdd, 0xcc, 0x16, 0x51, 0xe0, 0x59,
  0xba, 0xc5, 0x2d, 0x81, 0x7f, 0xb6, 0x68, 0xd2, 0x3a, 0x03, 0x9b, 0x81,
  0x69, 0x35, 0x1a, 0xc6, 0x1f, 0x0d, 0xa8, 0xa3, 0x7f, 0x81, 0x9c, 0x81,
  0x0f, 0xed, 0xcf, 0x26, 0x50, 0xbf, 0x42, 0x63, 0x9e, 0x60, 0xe2, 0x7f,
  0xb4, 0x35, 0xeb, 0x7f, 0xf6, 0x28, 0x26, 0x26, 0x04, 0x4e, 0xee, 0x66,
  0xf8, 0x0e, 0x54, 0xf0, 0xc9, 0xef, 0xf2, 0x45, 0x0b, 0x09, 0x47, 0x16,
  0xf1, 0x7e, 0xc6, 0x4b, 0x34, 0x04, 0x46, 0x0c, 0x1b, 0x97, 0xd7, 0x1f,
  0x7e, 0x1c, 0xde, 0x98, 0x8c, 0x1c, 0x0f, 0x5b, 0xa3, 0x70, 0x35, 0x2d,
  0xde, 0x81, 0xdb, 0xe3, 0xba, 0xe2, 0x9c, 0xa9, 0x17, 0x81, 0x0e, 0x4e,
  0x28, 0xe5, 0xc2, 0x75, 0xe6, 0x26, 0x7f, 0x1b, 0x7a, 0xea, 0xff, 0xff,
  0x04, 0x00, 0x00, 0x00, 0xc0, 0x00, 0x00, 0x00, 0xd9, 0x02, 0x00, 0x00,
  0x21, 0xf3, 0xff, 0xff, 0x28, 0xf3, 0xff, 0xff, 0xd5, 0xf9, 0xff, 0xff,
  0xfd, 0x10, 0x00, 0x00, 0x47, 0xe2, 0xff, 0xff, 0x81, 0x02, 0x00, 0x00,
  0x09, 0xf3, 0xff, 0xff, 0x89, 0xdd, 0xff, 0xff, 0x9a, 0x04, 0x00, 0x00,
  0xd7, 0x0a, 0x00, 0x00, 0x6c, 0x07, 0x00, 0x00, 0x78, 0xfb, 0xff, 0xff,
  0x29, 0x0c, 0x00, 0x00, 0x11, 0x06, 0x00, 0x00, 0x5a, 0x05, 0x00, 0x00,
  0xd8, 0xf3, 0xff, 0xff, 0x58, 0x00, 0x00, 0x00, 0xad, 0xff, 0xff, 0xff,
  0x1e, 0x05, 0x00, 0x00, 0x4d, 0x0a, 0x00, 0x00, 0xa2, 0xf3, 0xff, 0xff,
  0x41, 0xea, 0xff, 0xff, 0x40, 0xf8, 0xff, 0xff, 0x2f, 0x0c, 0x00, 0x00,
  0xb3, 0xf8, 0xff, 0xff, 0x33, 0xec, 0xff, 0xff, 0x9c, 0xf8, 0xff, 0xff,
  0xc4, 0xf8, 0xff, 0xff, 0x63, 0x0d, 0x00, 0x00, 0x44, 0xf4, 0xff, 0xff,
  0xa6, 0x04, 0x00, 0x00, 0xcd, 0x01, 0x00, 0x00, 0x81, 0xe8, 0xff, 0xff,
  0x4c, 0xf9, 0xff, 0xff, 0x9e, 0xfb, 0xff, 0xff, 0x7a, 0x08, 0x00, 0x00,
  0x35, 0x07, 0x00, 0x00, 0xdb, 0xef, 0xff, 0xff, 0x77, 0xe5, 0xff, 0xff,
  0xe2, 0xfe, 0xff, 0xff, 0xe8, 0x01, 0x00, 0x00, 0x6c, 0xf0, 0xff, 0xff,
  0xa9, 0x08, 0x00, 0x00, 0x1c, 0xfe, 0xff, 0xff, 0x80, 0xfa, 0xff, 0xff,
  0x93, 0xe9, 0xff, 0xff, 0xb0, 0xf5, 0xff, 0xff, 0x46, 0xeb, 0xff, 0xff,
  0x04, 0x00, 0x00, 0x00, 0x80, 0x01, 0x00, 0x00, 0x11, 0x8f, 0x50, 0x09,
  0xbc, 0xf2, 0xf5, 0xbf, 0xb9, 0x5f, 0xd2, 0xd2, 0xd9, 0x22, 0x5c, 0xe0,
  0x07, 0xf5, 0x24, 0x97, 0x4b, 0x3d, 0xac, 0x0a, 0x48, 0xc7, 0x3b, 0x47,
  0x6c, 0xc6, 0xe1, 0xc9, 0x7f, 0x4e, 0xc8, 0xff, 0xe9, 0x24, 0xe8, 0x43,
  0x4e, 0xce, 0xdb, 0x65, 0xae, 0x4d, 0xf6, 0x0c, 0xcb, 0xa5, 0x21, 0xf8,
  0xbd, 0x15, 0x51, 0x6a, 0xe0, 0xe4, 0xb7, 0x81, 0xa6, 0x27, 0xcf, 0xd2,
  0xbb, 0xf7, 0x3b, 0xdb, 0xa7, 0x01, 0x19, 0xba, 0x25, 0x22, 0xd2, 0x3f,
  0xd8, 0xa4, 0xfd, 0xba, 0xbf, 0x57, 0x9f, 0x43, 0x34, 0xa9, 0x28, 0xc2,
  0xf5, 0xee, 0x3c, 0xe3, 0x44, 0x3b, 0x35, 0xf3, 0x38, 0xe5, 0x57, 0x05,
  0xe0, 0x37, 0x33, 0x2e, 0x0f, 0xb5, 0x5f, 0x5d, 0x01, 0xa1, 0xce, 0x55,
  0xc7, 0xf0, 0xec, 0xfc, 0x52, 0x35, 0xd5, 0x30, 0x20, 0x3a, 0xd0, 0x75,
  0x01, 0xf7, 0xf7, 0x0b, 0xba, 0xf2, 0x23, 0x2c, 0x8b, 0x1d, 0xcf, 0x81,
  0x62, 0x36, 0xf6, 0xfd, 0x49, 0xda, 0x00, 0xc6, 0x47, 0x59, 0x2a, 0x59,
  0xaf, 0x28, 0xa7, 0xd6, 0x23, 0xee, 0x43, 0x0e, 0x50, 0x42, 0xe0, 0x3e,
  0x15, 0x4f, 0x7f, 0x6c, 0xb3, 0xc9, 0x32, 0xa7, 0x00, 0xdc, 0xdd, 0xcc,
  0x11, 0x1b, 0x4d, 0x9b, 0x00, 0xd0, 0x38, 0x1b, 0xc7, 0xc1, 0x68, 0x62,
  0x0a, 0x59, 0xb9, 0x36, 0x3a, 0xbe, 0xfb, 0x4c, 0x6a, 0xcc, 0x43, 0x93,
  0x50, 0x64, 0x99, 0x66, 0x2a, 0x1e, 0x39, 0xdc, 0xa0, 0x43, 0x70, 0x0e,
  0xa0, 0x4e, 0x57, 0xd5, 0x89, 0x87, 0xef, 0xdb, 0xea, 0x56, 0x0b, 0x23,
  0x9f, 0xe6, 0x6f, 0x10, 0x96, 0xb8, 0x55, 0xd3, 0x33, 0x99, 0x10, 0xb5,
  0xf9, 0x0a, 0x8c, 0xcf, 0x81, 0x91, 0x7b, 0xce, 0xe4, 0x13, 0xba, 0x09,
  0x97, 0xa5, 0x1d, 0xde, 0x96, 0x49, 0x36, 0x22, 0x30, 0x04, 0xdc, 0x92,
  0x6a, 0xe0, 0x0b, 0x7b, 0x36, 0xf7, 0x59, 0x31, 0xaa, 0xd3, 0x52, 0xfb,
  0x37, 0x21, 0x17, 0x66, 0xa6, 0x33, 0x2c, 0xad, 0x96, 0x92, 0x70, 0x41,
  0xb7, 0xc9, 0x7f, 0xdc, 0xcb, 0x3b, 0x94, 0x66, 0xfa, 0xff, 0xaa, 0x9c,
  0x1c, 0x9c, 0x37, 0xcc, 0xaf, 0x41, 0xd7, 0xde, 0x81, 0xda, 0xc7, 0x14,
  0x81, 0x3d, 0xd6, 0x64, 0xaf, 0x0b, 0xdf, 0x8d, 0x3c, 0x68, 0xe1, 0xa5,
  0x36, 0xe0, 0x95, 0xef, 0xca, 0xac, 0x58, 0x8a, 0x6e, 0xa6, 0xce, 0xd1,
  0xcb, 0x4b, 0x57, 0xd3, 0xf5, 0x45, 0xd9, 0x53, 0x04, 0xf6, 0x92, 0x1b,
  0x9b, 0x81, 0xaf, 0xb6, 0x9a, 0xc9, 0x22, 0x64, 0xef, 0x6a, 0x4b, 0xda,
  0xc1, 0xe3, 0x07, 0x4b, 0x75, 0xae, 0xa9, 0x10, 0x3d, 0x47, 0x4f, 0x04,
  0xec, 0x47, 0x51, 0xcb, 0x17, 0x06, 0x19, 0x7e, 0x14, 0x0b, 0xdc, 0x55,
  0xb2, 0x14, 0x59, 0x21, 0xa6, 0xab, 0x9c, 0xb8, 0xd2, 0xec, 0xff, 0xff,
  0x04, 0x00, 0x00, 0x00, 0x20, 0x00, 0x00, 0x00, 0x08, 0xf7, 0xff, 0xff,
  0xad, 0x1b, 0x00, 0x00, 0x13, 0xee, 0xff, 0xff, 0x72, 0xda, 0xff, 0xff,
  0x12, 0x0d, 0x00, 0x00, 0xf5, 0xf8, 0xff, 0xff, 0xca, 0x34, 0x00, 0x00,
  0x12, 0x0b, 0x00, 0x00, 0xfe, 0xec, 0xff, 0xff, 0x04, 0x00, 0x00, 0x00,
  0x80, 0x01, 0x00, 0x00, 0x81, 0x33, 0x1d, 0xd5, 0xf1, 0xc2, 0x3e, 0xa2,
  0xf6, 0x53, 0x9e, 0xf3, 0x7f, 0xaf, 0xc3, 0x20, 0xf9, 0x64, 0x7f, 0x33,
  0x00, 0x59, 0x2f, 0x90, 0xc3, 0xb2, 0x36, 0xa3, 0x1f, 0x7e, 0xf5, 0x7f,
  0xd1, 0xf6, 0x3a, 0x64, 0x72, 0xc7, 0xcf, 0x81, 0x14, 0x5d, 0x23, 0x46,
  0xdb, 0xd6, 0x7f, 0x03, 0xfa, 0x7f, 0x7f, 0xe7, 0xbc, 0x49, 0x7d, 0x52,
  0x64, 0xae, 0xc4, 0x27, 0x7f, 0x64, 0xdb, 0x47, 0x0f, 0x72, 0x9c, 0xb1,
  0x7f, 0x5b, 0x8d, 0x21, 0x03, 0x2b, 0x59, 0x0f, 0xa2, 0x81, 0x88, 0x31,
  0x51, 0x81, 0xea, 0x69, 0xc8, 0xcd, 0x5d, 0x33, 0x5a, 0x1b, 0x81, 0x1a,
  0x13, 0x86, 0x28, 0x0b, 0xed, 0x81, 0xdf, 0xa3, 0x00, 0x58, 0x30, 0xf6,
  0x51, 0x16, 0x6a, 0x3c, 0x89, 0x81, 0xe6, 0xb0, 0x48, 0x00, 0xdf, 0x81,
  0x04, 0xff, 0x45, 0xf9, 0x20, 0xbf, 0x7f, 0x10, 0x8c, 0xc2, 0x10, 0x14,
  0x33, 0xc5, 0xb0, 0x7e, 0x39, 0x71, 0x40, 0x81, 0x81, 0xf2, 0x5a, 0x9e,
  0xf9, 0xdc, 0xad, 0x43, 0xa5, 0xd2, 0x9b, 0xbf, 0x0b, 0x56, 0xa6, 0x81,
  0xca, 0xae, 0xe7, 0x49, 0xd9, 0xe4, 0x81, 0x77, 0xf2, 0x9e, 0xe1, 0x33,
  0x77, 0xa1, 0x28, 0x81, 0x8a, 0xca, 0x7f, 0x3b, 0x76, 0x48, 0x53, 0xdb,
  0x59, 0xff, 0xc3, 0x13, 0xe2, 0x29, 0x81, 0xfc, 0xaf, 0xbf, 0xac, 0x39,
  0x9c, 0x11, 0xe8, 0x81, 0x6f, 0xb7, 0x03, 0x1b, 0x81, 0xda, 0xdd, 0x1d,
  0x0f, 0x03, 0xe3, 0x7f, 0xf4, 0x18, 0x8e, 0x7b, 0x17, 0x19, 0x1f, 0x81,
  0x09, 0x34, 0x54, 0x3c, 0xf5, 0xb5, 0x21, 0x7f, 0x76, 0x09, 0x27, 0xb7,
  0x7f, 0x23, 0xed, 0x3c, 0xc7, 0x5d, 0xdc, 0x0c, 0xe4, 0x5b, 0xb7, 0x7f,
  0xda, 0xd4, 0x44, 0xb4, 0xce, 0x75, 0x7f, 0x8f, 0x2b, 0xb4, 0x5a, 0x79,
  0xc0, 0x8d, 0xb4, 0x81, 0x18, 0xe4, 0x63, 0xd4, 0xf3, 0xf8, 0x1a, 0x81,
  0xba, 0x3a, 0x18, 0x99, 0x19, 0x53, 0x9b, 0xb4, 0x3b, 0x81, 0xeb, 0x29,
  0xb5, 0x81, 0xeb, 0x27, 0x3f, 0x98, 0x36, 0xc0, 0x1d, 0x7f, 0x95, 0x27,
  0xa3, 0x19, 0x26, 0xe7, 0x95, 0x40, 0xc3, 0xa0, 0x7f, 0x2f, 0x44, 0x1a,
  0x81, 0xf8, 0xa4, 0x70, 0xc8, 0x78, 0x71, 0x9c, 0x6a, 0x21, 0x49, 0x83,
  0x95, 0x0a, 0x81, 0x9a, 0xfe, 0x83, 0xdc, 0x95, 0x2c, 0xf7, 0x81, 0x8a,
  0x45, 0x81, 0xe0, 0xa3, 0xbd, 0x86, 0xdd, 0x82, 0xc6, 0x62, 0x9e, 0x15,
  0xed, 0x03, 0x22, 0x7f, 0xda, 0x07, 0xbb, 0x81, 0xad, 0xfa, 0xf8, 0xf2,
  0x7f, 0x13, 0x71, 0x99, 0x54, 0x6e, 0xd8, 0xbe, 0xad, 0xba, 0xb8, 0x7e,
  0x21, 0x7f, 0x6a, 0x9b, 0xb1, 0x44, 0x5d, 0x7f, 0xfb, 0x90, 0x6b, 0x6e,
  0xce, 0x82, 0x72, 0x45, 0x97, 0xd0, 0xa6, 0x81, 0xfb, 0xa7, 0x53, 0x57,
  0xfc, 0x81, 0x5a, 0xb4, 0x8a, 0xee, 0xff, 0xff, 0x04, 0x00, 0x00, 0x00,
  0xc0, 0x00, 0x00, 0x00, 0x3a, 0x00, 0x00, 0x00, 0x00, 0xff, 0xff, 0xff,
  0xb3, 0xff, 0xff, 0xff, 0xe6, 0x00, 0x00, 0x00, 0x3a, 0x01, 0x00, 0x00,
  0xd9, 0xff, 0xff, 0xff, 0x78, 0x00, 0x00, 0x00, 0x99, 0xff, 0xff, 0xff,
  0x0f, 0x00, 0x00, 0x00, 0x8e, 0xff, 0xff, 0xff, 0x1d, 0xff, 0xff, 0xff,
  0xf0, 0xff, 0xff, 0xff, 0x21, 0x00, 0x00, 0x00, 0x76, 0x01, 0x00, 0x00,
  0x09, 0x00, 0x00, 0x00, 0x9a, 0xff, 0xff, 0xff, 0x23, 0x01, 0x00, 0x00,
  0x08, 0x00, 0x00, 0x00, 0x8d, 0xff, 0xff, 0xff, 0x36, 0x00, 0x00, 0x00,
  0x2a, 0x00, 0x00, 0x00, 0x63, 0xff, 0xff, 0xff, 0x33, 0x01, 0x00, 0x00,
  0x74, 0x01, 0x00, 0x00, 0x35, 0xff, 0xff, 0xff, 0x69, 0x00, 0x00, 0x00,
  0xd0, 0x00, 0x00, 0x00, 0xec, 0x00, 0x00, 0x00, 0x4b, 0xff, 0xff, 0xff,
  0x82, 0xff, 0xff, 0xff, 0x70, 0xff, 0xff, 0xff, 0x82, 0x00, 0x00, 0x00,
  0x78, 0xff, 0xff, 0xff, 0xcc, 0xff, 0xff, 0xff, 0xfd, 0xff, 0xff, 0xff,
  0xbb, 0xfe, 0xff, 0xff, 0x6c, 0x00, 0x00, 0x00, 0x31, 0xff, 0xff, 0xff,
  0x11, 0xfe, 0xff, 0xff, 0x3f, 0xff, 0xff, 0xff, 0x77, 0x00, 0x00, 0x00,
  0xd2, 0xff, 0xff, 0xff, 0x51, 0x00, 0x00, 0x00, 0x69, 0x01, 0x00, 0x00,
  0x1b, 0x00, 0x00, 0x00, 0x15, 0x00, 0x00, 0x00, 0xa9, 0xff, 0xff, 0xff,
  0x71, 0xff, 0xff, 0xff, 0x56, 0xef, 0xff, 0xff, 0x04, 0x00, 0x00, 0x00,
  0xb0, 0x01, 0x00, 0x00, 0x65, 0x40, 0x1c, 0x7f, 0x63, 0x31, 0x6e, 0xce,
  0x61, 0xbd, 0xad, 0xaa, 0x34, 0xc0, 0x13, 0x37, 0xad, 0x92, 0x0b, 0x81,
  0xd2, 0x0d, 0xf2, 0x21, 0x2c, 0xdc, 0xdd, 0x09, 0x01, 0x0a, 0xd3, 0x7f,
  0x4f, 0x7f, 0xf8, 0xf8, 0x44, 0x27, 0x1b, 0x43, 0x81, 0xd1, 0x07, 0xc7,
  0xe0, 0xde, 0xb8, 0x15, 0x7f, 0x01, 0xf6, 0x33, 0x83, 0xe7, 0xc2, 0x4f,
  0xfd, 0x69, 0x98, 0xfb, 0xc2, 0x31, 0xfd, 0x7f, 0x78, 0x64, 0x4e, 0x99,
  0x09, 0x7f, 0x5e, 0xae, 0xf7, 0x09, 0x9d, 0x1a, 0x7f, 0xfd, 0x08, 0x42,
  0xc3, 0x36, 0xf3, 0x17, 0xe2, 0xf7, 0x2e, 0x0f, 0x8a, 0xc7, 0xda, 0xd0,
  0xcb, 0x59, 0xf6, 0x7f, 0x0a, 0xac, 0x7f, 0x04, 0xc1, 0x24, 0xb5, 0x4d,
  0x5b, 0x52, 0x03, 0x3e, 0xf4, 0x3d, 0xfa, 0xee, 0x82, 0x27, 0xc5, 0x85,
  0xd0, 0x3e, 0x2d, 0xc2, 0xdf, 0xb8, 0xfd, 0xb7, 0xb6, 0x0b, 0x2c, 0x06,
  0x7f, 0x6f, 0xbd, 0x10, 0x4c, 0x56, 0x2c, 0xd0, 0xd8, 0xbd, 0xa4, 0x4f,
  0x4a, 0x6d, 0xb8, 0x11, 0x51, 0xfc, 0x2d, 0x27, 0x7f, 0x7f, 0x41, 0x06,
  0x2c, 0xd6, 0xe2, 0x99, 0x19, 0xe1, 0xf3, 0x20, 0xa0, 0xed, 0xd9, 0x29,
  0x81, 0xd6, 0x1c, 0x72, 0x7f, 0xf1, 0x81, 0x08, 0xc9, 0x5b, 0xf4, 0x60,
  0xa4, 0xf2, 0x0f, 0x21, 0x64, 0x7f, 0x6f, 0x70, 0xf4, 0xfc, 0x7b, 0xff,
  0xcc, 0xe7, 0x9e, 0xbe, 0xdc, 0x7f, 0xd4, 0xef, 0x8e, 0x1a, 0xee, 0x7f,
  0x7f, 0x9f, 0xa5, 0x7f, 0x24, 0xee, 0xf8, 0x2d, 0x81, 0x81, 0x81, 0xff,
  0xbe, 0x56, 0xba, 0x9a, 0xc2, 0xe2, 0x57, 0x72, 0x21, 0x24, 0xa1, 0xd8,
  0xe2, 0x33, 0x51, 0x7f, 0xc7, 0x40, 0xd5, 0x74, 0x1e, 0x05, 0x5b, 0x47,
  0x81, 0xcd, 0x95, 0x2a, 0x21, 0xa1, 0x50, 0x16, 0xe9, 0x5e, 0x81, 0x04,
  0xf3, 0x38, 0x4f, 0xb6, 0x7f, 0x71, 0x05, 0x18, 0x50, 0xfe, 0xd0, 0x1f,
  0xdf, 0x5b, 0x92, 0x0f, 0x10, 0x81, 0x84, 0x81, 0x42, 0x25, 0xc9, 0x32,
  0x92, 0xd3, 0xb5, 0xe6, 0x7f, 0x2b, 0x32, 0x2d, 0xc0, 0xc3, 0x7f, 0x7f,
  0x16, 0x7f, 0x1f, 0xdc, 0x44, 0x76, 0x73, 0x3b, 0x5c, 0x32, 0x01, 0x9e,
  0x20, 0x5b, 0xe0, 0xad, 0xe7, 0x81, 0x9c, 0x69, 0x58, 0xdb, 0x0b, 0x46,
  0xfb, 0x0f, 0x8f, 0xec, 0x63, 0xb0, 0xfe, 0x0c, 0x70, 0x7f, 0x81, 0xed,
  0x13, 0x1e, 0x81, 0xee, 0x07, 0x56, 0x90, 0x4b, 0x31, 0x81, 0xa8, 0x06,
  0xcb, 0x1b, 0x2d, 0x23, 0x05, 0xc2, 0x2f, 0x47, 0x0b, 0xdf, 0xeb, 0x45,
  0x08, 0x81, 0x5c, 0xf4, 0xfc, 0x9b, 0xa7, 0x65, 0x35, 0x36, 0x1e, 0x5e,
  0x8b, 0x68, 0x81, 0x81, 0xff, 0xa0, 0x24, 0x14, 0x3e, 0xeb, 0x0c, 0xed,
  0x04, 0x62, 0x16, 0xe6, 0x27, 0x12, 0x81, 0x7f, 0xd5, 0xe8, 0xf0, 0x45,
  0xc5, 0x4a, 0x81, 0x73, 0x5f, 0x72, 0x6a, 0x0b, 0xa1, 0xc7, 0x8e, 0x84,
  0xce, 0xfe, 0x81, 0x6c, 0x61, 0xf4, 0x81, 0xf2, 0x6f, 0xa7, 0xcf, 0x30,
  0x00, 0x08, 0x17, 0xb6, 0x9e, 0x13, 0xd1, 0xd9, 0x1e, 0x07, 0xe0, 0xb6,
  0x9b, 0x56, 0x0b, 0x2a, 0x45, 0x62, 0x56, 0x30, 0x03, 0xeb, 0x00, 0xfb,
  0x31, 0x37, 0xe9, 0x55, 0x12, 0xf1, 0xff, 0xff, 0x04, 0x00, 0x00, 0x00,
  0xc0, 0x00, 0x00, 0x00, 0x01, 0xe5, 0xff, 0xff, 0xae, 0xf5, 0xff, 0xff,
  0x8b, 0xde, 0xff, 0xff, 0xb0, 0xea, 0xff, 0xff, 0x76, 0x00, 0x00, 0x00,
  0xbb, 0xee, 0xff, 0xff, 0xe8, 0x0b, 0x00, 0x00, 0x80, 0xf5, 0xff, 0xff,
  0x36, 0xef, 0xff, 0xff, 0x82, 0xff, 0xff, 0xff, 0x4b, 0x0f, 0x00, 0x00,
  0x09, 0x03, 0x00, 0x00, 0x41, 0xf4, 0xff, 0xff, 0x6f, 0x05, 0x00, 0x00,
  0xee, 0x11, 0x00, 0x00, 0xa2, 0xe9, 0xff, 0xff, 0x47, 0xfc, 0xff, 0xff,
  0x24, 0x0b, 0x00, 0x00, 0x16, 0x0a, 0x00, 0x00, 0xba, 0x00, 0x00, 0x00,
  0x1f, 0x19, 0x00, 0x00, 0xcd, 0xe8, 0xff, 0xff, 0x3d, 0x0c, 0x00, 0x00,
  0x83, 0x11, 0x00, 0x00, 0x30, 0xfa, 0xff, 0xff, 0xaf, 0x19, 0x00, 0x00,
  0x28, 0x16, 0x00, 0x00, 0x6e, 0x02, 0x00, 0x00, 0x80, 0xea, 0xff, 0xff,
  0xf9, 0xeb, 0xff, 0xff, 0x74, 0x11, 0x00, 0x00, 0x37, 0xf1, 0xff, 0xff,
  0xe2, 0x04, 0x00, 0x00, 0xed, 0xe8, 0xff, 0xff, 0xb9, 0x06, 0x00, 0x00,
  0x06, 0xf7, 0xff, 0xff, 0xd4, 0xe6, 0xff, 0xff, 0x39, 0xe1, 0xff, 0xff,
  0xca, 0xf8, 0xff, 0xff, 0x25, 0xe2, 0xff, 0xff, 0xb0, 0x16, 0x00, 0x00,
  0xa0, 0x16, 0x00, 0x00, 0xe5, 0xf8, 0xff, 0xff, 0x55, 0xf5, 0xff, 0xff,
  0xe8, 0x0b, 0x00, 0x00, 0x9c, 0xed, 0xff, 0xff, 0x76, 0x1b, 0x00, 0x00,
  0x00, 0xe8, 0xff, 0xff, 0xde, 0xf1, 0xff, 0xff, 0x04, 0x00, 0x00, 0x00,
  0x10, 0x02, 0x00, 0x00, 0xad, 0x0c, 0x65, 0x35, 0xd6, 0x51, 0x76, 0x5f,
  0xf1, 0xab, 0x52, 0x45, 0x25, 0x0c, 0x54, 0x06, 0xb2, 0x22, 0xe8, 0xff,
  0x4c, 0x5f, 0x8f, 0x9a, 0x81, 0xd9, 0x90, 0xdd, 0xf1, 0x19, 0x3c, 0xa0,
  0xcf, 0xda, 0x1f, 0x9e, 0xdb, 0xe2, 0x44, 0xf8, 0x4b, 0x08, 0x07, 0xb3,
  0x5a, 0xd9, 0xa3, 0xc0, 0xc2, 0xd2, 0x21, 0xe7, 0x58, 0x1e, 0x40, 0xfc,
  0xc3, 0xb4, 0x28, 0xe9, 0xa9, 0x30, 0x19, 0xdb, 0x3f, 0x23, 0xc0, 0x62,
  0x1b, 0xb4, 0xc7, 0x21, 0x19, 0x87, 0x42, 0xbe, 0xc0, 0xba, 0x3d, 0x1a,
  0xc3, 0xee, 0xf9, 0xdc, 0x40, 0x07, 0x3a, 0xf4, 0xe2, 0x7f, 0xca, 0x42,
  0xe7, 0xed, 0xc9, 0x0f, 0x31, 0x5e, 0xd8, 0xce, 0x17, 0x24, 0xf6, 0xe7,
  0x4d, 0xef, 0x46, 0x6f, 0x13, 0xce, 0xfd, 0xaa, 0x35, 0xdd, 0x91, 0x7f,
  0x9a, 0xf2, 0xa4, 0x04, 0xe5, 0xa6, 0xc4, 0xce, 0x0f, 0xb6, 0x44, 0x39,
  0xa6, 0x53, 0xcc, 0xac, 0xc3, 0x44, 0xb9, 0xab, 0xc1, 0xc7, 0xac, 0x27,
  0x00, 0x1d, 0x37, 0x3f, 0xec, 0xe8, 0x90, 0x96, 0x98, 0xeb, 0x58, 0x12,
  0x4c, 0x5e, 0xf7, 0xb8, 0x1e, 0xb4, 0xce, 0x6c, 0x5b, 0x8f, 0x56, 0x44,
  0xec, 0x20, 0x79, 0x8a, 0xef, 0xf1, 0x69, 0x16, 0x0b, 0x90, 0xf9, 0x5b,
  0x98, 0x44, 0x63, 0x24, 0x3f, 0xf1, 0x7f, 0x28, 0x20, 0x54, 0x78, 0x4e,
  0x97, 0x15, 0x97, 0x9a, 0x8b, 0x8b, 0xdc, 0x99, 0xf5, 0x59, 0x14, 0xd2,
  0xae, 0x5e, 0x04, 0x07, 0x38, 0x2c, 0x70, 0x00, 0x58, 0xd1, 0x18, 0xc7,
  0x2d, 0x69, 0x8b, 0xd1, 0x1c, 0xfe, 0x95, 0x54, 0xb3, 0x7f, 0x37, 0x6e,
  0xa6, 0x3c, 0xfc, 0xc8, 0xe6, 0x3f, 0x4b, 0xeb, 0x57, 0x97, 0x63, 0x72,
  0xba, 0x4f, 0x18, 0x2b, 0xc9, 0x1a, 0x69, 0xae, 0x8e, 0xb2, 0x3c, 0xf2,
  0xa6, 0x3e, 0x02, 0x62, 0x58, 0xb5, 0xa0, 0x96, 0x82, 0x62, 0x28, 0xe7,
  0x6e, 0x1d, 0xe8, 0xff, 0xf4, 0xb4, 0x4e, 0x81, 0xef, 0x50, 0x30, 0x55,
  0x0f, 0x14, 0x53, 0xc8, 0x3d, 0x4a, 0xb3, 0x09, 0x68, 0x24, 0x0b, 0xd3,
  0xd3, 0x97, 0xfb, 0xa9, 0x8c, 0x18, 0xba, 0x31, 0xbe, 0x9d, 0xab, 0x08,
  0xc8, 0x18, 0x7e, 0x4a, 0x24, 0x7e, 0xf7, 0xe1, 0xe4, 0xce, 0xcf, 0xfe,
  0x1b, 0x68, 0xe0, 0x1b, 0xd3, 0x36, 0xcc, 0x43, 0xfa, 0xfc, 0xb2, 0x81,
  0x01, 0xe4, 0xa3, 0x18, 0x9a, 0x17, 0x44, 0x6e, 0x10, 0xe0, 0xc0, 0x30,
  0x31, 0xd2, 0xba, 0x26, 0x33, 0xcc, 0x22, 0x24, 0xe2, 0xaa, 0x2b, 0x36,
  0xbd, 0x2c, 0xeb, 0x07, 0xf3, 0xef, 0xd7, 0x3a, 0x3a, 0x25, 0xf3, 0xdb,
  0xd0, 0x03, 0xe7, 0x4e, 0x3a, 0xa9, 0xa3, 0x7d, 0x20, 0xe3, 0x29, 0x44,
  0xa5, 0xb7, 0x2b, 0x91, 0xfd, 0x8a, 0x7d, 0x81, 0xc9, 0xfa, 0xc8, 0x1f,
  0x89, 0x9d, 0x97, 0xcf, 0xdb, 0xdd, 0x8b, 0x96, 0x01, 0x2c, 0xe8, 0x72,
  0xad, 0x60, 0x7f, 0x51, 0x1b, 0xbb, 0x46, 0x6c, 0xf8, 0x1b, 0x7b, 0x97,
  0x23, 0x57, 0xe6, 0xc5, 0xe5, 0x41, 0xde, 0xf5, 0xb9, 0x22, 0x89, 0xd2,
  0xc0, 0xff, 0xdb, 0x9d, 0xc8, 0x0c, 0xc9, 0xf0, 0x20, 0xad, 0x6a, 0xb1,
  0xd5, 0xe8, 0x39, 0xf9, 0xfe, 0xae, 0xb6, 0x27, 0x28, 0xcf, 0x27, 0xde,
  0xbb, 0x58, 0xa5, 0xcc, 0x14, 0x74, 0x1f, 0x3d, 0xde, 0x05, 0x5e, 0x01,
  0xfa, 0xce, 0xa8, 0xbc, 0xf2, 0xa2, 0x37, 0x14, 0xd7, 0xf5, 0x2c, 0x7f,
  0xd6, 0xd0, 0xd2, 0x2d, 0x25, 0xc1, 0x45, 0xb8, 0x52, 0xfd, 0x42, 0xb5,
  0xdc, 0xf6, 0xfc, 0x9c, 0x5a, 0x67, 0xa6, 0xe2, 0x7f, 0xac, 0x65, 0x2e,
  0xe5, 0x11, 0xbe, 0x3b, 0x89, 0x27, 0x4a, 0x0f, 0x34, 0xc5, 0x9e, 0xa7,
  0x6d, 0x5e, 0xaa, 0x94, 0x01, 0x9a, 0xba, 0xd9, 0x99, 0x9b, 0x63, 0x4e,
  0xc6, 0xd6, 0xd0, 0x8a, 0xfd, 0x3c, 0x22, 0x35, 0xbf, 0xa5, 0xac, 0xa8,
  0x0b, 0xb4, 0xb8, 0xf9, 0xfa, 0xf3, 0xff, 0xff, 0x04, 0x00, 0x00, 0x00,
  0x2c, 0x00, 0x00, 0x00, 0xb0, 0x06, 0x00, 0x00, 0x2d, 0x05, 0x00, 0x00,
  0xb3, 0x1a, 0x00, 0x00, 0x2c, 0xed, 0xff, 0xff, 0xda, 0xea, 0xff, 0xff,
  0x1f, 0xff, 0xff, 0xff, 0xc5, 0x19, 0x00, 0x00, 0x53, 0x25, 0x00, 0x00,
  0x4e, 0x10, 0x00, 0x00, 0x45, 0x0d, 0x00, 0x00, 0x4f, 0x2c, 0x00, 0x00,
  0x32, 0xf4, 0xff, 0xff, 0x04, 0x00, 0x00, 0x00, 0xd6, 0x02, 0x00, 0x00,
  0x51, 0x81, 0xc1, 0xc4, 0x94, 0xf9, 0x56, 0x22, 0xf5, 0x0d, 0x07, 0x5c,
  0x3f, 0x39, 0x4d, 0x36, 0x6c, 0x81, 0x4a, 0xc4, 0x14, 0x7d, 0xe3, 0x40,
  0x12, 0xe0, 0x1a, 0x81, 0x3b, 0xf7, 0xdb, 0x0a, 0x2f, 0xb0, 0x41, 0xe9,
  0x35, 0x06, 0x9c, 0xf2, 0x1b, 0x7f, 0x9d, 0x44, 0xe6, 0x6a, 0x65, 0x0e,
  0xb9, 0xdd, 0x2a, 0xa1, 0x7f, 0x4b, 0x9f, 0x3d, 0xd7, 0x79, 0x73, 0xe7,
  0x41, 0xb5, 0x6e, 0x81, 0xb6, 0x14, 0xbc, 0x7f, 0x69, 0x98, 0xc6, 0x2c,
  0x04, 0xc2, 0xeb, 0x46, 0x59, 0xcf, 0xd5, 0xec, 0x0d, 0x7f, 0x27, 0xeb,
  0x63, 0x6b, 0xdd, 0x4b, 0xc6, 0x25, 0xbc, 0x47, 0x81, 0xd2, 0xb1, 0xe2,
  0xa2, 0x10, 0x1a, 0x87, 0x07, 0xfd, 0x18, 0xa6, 0x3a, 0x0f, 0x81, 0x58,
  0xc8, 0x32, 0x56, 0x7f, 0x6f, 0xe9, 0xc6, 0xc9, 0x9c, 0x6b, 0xa7, 0x7c,
  0x2c, 0xdb, 0x13, 0x39, 0x43, 0xd7, 0x14, 0xfc, 0x11, 0x81, 0xc4, 0xdb,
  0x43, 0xd2, 0xc1, 0x0e, 0x40, 0xde, 0xd6, 0x4d, 0x66, 0x7f, 0xab, 0x39,
  0xc3, 0x63, 0xdd, 0xe7, 0x7f, 0x19, 0x36, 0x65, 0xbf, 0x77, 0x11, 0x61,
  0xb8, 0xed, 0x08, 0x81, 0x62, 0x41, 0x25, 0xf9, 0x13, 0x4f, 0x26, 0x40,
  0xf4, 0x2d, 0x81, 0x3a, 0xa4, 0xfc, 0x64, 0x42, 0x96, 0x64, 0xa9, 0xc6,
  0x9f, 0xe5, 0xb6, 0x7f, 0xec, 0xdb, 0xb2, 0x7f, 0x2b, 0xde, 0x9e, 0xff,
  0xe4, 0xe2, 0xe3, 0x34, 0x04, 0x19, 0x7f, 0x99, 0xa1, 0xc2, 0x34, 0x06,
  0xe7, 0xfd, 0x4e, 0xd2, 0x4b, 0xbe, 0xa5, 0x0d, 0x96, 0x6b, 0x92, 0x6c,
  0xdc, 0x0e, 0xd9, 0x7f, 0x17, 0xb7, 0x70, 0x6d, 0xd0, 0x9d, 0x79, 0x81,
  0x7c, 0x33, 0x34, 0x65, 0xae, 0x7f, 0x37, 0x69, 0x37, 0xb8, 0xc6, 0x4c,
  0xa3, 0x0c, 0x89, 0x02, 0xb6, 0x50, 0x6c, 0x7f, 0xa2, 0x98, 0x43, 0x06,
  0x43, 0xda, 0x5a, 0x3e, 0xc6, 0x8f, 0xcc, 0xd1, 0x3d, 0x81, 0xe3, 0x23,
  0xdd, 0x74, 0xf5, 0x91, 0x45, 0x5f, 0x98, 0x06, 0xec, 0x81, 0x96, 0x44,
  0x81, 0xce, 0xa7, 0x50, 0x7c, 0x36, 0x70, 0x51, 0x54, 0xb9, 0x65, 0x25,
  0xc5, 0x7f, 0xfa, 0x55, 0x4e, 0x0d, 0xc3, 0xe7, 0xb6, 0x74, 0xc3, 0xc3,
  0x7f, 0xbd, 0x99, 0xf6, 0x00, 0x6f, 0x43, 0x5f, 0xf6, 0xca, 0xc8, 0x5a,
  0x88, 0x60, 0x1d, 0x7f, 0x3a, 0x24, 0x5a, 0xc0, 0x3b, 0x21, 0x8e, 0x81,
  0xb6, 0xc1, 0x2a, 0x0e, 0x4d, 0xf6, 0x3c, 0x82, 0x1c, 0xde, 0xc2, 0xb6,
  0x34, 0xb8, 0x81, 0xe7, 0x03, 0x9f, 0x54, 0xbb, 0x24, 0xd7, 0xf5, 0x36,
  0x2c, 0x3a, 0x7f, 0x07, 0x56, 0xf2, 0x73, 0x35, 0x6c, 0x57, 0xe1, 0xab,
  0x81, 0x21, 0xb3, 0xd9, 0xb6, 0x50, 0x55, 0xa6, 0xf8, 0x43, 0xa4, 0xc8,
  0x9b, 0x7f, 0x01, 0x4b, 0xd0, 0xe5, 0xd0, 0x7f, 0xf9, 0x2d, 0xd6, 0x32,
  0xbc, 0xc4, 0xf4, 0x25, 0xcc, 0x0d, 0x72, 0xd1, 0xa4, 0x81, 0x44, 0x42,
  0x46, 0x06, 0x81, 0xe1, 0x99, 0x01, 0x2e, 0x55, 0x0d, 0x58, 0xfa, 0x33,
  0xca, 0x1e, 0xc7, 0xd1, 0x37, 0x97, 0x7f, 0x07, 0xf8, 0x25, 0xea, 0xae,
  0xaf, 0x5e, 0x81, 0x53, 0x5d, 0x28, 0x04, 0x75, 0xb2, 0x39, 0x11, 0x19,
  0xb4, 0x2d, 0x81, 0x6a, 0x96, 0xd4, 0xc6, 0xd7, 0x7e, 0xe3, 0xe7, 0xda,
  0x67, 0x5d, 0x7f, 0x67, 0x2c, 0xe8, 0x5d, 0x5d, 0x7f, 0x09, 0x4e, 0x2f,
  0xcf, 0x1c, 0xce, 0x5c, 0xd3, 0x12, 0xd4, 0x5d, 0xf8, 0x7f, 0xb8, 0x4d,
  0x04, 0x69, 0xa6, 0x30, 0x38, 0x89, 0x81, 0x89, 0x54, 0xce, 0xea, 0x3b,
  0x6a, 0x35, 0xe9, 0xf6, 0xa0, 0xeb, 0x30, 0xf7, 0x81, 0x2c, 0x45, 0xd2,
  0xbc, 0x0c, 0xaf, 0xd9, 0x81, 0x59, 0x91, 0xca, 0x7a, 0xff, 0x52, 0x23,
  0x07, 0x1c, 0x5d, 0xad, 0xf8, 0x81, 0x06, 0xbc, 0x12, 0xec, 0xb0, 0x10,
  0xc6, 0x06, 0xf1, 0xb1, 0x4a, 0xe9, 0x5d, 0x47, 0x81, 0x32, 0x11, 0x87,
  0x41, 0x15, 0xd7, 0xb0, 0x65, 0x2b, 0x48, 0x3a, 0x81, 0x63, 0xf2, 0xa5,
  0x00, 0x41, 0xe2, 0xf4, 0x7f, 0x2f, 0xc0, 0x38, 0xc3, 0xe7, 0xf1, 0x4f,
  0x81, 0x23, 0xed, 0xb2, 0x53, 0xcd, 0x44, 0xe5, 0x31, 0x4c, 0x9d, 0x8c,
  0x22, 0x5c, 0x55, 0x11, 0x09, 0x7f, 0x50, 0xde, 0xad, 0x21, 0xc1, 0x3e,
  0xca, 0x17, 0xbd, 0xb5, 0x92, 0x81, 0xbf, 0x14, 0x0f, 0xa2, 0xa0, 0xfa,
  0x46, 0x55, 0xbe, 0x20, 0xfb, 0x81, 0x06, 0xd9, 0x7f, 0x83, 0xa2, 0xda,
  0x8d, 0x09, 0xc0, 0x52, 0xc9, 0x4f, 0x24, 0x50, 0x0a, 0x9b, 0x9f, 0x81,
  0x5f, 0x04, 0x07, 0x22, 0xd1, 0x7f, 0x5b, 0xe0, 0xcc, 0xf6, 0xbb, 0x17,
  0xe2, 0xf6, 0x1e, 0x32, 0x70, 0x81, 0x07, 0x49, 0xe5, 0x8d, 0xd7, 0xfc,
  0x28, 0xe8, 0x14, 0xe7, 0x2d, 0x7f, 0xbd, 0xc2, 0xc3, 0xb1, 0x34, 0xf3,
  0x1e, 0xef, 0xe0, 0xc1, 0x5e, 0x03, 0x56, 0xa9, 0x35, 0xbb, 0x81, 0x48,
  0xda, 0xaf, 0xca, 0xf2, 0xba, 0xc4, 0xc4, 0x2b, 0x81, 0xae, 0x29, 0xa9,
  0x99, 0x81, 0x3f, 0x37, 0x8b, 0x1c, 0x23, 0x01, 0x59, 0x33, 0x91, 0x74,
  0x22, 0x32, 0xee, 0x52, 0x1c, 0x7f, 0x3a, 0x8e, 0x95, 0x0d, 0x7f, 0xf5,
  0x32, 0xc1, 0xa4, 0xff, 0x17, 0x01, 0xa2, 0x53, 0x7f, 0xe5, 0xf1, 0xb3,
  0x44, 0xfd, 0x48, 0x4b, 0x8c, 0x6b, 0x52, 0x9d, 0x38, 0x43, 0xb8, 0x81,
  0x99, 0x9a, 0xba, 0x8d, 0x10, 0x65, 0x00, 0x00, 0x16, 0xf7, 0xff, 0xff,
  0x04, 0x00, 0x00, 0x00, 0x08, 0x01, 0x00, 0x00, 0x6a, 0x00, 0x00, 0x00,
  0xe8, 0x01, 0x00, 0x00, 0xb2, 0x00, 0x00, 0x00, 0xbd, 0xff, 0xff, 0xff,
  0x11, 0xff, 0xff, 0xff, 0x5e, 0xfd, 0xff, 0xff, 0x49, 0xfe, 0xff, 0xff,
  0x17, 0x00, 0x00, 0x00, 0xce, 0xff, 0xff, 0xff, 0xec, 0xff, 0xff, 0xff,
  0x33, 0xfd, 0xff, 0xff, 0x35, 0x00, 0x00, 0x00, 0x85, 0x02, 0x00, 0x00,
  0xbf, 0xfe, 0xff, 0xff, 0xec, 0xff, 0xff, 0xff, 0x0c, 0xff, 0xff, 0xff,
  0xdd, 0xfe, 0xff, 0xff, 0xca, 0xff, 0xff, 0xff, 0x38, 0xff, 0xff, 0xff,
  0x86, 0x00, 0x00, 0x00, 0xa5, 0x00, 0x00, 0x00, 0xee, 0x00, 0x00, 0x00,
  0x90, 0xff, 0xff, 0xff, 0xf8, 0xfe, 0xff, 0xff, 0xa9, 0x00, 0x00, 0x00,
  0x36, 0xfe, 0xff, 0xff, 0xf1, 0x00, 0x00, 0x00, 0xf1, 0xfe, 0xff, 0xff,
  0xce, 0xff, 0xff, 0xff, 0x05, 0xff, 0xff, 0xff, 0x77, 0xfe, 0xff, 0xff,
  0x0c, 0x00, 0x00, 0x00, 0x42, 0xff, 0xff, 0xff, 0x58, 0xff, 0xff, 0xff,
  0xfa, 0xff, 0xff, 0xff, 0xd8, 0x00, 0x00, 0x00, 0x67, 0xff, 0xff, 0xff,
  0x2a, 0x00, 0x00, 0x00, 0x9e, 0x00, 0x00, 0x00, 0xae, 0x00, 0x00, 0x00,
  0x4d, 0xff, 0xff, 0xff, 0xeb, 0xfe, 0xff, 0xff, 0x57, 0xfe, 0xff, 0xff,
  0xad, 0x00, 0x00, 0x00, 0xc5, 0xff, 0xff, 0xff, 0x61, 0x00, 0x00, 0x00,
  0xca, 0xff, 0xff, 0xff, 0x32, 0xff, 0xff, 0xff, 0x8c, 0xff, 0xff, 0xff,
  0x00, 0xff, 0xff, 0xff, 0x9b, 0x00, 0x00, 0x00, 0xb1, 0xfe, 0xff, 0xff,
  0x4c, 0xff, 0xff, 0xff, 0x2c, 0x01, 0x00, 0x00, 0xe6, 0xfd, 0xff, 0xff,
  0x58, 0x00, 0x00, 0x00, 0x82, 0xff, 0xff, 0xff, 0xb6, 0xff, 0xff, 0xff,
  0xb2, 0x00, 0x00, 0x00, 0xfd, 0xfe, 0xff, 0xff, 0x70, 0xff, 0xff, 0xff,
  0x30, 0xff, 0xff, 0xff, 0x67, 0xfe, 0xff, 0xff, 0xec, 0xfe, 0xff, 0xff,
  0x8b, 0xff, 0xff, 0xff, 0xc4, 0xff, 0xff, 0xff, 0x2a, 0xf8, 0xff, 0xff,
  0x04, 0x00, 0x00, 0x00, 0x52, 0x02, 0x00, 0x00, 0xce, 0x81, 0x2d, 0x82,
  0x7f, 0x3d, 0x32, 0x5d, 0xc4, 0x5b, 0x7e, 0xc9, 0xed, 0x7d, 0x40, 0x7c,
  0x69, 0x4b, 0xe1, 0x34, 0xf2, 0x34, 0xc5, 0x1e, 0x92, 0xda, 0xd0, 0x49,
  0x48, 0x30, 0x23, 0x49, 0xf7, 0x97, 0xd7, 0xb2, 0x10, 0xdd, 0x58, 0x4e,
  0xa7, 0x2e, 0x7f, 0x70, 0x38, 0xb4, 0xe7, 0x1e, 0x74, 0x71, 0x51, 0xe9,
  0xce, 0x07, 0x81, 0x2f, 0x2e, 0x02, 0x05, 0x03, 0x72, 0x42, 0x7c, 0x4d,
  0x71, 0x41, 0xa4, 0x89, 0x59, 0x81, 0x74, 0x1b, 0x81, 0x2f, 0xf2, 0x9b,
  0x4e, 0xbc, 0x39, 0x67, 0x70, 0x76, 0x66, 0x54, 0xd8, 0x09, 0xca, 0x08,
  0xdf, 0x0d, 0x0b, 0x81, 0x81, 0x09, 0x62, 0x3b, 0x10, 0x38, 0x15, 0xd7,
  0xc2, 0xa5, 0x87, 0x25, 0x70, 0x7b, 0x15, 0x06, 0x40, 0x67, 0x7f, 0xf1,
  0xee, 0xc0, 0x53, 0x7f, 0x45, 0x86, 0x1c, 0xa1, 0x62, 0xb9, 0x4b, 0xbe,
  0xde, 0x57, 0x5d, 0x35, 0x4c, 0x5d, 0x56, 0xe5, 0xc6, 0xe8, 0x9f, 0xd7,
  0x19, 0x67, 0x3f, 0x7f, 0xbf, 0x6d, 0x69, 0xc3, 0xba, 0x7a, 0xdd, 0x7f,
  0x36, 0x11, 0xce, 0x7f, 0xa6, 0x30, 0x1c, 0x81, 0x08, 0x3f, 0x28, 0x51,
  0x03, 0xec, 0xa2, 0x1b, 0x81, 0x1b, 0xf1, 0xb9, 0x19, 0x7f, 0xa5, 0x02,
  0x7f, 0x52, 0x78, 0x5d, 0x32, 0x04, 0xbe, 0x28, 0xea, 0x63, 0x01, 0x95,
  0x07, 0x1f, 0x12, 0xae, 0x20, 0xac, 0xf5, 0xe6, 0x7f, 0x62, 0x60, 0xc3,
  0x04, 0x3f, 0xd0, 0x50, 0x81, 0x07, 0x06, 0xc3, 0xf6, 0xa1, 0xf9, 0x39,
  0x6d, 0xfd, 0x1e, 0x7f, 0x40, 0x4b, 0x25, 0x28, 0xd6, 0x35, 0xcc, 0xb9,
  0x5d, 0x3d, 0xfd, 0xe6, 0xcd, 0x68, 0xf5, 0x7f, 0xb0, 0x14, 0x10, 0x81,
  0xf1, 0xa5, 0x07, 0x27, 0x33, 0x31, 0xd8, 0x79, 0x62, 0x28, 0xb1, 0xa7,
  0xe8, 0x14, 0x7f, 0x37, 0xc8, 0x3a, 0x59, 0xd1, 0xab, 0x1d, 0x7c, 0x0b,
  0xc3, 0xa4, 0x0e, 0x66, 0x58, 0xe8, 0x41, 0x32, 0xc9, 0x1a, 0xf5, 0xff,
  0x40, 0x98, 0x35, 0xdf, 0x81, 0x8d, 0x3f, 0xcd, 0xdc, 0x7e, 0x7f, 0x41,
  0x42, 0x34, 0xe5, 0x20, 0xfc, 0x81, 0x7f, 0x72, 0xf5, 0xd7, 0x9d, 0x6a,
  0x81, 0x0a, 0x17, 0xa0, 0xcf, 0xbe, 0xa0, 0xd8, 0x4d, 0x0c, 0xd5, 0x83,
  0x4b, 0x2a, 0x56, 0x25, 0xcc, 0xe5, 0x09, 0x3a, 0x6b, 0x11, 0x81, 0x43,
  0xac, 0x1c, 0x11, 0xa7, 0x81, 0x26, 0xb6, 0xee, 0x0c, 0x4e, 0x59, 0x81,
  0x2e, 0x84, 0x03, 0xfa, 0xcb, 0xd6, 0x4d, 0x57, 0x89, 0xbb, 0xf7, 0x81,
  0x7f, 0xae, 0x81, 0x7a, 0x11, 0x7c, 0x04, 0x7f, 0xc3, 0x31, 0x81, 0xea,
  0x55, 0xee, 0xd2, 0x39, 0x2f, 0x05, 0x1b, 0x5a, 0xbc, 0x81, 0xf5, 0x73,
  0xa2, 0x81, 0x8f, 0x7b, 0x40, 0x81, 0xf8, 0x58, 0x1b, 0x25, 0x86, 0x81,
  0x28, 0x50, 0xf7, 0x76, 0xa5, 0xfe, 0xf0, 0x7f, 0x53, 0xae, 0x57, 0xb9,
  0x97, 0x04, 0x5a, 0x7f, 0x40, 0xa1, 0x0b, 0x2f, 0x7f, 0x31, 0xe1, 0xd7,
  0x38, 0x4f, 0xac, 0x2e, 0x12, 0x3b, 0xdc, 0x84, 0x69, 0x79, 0x4e, 0x6b,
  0x7f, 0x79, 0x81, 0x5d, 0xb5, 0x25, 0xd9, 0x79, 0xcc, 0xb4, 0xad, 0x7f,
  0xd8, 0x27, 0xd0, 0xd1, 0xba, 0xd5, 0xda, 0xb4, 0x26, 0xe4, 0x76, 0xbe,
  0xb8, 0x15, 0x7c, 0x53, 0x3d, 0xbb, 0x8d, 0x0a, 0x45, 0x6b, 0xe7, 0x10,
  0xd3, 0x9b, 0xe1, 0x09, 0x96, 0xe8, 0xfb, 0xe7, 0x0d, 0x55, 0x68, 0x9b,
  0x7f, 0x81, 0x15, 0x69, 0x22, 0xa3, 0x52, 0x1f, 0x06, 0x64, 0xc6, 0x47,
  0xca, 0xf0, 0xfa, 0x73, 0x73, 0x76, 0x35, 0x7c, 0xa6, 0x2f, 0xc2, 0x15,
  0x1a, 0xe3, 0x1a, 0xd7, 0xed, 0x6c, 0xdb, 0xef, 0x53, 0x91, 0xb6, 0x49,
  0xe6, 0xf4, 0x81, 0x4d, 0x7f, 0x3a, 0x6c, 0x75, 0x22, 0x7f, 0x5f, 0xb8,
  0xa7, 0xf8, 0x6c, 0x2f, 0x2e, 0x4b, 0x88, 0x18, 0x4c, 0x81, 0xc7, 0x90,
  0xbb, 0xe9, 0x6c, 0x00, 0x7f, 0x82, 0x55, 0x33, 0x77, 0x53, 0x0e, 0xc3,
  0x4a, 0x7f, 0xf8, 0x4c, 0xe3, 0xe6, 0xfc, 0x81, 0x22, 0x6f, 0x2c, 0x44,
  0x54, 0x55, 0xb6, 0x60, 0x9f, 0x37, 0x54, 0x00, 0x81, 0x53, 0x32, 0xfb,
  0xc1, 0x21, 0x81, 0x1c, 0xde, 0x65, 0x81, 0xa5, 0x1d, 0x5c, 0x97, 0xb9,
  0x71, 0x7f, 0x67, 0x63, 0xe6, 0x91, 0x81, 0x81, 0x82, 0x79, 0x0a, 0x7f,
  0x81, 0x2e, 0x0a, 0xa2, 0x02, 0x81, 0x81, 0x7f, 0x40, 0x69, 0x4f, 0x9a,
  0x2b, 0xf0, 0x00, 0x00, 0x8a, 0xfa, 0xff, 0xff, 0x04, 0x00, 0x00, 0x00,
  0x08, 0x01, 0x00, 0x00, 0x20, 0x02, 0x00, 0x00, 0xa1, 0xfb, 0xff, 0xff,
  0x5e, 0x03, 0x00, 0x00, 0x00, 0x20, 0x00, 0x00, 0xe4, 0xe1, 0xff, 0xff,
  0x9a, 0xef, 0xff, 0xff, 0xd5, 0x03, 0x00, 0x00, 0xe9, 0xf2, 0xff, 0xff,
  0x0a, 0x13, 0x00, 0x00, 0x52, 0xff, 0xff, 0xff, 0x00, 0xe9, 0xff, 0xff,
  0xeb, 0x24, 0x00, 0x00, 0x5b, 0xfe, 0xff, 0xff, 0x69, 0xcf, 0xff, 0xff,
  0xc1, 0xe1, 0xff, 0xff, 0xfd, 0xd2, 0xff, 0xff, 0x59, 0xe3, 0xff, 0xff,
  0xf0, 0xdc, 0xff, 0xff, 0x73, 0x18, 0x00, 0x00, 0x73, 0xe3, 0xff, 0xff,
  0x0a, 0x20, 0x00, 0x00, 0xf9, 0xfa, 0xff, 0xff, 0xc8, 0xf0, 0xff, 0xff,
  0x9b, 0xf5, 0xff, 0xff, 0xba, 0x0d, 0x00, 0x00, 0xa2, 0x05, 0x00, 0x00,
  0xe6, 0x0e, 0x00, 0x00, 0xcf, 0xe7, 0xff, 0xff, 0xd7, 0x04, 0x00, 0x00,
  0xa6, 0xf0, 0xff, 0xff, 0x05, 0x07, 0x00, 0x00, 0xa8, 0x09, 0x00, 0x00,
  0x7e, 0x11, 0x00, 0x00, 0xc3, 0xff, 0xff, 0xff, 0x71, 0x1e, 0x00, 0x00,
  0xb3, 0x2e, 0x00, 0x00, 0x7f, 0x06, 0x00, 0x00, 0x41, 0xeb, 0xff, 0xff,
  0x8c, 0xe9, 0xff, 0xff, 0xa6, 0x01, 0x00, 0x00, 0x55, 0xf4, 0xff, 0xff,
  0x42, 0xe0, 0xff, 0xff, 0xe8, 0xd8, 0xff, 0xff, 0x23, 0xd9, 0xff, 0xff,
  0xf6, 0xf5, 0xff, 0xff, 0x3d, 0x21, 0x00, 0x00, 0xe4, 0x17, 0x00, 0x00,
  0x0e, 0xfc, 0xff, 0xff, 0x45, 0xe8, 0xff, 0xff, 0x27, 0xd7, 0xff, 0xff,
  0xb9, 0x01, 0x00, 0x00, 0xd4, 0xfa, 0xff, 0xff, 0xa3, 0x0e, 0x00, 0x00,
  0xe6, 0xfb, 0xff, 0xff, 0x9b, 0xf7, 0xff, 0xff, 0x9f, 0x1e, 0x00, 0x00,
  0xb3, 0xf9, 0xff, 0xff, 0x73, 0x14, 0x00, 0x00, 0xc2, 0x1a, 0x00, 0x00,
  0xae, 0xfd, 0xff, 0xff, 0x97, 0xe4, 0xff, 0xff, 0x59, 0xdf, 0xff, 0xff,
  0x09, 0xd6, 0xff, 0xff, 0x96, 0x19, 0x00, 0x00, 0xd9, 0xe0, 0xff, 0xff,
  0x04, 0x00, 0x00, 0x00, 0x9e, 0xfb, 0xff, 0xff, 0x04, 0x00, 0x00, 0x00,
  0xd6, 0x02, 0x00, 0x00, 0xd4, 0xf2, 0x47, 0xd7, 0x3d, 0xd5, 0xf1, 0x19,
  0xd9, 0xc3, 0x28, 0x2d, 0xdd, 0x90, 0xf8, 0xef, 0x3f, 0x1d, 0x09, 0x11,
  0x81, 0x3c, 0x5e, 0xc4, 0x2b, 0xce, 0xd9, 0x4c, 0xca, 0x03, 0x2a, 0x03,
  0xb4, 0xcc, 0xfd, 0x3e, 0xe6, 0xea, 0x42, 0xc4, 0xeb, 0xda, 0x04, 0x59,
  0xd1, 0x61, 0x69, 0x0c, 0xce, 0xc7, 0x3d, 0x67, 0x0c, 0xd9, 0x08, 0x92,
  0xfc, 0xf2, 0x19, 0x38, 0x35, 0x59, 0x14, 0xa9, 0xac, 0xc6, 0x12, 0x0e,
  0x44, 0x9b, 0xc5, 0xe1, 0x03, 0xe7, 0xb3, 0xd8, 0x4e, 0x88, 0xf5, 0x05,
  0x9f, 0xaf, 0xfd, 0x28, 0x10, 0xda, 0xcd, 0xb0, 0xcd, 0xf5, 0xb2, 0x4b,
  0xa9, 0xb7, 0x1d, 0xb6, 0x4b, 0x46, 0x2b, 0xa5, 0x2e, 0x6e, 0x61, 0x03,
  0x0e, 0x98, 0x42, 0x11, 0xf8, 0xfd, 0xae, 0x2a, 0x96, 0xdd, 0x2a, 0x81,
  0xae, 0xf5, 0xef, 0xbd, 0xf7, 0xe4, 0xd6, 0xd1, 0xf8, 0x66, 0x05, 0x44,
  0x11, 0x07, 0xf0, 0xff, 0x8f, 0x77, 0x4c, 0x8d, 0x3c, 0x92, 0xbe, 0x61,
  0xca, 0xb9, 0xe8, 0x22, 0xbc, 0x17, 0x33, 0x1f, 0x11, 0x45, 0xc3, 0xa1,
  0x3c, 0x19, 0x3b, 0xb6, 0x5d, 0x01, 0x7f, 0x38, 0x21, 0x28, 0xe9, 0x4d,
  0x24, 0x85, 0x1d, 0x68, 0x23, 0xc5, 0x37, 0x33, 0xe3, 0x47, 0x72, 0xea,
  0x97, 0x3a, 0xde, 0xa6, 0x3b, 0x9c, 0xab, 0xd7, 0xb3, 0x15, 0x54, 0xef,
  0xe9, 0x48, 0x91, 0x4c, 0xe8, 0x31, 0x41, 0x94, 0x06, 0xd2, 0xe5, 0x68,
  0xd2, 0xb8, 0xf2, 0x20, 0xb8, 0x67, 0x2e, 0x19, 0x19, 0xb8, 0x5c, 0xea,
  0x23, 0xdf, 0xb2, 0xcb, 0xc2, 0xf2, 0x94, 0xdd, 0x62, 0xd9, 0x4f, 0x1a,
  0xa3, 0x0f, 0xdf, 0x48, 0xff, 0x37, 0x4c, 0xa6, 0x47, 0x74, 0x29, 0xa8,
  0xf6, 0x2f, 0xab, 0x4f, 0x13, 0x75, 0xc3, 0x6e, 0x28, 0xf3, 0x12, 0x17,
  0xf3, 0x05, 0xf7, 0xcf, 0xb5, 0xa5, 0xd4, 0x9f, 0xd8, 0xf8, 0xfc, 0x5c,
  0xf0, 0x1a, 0x81, 0xdb, 0x08, 0xe4, 0xb4, 0x18, 0xc8, 0x1b, 0x39, 0x9b,
  0x2c, 0xcd, 0xff, 0x40, 0xdb, 0xe2, 0xca, 0xa1, 0xf4, 0xcb, 0xc3, 0x8f,
  0xd7, 0x39, 0xcb, 0x53, 0x35, 0xa1, 0x32, 0x2a, 0x59, 0xf0, 0xbe, 0xf7,
  0x12, 0xe8, 0xe8, 0xae, 0xef, 0x19, 0xa0, 0xe3, 0x33, 0xae, 0x3d, 0x19,
  0x5d, 0xc1, 0x5d, 0x52, 0x0a, 0x0e, 0x51, 0x66, 0xc7, 0xd3, 0x42, 0xa7,
  0x45, 0x30, 0xb1, 0xf8, 0x10, 0x2f, 0x7f, 0x38, 0x4f, 0xda, 0x0d, 0x38,
  0x19, 0xfb, 0x88, 0xfc, 0x1b, 0xcf, 0xf2, 0xaf, 0x50, 0xc6, 0x05, 0xa9,
  0xff, 0xea, 0x6b, 0x03, 0xf0, 0x17, 0x55, 0x1b, 0x1b, 0x1c, 0x30, 0x0f,
  0x75, 0xb9, 0xc4, 0x4e, 0x43, 0x01, 0xd0, 0xde, 0x81, 0x96, 0x20, 0xb9,
  0x15, 0xbc, 0x01, 0xc1, 0x15, 0x17, 0xe2, 0x26, 0x18, 0x24, 0xd3, 0xd9,
  0xba, 0x0b, 0xe9, 0xd4, 0xc1, 0x00, 0xf3, 0xd2, 0xe7, 0xfd, 0x36, 0xa6,
  0x04, 0xe4, 0x59, 0x1f, 0xe3, 0x57, 0x46, 0x13, 0xf9, 0x35, 0xbe, 0x6c,
  0xbb, 0xca, 0x06, 0x6e, 0xfd, 0x9b, 0x36, 0xf0, 0x4a, 0xd4, 0x26, 0x1f,
  0x26, 0xca, 0x53, 0xde, 0xea, 0xad, 0x22, 0x48, 0x3f, 0x53, 0xaa, 0x11,
  0x20, 0xa8, 0xc9, 0x71, 0x1f, 0xb5, 0x13, 0x3d, 0xf2, 0xed, 0x3d, 0x5f,
  0xff, 0x08, 0xb4, 0x29, 0x26, 0xe8, 0x00, 0x31, 0x0e, 0xff, 0xcd, 0xad,
  0xc0, 0xae, 0xa5, 0xe2, 0xc9, 0x52, 0xab, 0x86, 0x81, 0x2c, 0xd0, 0x50,
  0x2d, 0xeb, 0xa0, 0x09, 0xbc, 0x73, 0xfb, 0x33, 0x5d, 0x52, 0x6a, 0xbe,
  0x34, 0x17, 0xe1, 0x0c, 0x78, 0x3b, 0xc2, 0xcb, 0x13, 0x52, 0xe2, 0xe1,
  0x0e, 0xbc, 0xa5, 0x1d, 0xbb, 0xcf, 0x3c, 0x52, 0x30, 0xdf, 0x9e, 0x1c,
  0x68, 0x17, 0x8f, 0x11, 0x27, 0xf5, 0x56, 0x67, 0xfe, 0x1b, 0xfa, 0x2c,
  0xf7, 0x35, 0x3e, 0x4b, 0xc0, 0xc0, 0xe5, 0x01, 0x29, 0xc3, 0xa4, 0x40,
  0x81, 0xf5, 0x9a, 0x24, 0x0c, 0x0f, 0xc0, 0x18, 0x36, 0x78, 0xba, 0xa7,
  0xa5, 0x29, 0x6f, 0xa7, 0x07, 0x0e, 0xbf, 0x86, 0x7f, 0x8c, 0xc6, 0xc4,
  0xd3, 0xa5, 0x25, 0x18, 0x0b, 0xae, 0x29, 0xab, 0xfd, 0x33, 0x4d, 0xef,
  0x06, 0x02, 0xf8, 0xa7, 0xd0, 0xc7, 0x24, 0xe5, 0x3c, 0x98, 0x74, 0x08,
  0x01, 0xaf, 0x0c, 0xdd, 0xb8, 0xab, 0x60, 0xf6, 0x44, 0x2a, 0x4d, 0x88,
  0x23, 0x93, 0x2f, 0x52, 0x95, 0x42, 0x0d, 0x98, 0x22, 0x1a, 0xf8, 0x4e,
  0x1c, 0xf9, 0x43, 0x47, 0x2b, 0xda, 0xe2, 0x12, 0x2f, 0x06, 0x2b, 0x10,
  0xc6, 0x8e, 0xf6, 0xc6, 0x41, 0xd3, 0xb0, 0xcc, 0xf6, 0xfc, 0xd1, 0xff,
  0xb9, 0xb8, 0xf7, 0x2e, 0xe0, 0xe1, 0xe6, 0x38, 0xcd, 0x27, 0xd1, 0xc9,
  0xec, 0xe2, 0xec, 0xd1, 0x52, 0x6b, 0x1a, 0x10, 0x4e, 0xde, 0xa7, 0x07,
  0x3b, 0x4c, 0x22, 0xd5, 0xaf, 0x81, 0x40, 0x06, 0xeb, 0x16, 0x50, 0x36,
  0xd2, 0xd3, 0x2d, 0xdf, 0x13, 0x3a, 0xe2, 0x3d, 0xa3, 0x41, 0xc1, 0xac,
  0xe5, 0xa0, 0x64, 0x14, 0x19, 0xed, 0x9c, 0x2c, 0x5e, 0x0d, 0x8b, 0x17,
  0x6e, 0xf2, 0xff, 0x47, 0x28, 0xb0, 0x24, 0xa7, 0xd9, 0xf8, 0xfb, 0xa8,
  0x06, 0x0c, 0x8b, 0x81, 0xa9, 0xdb, 0xb3, 0xde, 0xf8, 0xe5, 0xc1, 0xca,
  0x01, 0x27, 0xa8, 0xec, 0x49, 0x98, 0xea, 0x34, 0x6a, 0x5a, 0xb8, 0x36,
  0xe8, 0xa4, 0x5a, 0x0a, 0x72, 0xf1, 0x56, 0x28, 0x0d, 0x16, 0x00, 0x00,
  0x82, 0xfe, 0xff, 0xff, 0x04, 0x00, 0x00, 0x00, 0x2c, 0x00, 0x00, 0x00,
  0x81, 0x01, 0x00, 0x00, 0x8a, 0x36, 0x00, 0x00, 0x9d, 0xf1, 0xff, 0xff,
  0x5a, 0xfe, 0xff, 0xff, 0xc9, 0x03, 0x00, 0x00, 0x9d, 0x1b, 0x00, 0x00,
  0xa9, 0xff, 0xff, 0xff, 0xe9, 0xeb, 0xff, 0xff, 0xa3, 0x2e, 0x00, 0x00,
  0x6b, 0x0c, 0x00, 0x00, 0x4d, 0x17, 0x00, 0x00, 0xba, 0xfe, 0xff, 0xff,
  0x04, 0x00, 0x00, 0x00, 0x42, 0x00, 0x00, 0x00, 0x54, 0x37, 0x55, 0x5f,
  0x15, 0x0c, 0x7f, 0x21, 0x42, 0x4a, 0xab, 0x3c, 0xf1, 0xf9, 0x6a, 0xd8,
  0x81, 0x5f, 0x59, 0x8b, 0x07, 0xa9, 0xf7, 0x1c, 0xad, 0xc6, 0x65, 0x7f,
  0x1b, 0x3c, 0x78, 0x6f, 0x6e, 0xc2, 0x60, 0xbd, 0x99, 0x45, 0x9d, 0xaf,
  0x81, 0x0a, 0x14, 0xb7, 0xbb, 0x24, 0x62, 0x81, 0xc2, 0x71, 0x0d, 0x01,
  0xc8, 0x81, 0x76, 0x8b, 0x9d, 0xfb, 0xbf, 0x81, 0xc5, 0xb3, 0x56, 0xaf,
  0xd5, 0x91, 0x00, 0x00, 0x0a, 0xff, 0xff, 0xff, 0x04, 0x00, 0x00, 0x00,
  0x18, 0x00, 0x00, 0x00, 0xf8, 0xfe, 0xff, 0xff, 0x91, 0xfc, 0xff, 0xff,
  0xaf, 0xfb, 0xff, 0xff, 0x94, 0x02, 0x00, 0x00, 0x4f, 0x09, 0x00, 0x00,
  0xd3, 0x01, 0x00, 0x00, 0x2e, 0xff, 0xff, 0xff, 0x04, 0x00, 0x00, 0x00,
  0x08, 0x00, 0x00, 0x00, 0x01, 0x00, 0x00, 0x00, 0x02, 0x00, 0x00, 0x00,
  0x0c, 0xb0, 0xff, 0xff, 0x10, 0xb0, 0xff, 0xff, 0x0f, 0x00, 0x00, 0x00,
  0x4d, 0x4c, 0x49, 0x52, 0x20, 0x43, 0x6f, 0x6e, 0x76, 0x65, 0x72, 0x74,
  0x65, 0x64, 0x2e, 0x00, 0x01, 0x00, 0x00, 0x00, 0x14, 0x00, 0x00, 0x00,
  0x00, 0x00, 0x0e, 0x00, 0x18, 0x00, 0x14, 0x00, 0x10, 0x00, 0x0c, 0x00,
  0x08, 0x00, 0x04, 0x00, 0x0e, 0x00, 0x00, 0x00, 0x14, 0x00, 0x00, 0x00,
  0x1c, 0x00, 0x00, 0x00, 0x00, 0x05, 0x00, 0x00, 0x04, 0x05, 0x00, 0x00,
  0x08, 0x05, 0x00, 0x00, 0x04, 0x00, 0x00, 0x00, 0x6d, 0x61, 0x69, 0x6e,
  0x00, 0x00, 0x00, 0x00, 0x12, 0x00, 0x00, 0x00, 0x9c, 0x04, 0x00, 0x00,
  0x34, 0x04, 0x00, 0x00, 0xdc, 0x03, 0x00, 0x00, 0x8c, 0x03, 0x00, 0x00,
  0x44, 0x03, 0x00, 0x00, 0xf8, 0x02, 0x00, 0x00, 0xb8, 0x02, 0x00, 0x00,
  0x70, 0x02, 0x00, 0x00, 0x34, 0x02, 0x00, 0x00, 0xf4, 0x01, 0x00, 0x00,
  0xac, 0x01, 0x00, 0x00, 0x70, 0x01, 0x00, 0x00, 0x30, 0x01, 0x00, 0x00,
  0xe8, 0x00, 0x00, 0x00, 0xac, 0x00, 0x00, 0x00, 0x78, 0x00, 0x00, 0x00,
  0x40, 0x00, 0x00, 0x00, 0x04, 0x00, 0x00, 0x00, 0x1e, 0xfc, 0xff, 0xff,
  0x1c, 0x00, 0x00, 0x00, 0x00, 0x00, 0x00, 0x09, 0x1c, 0x00, 0x00, 0x00,
  0x20, 0x00, 0x00, 0x00, 0x04, 0x00, 0x00, 0x00, 0x00, 0x00, 0x06, 0x00,
  0x08, 0x00, 0x04, 0x00, 0x06, 0x00, 0x00, 0x00, 0x00, 0x00, 0x80, 0x3f,
  0x01, 0x00, 0x00, 0x00, 0x33, 0x00, 0x00, 0x00, 0x01, 0x00, 0x00, 0x00,
  0x32, 0x00, 0x00, 0x00, 0x3a, 0xfd, 0xff, 0xff, 0x14, 0x00, 0x00, 0x00,
  0x00, 0x00, 0x00, 0x08, 0x10, 0x00, 0x00, 0x00, 0x14, 0x00, 0x00, 0x00,
  0x03, 0x00, 0x00, 0x00, 0x00, 0xb1, 0xff, 0xff, 0x01, 0x00, 0x00, 0x00,
  0x32, 0x00, 0x00, 0x00, 0x03, 0x00, 0x00, 0x00, 0x31, 0x00, 0x00, 0x00,
  0x03, 0x00, 0x00, 0x00, 0x02, 0x00, 0x00, 0x00, 0x6e, 0xfd, 0xff, 0xff,
  0x14, 0x00, 0x00, 0x00, 0x00, 0x00, 0x00, 0x1b, 0x10, 0x00, 0x00, 0x00,
  0x14, 0x00, 0x00, 0x00, 0x02, 0x00, 0x00, 0x00, 0x34, 0xb1, 0xff, 0xff,
  0x01, 0x00, 0x00, 0x00, 0x31, 0x00, 0x00, 0x00, 0x02, 0x00, 0x00, 0x00,
  0x30, 0x00, 0x00, 0x00, 0x01, 0x00, 0x00, 0x00, 0x56, 0xfc, 0xff, 0xff,
  0x10, 0x00, 0x00, 0x00, 0x00, 0x00, 0x00, 0x01, 0x14, 0x00, 0x00, 0x00,
  0x18, 0x00, 0x00, 0x00, 0xfe, 0xfc, 0xff, 0xff, 0x01, 0x00, 0x00, 0x00,
  0x01, 0x00, 0x00, 0x00, 0x01, 0x00, 0x00, 0x00, 0x30, 0x00, 0x00, 0x00,
  0x03, 0x00, 0x00, 0x00, 0x2f, 0x00, 0x00, 0x00, 0x05, 0x00, 0x00, 0x00,
  0x04, 0x00, 0x00, 0x00, 0xd6, 0xfd, 0xff, 0xff, 0x14, 0x00, 0x00, 0x00,
  0x00, 0x00, 0x00, 0x02, 0x20, 0x00, 0x00, 0x00, 0x24, 0x00, 0x00, 0x00,
  0x01, 0x00, 0x00, 0x00, 0xe2, 0xfc, 0xff, 0xff, 0x00, 0x00, 0x00, 0x03,
  0x01, 0x00, 0x00, 0x00, 0x01, 0x00, 0x00, 0x00, 0x01, 0x00, 0x00, 0x00,
  0x01, 0x00, 0x00, 0x00, 0x2f, 0x00, 0x00, 0x00, 0x03, 0x00, 0x00, 0x00,
  0x2e, 0x00, 0x00, 0x00, 0x07, 0x00, 0x00, 0x00, 0x06, 0x00, 0x00, 0x00,
  0xd2, 0xfc, 0xff, 0xff, 0x10, 0x00, 0x00, 0x00, 0x00, 0x00, 0x00, 0x01,
  0x18, 0x00, 0x00, 0x00, 0x1c, 0x00, 0x00, 0x00, 0xc4, 0xfc, 0xff, 0xff,
  0x00, 0x00, 0x00, 0x03, 0x01, 0x00, 0x00, 0x00, 0x01, 0x00, 0x00, 0x00,
  0x01, 0x00, 0x00, 0x00, 0x2e, 0x00, 0x00, 0x00, 0x03, 0x00, 0x00, 0x00,
  0x2d, 0x00, 0x00, 0x00, 0x09, 0x00, 0x00, 0x00, 0x08, 0x00, 0x00, 0x00,
  0x0e, 0xfd, 0xff, 0xff, 0x10, 0x00, 0x00, 0x00, 0x00, 0x00, 0x00, 0x01,
  0x14, 0x00, 0x00, 0x00, 0x18, 0x00, 0x00, 0x00, 0xb6, 0xfd, 0xff, 0xff,
  0x01, 0x00, 0x00, 0x00, 0x01, 0x00, 0x00, 0x00, 0x01, 0x00, 0x00, 0x00,
  0x2d, 0x00, 0x00, 0x00, 0x03, 0x00, 0x00, 0x00, 0x2c, 0x00, 0x00, 0x00,
  0x0b, 0x00, 0x00, 0x00, 0x0a, 0x00, 0x00, 0x00, 0x8e, 0xfe, 0xff, 0xff,
  0x14, 0x00, 0x00, 0x00, 0x00, 0x00, 0x00, 0x02, 0x20, 0x00, 0x00, 0x00,
  0x24, 0x00, 0x00, 0x00, 0x01, 0x00, 0x00, 0x00, 0x9a, 0xfd, 0xff, 0xff,
  0x00, 0x00, 0x00, 0x03, 0x01, 0x00, 0x00, 0x00, 0x02, 0x00, 0x00, 0x00,
  0x02, 0x00, 0x00, 0x00, 0x01, 0x00, 0x00, 0x00, 0x2c, 0x00, 0x00, 0x00,
  0x03, 0x00, 0x00, 0x00, 0x2b, 0x00, 0x00, 0x00, 0x0d, 0x00, 0x00, 0x00,
  0x0c, 0x00, 0x00, 0x00, 0x8a, 0xfd, 0xff, 0xff, 0x10, 0x00, 0x00, 0x00,
  0x00, 0x00, 0x00, 0x01, 0x18, 0x00, 0x00, 0x00, 0x1c, 0x00, 0x00, 0x00,
  0x7c, 0xfd, 0xff, 0xff, 0x00, 0x00, 0x00, 0x03, 0x01, 0x00, 0x00, 0x00,
  0x01, 0x00, 0x00, 0x00, 0x01, 0x00, 0x00, 0x00, 0x2b, 0x00, 0x00, 0x00,
  0x03, 0x00, 0x00, 0x00, 0x2a, 0x00, 0x00, 0x00, 0x0f, 0x00, 0x00, 0x00,
  0x0e, 0x00, 0x00, 0x00, 0xc6, 0xfd, 0xff, 0xff, 0x10, 0x00, 0x00, 0x00,
  0x00, 0x00, 0x00, 0x01, 0x14, 0x00, 0x00, 0x00, 0x18, 0x00, 0x00, 0x00,
  0x6e, 0xfe, 0xff, 0xff, 0x01, 0x00, 0x00, 0x00, 0x01, 0x00, 0x00, 0x00,
  0x01, 0x00, 0x00, 0x00, 0x2a, 0x00, 0x00, 0x00, 0x03, 0x00, 0x00, 0x00,
  0x29, 0x00, 0x00, 0x00, 0x11, 0x00, 0x00, 0x00, 0x10, 0x00, 0x00, 0x00,
  0x46, 0xff, 0xff, 0xff, 0x14, 0x00, 0x00, 0x00, 0x00, 0x00, 0x00, 0x02,
  0x20, 0x00, 0x00, 0x00, 0x24, 0x00, 0x00, 0x00, 0x01, 0x00, 0x00, 0x00,
  0x52, 0xfe, 0xff, 0xff, 0x00, 0x00, 0x00, 0x03, 0x01, 0x00, 0x00, 0x00,
  0x01, 0x00, 0x00, 0x00, 0x01, 0x00, 0x00, 0x00, 0x01, 0x00, 0x00, 0x00,
  0x29, 0x00, 0x00, 0x00, 0x03, 0x00, 0x00, 0x00, 0x28, 0x00, 0x00, 0x00,
  0x13, 0x00, 0x00, 0x00, 0x12, 0x00, 0x00, 0x00, 0x42, 0xfe, 0xff, 0xff,
  0x10, 0x00, 0x00, 0x00, 0x00, 0x00, 0x00, 0x01, 0x18, 0x00, 0x00, 0x00,
  0x1c, 0x00, 0x00, 0x00, 0x34, 0xfe, 0xff, 0xff, 0x00, 0x00, 0x00, 0x03,
  0x01, 0x00, 0x00, 0x00, 0x01, 0x00, 0x00, 0x00, 0x01, 0x00, 0x00, 0x00,
  0x28, 0x00, 0x00, 0x00, 0x03, 0x00, 0x00, 0x00, 0x27, 0x00, 0x00, 0x00,
  0x15, 0x00, 0x00, 0x00, 0x14, 0x00, 0x00, 0x00, 0x7e, 0xfe, 0xff, 0xff,
  0x10, 0x00, 0x00, 0x00, 0x00, 0x00, 0x00, 0x01, 0x14, 0x00, 0x00, 0x00,
  0x18, 0x00, 0x00, 0x00, 0x26, 0xff, 0xff, 0xff, 0x01, 0x00, 0x00, 0x00,
  0x01, 0x00, 0x00, 0x00, 0x01, 0x00, 0x00, 0x00, 0x27, 0x00, 0x00, 0x00,
  0x03, 0x00, 0x00, 0x00, 0x26, 0x00, 0x00, 0x00, 0x17, 0x00, 0x00, 0x00,
  0x16, 0x00, 0x00, 0x00, 0x00, 0x00, 0x0e, 0x00, 0x18, 0x00, 0x14, 0x00,
  0x10, 0x00, 0x0c, 0x00, 0x0b, 0x00, 0x04, 0x00, 0x0e, 0x00, 0x00, 0x00,
  0x14, 0x00, 0x00, 0x00, 0x00, 0x00, 0x00, 0x02, 0x20, 0x00, 0x00, 0x00,
  0x24, 0x00, 0x00, 0x00, 0x01, 0x00, 0x00, 0x00, 0x1a, 0xff, 0xff, 0xff,
  0x00, 0x00, 0x00, 0x03, 0x01, 0x00, 0x00, 0x00, 0x02, 0x00, 0x00, 0x00,
  0x02, 0x00, 0x00, 0x00, 0x01, 0x00, 0x00, 0x00, 0x26, 0x00, 0x00, 0x00,
  0x03, 0x00, 0x00, 0x00, 0x25, 0x00, 0x00, 0x00, 0x19, 0x00, 0x00, 0x00,
  0x18, 0x00, 0x00, 0x00, 0x0a, 0xff, 0xff, 0xff, 0x10, 0x00, 0x00, 0x00,
  0x00, 0x00, 0x00, 0x01, 0x18, 0x00, 0x00, 0x00, 0x1c, 0x00, 0x00, 0x00,
  0xfc, 0xfe, 0xff, 0xff, 0x00, 0x00, 0x00, 0x03, 0x01, 0x00, 0x00, 0x00,
  0x01, 0x00, 0x00, 0x00, 0x01, 0x00, 0x00, 0x00, 0x25, 0x00, 0x00, 0x00,
  0x03, 0x00, 0x00, 0x00, 0x24, 0x00, 0x00, 0x00, 0x1b, 0x00, 0x00, 0x00,
  0x1a, 0x00, 0x00, 0x00, 0x00, 0x00, 0x0e, 0x00, 0x16, 0x00, 0x00, 0x00,
  0x10, 0x00, 0x0c, 0x00, 0x0b, 0x00, 0x04, 0x00, 0x0e, 0x00, 0x00, 0x00,
  0x1c, 0x00, 0x00, 0x00, 0x00, 0x00, 0x00, 0x01, 0x20, 0x00, 0x00, 0x00,
  0x24, 0x00, 0x00, 0x00, 0x00, 0x00, 0x0a, 0x00, 0x0c, 0x00, 0x00, 0x00,
  0x08, 0x00, 0x04, 0x00, 0x0a, 0x00, 0x00, 0x00, 0x01, 0x00, 0x00, 0x00,
  0x01, 0x00, 0x00, 0x00, 0x01, 0x00, 0x00, 0x00, 0x24, 0x00, 0x00, 0x00,
  0x03, 0x00, 0x00, 0x00, 0x23, 0x00, 0x00, 0x00, 0x1d, 0x00, 0x00, 0x00,
  0x1c, 0x00, 0x00, 0x00, 0x00, 0x00, 0x0e, 0x00, 0x1a, 0x00, 0x14, 0x00,
  0x10, 0x00, 0x0c, 0x00, 0x0b, 0x00, 0x04, 0x00, 0x0e, 0x00, 0x00, 0x00,
  0x24, 0x00, 0x00, 0x00, 0x00, 0x00, 0x00, 0x02, 0x30, 0x00, 0x00, 0x00,
  0x34, 0x00, 0x00, 0x00, 0x01, 0x00, 0x00, 0x00, 0x00, 0x00, 0x0e, 0x00,
  0x14, 0x00, 0x00, 0x00, 0x10, 0x00, 0x0c, 0x00, 0x08, 0x00, 0x07, 0x00,
  0x0e, 0x00, 0x00, 0x00, 0x00, 0x00, 0x00, 0x03, 0x01, 0x00, 0x00, 0x00,
  0x01, 0x00, 0x00, 0x00, 0x01, 0x00, 0x00, 0x00, 0x01, 0x00, 0x00, 0x00,
  0x23, 0x00, 0x00, 0x00, 0x03, 0x00, 0x00, 0x00, 0x22, 0x00, 0x00, 0x00,
  0x1f, 0x00, 0x00, 0x00, 0x1e, 0x00, 0x00, 0x00, 0x00, 0x00, 0x0e, 0x00,
  0x14, 0x00, 0x00, 0x00, 0x10, 0x00, 0x0c, 0x00, 0x0b, 0x00, 0x04, 0x00,
  0x0e, 0x00, 0x00, 0x00, 0x1c, 0x00, 0x00, 0x00, 0x00, 0x00, 0x00, 0x01,
  0x24, 0x00, 0x00, 0x00, 0x28, 0x00, 0x00, 0x00, 0x0c, 0x00, 0x10, 0x00,
  0x00, 0x00, 0x0c, 0x00, 0x08, 0x00, 0x07, 0x00, 0x0c, 0x00, 0x00, 0x00,
  0x00, 0x00, 0x00, 0x03, 0x02, 0x00, 0x00, 0x00, 0x02, 0x00, 0x00, 0x00,
  0x01, 0x00, 0x00, 0x00, 0x22, 0x00, 0x00, 0x00, 0x03, 0x00, 0x00, 0x00,
  0x00, 0x00, 0x00, 0x00, 0x21, 0x00, 0x00, 0x00, 0x20, 0x00, 0x00, 0x00,
  0x01, 0x00, 0x00, 0x00, 0x33, 0x00, 0x00, 0x00, 0x01, 0x00, 0x00, 0x00,
  0x00, 0x00, 0x00, 0x00, 0x34, 0x00, 0x00, 0x00, 0xdc, 0x4a, 0x00, 0x00,
  0x80, 0x4a, 0x00, 0x00, 0xc8, 0x49, 0x00, 0x00, 0x24, 0x49, 0x00, 0x00,
  0x48, 0x48, 0x00, 0x00, 0x64, 0x47, 0x00, 0x00, 0xf8, 0x43, 0x00, 0x00,
  0x64, 0x40, 0x00, 0x00, 0xe0, 0x3c, 0x00, 0x00, 0x64, 0x39, 0x00, 0x00,
  0x88, 0x38, 0x00, 0x00, 0xa4, 0x37, 0x00, 0x00, 0x10, 0x35, 0x00, 0x00,
  0x68, 0x32, 0x00, 0x00, 0xd0, 0x2f, 0x00, 0x00, 0x2c, 0x2d, 0x00, 0x00,
  0x78, 0x2c, 0x00, 0x00, 0xb4, 0x2b, 0x00, 0x00, 0x20, 0x29, 0x00, 0x00,
  0x78, 0x26, 0x00, 0x00, 0xe0, 0x23, 0x00, 0x00, 0x3c, 0x21, 0x00, 0x00,
  0x88, 0x20, 0x00, 0x00, 0xc4, 0x1f, 0x00, 0x00, 0x08, 0x1e, 0x00, 0x00,
  0x38, 0x1c, 0x00, 0x00, 0x78, 0x1a, 0x00, 0x00, 0xac, 0x18, 0x00, 0x00,
  0x18, 0x18, 0x00, 0x00, 0x7c, 0x17, 0x00, 0x00, 0xa0, 0x16, 0x00, 0x00,
  0xb8, 0x15, 0x00, 0x00, 0xe0, 0x14, 0x00, 0x00, 0xfc, 0x13, 0x00, 0x00,
  0xe8, 0x12, 0x00, 0x00, 0x5c, 0x11, 0x00, 0x00, 0x60, 0x10, 0x00, 0x00,
  0x44, 0x0f, 0x00, 0x00, 0xb8, 0x0d, 0x00, 0x00, 0xbc, 0x0c, 0x00, 0x00,
  0xa0, 0x0b, 0x00, 0x00, 0x14, 0x0a, 0x00, 0x00, 0x18, 0x09, 0x00, 0x00,
  0xfc, 0x07, 0x00, 0x00, 0x68, 0x06, 0x00, 0x00, 0x64, 0x05, 0x00, 0x00,
  0x48, 0x04, 0x00, 0x00, 0xb4, 0x02, 0x00, 0x00, 0xb0, 0x01, 0x00, 0x00,
  0x1c, 0x01, 0x00, 0x00, 0x80, 0x00, 0x00, 0x00, 0x04, 0x00, 0x00, 0x00,
  0x0a, 0xb6, 0xff, 0xff, 0x00, 0x00, 0x00, 0x01, 0x18, 0x00, 0x00, 0x00,
  0x20, 0x00, 0x00, 0x00, 0x3c, 0x00, 0x00, 0x00, 0x34, 0x00, 0x00, 0x00,
  0x00, 0x00, 0x00, 0x09, 0x50, 0x00, 0x00, 0x00, 0x02, 0x00, 0x00, 0x00,
  0xff, 0xff, 0xff, 0xff, 0x06, 0x00, 0x00, 0x00, 0xec, 0xb5, 0xff, 0xff,
  0x08, 0x00, 0x00, 0x00, 0x10, 0x00, 0x00, 0x00, 0x01, 0x00, 0x00, 0x00,
  0x80, 0xff, 0xff, 0xff, 0xff, 0xff, 0xff, 0xff, 0x01, 0x00, 0x00, 0x00,
  0x00, 0x00, 0x80, 0x3b, 0x1b, 0x00, 0x00, 0x00, 0x53, 0x74, 0x61, 0x74,
  0x65, 0x66, 0x75, 0x6c, 0x50, 0x61, 0x72, 0x74, 0x69, 0x74, 0x69, 0x6f,
  0x6e, 0x65, 0x64, 0x43, 0x61, 0x6c, 0x6c, 0x5f, 0x31, 0x3a, 0x30, 0x00,
  0x02, 0x00, 0x00, 0x00, 0x01, 0x00, 0x00, 0x00, 0x06, 0x00, 0x00, 0x00,
  0x82, 0xb6, 0xff, 0xff, 0x00, 0x00, 0x00, 0x01, 0x18, 0x00, 0x00, 0x00,
  0x20, 0x00, 0x00, 0x00, 0x3c, 0x00, 0x00, 0x00, 0x33, 0x00, 0x00, 0x00,
  0x00, 0x00, 0x00, 0x09, 0x70, 0x00, 0x00, 0x00, 0x02, 0x00, 0x00, 0x00,
  0xff, 0xff, 0xff, 0xff, 0x06, 0x00, 0x00, 0x00, 0x64, 0xb6, 0xff, 0xff,
  0x08, 0x00, 0x00, 0x00, 0x10, 0x00, 0x00, 0x00, 0x01, 0x00, 0x00, 0x00,
  0xf8, 0xff, 0xff, 0xff, 0xff, 0xff, 0xff, 0xff, 0x01, 0x00, 0x00, 0x00,
  0xe9, 0xa2, 0xe9, 0x3c, 0x38, 0x00, 0x00, 0x00, 0x66, 0x75, 0x6e, 0x63,
  0x74, 0x69, 0x6f, 0x6e, 0x61, 0x6c, 0x5f, 0x31, 0x2f, 0x64, 0x65, 0x6e,
  0x73, 0x65, 0x5f, 0x31, 0x2f, 0x4d, 0x61, 0x74, 0x4d, 0x75, 0x6c, 0x3b,
  0x66, 0x75, 0x6e, 0x63, 0x74, 0x69, 0x6f, 0x6e, 0x61, 0x6c, 0x5f, 0x31,
  0x2f, 0x64, 0x65, 0x6e, 0x73, 0x65, 0x5f, 0x31, 0x2f, 0x42, 0x69, 0x61,
  0x73, 0x41, 0x64, 0x64, 0x00, 0x00, 0x00, 0x00, 0x02, 0x00, 0x00, 0x00,
  0x01, 0x00, 0x00, 0x00, 0x06, 0x00, 0x00, 0x00, 0x1a, 0xb7, 0xff, 0xff,
  0x00, 0x00, 0x00, 0x01, 0x18, 0x00, 0x00, 0x00, 0x20, 0x00, 0x00, 0x00,
  0x40, 0x00, 0x00, 0x00, 0x32, 0x00, 0x00, 0x00, 0x00, 0x00, 0x00, 0x09,
  0x68, 0x00, 0x00, 0x00, 0x02, 0x00, 0x00, 0x00, 0xff, 0xff, 0xff, 0xff,
  0x0b, 0x00, 0x00, 0x00, 0xfc, 0xb6, 0xff, 0xff, 0x08, 0x00, 0x00, 0x00,
  0x14, 0x00, 0x00, 0x00, 0x01, 0x00, 0x00, 0x00, 0x0b, 0x00, 0x00, 0x00,
  0x00, 0x00, 0x00, 0x00, 0x00, 0x00, 0x00, 0x00, 0x01, 0x00, 0x00, 0x00,
  0x24, 0xbd, 0x3f, 0x3c, 0x2c, 0x00, 0x00, 0x00, 0x66, 0x75, 0x6e, 0x63,
  0x74, 0x69, 0x6f, 0x6e, 0x61, 0x6c, 0x5f, 0x31, 0x2f, 0x67, 0x6c, 0x6f,
  0x62, 0x61, 0x6c, 0x5f, 0x61, 0x76, 0x65, 0x72, 0x61, 0x67, 0x65, 0x5f,
  0x70, 0x6f, 0x6f, 0x6c, 0x69, 0x6e, 0x67, 0x32, 0x64, 0x5f, 0x31, 0x2f,
  0x4d, 0x65, 0x61, 0x6e, 0x00, 0x00, 0x00, 0x00, 0x02, 0x00, 0x00, 0x00,
  0x01, 0x00, 0x00, 0x00, 0x0b, 0x00, 0x00, 0x00, 0xaa, 0xb7, 0xff, 0xff,
  0x00, 0x00, 0x00, 0x01, 0x18, 0x00, 0x00, 0x00, 0x28, 0x00, 0x00, 0x00,
  0x48, 0x00, 0x00, 0x00, 0x31, 0x00, 0x00, 0x00, 0x00, 0x00, 0x00, 0x09,
  0xd0, 0x00, 0x00, 0x00, 0x04, 0x00, 0x00, 0x00, 0xff, 0xff, 0xff, 0xff,
  0x0c, 0x00, 0x00, 0x00, 0x0c, 0x00, 0x00, 0x00, 0x0b, 0x00, 0x00, 0x00,
  0x94, 0xb7, 0xff, 0xff, 0x08, 0x00, 0x00, 0x00, 0x14, 0x00, 0x00, 0x00,
  0x01, 0x00, 0x00, 0x00, 0xfc, 0xff, 0xff, 0xff, 0xff, 0xff, 0xff, 0xff,
  0x00, 0x00, 0x00, 0x00, 0x01, 0x00, 0x00, 0x00, 0xe3, 0xec, 0x7a, 0x3d,
  0x8d, 0x00, 0x00, 0x00, 0x66, 0x75, 0x6e, 0x63, 0x74, 0x69, 0x6f, 0x6e,
  0x61, 0x6c, 0x5f, 0x31, 0x2f, 0x62, 0x61, 0x74, 0x63, 0x68, 0x5f, 0x6e,
  0x6f, 0x72, 0x6d, 0x61, 0x6c, 0x69, 0x7a, 0x61, 0x74, 0x69, 0x6f, 0x6e,
  0x5f, 0x31, 0x34, 0x5f, 0x31, 0x2f, 0x62, 0x61, 0x74, 0x63, 0x68, 0x6e,
  0x6f, 0x72, 0x6d, 0x2f, 0x61, 0x64, 0x64, 0x5f, 0x31, 0x3b, 0x66, 0x75,
  0x6e, 0x63, 0x74, 0x69, 0x6f, 0x6e, 0x61, 0x6c, 0x5f, 0x31, 0x2f, 0x63,
  0x6f, 0x6e, 0x76, 0x32, 0x64, 0x5f, 0x39, 0x5f, 0x31, 0x2f, 0x63, 0x6f,
  0x6e, 0x76, 0x6f, 0x6c, 0x75, 0x74, 0x69, 0x6f, 0x6e, 0x3b, 0x66, 0x75,
  0x6e, 0x63, 0x74, 0x69, 0x6f, 0x6e, 0x61, 0x6c, 0x5f, 0x31, 0x2f, 0x62,
  0x61, 0x74, 0x63, 0x68, 0x5f, 0x6e, 0x6f, 0x72, 0x6d, 0x61, 0x6c, 0x69,
  0x7a, 0x61, 0x74, 0x69, 0x6f, 0x6e, 0x5f, 0x31, 0x34, 0x5f, 0x31, 0x2f,
  0x62, 0x61, 0x74, 0x63, 0x68, 0x6e, 0x6f, 0x72, 0x6d, 0x2f, 0x73, 0x75,
  0x62, 0x00, 0x00, 0x00, 0x04, 0x00, 0x00, 0x00, 0x01, 0x00, 0x00, 0x00,
  0x0c, 0x00, 0x00, 0x00, 0x0c, 0x00, 0x00, 0x00, 0x0b, 0x00, 0x00, 0x00,
  0xaa, 0xb8, 0xff, 0xff, 0x00, 0x00, 0x00, 0x01, 0x18, 0x00, 0x00, 0x00,
  0x28, 0x00, 0x00, 0x00, 0x48, 0x00, 0x00, 0x00, 0x30, 0x00, 0x00, 0x00,
  0x00, 0x00, 0x00, 0x09, 0x60, 0x01, 0x00, 0x00, 0x04, 0x00, 0x00, 0x00,
  0xff, 0xff, 0xff, 0xff, 0x0c, 0x00, 0x00, 0x00, 0x0c, 0x00, 0x00, 0x00,
  0x42, 0x00, 0x00, 0x00, 0x94, 0xb8, 0xff, 0xff, 0x08, 0x00, 0x00, 0x00,
  0x14, 0x00, 0x00, 0x00, 0x01, 0x00, 0x00, 0x00, 0x80, 0xff, 0xff, 0xff,
  0xff, 0xff, 0xff, 0xff, 0x00, 0x00, 0x00, 0x00, 0x01, 0x00, 0x00, 0x00,
  0xc1, 0xc0, 0xc0, 0x3c, 0x1c, 0x01, 0x00, 0x00, 0x66, 0x75, 0x6e, 0x63,
  0x74, 0x69, 0x6f, 0x6e, 0x61, 0x6c, 0x5f, 0x31, 0x2f, 0x72, 0x65, 0x5f,
  0x6c, 0x75, 0x5f, 0x39, 0x5f, 0x31, 0x2f, 0x52, 0x65, 0x6c, 0x75, 0x36,
  0x3b, 0x66, 0x75, 0x6e, 0x63, 0x74, 0x69, 0x6f, 0x6e, 0x61, 0x6c, 0x5f,
  0x31, 0x2f, 0x62, 0x61, 0x74, 0x63, 0x68, 0x5f, 0x6e, 0x6f, 0x72, 0x6d,
  0x61, 0x6c, 0x69, 0x7a, 0x61, 0x74, 0x69, 0x6f, 0x6e, 0x5f, 0x31, 0x33,
  0x5f, 0x31, 0x2f, 0x62, 0x61, 0x74, 0x63, 0x68, 0x6e, 0x6f, 0x72, 0x6d,
  0x2f, 0x61, 0x64, 0x64, 0x5f, 0x31, 0x3b, 0x66, 0x75, 0x6e, 0x63, 0x74,
  0x69, 0x6f, 0x6e, 0x61, 0x6c, 0x5f, 0x31, 0x2f, 0x62, 0x61, 0x74, 0x63,
  0x68, 0x5f, 0x6e, 0x6f, 0x72, 0x6d, 0x61, 0x6c, 0x69, 0x7a, 0x61, 0x74,
  0x69, 0x6f, 0x6e, 0x5f, 0x31, 0x33, 0x5f, 0x31, 0x2f, 0x62, 0x61, 0x74,
  0x63, 0x68, 0x6e, 0x6f, 0x72, 0x6d, 0x2f, 0x6d, 0x75, 0x6c, 0x5f, 0x31,
  0x3b, 0x66, 0x75, 0x6e, 0x63, 0x74, 0x69, 0x6f, 0x6e, 0x61, 0x6c, 0x5f,
  0x31, 0x2f, 0x64, 0x65, 0x70, 0x74, 0x68, 0x77, 0x69, 0x73, 0x65, 0x5f,
  0x63, 0x6f, 0x6e, 0x76, 0x32, 0x64, 0x5f, 0x34, 0x5f, 0x31, 0x2f, 0x64,
  0x65, 0x70, 0x74, 0x68, 0x77, 0x69, 0x73, 0x65, 0x3b, 0x66, 0x75, 0x6e,
  0x63, 0x74, 0x69, 0x6f, 0x6e, 0x61, 0x6c, 0x5f, 0x31, 0x2f, 0x62, 0x61,
  0x74, 0x63, 0x68, 0x5f, 0x6e, 0x6f, 0x72, 0x6d, 0x61, 0x6c, 0x69, 0x7a,
  0x61, 0x74, 0x69, 0x6f, 0x6e, 0x5f, 0x31, 0x33, 0x5f, 0x31, 0x2f, 0x62,
  0x61, 0x74, 0x63, 0x68, 0x6e, 0x6f, 0x72, 0x6d, 0x2f, 0x6d, 0x75, 0x6c,
  0x3b, 0x66, 0x75, 0x6e, 0x63, 0x74, 0x69, 0x6f, 0x6e, 0x61, 0x6c, 0x5f,
  0x31, 0x2f, 0x62, 0x61, 0x74, 0x63, 0x68, 0x5f, 0x6e, 0x6f, 0x72, 0x6d,
  0x61, 0x6c, 0x69, 0x7a, 0x61, 0x74, 0x69, 0x6f, 0x6e, 0x5f, 0x31, 0x33,
  0x5f, 0x31, 0x2f, 0x62, 0x61, 0x74, 0x63, 0x68, 0x6e, 0x6f, 0x72, 0x6d,
  0x2f, 0x73, 0x75, 0x62, 0x00, 0x00, 0x00, 0x00, 0x04, 0x00, 0x00, 0x00,
  0x01, 0x00, 0x00, 0x00, 0x0c, 0x00, 0x00, 0x00, 0x0c, 0x00, 0x00, 0x00,
  0x42, 0x00, 0x00, 0x00, 0x3a, 0xba, 0xff, 0xff, 0x00, 0x00, 0x00, 0x01,
  0x18, 0x00, 0x00, 0x00, 0x28, 0x00, 0x00, 0x00, 0x44, 0x00, 0x00, 0x00,
  0x2f, 0x00, 0x00, 0x00, 0x00, 0x00, 0x00, 0x09, 0xe8, 0x00, 0x00, 0x00,
  0x04, 0x00, 0x00, 0x00, 0xff, 0xff, 0xff, 0xff, 0x0c, 0x00, 0x00, 0x00,
  0x0c, 0x00, 0x00, 0x00, 0x42, 0x00, 0x00, 0x00, 0x24, 0xba, 0xff, 0xff,
  0x08, 0x00, 0x00, 0x00, 0x10, 0x00, 0x00, 0x00, 0x01, 0x00, 0x00, 0x00,
  0x80, 0xff, 0xff, 0xff, 0xff, 0xff, 0xff, 0xff, 0x01, 0x00, 0x00, 0x00,
  0xc1, 0xc0, 0xc0, 0x3c, 0xaa, 0x00, 0x00, 0x00, 0x66, 0x75, 0x6e, 0x63,
  0x74, 0x69, 0x6f, 0x6e, 0x61, 0x6c, 0x5f, 0x31, 0x2f, 0x72, 0x65, 0x5f,
  0x6c, 0x75, 0x5f, 0x38, 0x5f, 0x31, 0x2f, 0x52, 0x65, 0x6c, 0x75, 0x36,
  0x3b, 0x66, 0x75, 0x6e, 0x63, 0x74, 0x69, 0x6f, 0x6e, 0x61, 0x6c, 0x5f,
  0x31, 0x2f, 0x62, 0x61, 0x74, 0x63, 0x68, 0x5f, 0x6e, 0x6f, 0x72, 0x6d,
  0x61, 0x6c, 0x69, 0x7a, 0x61, 0x74, 0x69, 0x6f, 0x6e, 0x5f, 0x31, 0x32,
  0x5f, 0x31, 0x2f, 0x62, 0x61, 0x74, 0x63, 0x68, 0x6e, 0x6f, 0x72, 0x6d,
  0x2f, 0x61, 0x64, 0x64, 0x5f, 0x31, 0x3b, 0x66, 0x75, 0x6e, 0x63, 0x74,
  0x69, 0x6f, 0x6e, 0x61, 0x6c, 0x5f, 0x31, 0x2f, 0x63, 0x6f, 0x6e, 0x76,
  0x32, 0x64, 0x5f, 0x38, 0x5f, 0x31, 0x2f, 0x63, 0x6f, 0x6e, 0x76, 0x6f,
  0x6c, 0x75, 0x74, 0x69, 0x6f, 0x6e, 0x3b, 0x66, 0x75, 0x6e, 0x63, 0x74,
  0x69, 0x6f, 0x6e, 0x61, 0x6c, 0x5f, 0x31, 0x2f, 0x62, 0x61, 0x74, 0x63,
  0x68, 0x5f, 0x6e, 0x6f, 0x72, 0x6d, 0x61, 0x6c, 0x69, 0x7a, 0x61, 0x74,
  0x69, 0x6f, 0x6e, 0x5f, 0x31, 0x32, 0x5f, 0x31, 0x2f, 0x62, 0x61, 0x74,
  0x63, 0x68, 0x6e, 0x6f, 0x72, 0x6d, 0x2f, 0x73, 0x75, 0x62, 0x00, 0x00,
  0x04, 0x00, 0x00, 0x00, 0x01, 0x00, 0x00, 0x00, 0x0c, 0x00, 0x00, 0x00,
  0x0c, 0x00, 0x00, 0x00, 0x42, 0x00, 0x00, 0x00, 0x52, 0xbb, 0xff, 0xff,
  0x00, 0x00, 0x00, 0x01, 0x18, 0x00, 0x00, 0x00, 0x28, 0x00, 0x00, 0x00,
  0x48, 0x00, 0x00, 0x00, 0x2e, 0x00, 0x00, 0x00, 0x00, 0x00, 0x00, 0x09,
  0xd0, 0x00, 0x00, 0x00, 0x04, 0x00, 0x00, 0x00, 0xff, 0xff, 0xff, 0xff,
  0x0c, 0x00, 0x00, 0x00, 0x0c, 0x00, 0x00, 0x00, 0x0b, 0x00, 0x00, 0x00,
  0x3c, 0xbb, 0xff, 0xff, 0x08, 0x00, 0x00, 0x00, 0x14, 0x00, 0x00, 0x00,
  0x01, 0x00, 0x00, 0x00, 0x0d, 0x00, 0x00, 0x00, 0x00, 0x00, 0x00, 0x00,
  0x00, 0x00, 0x00, 0x00, 0x01, 0x00, 0x00, 0x00, 0xfb, 0x12, 0x6b, 0x3d,
  0x8d, 0x00, 0x00, 0x00, 0x66, 0x75, 0x6e, 0x63, 0x74, 0x69, 0x6f, 0x6e,
  0x61, 0x6c, 0x5f, 0x31, 0x2f, 0x62, 0x61, 0x74, 0x63, 0x68, 0x5f, 0x6e,
  0x6f, 0x72, 0x6d, 0x61, 0x6c, 0x69, 0x7a, 0x61, 0x74, 0x69, 0x6f, 0x6e,
  0x5f, 0x31, 0x31, 0x5f, 0x31, 0x2f, 0x62, 0x61, 0x74, 0x63, 0x68, 0x6e,
  0x6f, 0x72, 0x6d, 0x2f, 0x61, 0x64, 0x64, 0x5f, 0x31, 0x3b, 0x66, 0x75,
  0x6e, 0x63, 0x74, 0x69, 0x6f, 0x6e, 0x61, 0x6c, 0x5f, 0x31, 0x2f, 0x63,
  0x6f, 0x6e, 0x76, 0x32, 0x64, 0x5f, 0x37, 0x5f, 0x31, 0x2f, 0x63, 0x6f,
  0x6e, 0x76, 0x6f, 0x6c, 0x75, 0x74, 0x69, 0x6f, 0x6e, 0x3b, 0x66, 0x75,
  0x6e, 0x63, 0x74, 0x69, 0x6f, 0x6e, 0x61, 0x6c, 0x5f, 0x31, 0x2f, 0x62,
  0x61, 0x74, 0x63, 0x68, 0x5f, 0x6e, 0x6f, 0x72, 0x6d, 0x61, 0x6c, 0x69,
  0x7a, 0x61, 0x74, 0x69, 0x6f, 0x6e, 0x5f, 0x31, 0x31, 0x5f, 0x31, 0x2f,
  0x62, 0x61, 0x74, 0x63, 0x68, 0x6e, 0x6f, 0x72, 0x6d, 0x2f, 0x73, 0x75,
  0x62, 0x00, 0x00, 0x00, 0x04, 0x00, 0x00, 0x00, 0x01, 0x00, 0x00, 0x00,
  0x0c, 0x00, 0x00, 0x00, 0x0c, 0x00, 0x00, 0x00, 0x0b, 0x00, 0x00, 0x00,
  0x52, 0xbc, 0xff, 0xff, 0x00, 0x00, 0x00, 0x01, 0x18, 0x00, 0x00, 0x00,
  0x28, 0x00, 0x00, 0x00, 0x48, 0x00, 0x00, 0x00, 0x2d, 0x00, 0x00, 0x00,
  0x00, 0x00, 0x00, 0x09, 0x60, 0x01, 0x00, 0x00, 0x04, 0x00, 0x00, 0x00,
  0xff, 0xff, 0xff, 0xff, 0x0c, 0x00, 0x00, 0x00, 0x0c, 0x00, 0x00, 0x00,
  0x30, 0x00, 0x00, 0x00, 0x3c, 0xbc, 0xff, 0xff, 0x08, 0x00, 0x00, 0x00,
  0x14, 0x00, 0x00, 0x00, 0x01, 0x00, 0x00, 0x00, 0x80, 0xff, 0xff, 0xff,
  0xff, 0xff, 0xff, 0xff, 0x00, 0x00, 0x00, 0x00, 0x01, 0x00, 0x00, 0x00,
  0xc1, 0xc0, 0xc0, 0x3c, 0x1c, 0x01, 0x00, 0x00, 0x66, 0x75, 0x6e, 0x63,
  0x74, 0x69, 0x6f, 0x6e, 0x61, 0x6c, 0x5f, 0x31, 0x2f, 0x72, 0x65, 0x5f,
  0x6c, 0x75, 0x5f, 0x37, 0x5f, 0x31, 0x2f, 0x52, 0x65, 0x6c, 0x75, 0x36,
  0x3b, 0x66, 0x75, 0x6e, 0x63, 0x74, 0x69, 0x6f, 0x6e, 0x61, 0x6c, 0x5f,
  0x31, 0x2f, 0x62, 0x61, 0x74, 0x63, 0x68, 0x5f, 0x6e, 0x6f, 0x72, 0x6d,
  0x61, 0x6c, 0x69, 0x7a, 0x61, 0x74, 0x69, 0x6f, 0x6e, 0x5f, 0x31, 0x30,
  0x5f, 0x31, 0x2f, 0x62, 0x61, 0x74, 0x63, 0x68, 0x6e, 0x6f, 0x72, 0x6d,
  0x2f, 0x61, 0x64, 0x64, 0x5f, 0x31, 0x3b, 0x66, 0x75, 0x6e, 0x63, 0x74,
  0x69, 0x6f, 0x6e, 0x61, 0x6c, 0x5f, 0x31, 0x2f, 0x62, 0x61, 0x74, 0x63,
  0x68, 0x5f, 0x6e, 0x6f, 0x72, 0x6d, 0x61, 0x6c, 0x69, 0x7a, 0x61, 0x74,
  0x69, 0x6f, 0x6e, 0x5f, 0x31, 0x30, 0x5f, 0x31, 0x2f, 0x62, 0x61, 0x74,
  0x63, 0x68, 0x6e, 0x6f, 0x72, 0x6d, 0x2f, 0x6d, 0x75, 0x6c, 0x5f, 0x31,
  0x3b, 0x66, 0x75, 0x6e, 0x63, 0x74, 0x69, 0x6f, 0x6e, 0x61, 0x6c, 0x5f,
  0x31, 0x2f, 0x64, 0x65, 0x70, 0x74, 0x68, 0x77, 0x69, 0x73, 0x65, 0x5f,
  0x63, 0x6f, 0x6e, 0x76, 0x32, 0x64, 0x5f, 0x33, 0x5f, 0x31, 0x2f, 0x64,
  0x65, 0x70, 0x74, 0x68, 0x77, 0x69, 0x73, 0x65, 0x3b, 0x66, 0x75, 0x6e,
  0x63, 0x74, 0x69, 0x6f, 0x6e, 0x61, 0x6c, 0x5f, 0x31, 0x2f, 0x62, 0x61,
  0x74, 0x63, 0x68, 0x5f, 0x6e, 0x6f, 0x72, 0x6d, 0x61, 0x6c, 0x69, 0x7a,
  0x61, 0x74, 0x69, 0x6f, 0x6e, 0x5f, 0x31, 0x30, 0x5f, 0x31, 0x2f, 0x62,
  0x61, 0x74, 0x63, 0x68, 0x6e, 0x6f, 0x72, 0x6d, 0x2f, 0x6d, 0x75, 0x6c,
  0x3b, 0x66, 0x75, 0x6e, 0x63, 0x74, 0x69, 0x6f, 0x6e, 0x61, 0x6c, 0x5f,
  0x31, 0x2f, 0x62, 0x61, 0x74, 0x63, 0x68, 0x5f, 0x6e, 0x6f, 0x72, 0x6d,
  0x61, 0x6c, 0x69, 0x7a, 0x61, 0x74, 0x69, 0x6f, 0x6e, 0x5f, 0x31, 0x30,
  0x5f, 0x31, 0x2f, 0x62, 0x61, 0x74, 0x63, 0x68, 0x6e, 0x6f, 0x72, 0x6d,
  0x2f, 0x73, 0x75, 0x62, 0x00, 0x00, 0x00, 0x00, 0x04, 0x00, 0x00, 0x00,
  0x01, 0x00, 0x00, 0x00, 0x0c, 0x00, 0x00, 0x00, 0x0c, 0x00, 0x00, 0x00,
  0x30, 0x00, 0x00, 0x00, 0xe2, 0xbd, 0xff, 0xff, 0x00, 0x00, 0x00, 0x01,
  0x18, 0x00, 0x00, 0x00, 0x28, 0x00, 0x00, 0x00, 0x44, 0x00, 0x00, 0x00,
  0x2c, 0x00, 0x00, 0x00, 0x00, 0x00, 0x00, 0x09, 0xe8, 0x00, 0x00, 0x00,
  0x04, 0x00, 0x00, 0x00, 0xff, 0xff, 0xff, 0xff, 0x18, 0x00, 0x00, 0x00,
  0x18, 0x00, 0x00, 0x00, 0x30, 0x00, 0x00, 0x00, 0xcc, 0xbd, 0xff, 0xff,
  0x08, 0x00, 0x00, 0x00, 0x10, 0x00, 0x00, 0x00, 0x01, 0x00, 0x00, 0x00,
  0x80, 0xff, 0xff, 0xff, 0xff, 0xff, 0xff, 0xff, 0x01, 0x00, 0x00, 0x00,
  0xc1, 0xc0, 0xc0, 0x3c, 0xa8, 0x00, 0x00, 0x00, 0x66, 0x75, 0x6e, 0x63,
  0x74, 0x69, 0x6f, 0x6e, 0x61, 0x6c, 0x5f, 0x31, 0x2f, 0x72, 0x65, 0x5f,
  0x6c, 0x75, 0x5f, 0x36, 0x5f, 0x31, 0x2f, 0x52, 0x65, 0x6c, 0x75, 0x36,
  0x3b, 0x66, 0x75, 0x6e, 0x63, 0x74, 0x69, 0x6f, 0x6e, 0x61, 0x6c, 0x5f,
  0x31, 0x2f, 0x62, 0x61, 0x74, 0x63, 0x68, 0x5f, 0x6e, 0x6f, 0x72, 0x6d,
  0x61, 0x6c, 0x69, 0x7a, 0x61, 0x74, 0x69, 0x6f, 0x6e, 0x5f, 0x39, 0x5f,
  0x31, 0x2f, 0x62, 0x61, 0x74, 0x63, 0x68, 0x6e, 0x6f, 0x72, 0x6d, 0x2f,
  0x61, 0x64, 0x64, 0x5f, 0x31, 0x3b, 0x66, 0x75, 0x6e, 0x63, 0x74, 0x69,
  0x6f, 0x6e, 0x61, 0x6c, 0x5f, 0x31, 0x2f, 0x63, 0x6f, 0x6e, 0x76, 0x32,
  0x64, 0x5f, 0x36, 0x5f, 0x31, 0x2f, 0x63, 0x6f, 0x6e, 0x76, 0x6f, 0x6c,
  0x75, 0x74, 0x69, 0x6f, 0x6e, 0x3b, 0x66, 0x75, 0x6e, 0x63, 0x74, 0x69,
  0x6f, 0x6e, 0x61, 0x6c, 0x5f, 0x31, 0x2f, 0x62, 0x61, 0x74, 0x63, 0x68,
  0x5f, 0x6e, 0x6f, 0x72, 0x6d, 0x61, 0x6c, 0x69, 0x7a, 0x61, 0x74, 0x69,
  0x6f, 0x6e, 0x5f, 0x39, 0x5f, 0x31, 0x2f, 0x62, 0x61, 0x74, 0x63, 0x68,
  0x6e, 0x6f, 0x72, 0x6d, 0x2f, 0x73, 0x75, 0x62, 0x00, 0x00, 0x00, 0x00,
  0x04, 0x00, 0x00, 0x00, 0x01, 0x00, 0x00, 0x00, 0x18, 0x00, 0x00, 0x00,
  0x18, 0x00, 0x00, 0x00, 0x30, 0x00, 0x00, 0x00, 0xfa, 0xbe, 0xff, 0xff,
  0x00, 0x00, 0x00, 0x01, 0x18, 0x00, 0x00, 0x00, 0x28, 0x00, 0x00, 0x00,
  0x44, 0x00, 0x00, 0x00, 0x2b, 0x00, 0x00, 0x00, 0x00, 0x00, 0x00, 0x09,
  0xc8, 0x00, 0x00, 0x00, 0x04, 0x00, 0x00, 0x00, 0xff, 0xff, 0xff, 0xff,
  0x18, 0x00, 0x00, 0x00, 0x18, 0x00, 0x00, 0x00, 0x08, 0x00, 0x00, 0x00,
  0xe4, 0xbe, 0xff, 0xff, 0x08, 0x00, 0x00, 0x00, 0x10, 0x00, 0x00, 0x00,
  0x01, 0x00, 0x00, 0x00, 0x06, 0x00, 0x00, 0x00, 0x00, 0x00, 0x00, 0x00,
  0x01, 0x00, 0x00, 0x00, 0x2b, 0x47, 0x87, 0x3d, 0x8b, 0x00, 0x00, 0x00,
  0x66, 0x75, 0x6e, 0x63, 0x74, 0x69, 0x6f, 0x6e, 0x61, 0x6c, 0x5f, 0x31,
  0x2f, 0x62, 0x61, 0x74, 0x63, 0x68, 0x5f, 0x6e, 0x6f, 0x72, 0x6d, 0x61,
  0x6c, 0x69, 0x7a, 0x61, 0x74, 0x69, 0x6f, 0x6e, 0x5f, 0x38, 0x5f, 0x31,
  0x2f, 0x62, 0x61, 0x74, 0x63, 0x68, 0x6e, 0x6f, 0x72, 0x6d, 0x2f, 0x61,
  0x64, 0x64, 0x5f, 0x31, 0x3b, 0x66, 0x75, 0x6e, 0x63, 0x74, 0x69, 0x6f,
  0x6e, 0x61, 0x6c, 0x5f, 0x31, 0x2f, 0x63, 0x6f, 0x6e, 0x76, 0x32, 0x64,
  0x5f, 0x35, 0x5f, 0x31, 0x2f, 0x63, 0x6f, 0x6e, 0x76, 0x6f, 0x6c, 0x75,
  0x74, 0x69, 0x6f, 0x6e, 0x3b, 0x66, 0x75, 0x6e, 0x63, 0x74, 0x69, 0x6f,
  0x6e, 0x61, 0x6c, 0x5f, 0x31, 0x2f, 0x62, 0x61, 0x74, 0x63, 0x68, 0x5f,
  0x6e, 0x6f, 0x72, 0x6d, 0x61, 0x6c, 0x69, 0x7a, 0x61, 0x74, 0x69, 0x6f,
  0x6e, 0x5f, 0x38, 0x5f, 0x31, 0x2f, 0x62, 0x61, 0x74, 0x63, 0x68, 0x6e,
  0x6f, 0x72, 0x6d, 0x2f, 0x73, 0x75, 0x62, 0x00, 0x04, 0x00, 0x00, 0x00,
  0x01, 0x00, 0x00, 0x00, 0x18, 0x00, 0x00, 0x00, 0x18, 0x00, 0x00, 0x00,
  0x08, 0x00, 0x00, 0x00, 0xf2, 0xbf, 0xff, 0xff, 0x00, 0x00, 0x00, 0x01,
  0x18, 0x00, 0x00, 0x00, 0x28, 0x00, 0x00, 0x00, 0x44, 0x00, 0x00, 0x00,
  0x2a, 0x00, 0x00, 0x00, 0x00, 0x00, 0x00, 0x09, 0x58, 0x01, 0x00, 0x00,
  0x04, 0x00, 0x00, 0x00, 0xff, 0xff, 0xff, 0xff, 0x18, 0x00, 0x00, 0x00,
  0x18, 0x00, 0x00, 0x00, 0x30, 0x00, 0x00, 0x00, 0xdc, 0xbf, 0xff, 0xff,
  0x08, 0x00, 0x00, 0x00, 0x10, 0x00, 0x00, 0x00, 0x01, 0x00, 0x00, 0x00,
  0x80, 0xff, 0xff, 0xff, 0xff, 0xff, 0xff, 0xff, 0x01, 0x00, 0x00, 0x00,
  0xc1, 0xc0, 0xc0, 0x3c, 0x18, 0x01, 0x00, 0x00, 0x66, 0x75, 0x6e, 0x63,
  0x74, 0x69, 0x6f, 0x6e, 0x61, 0x6c, 0x5f, 0x31, 0x2f, 0x72, 0x65, 0x5f,
  0x6c, 0x75, 0x5f, 0x35, 0x5f, 0x31, 0x2f, 0x52, 0x65, 0x6c, 0x75, 0x36,
  0x3b, 0x66, 0x75, 0x6e, 0x63, 0x74, 0x69, 0x6f, 0x6e, 0x61, 0x6c, 0x5f,
  0x31, 0x2f, 0x62, 0x61, 0x74, 0x63, 0x68, 0x5f, 0x6e, 0x6f, 0x72, 0x6d,
  0x61, 0x6c, 0x69, 0x7a, 0x61, 0x74, 0x69, 0x6f, 0x6e, 0x5f, 0x37, 0x5f,
  0x31, 0x2f, 0x62, 0x61, 0x74, 0x63, 0x68, 0x6e, 0x6f, 0x72, 0x6d, 0x2f,
  0x61, 0x64, 0x64, 0x5f, 0x31, 0x3b, 0x66, 0x75, 0x6e, 0x63, 0x74, 0x69,
  0x6f, 0x6e, 0x61, 0x6c, 0x5f, 0x31, 0x2f, 0x62, 0x61, 0x74, 0x63, 0x68,
  0x5f, 0x6e, 0x6f, 0x72, 0x6d, 0x61, 0x6c, 0x69, 0x7a, 0x61, 0x74, 0x69,
  0x6f, 0x6e, 0x5f, 0x37, 0x5f, 0x31, 0x2f, 0x62, 0x61, 0x74, 0x63, 0x68,
  0x6e, 0x6f, 0x72, 0x6d, 0x2f, 0x6d, 0x75, 0x6c, 0x5f, 0x31, 0x3b, 0x66,
  0x75, 0x6e, 0x63, 0x74, 0x69, 0x6f, 0x6e, 0x61, 0x6c, 0x5f, 0x31, 0x2f,
  0x64, 0x65, 0x70, 0x74, 0x68, 0x77, 0x69, 0x73, 0x65, 0x5f, 0x63, 0x6f,
  0x6e, 0x76, 0x32, 0x64, 0x5f, 0x32, 0x5f, 0x31, 0x2f, 0x64, 0x65, 0x70,
  0x74, 0x68, 0x77, 0x69, 0x73, 0x65, 0x3b, 0x66, 0x75, 0x6e, 0x63, 0x74,
  0x69, 0x6f, 0x6e, 0x61, 0x6c, 0x5f, 0x31, 0x2f, 0x62, 0x61, 0x74, 0x63,
  0x68, 0x5f, 0x6e, 0x6f, 0x72, 0x6d, 0x61, 0x6c, 0x69, 0x7a, 0x61, 0x74,
  0x69, 0x6f, 0x6e, 0x5f, 0x37, 0x5f, 0x31, 0x2f, 0x62, 0x61, 0x74, 0x63,
  0x68, 0x6e, 0x6f, 0x72, 0x6d, 0x2f, 0x6d, 0x75, 0x6c, 0x3b, 0x66, 0x75,
  0x6e, 0x63, 0x74, 0x69, 0x6f, 0x6e, 0x61, 0x6c, 0x5f, 0x31, 0x2f, 0x62,
  0x61, 0x74, 0x63, 0x68, 0x5f, 0x6e, 0x6f, 0x72, 0x6d, 0x61, 0x6c, 0x69,
  0x7a, 0x61, 0x74, 0x69, 0x6f, 0x6e, 0x5f, 0x37, 0x5f, 0x31, 0x2f, 0x62,
  0x61, 0x74, 0x63, 0x68, 0x6e, 0x6f, 0x72, 0x6d, 0x2f, 0x73, 0x75, 0x62,
  0x00, 0x00, 0x00, 0x00, 0x04, 0x00, 0x00, 0x00, 0x01, 0x00, 0x00, 0x00,
  0x18, 0x00, 0x00, 0x00, 0x18, 0x00, 0x00, 0x00, 0x30, 0x00, 0x00, 0x00,
  0x7a, 0xc1, 0xff, 0xff, 0x00, 0x00, 0x00, 0x01, 0x18, 0x00, 0x00, 0x00,
  0x28, 0x00, 0x00, 0x00, 0x44, 0x00, 0x00, 0x00, 0x29, 0x00, 0x00, 0x00,
  0x00, 0x00, 0x00, 0x09, 0xe8, 0x00, 0x00, 0x00, 0x04, 0x00, 0x00, 0x00,
  0xff, 0xff, 0xff, 0xff, 0x18, 0x00, 0x00, 0x00, 0x18, 0x00, 0x00, 0x00,
  0x30, 0x00, 0x00, 0x00, 0x64, 0xc1, 0xff, 0xff, 0x08, 0x00, 0x00, 0x00,
  0x10, 0x00, 0x00, 0x00, 0x01, 0x00, 0x00, 0x00, 0x80, 0xff, 0xff, 0xff,
  0xff, 0xff, 0xff, 0xff, 0x01, 0x00, 0x00, 0x00, 0xc1, 0xc0, 0xc0, 0x3c,
  0xa8, 0x00, 0x00, 0x00, 0x66, 0x75, 0x6e, 0x63, 0x74, 0x69, 0x6f, 0x6e,
  0x61, 0x6c, 0x5f, 0x31, 0x2f, 0x72, 0x65, 0x5f, 0x6c, 0x75, 0x5f, 0x34,
  0x5f, 0x31, 0x2f, 0x52, 0x65, 0x6c, 0x75, 0x36, 0x3b, 0x66, 0x75, 0x6e,
  0x63, 0x74, 0x69, 0x6f, 0x6e, 0x61, 0x6c, 0x5f, 0x31, 0x2f, 0x62, 0x61,
  0x74, 0x63, 0x68, 0x5f, 0x6e, 0x6f, 0x72, 0x6d, 0x61, 0x6c, 0x69, 0x7a,
  0x61, 0x74, 0x69, 0x6f, 0x6e, 0x5f, 0x36, 0x5f, 0x31, 0x2f, 0x62, 0x61,
  0x74, 0x63, 0x68, 0x6e, 0x6f, 0x72, 0x6d, 0x2f, 0x61, 0x64, 0x64, 0x5f,
  0x31, 0x3b, 0x66, 0x75, 0x6e, 0x63, 0x74, 0x69, 0x6f, 0x6e, 0x61, 0x6c,
  0x5f, 0x31, 0x2f, 0x63, 0x6f, 0x6e, 0x76, 0x32, 0x64, 0x5f, 0x34, 0x5f,
  0x31, 0x2f, 0x63, 0x6f, 0x6e, 0x76, 0x6f, 0x6c, 0x75, 0x74, 0x69, 0x6f,
  0x6e, 0x3b, 0x66, 0x75, 0x6e, 0x63, 0x74, 0x69, 0x6f, 0x6e, 0x61, 0x6c,
  0x5f, 0x31, 0x2f, 0x62, 0x61, 0x74, 0x63, 0x68, 0x5f, 0x6e, 0x6f, 0x72,
  0x6d, 0x61, 0x6c, 0x69, 0x7a, 0x61, 0x74, 0x69, 0x6f, 0x6e, 0x5f, 0x36,
  0x5f, 0x31, 0x2f, 0x62, 0x61, 0x74, 0x63, 0x68, 0x6e, 0x6f, 0x72, 0x6d,
  0x2f, 0x73, 0x75, 0x62, 0x00, 0x00, 0x00, 0x00, 0x04, 0x00, 0x00, 0x00,
  0x01, 0x00, 0x00, 0x00, 0x18, 0x00, 0x00, 0x00, 0x18, 0x00, 0x00, 0x00,
  0x30, 0x00, 0x00, 0x00, 0x92, 0xc2, 0xff, 0xff, 0x00, 0x00, 0x00, 0x01,
  0x18, 0x00, 0x00, 0x00, 0x28, 0x00, 0x00, 0x00, 0x44, 0x00, 0x00, 0x00,
  0x28, 0x00, 0x00, 0x00, 0x00, 0x00, 0x00, 0x09, 0xc8, 0x00, 0x00, 0x00,
  0x04, 0x00, 0x00, 0x00, 0xff, 0xff, 0xff, 0xff, 0x18, 0x00, 0x00, 0x00,
  0x18, 0x00, 0x00, 0x00, 0x08, 0x00, 0x00, 0x00, 0x7c, 0xc2, 0xff, 0xff,
  0x08, 0x00, 0x00, 0x00, 0x10, 0x00, 0x00, 0x00, 0x01, 0x00, 0x00, 0x00,
  0xf1, 0xff, 0xff, 0xff, 0xff, 0xff, 0xff, 0xff, 0x01, 0x00, 0x00, 0x00,
  0x91, 0x06, 0x90, 0x3d, 0x8b, 0x00, 0x00, 0x00, 0x66, 0x75, 0x6e, 0x63,
  0x74, 0x69, 0x6f, 0x6e, 0x61, 0x6c, 0x5f, 0x31, 0x2f, 0x62, 0x61, 0x74,
  0x63, 0x68, 0x5f, 0x6e, 0x6f, 0x72, 0x6d, 0x61, 0x6c, 0x69, 0x7a, 0x61,
  0x74, 0x69, 0x6f, 0x6e, 0x5f, 0x35, 0x5f, 0x31, 0x2f, 0x62, 0x61, 0x74,
  0x63, 0x68, 0x6e, 0x6f, 0x72, 0x6d, 0x2f, 0x61, 0x64, 0x64, 0x5f, 0x31,
  0x3b, 0x66, 0x75, 0x6e, 0x63, 0x74, 0x69, 0x6f, 0x6e, 0x61, 0x6c, 0x5f,
  0x31, 0x2f, 0x63, 0x6f, 0x6e, 0x76, 0x32, 0x64, 0x5f, 0x33, 0x5f, 0x31,
  0x2f, 0x63, 0x6f, 0x6e, 0x76, 0x6f, 0x6c, 0x75, 0x74, 0x69, 0x6f, 0x6e,
  0x3b, 0x66, 0x75, 0x6e, 0x63, 0x74, 0x69, 0x6f, 0x6e, 0x61, 0x6c, 0x5f,
  0x31, 0x2f, 0x62, 0x61, 0x74, 0x63, 0x68, 0x5f, 0x6e, 0x6f, 0x72, 0x6d,
  0x61, 0x6c, 0x69, 0x7a, 0x61, 0x74, 0x69, 0x6f, 0x6e, 0x5f, 0x35, 0x5f,
  0x31, 0x2f, 0x62, 0x61, 0x74, 0x63, 0x68, 0x6e, 0x6f, 0x72, 0x6d, 0x2f,
  0x73, 0x75, 0x62, 0x00, 0x04, 0x00, 0x00, 0x00, 0x01, 0x00, 0x00, 0x00,
  0x18, 0x00, 0x00, 0x00, 0x18, 0x00, 0x00, 0x00, 0x08, 0x00, 0x00, 0x00,
  0x8a, 0xc3, 0xff, 0xff, 0x00, 0x00, 0x00, 0x01, 0x18, 0x00, 0x00, 0x00,
  0x28, 0x00, 0x00, 0x00, 0x44, 0x00, 0x00, 0x00, 0x27, 0x00, 0x00, 0x00,
  0x00, 0x00, 0x00, 0x09, 0x58, 0x01, 0x00, 0x00, 0x04, 0x00, 0x00, 0x00,
  0xff, 0xff, 0xff, 0xff, 0x18, 0x00, 0x00, 0x00, 0x18, 0x00, 0x00, 0x00,
  0x1e, 0x00, 0x00, 0x00, 0x74, 0xc3, 0xff, 0xff, 0x08, 0x00, 0x00, 0x00,
  0x10, 0x00, 0x00, 0x00, 0x01, 0x00, 0x00, 0x00, 0x80, 0xff, 0xff, 0xff,
  0xff, 0xff, 0xff, 0xff, 0x01, 0x00, 0x00, 0x00, 0xc1, 0xc0, 0xc0, 0x3c,
  0x18, 0x01, 0x00, 0x00, 0x66, 0x75, 0x6e, 0x63, 0x74, 0x69, 0x6f, 0x6e,
  0x61, 0x6c, 0x5f, 0x31, 0x2f, 0x72, 0x65, 0x5f, 0x6c, 0x75, 0x5f, 0x33,
  0x5f, 0x31, 0x2f, 0x52, 0x65, 0x6c, 0x75, 0x36, 0x3b, 0x66, 0x75, 0x6e,
  0x63, 0x74, 0x69, 0x6f, 0x6e, 0x61, 0x6c, 0x5f, 0x31, 0x2f, 0x62, 0x61,
  0x74, 0x63, 0x68, 0x5f, 0x6e, 0x6f, 0x72, 0x6d, 0x61, 0x6c, 0x69, 0x7a,
  0x61, 0x74, 0x69, 0x6f, 0x6e, 0x5f, 0x34, 0x5f, 0x31, 0x2f, 0x62, 0x61,
  0x74, 0x63, 0x68, 0x6e, 0x6f, 0x72, 0x6d, 0x2f, 0x61, 0x64, 0x64, 0x5f,
  0x31, 0x3b, 0x66, 0x75, 0x6e, 0x63, 0x74, 0x69, 0x6f, 0x6e, 0x61, 0x6c,
  0x5f, 0x31, 0x2f, 0x62, 0x61, 0x74, 0x63, 0x68, 0x5f, 0x6e, 0x6f, 0x72,
  0x6d, 0x61, 0x6c, 0x69, 0x7a, 0x61, 0x74, 0x69, 0x6f, 0x6e, 0x5f, 0x34,
  0x5f, 0x31, 0x2f, 0x62, 0x61, 0x74, 0x63, 0x68, 0x6e, 0x6f, 0x72, 0x6d,
  0x2f, 0x6d, 0x75, 0x6c, 0x5f, 0x31, 0x3b, 0x66, 0x75, 0x6e, 0x63, 0x74,
  0x69, 0x6f, 0x6e, 0x61, 0x6c, 0x5f, 0x31, 0x2f, 0x64, 0x65, 0x70, 0x74,
  0x68, 0x77, 0x69, 0x73, 0x65, 0x5f, 0x63, 0x6f, 0x6e, 0x76, 0x32, 0x64,
  0x5f, 0x31, 0x5f, 0x32, 0x2f, 0x64, 0x65, 0x70, 0x74, 0x68, 0x77, 0x69,
  0x73, 0x65, 0x3b, 0x66, 0x75, 0x6e, 0x63, 0x74, 0x69, 0x6f, 0x6e, 0x61,
  0x6c, 0x5f, 0x31, 0x2f, 0x62, 0x61, 0x74, 0x63, 0x68, 0x5f, 0x6e, 0x6f,
  0x72, 0x6d, 0x61, 0x6c, 0x69, 0x7a, 0x61, 0x74, 0x69, 0x6f, 0x6e, 0x5f,
  0x34, 0x5f, 0x31, 0x2f, 0x62, 0x61, 0x74, 0x63, 0x68, 0x6e, 0x6f, 0x72,
  0x6d, 0x2f, 0x6d, 0x75, 0x6c, 0x3b, 0x66, 0x75, 0x6e, 0x63, 0x74, 0x69,
  0x6f, 0x6e, 0x61, 0x6c, 0x5f, 0x31, 0x2f, 0x62, 0x61, 0x74, 0x63, 0x68,
  0x5f, 0x6e, 0x6f, 0x72, 0x6d, 0x61, 0x6c, 0x69, 0x7a, 0x61, 0x74, 0x69,
  0x6f, 0x6e, 0x5f, 0x34, 0x5f, 0x31, 0x2f, 0x62, 0x61, 0x74, 0x63, 0x68,
  0x6e, 0x6f, 0x72, 0x6d, 0x2f, 0x73, 0x75, 0x62, 0x00, 0x00, 0x00, 0x00,
  0x04, 0x00, 0x00, 0x00, 0x01, 0x00, 0x00, 0x00, 0x18, 0x00, 0x00, 0x00,
  0x18, 0x00, 0x00, 0x00, 0x1e, 0x00, 0x00, 0x00, 0x12, 0xc5, 0xff, 0xff,
  0x00, 0x00, 0x00, 0x01, 0x18, 0x00, 0x00, 0x00, 0x28, 0x00, 0x00, 0x00,
  0x44, 0x00, 0x00, 0x00, 0x26, 0x00, 0x00, 0x00, 0x00, 0x00, 0x00, 0x09,
  0xe8, 0x00, 0x00, 0x00, 0x04, 0x00, 0x00, 0x00, 0xff, 0xff, 0xff, 0xff,
  0x30, 0x00, 0x00, 0x00, 0x30, 0x00, 0x00, 0x00, 0x1e, 0x00, 0x00, 0x00,
  0xfc, 0xc4, 0xff, 0xff, 0x08, 0x00, 0x00, 0x00, 0x10, 0x00, 0x00, 0x00,
  0x01, 0x00, 0x00, 0x00, 0x80, 0xff, 0xff, 0xff, 0xff, 0xff, 0xff, 0xff,
  0x01, 0x00, 0x00, 0x00, 0xc1, 0xc0, 0xc0, 0x3c, 0xa8, 0x00, 0x00, 0x00,
  0x66, 0x75, 0x6e, 0x63, 0x74, 0x69, 0x6f, 0x6e, 0x61, 0x6c, 0x5f, 0x31,
  0x2f, 0x72, 0x65, 0x5f, 0x6c, 0x75, 0x5f, 0x32, 0x5f, 0x31, 0x2f, 0x52,
  0x65, 0x6c, 0x75, 0x36, 0x3b, 0x66, 0x75, 0x6e, 0x63, 0x74, 0x69, 0x6f,
  0x6e, 0x61, 0x6c, 0x5f, 0x31, 0x2f, 0x62, 0x61, 0x74, 0x63, 0x68, 0x5f,
  0x6e, 0x6f, 0x72, 0x6d, 0x61, 0x6c, 0x69, 0x7a, 0x61, 0x74, 0x69, 0x6f,
  0x6e, 0x5f, 0x33, 0x5f, 0x31, 0x2f, 0x62, 0x61, 0x74, 0x63, 0x68, 0x6e,
  0x6f, 0x72, 0x6d, 0x2f, 0x61, 0x64, 0x64, 0x5f, 0x31, 0x3b, 0x66, 0x75,
  0x6e, 0x63, 0x74, 0x69, 0x6f, 0x6e, 0x61, 0x6c, 0x5f, 0x31, 0x2f, 0x63,
  0x6f, 0x6e, 0x76, 0x32, 0x64, 0x5f, 0x32, 0x5f, 0x31, 0x2f, 0x63, 0x6f,
  0x6e, 0x76, 0x6f, 0x6c, 0x75, 0x74, 0x69, 0x6f, 0x6e, 0x3b, 0x66, 0x75,
  0x6e, 0x63, 0x74, 0x69, 0x6f, 0x6e, 0x61, 0x6c, 0x5f, 0x31, 0x2f, 0x62,
  0x61, 0x74, 0x63, 0x68, 0x5f, 0x6e, 0x6f, 0x72, 0x6d, 0x61, 0x6c, 0x69,
  0x7a, 0x61, 0x74, 0x69, 0x6f, 0x6e, 0x5f, 0x33, 0x5f, 0x31, 0x2f, 0x62,
  0x61, 0x74, 0x63, 0x68, 0x6e, 0x6f, 0x72, 0x6d, 0x2f, 0x73, 0x75, 0x62,
  0x00, 0x00, 0x00, 0x00, 0x04, 0x00, 0x00, 0x00, 0x01, 0x00, 0x00, 0x00,
  0x30, 0x00, 0x00, 0x00, 0x30, 0x00, 0x00, 0x00, 0x1e, 0x00, 0x00, 0x00,
  0x2a, 0xc6, 0xff, 0xff, 0x00, 0x00, 0x00, 0x01, 0x18, 0x00, 0x00, 0x00,
  0x28, 0x00, 0x00, 0x00, 0x44, 0x00, 0x00, 0x00, 0x25, 0x00, 0x00, 0x00,
  0x00, 0x00, 0x00, 0x09, 0xc8, 0x00, 0x00, 0x00, 0x04, 0x00, 0x00, 0x00,
  0xff, 0xff, 0xff, 0xff, 0x30, 0x00, 0x00, 0x00, 0x30, 0x00, 0x00, 0x00,
  0x05, 0x00, 0x00, 0x00, 0x14, 0xc6, 0xff, 0xff, 0x08, 0x00, 0x00, 0x00,
  0x10, 0x00, 0x00, 0x00, 0x01, 0x00, 0x00, 0x00, 0xf2, 0xff, 0xff, 0xff,
  0xff, 0xff, 0xff, 0xff, 0x01, 0x00, 0x00, 0x00, 0xda, 0x97, 0x99, 0x3d,
  0x8b, 0x00, 0x00, 0x00, 0x66, 0x75, 0x6e, 0x63, 0x74, 0x69, 0x6f, 0x6e,
  0x61, 0x6c, 0x5f, 0x31, 0x2f, 0x62, 0x61, 0x74, 0x63, 0x68, 0x5f, 0x6e,
  0x6f, 0x72, 0x6d, 0x61, 0x6c, 0x69, 0x7a, 0x61, 0x74, 0x69, 0x6f, 0x6e,
  0x5f, 0x32, 0x5f, 0x31, 0x2f, 0x62, 0x61, 0x74, 0x63, 0x68, 0x6e, 0x6f,
  0x72, 0x6d, 0x2f, 0x61, 0x64, 0x64, 0x5f, 0x31, 0x3b, 0x66, 0x75, 0x6e,
  0x63, 0x74, 0x69, 0x6f, 0x6e, 0x61, 0x6c, 0x5f, 0x31, 0x2f, 0x63, 0x6f,
  0x6e, 0x76, 0x32, 0x64, 0x5f, 0x31, 0x5f, 0x32, 0x2f, 0x63, 0x6f, 0x6e,
  0x76, 0x6f, 0x6c, 0x75, 0x74, 0x69, 0x6f, 0x6e, 0x3b, 0x66, 0x75, 0x6e,
  0x63, 0x74, 0x69, 0x6f, 0x6e, 0x61, 0x6c, 0x5f, 0x31, 0x2f, 0x62, 0x61,
  0x74, 0x63, 0x68, 0x5f, 0x6e, 0x6f, 0x72, 0x6d, 0x61, 0x6c, 0x69, 0x7a,
  0x61, 0x74, 0x69, 0x6f, 0x6e, 0x5f, 0x32, 0x5f, 0x31, 0x2f, 0x62, 0x61,
  0x74, 0x63, 0x68, 0x6e, 0x6f, 0x72, 0x6d, 0x2f, 0x73, 0x75, 0x62, 0x00,
  0x04, 0x00, 0x00, 0x00, 0x01, 0x00, 0x00, 0x00, 0x30, 0x00, 0x00, 0x00,
  0x30, 0x00, 0x00, 0x00, 0x05, 0x00, 0x00, 0x00, 0x22, 0xc7, 0xff, 0xff,
  0x00, 0x00, 0x00, 0x01, 0x18, 0x00, 0x00, 0x00, 0x28, 0x00, 0x00, 0x00,
  0x48, 0x00, 0x00, 0x00, 0x24, 0x00, 0x00, 0x00, 0x00, 0x00, 0x00, 0x09,
  0x58, 0x01, 0x00, 0x00, 0x04, 0x00, 0x00, 0x00, 0xff, 0xff, 0xff, 0xff,
  0x30, 0x00, 0x00, 0x00, 0x30, 0x00, 0x00, 0x00, 0x0b, 0x00, 0x00, 0x00,
  0x0c, 0xc7, 0xff, 0xff, 0x08, 0x00, 0x00, 0x00, 0x14, 0x00, 0x00, 0x00,
  0x01, 0x00, 0x00, 0x00, 0x80, 0xff, 0xff, 0xff, 0xff, 0xff, 0xff, 0xff,
  0x00, 0x00, 0x00, 0x00, 0x01, 0x00, 0x00, 0x00, 0xc1, 0xc0, 0xc0, 0x3c,
  0x16, 0x01, 0x00, 0x00, 0x66, 0x75, 0x6e, 0x63, 0x74, 0x69, 0x6f, 0x6e,
  0x61, 0x6c, 0x5f, 0x31, 0x2f, 0x72, 0x65, 0x5f, 0x6c, 0x75, 0x5f, 0x31,
  0x5f, 0x32, 0x2f, 0x52, 0x65, 0x6c, 0x75, 0x36, 0x3b, 0x66, 0x75, 0x6e,
  0x63, 0x74, 0x69, 0x6f, 0x6e, 0x61, 0x6c, 0x5f, 0x31, 0x2f, 0x62, 0x61,
  0x74, 0x63, 0x68, 0x5f, 0x6e, 0x6f, 0x72, 0x6d, 0x61, 0x6c, 0x69, 0x7a,
  0x61, 0x74, 0x69, 0x6f, 0x6e, 0x5f, 0x31, 0x5f, 0x32, 0x2f, 0x62, 0x61,
  0x74, 0x63, 0x68, 0x6e, 0x6f, 0x72, 0x6d, 0x2f, 0x61, 0x64, 0x64, 0x5f,
  0x31, 0x3b, 0x66, 0x75, 0x6e, 0x63, 0x74, 0x69, 0x6f, 0x6e, 0x61, 0x6c,
  0x5f, 0x31, 0x2f, 0x62, 0x61, 0x74, 0x63, 0x68, 0x5f, 0x6e, 0x6f, 0x72,
  0x6d, 0x61, 0x6c, 0x69, 0x7a, 0x61, 0x74, 0x69, 0x6f, 0x6e, 0x5f, 0x31,
  0x5f, 0x32, 0x2f, 0x62, 0x61, 0x74, 0x63, 0x68, 0x6e, 0x6f, 0x72, 0x6d,
  0x2f, 0x6d, 0x75, 0x6c, 0x5f, 0x31, 0x3b, 0x66, 0x75, 0x6e, 0x63, 0x74,
  0x69, 0x6f, 0x6e, 0x61, 0x6c, 0x5f, 0x31, 0x2f, 0x64, 0x65, 0x70, 0x74,
  0x68, 0x77, 0x69, 0x73, 0x65, 0x5f, 0x63, 0x6f, 0x6e, 0x76, 0x32, 0x64,
  0x5f, 0x31, 0x2f, 0x64, 0x65, 0x70, 0x74, 0x68, 0x77, 0x69, 0x73, 0x65,
  0x3b, 0x66, 0x75, 0x6e, 0x63, 0x74, 0x69, 0x6f, 0x6e, 0x61, 0x6c, 0x5f,
  0x31, 0x2f, 0x62, 0x61, 0x74, 0x63, 0x68, 0x5f, 0x6e, 0x6f, 0x72, 0x6d,
  0x61, 0x6c, 0x69, 0x7a, 0x61, 0x74, 0x69, 0x6f, 0x6e, 0x5f, 0x31, 0x5f,
  0x32, 0x2f, 0x62, 0x61, 0x74, 0x63, 0x68, 0x6e, 0x6f, 0x72, 0x6d, 0x2f,
  0x6d, 0x75, 0x6c, 0x3b, 0x66, 0x75, 0x6e, 0x63, 0x74, 0x69, 0x6f, 0x6e,
  0x61, 0x6c, 0x5f, 0x31, 0x2f, 0x62, 0x61, 0x74, 0x63, 0x68, 0x5f, 0x6e,
  0x6f, 0x72, 0x6d, 0x61, 0x6c, 0x69, 0x7a, 0x61, 0x74, 0x69, 0x6f, 0x6e,
  0x5f, 0x31, 0x5f, 0x32, 0x2f, 0x62, 0x61, 0x74, 0x63, 0x68, 0x6e, 0x6f,
  0x72, 0x6d, 0x2f, 0x73, 0x75, 0x62, 0x00, 0x00, 0x04, 0x00, 0x00, 0x00,
  0x01, 0x00, 0x00, 0x00, 0x30, 0x00, 0x00, 0x00, 0x30, 0x00, 0x00, 0x00,
  0x0b, 0x00, 0x00, 0x00, 0xaa, 0xc8, 0xff, 0xff, 0x00, 0x00, 0x00, 0x01,
  0x18, 0x00, 0x00, 0x00, 0x28, 0x00, 0x00, 0x00, 0x44, 0x00, 0x00, 0x00,
  0x23, 0x00, 0x00, 0x00, 0x00, 0x00, 0x00, 0x09, 0xe0, 0x00, 0x00, 0x00,
  0x04, 0x00, 0x00, 0x00, 0xff, 0xff, 0xff, 0xff, 0x30, 0x00, 0x00, 0x00,
  0x30, 0x00, 0x00, 0x00, 0x0b, 0x00, 0x00, 0x00, 0x94, 0xc8, 0xff, 0xff,
  0x08, 0x00, 0x00, 0x00, 0x10, 0x00, 0x00, 0x00, 0x01, 0x00, 0x00, 0x00,
  0x80, 0xff, 0xff, 0xff, 0xff, 0xff, 0xff, 0xff, 0x01, 0x00, 0x00, 0x00,
  0xd8, 0x64, 0xbf, 0x3c, 0xa1, 0x00, 0x00, 0x00, 0x66, 0x75, 0x6e, 0x63,
  0x74, 0x69, 0x6f, 0x6e, 0x61, 0x6c, 0x5f, 0x31, 0x2f, 0x72, 0x65, 0x5f,
  0x6c, 0x75, 0x5f, 0x31, 0x2f, 0x52, 0x65, 0x6c, 0x75, 0x36, 0x3b, 0x66,
  0x75, 0x6e, 0x63, 0x74, 0x69, 0x6f, 0x6e, 0x61, 0x6c, 0x5f, 0x31, 0x2f,
  0x62, 0x61, 0x74, 0x63, 0x68, 0x5f, 0x6e, 0x6f, 0x72, 0x6d, 0x61, 0x6c,
  0x69, 0x7a, 0x61, 0x74, 0x69, 0x6f, 0x6e, 0x5f, 0x31, 0x2f, 0x62, 0x61,
  0x74, 0x63, 0x68, 0x6e, 0x6f, 0x72, 0x6d, 0x2f, 0x61, 0x64, 0x64, 0x5f,
  0x31, 0x3b, 0x66, 0x75, 0x6e, 0x63, 0x74, 0x69, 0x6f, 0x6e, 0x61, 0x6c,
  0x5f, 0x31, 0x2f, 0x63, 0x6f, 0x6e, 0x76, 0x32, 0x64, 0x5f, 0x31, 0x2f,
  0x63, 0x6f, 0x6e, 0x76, 0x6f, 0x6c, 0x75, 0x74, 0x69, 0x6f, 0x6e, 0x3b,
  0x66, 0x75, 0x6e, 0x63, 0x74, 0x69, 0x6f, 0x6e, 0x61, 0x6c, 0x5f, 0x31,
  0x2f, 0x62, 0x61, 0x74, 0x63, 0x68, 0x5f, 0x6e, 0x6f, 0x72, 0x6d, 0x61,
  0x6c, 0x69, 0x7a, 0x61, 0x74, 0x69, 0x6f, 0x6e, 0x5f, 0x31, 0x2f, 0x62,
  0x61, 0x74, 0x63, 0x68, 0x6e, 0x6f, 0x72, 0x6d, 0x2f, 0x73, 0x75, 0x62,
  0x31, 0x00, 0x00, 0x00, 0x04, 0x00, 0x00, 0x00, 0x01, 0x00, 0x00, 0x00,
  0x30, 0x00, 0x00, 0x00, 0x30, 0x00, 0x00, 0x00, 0x0b, 0x00, 0x00, 0x00,
  0x12, 0xca, 0xff, 0xff, 0x00, 0x00, 0x00, 0x01, 0x14, 0x00, 0x00, 0x00,
  0xa8, 0x00, 0x00, 0x00, 0x22, 0x00, 0x00, 0x00, 0x00, 0x00, 0x00, 0x09,
  0xb4, 0x00, 0x00, 0x00, 0x8c, 0xc9, 0xff, 0xff, 0x08, 0x00, 0x00, 0x00,
  0x60, 0x00, 0x00, 0x00, 0x0b, 0x00, 0x00, 0x00, 0x00, 0x00, 0x00, 0x00,
  0x00, 0x00, 0x00, 0x00, 0x00, 0x00, 0x00, 0x00, 0x00, 0x00, 0x00, 0x00,
  0x00, 0x00, 0x00, 0x00, 0x00, 0x00, 0x00, 0x00, 0x00, 0x00, 0x00, 0x00,
  0x00, 0x00, 0x00, 0x00, 0x00, 0x00, 0x00, 0x00, 0x00, 0x00, 0x00, 0x00,
  0x00, 0x00, 0x00, 0x00, 0x00, 0x00, 0x00, 0x00, 0x00, 0x00, 0x00, 0x00,
  0x00, 0x00, 0x00, 0x00, 0x00, 0x00, 0x00, 0x00, 0x00, 0x00, 0x00, 0x00,
  0x00, 0x00, 0x00, 0x00, 0x00, 0x00, 0x00, 0x00, 0x00, 0x00, 0x00, 0x00,
  0x00, 0x00, 0x00, 0x00, 0x00, 0x00, 0x00, 0x00, 0x00, 0x00, 0x00, 0x00,
  0x0b, 0x00, 0x00, 0x00, 0x5f, 0x09, 0x60, 0x3c, 0xf1, 0xe4, 0x09, 0x3d,
  0xbe, 0x7c, 0x8b, 0x3c, 0xb5, 0x05, 0xaa, 0x3c, 0x86, 0x88, 0x92, 0x3c,
  0x1f, 0xa1, 0xfe, 0x3c, 0xb6, 0x63, 0x8b, 0x3c, 0x93, 0x6f, 0x16, 0x3c,
  0x5e, 0x1b, 0x7a, 0x3c, 0xd2, 0x5e, 0xc2, 0x3c, 0x1b, 0x4d, 0x71, 0x3c,
  0x13, 0x00, 0x00, 0x00, 0x74, 0x66, 0x6c, 0x2e, 0x70, 0x73, 0x65, 0x75,
  0x64, 0x6f, 0x5f, 0x71, 0x63, 0x6f, 0x6e, 0x73, 0x74, 0x33, 0x31, 0x00,
  0x04, 0x00, 0x00, 0x00, 0x0b, 0x00, 0x00, 0x00, 0x03, 0x00, 0x00, 0x00,
  0x03, 0x00, 0x00, 0x00, 0x01, 0x00, 0x00, 0x00, 0xf2, 0xca, 0xff, 0xff,
  0x00, 0x00, 0x00, 0x01, 0x14, 0x00, 0x00, 0x00, 0xa8, 0x00, 0x00, 0x00,
  0x21, 0x00, 0x00, 0x00, 0x00, 0x00, 0x00, 0x02, 0xb4, 0x00, 0x00, 0x00,
  0x6c, 0xca, 0xff, 0xff, 0x08, 0x00, 0x00, 0x00, 0x60, 0x00, 0x00, 0x00,
  0x0b, 0x00, 0x00, 0x00, 0x00, 0x00, 0x00, 0x00, 0x00, 0x00, 0x00, 0x00,
  0x00, 0x00, 0x00, 0x00, 0x00, 0x00, 0x00, 0x00, 0x00, 0x00, 0x00, 0x00,
  0x00, 0x00, 0x00, 0x00, 0x00, 0x00, 0x00, 0x00, 0x00, 0x00, 0x00, 0x00,
  0x00, 0x00, 0x00, 0x00, 0x00, 0x00, 0x00, 0x00, 0x00, 0x00, 0x00, 0x00,
  0x00, 0x00, 0x00, 0x00, 0x00, 0x00, 0x00, 0x00, 0x00, 0x00, 0x00, 0x00,
  0x00, 0x00, 0x00, 0x00, 0x00, 0x00, 0x00, 0x00, 0x00, 0x00, 0x00, 0x00,
  0x00, 0x00, 0x00, 0x00, 0x00, 0x00, 0x00, 0x00, 0x00, 0x00, 0x00, 0x00,
  0x00, 0x00, 0x00, 0x00, 0x00, 0x00, 0x00, 0x00, 0x0b, 0x00, 0x00, 0x00,
  0x4a, 0xea, 0x60, 0x38, 0x61, 0x6f, 0x0a, 0x39, 0xc7, 0x08, 0x8c, 0x38,
  0x66, 0xb0, 0xaa, 0x38, 0xa2, 0x1b, 0x93, 0x38, 0xc1, 0xa0, 0xff, 0x38,
  0xa6, 0xef, 0x8b, 0x38, 0x9a, 0x06, 0x17, 0x38, 0x75, 0x16, 0x7b, 0x38,
  0xf5, 0x21, 0xc3, 0x38, 0x5b, 0x3f, 0x72, 0x38, 0x13, 0x00, 0x00, 0x00,
  0x74, 0x66, 0x6c, 0x2e, 0x70, 0x73, 0x65, 0x75, 0x64, 0x6f, 0x5f, 0x71,
  0x63, 0x6f, 0x6e, 0x73, 0x74, 0x33, 0x30, 0x00, 0x01, 0x00, 0x00, 0x00,
  0x0b, 0x00, 0x00, 0x00, 0xc6, 0xcb, 0xff, 0xff, 0x00, 0x00, 0x00, 0x01,
  0x14, 0x00, 0x00, 0x00, 0xac, 0x00, 0x00, 0x00, 0x20, 0x00, 0x00, 0x00,
  0x00, 0x00, 0x00, 0x09, 0xb8, 0x00, 0x00, 0x00, 0xb2, 0xd5, 0xff, 0xff,
  0x03, 0x00, 0x00, 0x00, 0x08, 0x00, 0x00, 0x00, 0x60, 0x00, 0x00, 0x00,
  0x0b, 0x00, 0x00, 0x00, 0x00, 0x00, 0x00, 0x00, 0x00, 0x00, 0x00, 0x00,
  0x00, 0x00, 0x00, 0x00, 0x00, 0x00, 0x00, 0x00, 0x00, 0x00, 0x00, 0x00,
  0x00, 0x00, 0x00, 0x00, 0x00, 0x00, 0x00, 0x00, 0x00, 0x00, 0x00, 0x00,
  0x00, 0x00, 0x00, 0x00, 0x00, 0x00, 0x00, 0x00, 0x00, 0x00, 0x00, 0x00,
  0x00, 0x00, 0x00, 0x00, 0x00, 0x00, 0x00, 0x00, 0x00, 0x00, 0x00, 0x00,
  0x00, 0x00, 0x00, 0x00, 0x00, 0x00, 0x00, 0x00, 0x00, 0x00, 0x00, 0x00,
  0x00, 0x00, 0x00, 0x00, 0x00, 0x00, 0x00, 0x00, 0x00, 0x00, 0x00, 0x00,
  0x00, 0x00, 0x00, 0x00, 0x00, 0x00, 0x00, 0x00, 0x0b, 0x00, 0x00, 0x00,
  0xbd, 0x2d, 0xf0, 0x3b, 0xc9, 0xb2, 0x7d, 0x3c, 0x38, 0x07, 0x1e, 0x3c,
  0x8d, 0x51, 0xd8, 0x3b, 0x6d, 0x05, 0xea, 0x3b, 0x1e, 0x11, 0x0b, 0x3c,
  0x94, 0x3b, 0x2c, 0x3c, 0xca, 0x0f, 0x04, 0x3c, 0xf3, 0x74, 0x47, 0x3c,
  0x51, 0xd5, 0x5d, 0x3c, 0xdd, 0x52, 0x74, 0x3b, 0x13, 0x00, 0x00, 0x00,
  0x74, 0x66, 0x6c, 0x2e, 0x70, 0x73, 0x65, 0x75, 0x64, 0x6f, 0x5f, 0x71,
  0x63, 0x6f, 0x6e, 0x73, 0x74, 0x32, 0x39, 0x00, 0x04, 0x00, 0x00, 0x00,
  0x01, 0x00, 0x00, 0x00, 0x03, 0x00, 0x00, 0x00, 0x03, 0x00, 0x00, 0x00,
  0x0b, 0x00, 0x00, 0x00, 0xaa, 0xcc, 0xff, 0xff, 0x00, 0x00, 0x00, 0x01,
  0x14, 0x00, 0x00, 0x00, 0xac, 0x00, 0x00, 0x00, 0x1f, 0x00, 0x00, 0x00,
  0x00, 0x00, 0x00, 0x02, 0xb8, 0x00, 0x00, 0x00, 0x24, 0xcc, 0xff, 0xff,
  0x08, 0x00, 0x00, 0x00, 0x64, 0x00, 0x00, 0x00, 0x0b, 0x00, 0x00, 0x00,
  0x00, 0x00, 0x00, 0x00, 0x00, 0x00, 0x00, 0x00, 0x00, 0x00, 0x00, 0x00,
  0x00, 0x00, 0x00, 0x00, 0x00, 0x00, 0x00, 0x00, 0x00, 0x00, 0x00, 0x00,
  0x00, 0x00, 0x00, 0x00, 0x00, 0x00, 0x00, 0x00, 0x00, 0x00, 0x00, 0x00,
  0x00, 0x00, 0x00, 0x00, 0x00, 0x00, 0x00, 0x00, 0x00, 0x00, 0x00, 0x00,
  0x00, 0x00, 0x00, 0x00, 0x00, 0x00, 0x00, 0x00, 0x00, 0x00, 0x00, 0x00,
  0x00, 0x00, 0x00, 0x00, 0x00, 0x00, 0x00, 0x00, 0x00, 0x00, 0x00, 0x00,
  0x00, 0x00, 0x00, 0x00, 0x00, 0x00, 0x00, 0x00, 0x00, 0x00, 0x00, 0x00,
  0x00, 0x00, 0x00, 0x00, 0x00, 0x00, 0x00, 0x00, 0x0b, 0x00, 0x00, 0x00,
  0xbd, 0x90, 0x33, 0x39, 0x54, 0xac, 0xbd, 0x39, 0x46, 0x4b, 0x6c, 0x39,
  0x0f, 0xba, 0x21, 0x39, 0x3c, 0xf6, 0x2e, 0x39, 0x1b, 0xf1, 0x4f, 0x39,
  0x4c, 0xc4, 0x80, 0x39, 0x9b, 0x77, 0x45, 0x39, 0xd3, 0x1e, 0x95, 0x39,
  0x8a, 0xd9, 0xa5, 0x39, 0x11, 0xaa, 0xb6, 0x38, 0x13, 0x00, 0x00, 0x00,
  0x74, 0x66, 0x6c, 0x2e, 0x70, 0x73, 0x65, 0x75, 0x64, 0x6f, 0x5f, 0x71,
  0x63, 0x6f, 0x6e, 0x73, 0x74, 0x32, 0x38, 0x00, 0x01, 0x00, 0x00, 0x00,
  0x0b, 0x00, 0x00, 0x00, 0x82, 0xcd, 0xff, 0xff, 0x00, 0x00, 0x00, 0x01,
  0x14, 0x00, 0x00, 0x00, 0x60, 0x00, 0x00, 0x00, 0x1e, 0x00, 0x00, 0x00,
  0x00, 0x00, 0x00, 0x09, 0x6c, 0x00, 0x00, 0x00, 0xfc, 0xcc, 0xff, 0xff,
  0x08, 0x00, 0x00, 0x00, 0x30, 0x00, 0x00, 0x00, 0x05, 0x00, 0x00, 0x00,
  0x00, 0x00, 0x00, 0x00, 0x00, 0x00, 0x00, 0x00, 0x00, 0x00, 0x00, 0x00,
  0x00, 0x00, 0x00, 0x00, 0x00, 0x00, 0x00, 0x00, 0x00, 0x00, 0x00, 0x00,
  0x00, 0x00, 0x00, 0x00, 0x00, 0x00, 0x00, 0x00, 0x00, 0x00, 0x00, 0x00,
  0x00, 0x00, 0x00, 0x00, 0x05, 0x00, 0x00, 0x00, 0x0c, 0x29, 0xff, 0x3b,
  0xc4, 0x81, 0x04, 0x3c, 0xae, 0x40, 0xbb, 0x3b, 0xa1, 0x2d, 0xf3, 0x3b,
