
#ifndef E1_SQUEEZENET_TINY_INT8_H
#define E1_SQUEEZENET_TINY_INT8_H

#include <cstdint>

alignas(16) const unsigned char E1_SqueezeNet_Tiny_INT8[] = {
  0x1c, 0x00, 0x00, 0x00, 0x54, 0x46, 0x4c, 0x33, 0x14, 0x00, 0x20, 0x00,
  0x1c, 0x00, 0x18, 0x00, 0x14, 0x00, 0x10, 0x00, 0x0c, 0x00, 0x00, 0x00,
  0x08, 0x00, 0x04, 0x00, 0x14, 0x00, 0x00, 0x00, 0x1c, 0x00, 0x00, 0x00,
  0x98, 0x00, 0x00, 0x00, 0x18, 0x01, 0x00, 0x00, 0x18, 0x1f, 0x00, 0x00,
  0x28, 0x1f, 0x00, 0x00, 0xf8, 0x66, 0x00, 0x00, 0x03, 0x00, 0x00, 0x00,
  0x01, 0x00, 0x00, 0x00, 0x10, 0x00, 0x00, 0x00, 0x00, 0x00, 0x0a, 0x00,
  0x10, 0x00, 0x0c, 0x00, 0x08, 0x00, 0x04, 0x00, 0x0a, 0x00, 0x00, 0x00,
  0x0c, 0x00, 0x00, 0x00, 0x1c, 0x00, 0x00, 0x00, 0x3c, 0x00, 0x00, 0x00,
  0x0f, 0x00, 0x00, 0x00, 0x73, 0x65, 0x72, 0x76, 0x69, 0x6e, 0x67, 0x5f,
  0x64, 0x65, 0x66, 0x61, 0x75, 0x6c, 0x74, 0x00, 0x01, 0x00, 0x00, 0x00,
  0x04, 0x00, 0x00, 0x00, 0x68, 0xff, 0xff, 0xff, 0x3f, 0x00, 0x00, 0x00,
  0x04, 0x00, 0x00, 0x00, 0x08, 0x00, 0x00, 0x00, 0x6f, 0x75, 0x74, 0x70,
  0x75, 0x74, 0x5f, 0x30, 0x00, 0x00, 0x00, 0x00, 0x01, 0x00, 0x00, 0x00,
  0x04, 0x00, 0x00, 0x00, 0x3a, 0xdc, 0xff, 0xff, 0x04, 0x00, 0x00, 0x00,
  0x0c, 0x00, 0x00, 0x00, 0x6b, 0x65, 0x72, 0x61, 0x73, 0x5f, 0x74, 0x65,
  0x6e, 0x73, 0x6f, 0x72, 0x00, 0x00, 0x00, 0x00, 0x03, 0x00, 0x00, 0x00,
  0x5c, 0x00, 0x00, 0x00, 0x2c, 0x00, 0x00, 0x00, 0x04, 0x00, 0x00, 0x00,
  0xb8, 0xff, 0xff, 0xff, 0x43, 0x00, 0x00, 0x00, 0x04, 0x00, 0x00, 0x00,
  0x13, 0x00, 0x00, 0x00, 0x43, 0x4f, 0x4e, 0x56, 0x45, 0x52, 0x53, 0x49,
  0x4f, 0x4e, 0x5f, 0x4d, 0x45, 0x54, 0x41, 0x44, 0x41, 0x54, 0x41, 0x00,
  0xdc, 0xff, 0xff, 0xff, 0x42, 0x00, 0x00, 0x00, 0x04, 0x00, 0x00, 0x00,
  0x13, 0x00, 0x00, 0x00, 0x6d, 0x69, 0x6e, 0x5f, 0x72, 0x75, 0x6e, 0x74,
  0x69, 0x6d, 0x65, 0x5f, 0x76, 0x65, 0x72, 0x73, 0x69, 0x6f, 0x6e, 0x00,
  0x08, 0x00, 0x0c, 0x00, 0x08, 0x00, 0x04, 0x00, 0x08, 0x00, 0x00, 0x00,
  0x41, 0x00, 0x00, 0x00, 0x04, 0x00, 0x00, 0x00, 0x13, 0x00, 0x00, 0x00,
  0x6d, 0x69, 0x6e, 0x5f, 0x72, 0x75, 0x6e, 0x74, 0x69, 0x6d, 0x65, 0x5f,
  0x76, 0x65, 0x72, 0x73, 0x69, 0x6f, 0x6e, 0x00, 0x44, 0x00, 0x00, 0x00,
  0xfc, 0x1d, 0x00, 0x00, 0xf4, 0x1d, 0x00, 0x00, 0xdc, 0x1d, 0x00, 0x00,
  0xb4, 0x1d, 0x00, 0x00, 0x24, 0x1c, 0x00, 0x00, 0x94, 0x1b, 0x00, 0x00,
  0x84, 0x19, 0x00, 0x00, 0x34, 0x19, 0x00, 0x00, 0x94, 0x18, 0x00, 0x00,
  0x04, 0x18, 0x00, 0x00, 0xf4, 0x15, 0x00, 0x00, 0xa4, 0x15, 0x00, 0x00,
  0x94, 0x11, 0x00, 0x00, 0x04, 0x11, 0x00, 0x00, 0xf4, 0x0e, 0x00, 0x00,
  0xa4, 0x0e, 0x00, 0x00, 0x04, 0x0e, 0x00, 0x00, 0x74, 0x0d, 0x00, 0x00,
  0x64, 0x0b, 0x00, 0x00, 0x14, 0x0b, 0x00, 0x00, 0x04, 0x09, 0x00, 0x00,
  0xb4, 0x08, 0x00, 0x00, 0x24, 0x08, 0x00, 0x00, 0xf4, 0x07, 0x00, 0x00,
  0x9c, 0x07, 0x00, 0x00, 0x4c, 0x07, 0x00, 0x00, 0xbc, 0x06, 0x00, 0x00,
  0x8c, 0x06, 0x00, 0x00, 0x7c, 0x05, 0x00, 0x00, 0x2c, 0x05, 0x00, 0x00,
  0x9c, 0x04, 0x00, 0x00, 0x6c, 0x04, 0x00, 0x00, 0x14, 0x04, 0x00, 0x00,
  0xc4, 0x03, 0x00, 0x00, 0x34, 0x03, 0x00, 0x00, 0x04, 0x03, 0x00, 0x00,
  0x74, 0x02, 0x00, 0x00, 0x24, 0x02, 0x00, 0x00, 0x84, 0x01, 0x00, 0x00,
  0x7c, 0x01, 0x00, 0x00, 0x74, 0x01, 0x00, 0x00, 0x6c, 0x01, 0x00, 0x00,
  0x64, 0x01, 0x00, 0x00, 0x5c, 0x01, 0x00, 0x00, 0x54, 0x01, 0x00, 0x00,
  0x4c, 0x01, 0x00, 0x00, 0x44, 0x01, 0x00, 0x00, 0x3c, 0x01, 0x00, 0x00,
  0x34, 0x01, 0x00, 0x00, 0x2c, 0x01, 0x00, 0x00, 0x24, 0x01, 0x00, 0x00,
  0x1c, 0x01, 0x00, 0x00, 0x14, 0x01, 0x00, 0x00, 0x0c, 0x01, 0x00, 0x00,
  0x04, 0x01, 0x00, 0x00, 0xfc, 0x00, 0x00, 0x00, 0xf4, 0x00, 0x00, 0x00,
  0xec, 0x00, 0x00, 0x00, 0xe4, 0x00, 0x00, 0x00, 0xdc, 0x00, 0x00, 0x00,
  0xd4, 0x00, 0x00, 0x00, 0xcc, 0x00, 0x00, 0x00, 0xc4, 0x00, 0x00, 0x00,
  0xbc, 0x00, 0x00, 0x00, 0xb4, 0x00, 0x00, 0x00, 0x94, 0x00, 0x00, 0x00,
  0x74, 0x00, 0x00, 0x00, 0x04, 0x00, 0x00, 0x00, 0xee, 0xdd, 0xff, 0xff,
  0x04, 0x00, 0x00, 0x00, 0x60, 0x00, 0x00, 0x00, 0x0c, 0x00, 0x00, 0x00,
  0x08, 0x00, 0x0e, 0x00, 0x08, 0x00, 0x04, 0x00, 0x08, 0x00, 0x00, 0x00,
  0x10, 0x00, 0x00, 0x00, 0x28, 0x00, 0x00, 0x00, 0x00, 0x00, 0x06, 0x00,
  0x08, 0x00, 0x04, 0x00, 0x06, 0x00, 0x00, 0x00, 0x04, 0x00, 0x00, 0x00,
  0x01, 0x00, 0x00, 0x00, 0xeb, 0x03, 0x00, 0x00, 0x0c, 0x00, 0x18, 0x00,
  0x14, 0x00, 0x10, 0x00, 0x0c, 0x00, 0x04, 0x00, 0x0c, 0x00, 0x00, 0x00,
  0x02, 0x2a, 0xc7, 0xc5, 0xab, 0xc2, 0x56, 0xb0, 0x02, 0x00, 0x00, 0x00,
  0x02, 0x00, 0x00, 0x00, 0x04, 0x00, 0x00, 0x00, 0x06, 0x00, 0x00, 0x00,
  0x32, 0x2e, 0x31, 0x39, 0x2e, 0x30, 0x00, 0x00, 0x5a, 0xde, 0xff, 0xff,
  0x04, 0x00, 0x00, 0x00, 0x10, 0x00, 0x00, 0x00, 0x00, 0x00, 0x00, 0x00,
  0x00, 0x00, 0x00, 0x00, 0x00, 0x00, 0x00, 0x00, 0x00, 0x00, 0x00, 0x00,
  0x76, 0xde, 0xff, 0xff, 0x04, 0x00, 0x00, 0x00, 0x10, 0x00, 0x00, 0x00,
  0x31, 0x2e, 0x31, 0x34, 0x2e, 0x30, 0x00, 0x00, 0x00, 0x00, 0x00, 0x00,
  0x00, 0x00, 0x00, 0x00, 0xa4, 0x9c, 0xff, 0xff, 0xa8, 0x9c, 0xff, 0xff,
  0xac, 0x9c, 0xff, 0xff, 0xb0, 0x9c, 0xff, 0xff, 0xb4, 0x9c, 0xff, 0xff,
  0xb8, 0x9c, 0xff, 0xff, 0xbc, 0x9c, 0xff, 0xff, 0xc0, 0x9c, 0xff, 0xff,
  0xc4, 0x9c, 0xff, 0xff, 0xc8, 0x9c, 0xff, 0xff, 0xcc, 0x9c, 0xff, 0xff,
  0xd0, 0x9c, 0xff, 0xff, 0xd4, 0x9c, 0xff, 0xff, 0xd8, 0x9c, 0xff, 0xff,
  0xdc, 0x9c, 0xff, 0xff, 0xe0, 0x9c, 0xff, 0xff, 0xe4, 0x9c, 0xff, 0xff,
  0xe8, 0x9c, 0xff, 0xff, 0xec, 0x9c, 0xff, 0xff, 0xf0, 0x9c, 0xff, 0xff,
  0xf4, 0x9c, 0xff, 0xff, 0xf8, 0x9c, 0xff, 0xff, 0xfc, 0x9c, 0xff, 0xff,
  0x00, 0x9d, 0xff, 0xff, 0x04, 0x9d, 0xff, 0xff, 0x08, 0x9d, 0xff, 0xff,
  0xfa, 0xde, 0xff, 0xff, 0x04, 0x00, 0x00, 0x00, 0x90, 0x00, 0x00, 0x00,
  0x59, 0x81, 0x99, 0xa2, 0xd0, 0xb2, 0x45, 0xef, 0x17, 0x29, 0xa7, 0xed,
  0x38, 0x49, 0x7f, 0x60, 0x66, 0xa4, 0xd5, 0x00, 0xbc, 0x1b, 0xc9, 0x81,
  0xd9, 0xf1, 0x44, 0x75, 0x83, 0x91, 0xfd, 0xe7, 0xca, 0x81, 0xc9, 0xbf,
  0x94, 0x88, 0x43, 0x86, 0x64, 0xbe, 0x7f, 0x77, 0x24, 0x32, 0x71, 0x9a,
  0x87, 0x6c, 0x92, 0x6d, 0x81, 0x1d, 0x7f, 0x70, 0x2c, 0x4c, 0x2e, 0x60,
  0x0b, 0x98, 0xbd, 0x99, 0xb5, 0x25, 0x64, 0x6d, 0x5c, 0xa3, 0xc3, 0x81,
  0x09, 0x68, 0x81, 0xef, 0x67, 0x27, 0xad, 0x07, 0x07, 0x28, 0x8d, 0x0f,
  0xcb, 0xac, 0x08, 0x47, 0x81, 0x1f, 0x8f, 0xeb, 0xd0, 0x81, 0x1d, 0x05,
  0x84, 0x88, 0x6a, 0xf7, 0x17, 0xe6, 0x88, 0x94, 0x3f, 0xe9, 0x7f, 0xbe,
  0x7f, 0x0d, 0x7b, 0x44, 0x7c, 0xf5, 0x69, 0x67, 0x85, 0xf2, 0x8c, 0xd6,
  0x6f, 0x43, 0x81, 0xef, 0xae, 0x92, 0x09, 0xb1, 0x11, 0xe3, 0x1a, 0x7f,
  0xab, 0x74, 0x14, 0x42, 0x7f, 0xb6, 0x36, 0xa4, 0xd5, 0x29, 0x94, 0x60,
  0x96, 0xdf, 0xff, 0xff, 0x04, 0x00, 0x00, 0x00, 0x40, 0x00, 0x00, 0x00,
  0x2b, 0xfa, 0xff, 0xff, 0x43, 0xfd, 0xff, 0xff, 0x6c, 0xf7, 0xff, 0xff,
  0x35, 0xf7, 0xff, 0xff, 0x20, 0x06, 0x00, 0x00, 0x48, 0x01, 0x00, 0x00,
  0xf0, 0xf8, 0xff, 0xff, 0x1c, 0xfb, 0xff, 0xff, 0xa5, 0x02, 0x00, 0x00,
  0x60, 0xfe, 0xff, 0xff, 0xb6, 0xfa, 0xff, 0xff, 0x66, 0x09, 0x00, 0x00,
  0x8a, 0xf9, 0xff, 0xff, 0x7e, 0xf8, 0xff, 0xff, 0x13, 0x08, 0x00, 0x00,
  0x97, 0xf9, 0xff, 0xff, 0xe2, 0xdf, 0xff, 0xff, 0x04, 0x00, 0x00, 0x00,
  0x80, 0x00, 0x00, 0x00, 0x7c, 0x8c, 0x3d, 0x2d, 0x66, 0xc3, 0xb1, 0x0f,
  0x14, 0x99, 0x32, 0x03, 0x26, 0x7f, 0xfd, 0x3b, 0xfa, 0xca, 0x58, 0x5e,
  0x4a, 0x71, 0xbc, 0x7f, 0x26, 0xf0, 0xf4, 0xb0, 0xcd, 0xca, 0x7a, 0xb4,
  0x44, 0xb8, 0x9d, 0xf7, 0xa7, 0x01, 0x3f, 0x17, 0x0b, 0x39, 0x58, 0xa2,
  0x25, 0x8c, 0x81, 0xe9, 0x44, 0x04, 0x12, 0xae, 0x84, 0x56, 0x4c, 0xc7,
  0xc4, 0x7f, 0x6a, 0x61, 0x4b, 0xc0, 0x55, 0xb9, 0x51, 0x1c, 0x48, 0x20,
  0x97, 0x2e, 0x79, 0x48, 0x51, 0x6c, 0x51, 0x90, 0x29, 0xfc, 0xb7, 0x7f,
  0x9c, 0x25, 0x7a, 0x09, 0xa8, 0x7f, 0x0e, 0xbc, 0xbd, 0xab, 0xd1, 0x63,
  0xc5, 0x91, 0x34, 0x87, 0x37, 0x01, 0x0e, 0xbd, 0x97, 0x84, 0x5f, 0x9e,
  0x7f, 0xfe, 0xb9, 0xec, 0x1e, 0x85, 0x0b, 0x0e, 0x08, 0x86, 0x76, 0x0c,
  0xd8, 0xbe, 0x47, 0xec, 0x1b, 0x81, 0x35, 0x8b, 0xef, 0xcd, 0xb3, 0x23,
  0x6e, 0xe0, 0xff, 0xff, 0x04, 0x00, 0x00, 0x00, 0x20, 0x00, 0x00, 0x00,
  0x97, 0xf9, 0xff, 0xff, 0xca, 0xf8, 0xff, 0xff, 0xd0, 0xfd, 0xff, 0xff,
  0x13, 0xfe, 0xff, 0xff, 0x3e, 0xfd, 0xff, 0xff, 0x54, 0x00, 0x00, 0x00,
  0x4b, 0x02, 0x00, 0x00, 0x32, 0x00, 0x00, 0x00, 0x9a, 0xe0, 0xff, 0xff,
  0x04, 0x00, 0x00, 0x00, 0x80, 0x00, 0x00, 0x00, 0x5a, 0xf5, 0x81, 0x42,
  0xa2, 0x33, 0x8c, 0xd5, 0xfa, 0x11, 0x20, 0x7f, 0x94, 0x3b, 0x58, 0xa1,
  0xe2, 0xdf, 0x7f, 0x85, 0x9d, 0xce, 0x6d, 0xe0, 0xb0, 0xfa, 0x4a, 0xe1,
  0x14, 0xa1, 0xd2, 0x7f, 0xde, 0xed, 0x3e, 0xbf, 0x7f, 0x07, 0x6f, 0x2f,
  0x5b, 0x74, 0x1e, 0x1a, 0xfb, 0x45, 0x81, 0x30, 0x81, 0x94, 0xc2, 0xcf,
  0x55, 0xf7, 0xed, 0xa5, 0xef, 0xb5, 0xb4, 0x8c, 0xa6, 0x81, 0xc6, 0xcf,
  0x81, 0x91, 0x1a, 0x43, 0xc9, 0xac, 0x4c, 0x8c, 0x9d, 0x50, 0x77, 0x8d,
  0x81, 0xff, 0xf6, 0xe5, 0xcd, 0x4d, 0x91, 0x55, 0xad, 0x9a, 0x81, 0x39,
  0x2a, 0x15, 0x81, 0x0c, 0x71, 0xdd, 0xf0, 0x72, 0xcb, 0x72, 0x32, 0x7f,
  0xf9, 0xe8, 0xd1, 0x31, 0x7f, 0xb2, 0xf2, 0xf5, 0xff, 0x9f, 0xd5, 0xea,
  0x1b, 0x7f, 0xfe, 0xe4, 0x5e, 0xe9, 0x8f, 0x7d, 0xc8, 0x47, 0x4d, 0xbc,
  0x6a, 0xa3, 0x7f, 0x4f, 0x26, 0xe1, 0xff, 0xff, 0x04, 0x00, 0x00, 0x00,
  0x40, 0x00, 0x00, 0x00, 0x5b, 0xf9, 0xff, 0xff, 0x2c, 0x05, 0x00, 0x00,
  0x44, 0xfd, 0xff, 0xff, 0x86, 0xfe, 0xff, 0xff, 0xc0, 0xfc, 0xff, 0xff,
  0x2f, 0xf8, 0xff, 0xff, 0x3d, 0x00, 0x00, 0x00, 0x00, 0x00, 0x00, 0x00,
  0x03, 0x00, 0x00, 0x00, 0x9a, 0xff, 0xff, 0xff, 0xc5, 0xff, 0xff, 0xff,
  0x1b, 0xfb, 0xff, 0xff, 0xdd, 0xfd, 0xff, 0xff, 0x07, 0xfa, 0xff, 0xff,
  0x10, 0xff, 0xff, 0xff, 0x22, 0x02, 0x00, 0x00, 0x72, 0xe1, 0xff, 0xff,
  0x04, 0x00, 0x00, 0x00, 0x48, 0x00, 0x00, 0x00, 0x5e, 0x33, 0xfe, 0x31,
  0x5c, 0x3d, 0x69, 0x6d, 0xa3, 0x43, 0xb7, 0x41, 0xe1, 0xd3, 0xfb, 0x8d,
  0xb3, 0xf8, 0x67, 0xd9, 0x0d, 0xe6, 0x7f, 0x5c, 0x81, 0xe8, 0x73, 0x81,
  0x7c, 0x0c, 0x56, 0xf5, 0x92, 0x81, 0x65, 0x76, 0xa7, 0xe6, 0x7b, 0x13,
  0x1c, 0xac, 0x2d, 0x42, 0x0f, 0x7f, 0x86, 0x81, 0x48, 0xa4, 0xc4, 0x9c,
  0x7f, 0xea, 0x12, 0x17, 0x17, 0x7c, 0x7f, 0x43, 0x71, 0x59, 0x28, 0xa3,
  0xdb, 0x34, 0xd7, 0x65, 0xd3, 0x11, 0x93, 0x27, 0xc6, 0xe1, 0xff, 0xff,
  0x04, 0x00, 0x00, 0x00, 0x20, 0x00, 0x00, 0x00, 0x3d, 0xfe, 0xff, 0xff,
  0x1e, 0x04, 0x00, 0x00, 0x70, 0xfd, 0xff, 0xff, 0xd4, 0x00, 0x00, 0x00,
  0xd2, 0xfb, 0xff, 0xff, 0xfa, 0xff, 0xff, 0xff, 0x43, 0x03, 0x00, 0x00,
  0x8d, 0xf7, 0xff, 0xff, 0xf2, 0xe1, 0xff, 0xff, 0x04, 0x00, 0x00, 0x00,
  0x80, 0x00, 0x00, 0x00, 0x7f, 0x25, 0x03, 0xcf, 0x46, 0xfb, 0x2c, 0xc1,
  0xb1, 0x9e, 0x0c, 0x49, 0x3e, 0x47, 0xe8, 0x81, 0x5f, 0xe3, 0x7f, 0xe1,
  0xbb, 0x85, 0x9d, 0xae, 0x8d, 0x4a, 0xf5, 0x7e, 0x18, 0x81, 0xb7, 0x2c,
  0x38, 0xe2, 0x35, 0x1d, 0x7f, 0x1b, 0x16, 0x11, 0x81, 0x2f, 0x2f, 0x36,
  0xf7, 0x13, 0xda, 0x2a, 0xbf, 0x07, 0x91, 0x81, 0xba, 0x0c, 0xc0, 0xc5,
  0x81, 0x9a, 0x64, 0xcf, 0x93, 0x5f, 0x3f, 0xe7, 0x6e, 0xab, 0x81, 0xd5,
  0x33, 0x96, 0xb8, 0x38, 0x81, 0xef, 0xf8, 0x9d, 0x36, 0x7a, 0xac, 0xc5,
  0x49, 0xed, 0xa1, 0x81, 0xec, 0x7d, 0x50, 0xc2, 0x42, 0x02, 0x67, 0x22,
  0x2c, 0x81, 0xcf, 0x4b, 0xca, 0x08, 0x87, 0xbd, 0x91, 0xbd, 0x9a, 0x81,
  0x34, 0x7f, 0x73, 0x1c, 0x89, 0x35, 0xd2, 0x96, 0xdc, 0xf4, 0x01, 0x81,
  0x97, 0x88, 0x22, 0xb7, 0xda, 0xe6, 0x94, 0xd3, 0x81, 0x02, 0x46, 0x28,
  0x7e, 0xe2, 0xff, 0xff, 0x04, 0x00, 0x00, 0x00, 0x40, 0x00, 0x00, 0x00,
  0xd5, 0xff, 0xff, 0xff, 0xd9, 0x00, 0x00, 0x00, 0x61, 0xf9, 0xff, 0xff,
  0x71, 0x03, 0x00, 0x00, 0x9b, 0xfb, 0xff, 0xff, 0x8e, 0xfb, 0xff, 0xff,
  0x02, 0x00, 0x00, 0x00, 0x61, 0xfc, 0xff, 0xff, 0x48, 0xfd, 0xff, 0xff,
  0x02, 0x02, 0x00, 0x00, 0xb4, 0x05, 0x00, 0x00, 0xcd, 0xfd, 0xff, 0xff,
  0x93, 0x03, 0x00, 0x00, 0x82, 0xfc, 0xff, 0xff, 0xff, 0xfe, 0xff, 0xff,
  0x27, 0xf8, 0xff, 0xff, 0xca, 0xe2, 0xff, 0xff, 0x04, 0x00, 0x00, 0x00,
  0x00, 0x01, 0x00, 0x00, 0x57, 0xf7, 0x73, 0x08, 0x50, 0xdd, 0x6e, 0x6b,
  0x5a, 0x02, 0xcf, 0x11, 0xda, 0xf3, 0x6c, 0x87, 0x7f, 0xaa, 0x3c, 0x11,
  0xcf, 0x54, 0xde, 0x2d, 0x55, 0x63, 0xeb, 0x4e, 0xa4, 0x32, 0x20, 0x44,
  0xc0, 0x42, 0xf4, 0x7b, 0x66, 0xd2, 0xcc, 0x50, 0x95, 0x35, 0x1f, 0x59,
  0xe9, 0x0d, 0x7f, 0x9b, 0x86, 0x0b, 0x6c, 0x0f, 0x76, 0x45, 0x7e, 0x40,
  0x28, 0x31, 0x74, 0x0d, 0xcb, 0x6b, 0x83, 0x4f, 0xed, 0xee, 0x7e, 0x24,
  0x4e, 0x78, 0x1f, 0x4a, 0xed, 0x8e, 0x3e, 0x37, 0xfa, 0xb7, 0x96, 0x9f,
  0x81, 0xcc, 0xe2, 0x8b, 0x55, 0xa4, 0xca, 0xe3, 0x6c, 0x44, 0xa0, 0xa8,
  0xb9, 0x36, 0x24, 0xdb, 0x1a, 0x6f, 0x0a, 0x7f, 0xf3, 0x02, 0xc7, 0xd9,
  0x87, 0xe2, 0xe8, 0x9a, 0x11, 0x93, 0x60, 0x71, 0xbd, 0x4a, 0x28, 0xb9,
  0xa4, 0xb3, 0xa8, 0x35, 0x5f, 0x27, 0x79, 0x9c, 0xb6, 0x53, 0xed, 0x37,
  0x78, 0x81, 0x00, 0x4a, 0xdf, 0x1b, 0xc1, 0x61, 0xdc, 0x69, 0x61, 0x2d,
  0x70, 0x88, 0xc4, 0x3c, 0xf3, 0x0c, 0xa2, 0x94, 0xeb, 0x7f, 0xaf, 0xed,
  0xd9, 0xba, 0x72, 0x28, 0x07, 0x36, 0x26, 0xe7, 0xd8, 0x89, 0x17, 0x2d,
  0x8b, 0x2d, 0xe6, 0x7f, 0x54, 0xfc, 0x03, 0x05, 0x23, 0xa2, 0xc3, 0x16,
  0x66, 0xc7, 0x58, 0x2e, 0x2a, 0x35, 0x24, 0xc9, 0x4d, 0xab, 0x98, 0xb8,
  0xb1, 0xb6, 0x5d, 0x73, 0x7a, 0x13, 0x9e, 0xbc, 0xcd, 0x4b, 0x42, 0xae,
  0xe3, 0x5e, 0xb9, 0xbf, 0x96, 0xaa, 0xb0, 0x9d, 0x2d, 0x94, 0x81, 0x05,
  0x50, 0xd7, 0x7c, 0x26, 0x74, 0xa3, 0x13, 0x0c, 0xa3, 0x3d, 0x32, 0x86,
  0x74, 0xc5, 0x65, 0xc5, 0xef, 0x7a, 0xe5, 0x66, 0x6c, 0xba, 0x38, 0x74,
  0x0c, 0x3e, 0x67, 0x81, 0xc9, 0x33, 0x20, 0xbb, 0x76, 0x29, 0x89, 0x3b,
  0x6e, 0xc0, 0xf3, 0x88, 0x93, 0x51, 0x8b, 0xb4, 0xd6, 0xe3, 0xff, 0xff,
  0x04, 0x00, 0x00, 0x00, 0x20, 0x00, 0x00, 0x00, 0x08, 0xfc, 0xff, 0xff,
  0x04, 0xf7, 0xff, 0xff, 0xf5, 0xfa, 0xff, 0xff, 0xa8, 0xfa, 0xff, 0xff,
  0x3d, 0xf8, 0xff, 0xff, 0xad, 0xf3, 0xff, 0xff, 0x39, 0xf6, 0xff, 0xff,
  0x4d, 0xf9, 0xff, 0xff, 0x02, 0xe4, 0xff, 0xff, 0x04, 0x00, 0x00, 0x00,
  0x80, 0x00, 0x00, 0x00, 0x74, 0x10, 0x51, 0x0c, 0x7d, 0x79, 0x89, 0x7f,
  0xe3, 0xbd, 0x39, 0xca, 0x00, 0x7f, 0x53, 0xd3, 0x7f, 0x7e, 0xb3, 0xa8,
  0x17, 0x94, 0x19, 0x71, 0xab, 0x1c, 0x7f, 0x9c, 0x22, 0x32, 0x69, 0x0c,
  0x1c, 0xcf, 0xf1, 0x78, 0x5c, 0x9a, 0x08, 0x81, 0x7f, 0x0c, 0x71, 0xa4,
  0x90, 0x33, 0x6c, 0x6f, 0x7d, 0x4f, 0xfa, 0x81, 0xd1, 0x7d, 0x9b, 0x7a,
  0x6f, 0x02, 0x1f, 0xec, 0x95, 0x7f, 0x64, 0x86, 0xcd, 0x50, 0x34, 0xe9,
  0x7f, 0xfc, 0x3e, 0x53, 0xe9, 0xff, 0x7f, 0x56, 0x59, 0xd0, 0xc6, 0xbc,
  0x4c, 0x81, 0x95, 0x33, 0x89, 0xb5, 0x56, 0x1a, 0x63, 0x33, 0x92, 0xe5,
  0x81, 0xa2, 0x2d, 0x40, 0x12, 0x8d, 0xd7, 0x97, 0xfc, 0xcc, 0x7f, 0xa3,
  0xb8, 0x48, 0x07, 0x76, 0x39, 0xff, 0x06, 0x81, 0x2f, 0xd8, 0x7f, 0x0e,
  0xb2, 0x33, 0x9e, 0xb9, 0xa8, 0x89, 0x60, 0xe0, 0x83, 0x24, 0x7f, 0xee,
  0x8e, 0xe4, 0xff, 0xff, 0x04, 0x00, 0x00, 0x00, 0x40, 0x00, 0x00, 0x00,
  0x89, 0xd8, 0xff, 0xff, 0x49, 0xf0, 0xff, 0xff, 0x38, 0x28, 0x00, 0x00,
  0x26, 0xee, 0xff, 0xff, 0x84, 0xec, 0xff, 0xff, 0xf6, 0xef, 0xff, 0xff,
  0x1c, 0xfe, 0xff, 0xff, 0x5b, 0xc4, 0xff, 0xff, 0x75, 0xde, 0xff, 0xff,
  0xdb, 0xf8, 0xff, 0xff, 0x25, 0xbc, 0xff, 0xff, 0xb0, 0xd0, 0xff, 0xff,
  0xeb, 0xea, 0xff, 0xff, 0x85, 0xe9, 0xff, 0xff, 0xb4, 0xd8, 0xff, 0xff,
  0x4c, 0xeb, 0xff, 0xff, 0xda, 0xe4, 0xff, 0xff, 0x04, 0x00, 0x00, 0x00,
  0x48, 0x00, 0x00, 0x00, 0xfd, 0xf8, 0x7f, 0x69, 0x6d, 0x7f, 0xab, 0x43,
  0x14, 0x0f, 0x33, 0x5b, 0x10, 0x7d, 0x24, 0xe0, 0x1d, 0x9d, 0x75, 0x88,
  0xe2, 0x4f, 0x39, 0x8a, 0x45, 0xcf, 0xce, 0x65, 0xe1, 0x4b, 0xe6, 0xa4,
  0x08, 0x35, 0xd9, 0x7e, 0x5a, 0x18, 0x7f, 0x0b, 0xd6, 0xbc, 0x1e, 0x78,
  0xc3, 0x68, 0x6c, 0x7f, 0xa3, 0x61, 0xcf, 0xcb, 0x81, 0xd2, 0x4c, 0x7c,
  0x7f, 0xef, 0x23, 0x81, 0xd0, 0xa8, 0xe2, 0xb6, 0x2e, 0x81, 0x33, 0x25,
  0xb4, 0x2d, 0x93, 0xe9, 0x2e, 0xe5, 0xff, 0xff, 0x04, 0x00, 0x00, 0x00,
  0x20, 0x00, 0x00, 0x00, 0x07, 0x35, 0x00, 0x00, 0x72, 0x22, 0x00, 0x00,
  0x60, 0x0d, 0x00, 0x00, 0xd9, 0xb7, 0xff, 0xff, 0xe6, 0x01, 0x00, 0x00,
  0x5c, 0xfe, 0xff, 0xff, 0x05, 0xfa, 0xff, 0xff, 0x7a, 0x14, 0x00, 0x00,
  0x5a, 0xe5, 0xff, 0xff, 0x04, 0x00, 0x00, 0x00, 0x80, 0x00, 0x00, 0x00,
  0x17, 0x4f, 0x93, 0x02, 0xa4, 0xba, 0xdd, 0x7f, 0xd5, 0x1e, 0xb8, 0x7f,
  0xeb, 0xcc, 0xba, 0xb9, 0x57, 0x7f, 0xbd, 0x1a, 0x0b, 0x5c, 0x0a, 0xbb,
  0x55, 0x31, 0xa4, 0x81, 0x35, 0x6e, 0x7e, 0xdf, 0x6a, 0x58, 0x76, 0x90,
  0x29, 0x50, 0x95, 0x7f, 0xe8, 0xac, 0x81, 0x1a, 0x8a, 0x50, 0x4b, 0xd9,
  0x14, 0xae, 0x44, 0x62, 0x89, 0xd2, 0x81, 0xdd, 0x11, 0x88, 0xa3, 0xb1,
  0x81, 0x21, 0xd1, 0x50, 0x81, 0x06, 0xe3, 0xb4, 0x4d, 0xa2, 0x13, 0xf4,
  0x93, 0xed, 0x06, 0x71, 0xdd, 0x81, 0x18, 0xcc, 0xe3, 0xf9, 0x3b, 0x3c,
  0xac, 0x6a, 0x81, 0x6c, 0x6c, 0x7f, 0x22, 0xc8, 0xda, 0x1e, 0x5b, 0x60,
  0xa0, 0x81, 0x5e, 0x7a, 0x2a, 0xdc, 0x4f, 0x23, 0x1e, 0x13, 0x81, 0xd8,
  0x65, 0x35, 0x0e, 0x8b, 0xea, 0x81, 0x83, 0xb2, 0x77, 0xb9, 0xc6, 0x35,
  0xf2, 0x24, 0x81, 0xa8, 0xc0, 0x54, 0x6c, 0xe5, 0xe6, 0xe5, 0xff, 0xff,
  0x04, 0x00, 0x00, 0x00, 0x40, 0x00, 0x00, 0x00, 0xd1, 0xdc, 0xff, 0xff,
  0x5c, 0xf7, 0xff, 0xff, 0x7c, 0xcb, 0xff, 0xff, 0xd3, 0xc7, 0xff, 0xff,
  0xbe, 0x19, 0x00, 0x00, 0xe6, 0x01, 0x00, 0x00, 0x4e, 0xe8, 0xff, 0xff,
  0xd9, 0x1e, 0x00, 0x00, 0x45, 0xde, 0xff, 0xff, 0xaf, 0xe9, 0xff, 0xff,
  0xe5, 0xda, 0xff, 0xff, 0xb8, 0xb4, 0xff, 0xff, 0x8c, 0xd4, 0xff, 0xff,
  0x7a, 0xdf, 0xff, 0xff, 0x6a, 0xe9, 0xff, 0xff, 0x2d, 0xe0, 0xff, 0xff,
  0x32, 0xe6, 0xff, 0xff, 0x04, 0x00, 0x00, 0x00, 0x00, 0x02, 0x00, 0x00,
  0x81, 0x25, 0xf2, 0x1f, 0xc3, 0xed, 0x1d, 0xbd, 0x05, 0xe6, 0x79, 0x87,
  0xf1, 0x48, 0xa6, 0xc7, 0x76, 0x4d, 0x41, 0x45, 0x1e, 0xb5, 0x82, 0x8d,
  0x42, 0xb2, 0xc2, 0x10, 0x42, 0x20, 0xec, 0x6e, 0xe8, 0x88, 0xf1, 0x4f,
  0xdc, 0x6e, 0xa3, 0x49, 0x9e, 0x06, 0x8e, 0xa1, 0x7f, 0xfd, 0x4d, 0xa3,
  0xe1, 0x8a, 0xde, 0xb4, 0xf7, 0x0d, 0x44, 0x34, 0xbb, 0x3b, 0xd7, 0x0e,
  0xfc, 0x97, 0xfe, 0x2b, 0xe7, 0xb0, 0xbc, 0x4a, 0xe2, 0x98, 0x7a, 0x83,
  0xd7, 0x41, 0xc1, 0x16, 0x00, 0x15, 0x3c, 0x6d, 0x74, 0x91, 0x31, 0xa4,
  0x3d, 0xb4, 0x81, 0xb7, 0xdb, 0x9d, 0x1d, 0x64, 0xbb, 0xeb, 0x27, 0xfe,
  0xde, 0xd0, 0x2c, 0xc4, 0xb9, 0x76, 0x3a, 0xe2, 0x83, 0xbb, 0x4a, 0x25,
  0x20, 0xee, 0x8c, 0x66, 0xf3, 0x0f, 0xe8, 0xaa, 0x27, 0x53, 0x77, 0xed,
  0x9f, 0x6e, 0x81, 0xea, 0xab, 0x21, 0x18, 0x3a, 0xc5, 0x00, 0xae, 0xea,
  0x82, 0x5b, 0x1d, 0xdc, 0x9a, 0x3c, 0x26, 0xb2, 0x7f, 0x6b, 0x7d, 0xce,
  0xa0, 0x38, 0x02, 0x33, 0x2e, 0xbd, 0x9b, 0x11, 0x51, 0x66, 0xab, 0xc8,
  0xba, 0x50, 0xba, 0x45, 0xff, 0x81, 0xad, 0x6a, 0xd5, 0xe3, 0x26, 0x64,
  0xdd, 0x3a, 0x38, 0x34, 0xd5, 0x68, 0x0e, 0xd3, 0x3e, 0x3a, 0x76, 0x43,
  0x63, 0xe5, 0xd6, 0xc9, 0x4c, 0x6b, 0xeb, 0x8f, 0x36, 0xa4, 0x7c, 0x5f,
  0xff, 0x4c, 0x28, 0x53, 0xfc, 0x1c, 0x49, 0xbc, 0x29, 0xf5, 0x10, 0xbd,
  0xdc, 0xeb, 0xcb, 0x20, 0x0e, 0x15, 0x53, 0x81, 0xa5, 0x35, 0xfc, 0xab,
  0x4a, 0xde, 0x61, 0x8f, 0xe6, 0x26, 0xea, 0xc5, 0x75, 0x92, 0x01, 0xbd,
  0xd1, 0x9f, 0xb4, 0xa7, 0xd6, 0x3c, 0x36, 0x91, 0x7e, 0xa8, 0x18, 0x58,
  0x05, 0xf9, 0xcb, 0xd4, 0x91, 0x3c, 0x81, 0x8a, 0xd7, 0xa8, 0x03, 0xd5,
  0x76, 0x6f, 0xe8, 0x46, 0x12, 0x46, 0x5e, 0x6c, 0xc1, 0x81, 0xa6, 0xfe,
  0xe3, 0xb6, 0x00, 0xa1, 0x59, 0x85, 0xc2, 0x6f, 0xf2, 0x90, 0x88, 0xea,
  0xe5, 0x27, 0x2c, 0xa1, 0x06, 0xc8, 0x76, 0x76, 0xe2, 0xa4, 0x2a, 0x6f,
  0xf1, 0x16, 0x9d, 0x13, 0x06, 0x42, 0x60, 0xe8, 0x99, 0x05, 0x5d, 0x34,
  0xc1, 0xf0, 0xec, 0x88, 0x24, 0xf2, 0x98, 0x9b, 0x0c, 0x14, 0x61, 0x7f,
  0x51, 0x90, 0x6d, 0x0d, 0x62, 0x1a, 0x00, 0x0a, 0x52, 0x20, 0xdd, 0x8a,
  0x21, 0x12, 0xca, 0x34, 0xb9, 0x6f, 0x83, 0x8e, 0x0b, 0x10, 0xc1, 0xc4,
  0x38, 0x04, 0x4d, 0x66, 0xe8, 0x2d, 0x42, 0xe8, 0x79, 0x9b, 0xd7, 0xfb,
  0x01, 0x67, 0xff, 0x81, 0x56, 0x05, 0x5d, 0x22, 0x8a, 0x1d, 0x9b, 0x27,
  0x57, 0x01, 0x7f, 0x9a, 0x2c, 0x5c, 0x6d, 0xa5, 0x15, 0x77, 0x34, 0x27,
  0xea, 0xfb, 0x85, 0xb8, 0x43, 0x5d, 0x24, 0x19, 0x4f, 0x83, 0x9b, 0x43,
  0xe6, 0x6f, 0xaa, 0x8c, 0x22, 0xdd, 0x0a, 0xe9, 0xd4, 0x8c, 0x56, 0x56,
  0x00, 0xc8, 0x15, 0x4e, 0x6e, 0x57, 0x45, 0xda, 0x2d, 0xce, 0x0f, 0xa5,
  0xdf, 0xe6, 0xfe, 0xfc, 0x81, 0x12, 0x4b, 0x46, 0x35, 0xeb, 0xac, 0x10,
  0x6a, 0x50, 0x2f, 0xb9, 0x60, 0x4c, 0x70, 0x7f, 0x84, 0xa0, 0xf4, 0x94,
  0xbd, 0xa1, 0xb5, 0x5f, 0x72, 0xad, 0x9b, 0x61, 0x2a, 0x90, 0x3a, 0xd8,
  0xce, 0x41, 0xb6, 0xdb, 0x42, 0xd6, 0xe2, 0x01, 0x57, 0x9b, 0xc6, 0x74,
  0x63, 0x90, 0x98, 0x39, 0xf5, 0x18, 0x81, 0x1e, 0xc6, 0xe0, 0x59, 0x60,
  0x97, 0x0b, 0x73, 0x83, 0x67, 0xb7, 0xcf, 0x65, 0x5b, 0xad, 0x61, 0xae,
  0x17, 0xc2, 0xfd, 0xc1, 0x81, 0xab, 0x50, 0x93, 0x5b, 0x25, 0x98, 0x4e,
  0xb3, 0x0f, 0xe0, 0xd2, 0xf2, 0x85, 0x04, 0x4d, 0x60, 0x12, 0xc1, 0xb1,
  0x50, 0x73, 0x62, 0x10, 0xb3, 0xd4, 0x9d, 0x66, 0x3e, 0xe8, 0xff, 0xff,
  0x04, 0x00, 0x00, 0x00, 0x40, 0x00, 0x00, 0x00, 0x06, 0xd6, 0xff, 0xff,
  0xef, 0xe7, 0xff, 0xff, 0xac, 0xce, 0xff, 0xff, 0x5a, 0x0b, 0x00, 0x00,
  0xce, 0xd1, 0xff, 0xff, 0xbd, 0xe7, 0xff, 0xff, 0xa6, 0xf1, 0xff, 0xff,
  0x00, 0x00, 0x00, 0x00, 0x80, 0xe0, 0xff, 0xff, 0xa9, 0xeb, 0xff, 0xff,
  0x34, 0xf6, 0xff, 0xff, 0x1e, 0xe4, 0xff, 0xff, 0xbd, 0xe6, 0xff, 0xff,
  0x87, 0xb2, 0xff, 0xff, 0xb4, 0xe1, 0xff, 0xff, 0x58, 0xd7, 0xff, 0xff,
  0x8a, 0xe8, 0xff, 0xff, 0x04, 0x00, 0x00, 0x00, 0x00, 0x02, 0x00, 0x00,
  0x49, 0x75, 0x76, 0xd1, 0x6d, 0xa2, 0x9f, 0xe7, 0x66, 0x66, 0x2d, 0x21,
  0x51, 0xc0, 0x0c, 0x81, 0x46, 0x4e, 0x7d, 0x8c, 0x28, 0xd1, 0x62, 0x1b,
  0x2f, 0x7f, 0x41, 0x4f, 0x58, 0x33, 0xb5, 0x6b, 0xfc, 0x13, 0x50, 0x7a,
  0x90, 0xcb, 0x08, 0x5c, 0xd1, 0x62, 0x81, 0x24, 0x74, 0xf4, 0x3b, 0x2a,
  0x54, 0x19, 0xb0, 0xc8, 0xf4, 0x28, 0xd3, 0x7f, 0x1b, 0x1a, 0xd6, 0x40,
  0xe9, 0x34, 0xe2, 0xe5, 0x60, 0x46, 0x46, 0xc1, 0x49, 0xa5, 0xcd, 0x81,
  0xf4, 0x38, 0xef, 0x9f, 0xad, 0x64, 0xff, 0x1c, 0x49, 0xe7, 0x5c, 0x62,
  0x51, 0xb4, 0x11, 0x5b, 0x79, 0x40, 0x1c, 0x4e, 0x81, 0x44, 0xd3, 0xce,
  0x66, 0x38, 0x7c, 0xb6, 0xff, 0x5e, 0xc6, 0xcc, 0x81, 0xf7, 0xaf, 0x8d,
  0x9a, 0x4d, 0x81, 0x11, 0xb6, 0x27, 0xb9, 0x7f, 0xed, 0x7c, 0x65, 0xdc,
  0x12, 0xbe, 0x12, 0x8d, 0x9d, 0x4a, 0xae, 0xee, 0x5a, 0xc2, 0xed, 0x69,
  0xfe, 0x6f, 0x7f, 0x17, 0x46, 0x49, 0x7e, 0x12, 0xb7, 0x30, 0x3e, 0xcb,
  0xb8, 0xed, 0xf6, 0x78, 0xbc, 0xed, 0x81, 0x46, 0xa0, 0x64, 0x97, 0x88,
  0x4f, 0x49, 0xa5, 0x65, 0x88, 0x32, 0x97, 0x01, 0xc2, 0x81, 0xc3, 0x5a,
  0x0b, 0xf5, 0xba, 0xf2, 0x9d, 0xed, 0xcc, 0x10, 0x82, 0xbc, 0x0b, 0x26,
  0x7f, 0x20, 0x72, 0x54, 0x85, 0x9d, 0x27, 0x0c, 0x65, 0xef, 0x9a, 0xf3,
  0x52, 0xef, 0x69, 0xc5, 0x4c, 0xb0, 0x0a, 0x81, 0x46, 0xbd, 0xb3, 0x05,
  0x3e, 0xf7, 0x4f, 0x84, 0xc7, 0xb4, 0xeb, 0x60, 0x54, 0x35, 0xd7, 0x9c,
  0x23, 0x81, 0x0b, 0xd5, 0xcc, 0x16, 0xd0, 0x9f, 0x2c, 0xb2, 0xb9, 0xd2,
  0x8c, 0x1f, 0x08, 0xab, 0xcb, 0x9b, 0x7e, 0x49, 0x81, 0x08, 0xe7, 0xd8,
  0x14, 0x18, 0x60, 0xf4, 0xe6, 0x4d, 0x03, 0x7f, 0x66, 0x15, 0x3a, 0xfc,
  0xe5, 0x71, 0x9a, 0x8f, 0x81, 0x75, 0xe4, 0xbd, 0x54, 0xe0, 0xd8, 0x03,
  0xa2, 0x40, 0xc8, 0x40, 0x79, 0xde, 0x07, 0x82, 0xac, 0xfe, 0x2c, 0x52,
  0xe0, 0xe6, 0x8c, 0xa4, 0xd1, 0xe9, 0xa4, 0xeb, 0x81, 0x52, 0xda, 0xf4,
  0x43, 0xa1, 0xcc, 0xb7, 0x18, 0x46, 0x98, 0x61, 0xba, 0x0c, 0x3f, 0x14,
  0xbe, 0x60, 0x7f, 0x05, 0x81, 0x35, 0x35, 0xa5, 0x00, 0x20, 0xbc, 0xe9,
  0xb3, 0x73, 0x65, 0xd6, 0x1c, 0xc1, 0x05, 0x67, 0xc6, 0x81, 0xac, 0xaf,
  0x5b, 0x15, 0xa3, 0x02, 0x4c, 0x2e, 0x10, 0x65, 0x59, 0xc8, 0xa6, 0x36,
  0xc1, 0x13, 0xb6, 0x21, 0x1e, 0x7a, 0x4e, 0x7f, 0xc4, 0x0e, 0xc0, 0x11,
  0x1f, 0xf7, 0x27, 0xec, 0xf7, 0x9b, 0x22, 0x2b, 0x7f, 0x5b, 0xd5, 0xa1,
  0xe2, 0xbb, 0xb8, 0x8c, 0x61, 0x47, 0x73, 0x46, 0x42, 0x12, 0x38, 0xbe,
  0xe5, 0x50, 0x89, 0x42, 0x2c, 0xe4, 0x69, 0x6a, 0x9f, 0xe4, 0x7f, 0x35,
  0x32, 0x81, 0x97, 0xc8, 0x39, 0x15, 0xaa, 0xb8, 0xad, 0x36, 0x1b, 0xce,
  0xdc, 0x45, 0x15, 0xe8, 0x20, 0x7b, 0xbd, 0xa9, 0xd9, 0xd6, 0x0f, 0x53,
  0xa9, 0x87, 0x8e, 0xe6, 0x7f, 0xe1, 0x39, 0x0a, 0xef, 0x81, 0xef, 0x34,
  0xc6, 0x69, 0x14, 0x4b, 0x3b, 0xfe, 0x65, 0x03, 0xce, 0x05, 0xf0, 0xcd,
  0x09, 0xdf, 0xd8, 0xe7, 0x81, 0xdd, 0x76, 0xec, 0x43, 0x06, 0xb4, 0x43,
  0xe5, 0xbb, 0x02, 0x2b, 0xf6, 0x9b, 0xe6, 0xbc, 0x20, 0xc6, 0x7f, 0x53,
  0x07, 0x45, 0xc4, 0xe7, 0x08, 0xab, 0x28, 0xe4, 0x26, 0x49, 0x5b, 0xec,
  0xdb, 0xd5, 0x33, 0x5c, 0x5f, 0x7f, 0xb4, 0x60, 0xd5, 0x9c, 0x6d, 0xe5,
  0xc2, 0x01, 0x21, 0x6f, 0xd0, 0x81, 0x8e, 0xcf, 0x63, 0x81, 0xa6, 0x85,
  0x06, 0xf8, 0xd1, 0xe3, 0x79, 0x49, 0x7f, 0x0a, 0xe0, 0x93, 0xd2, 0x1a,
  0xdd, 0xe9, 0xf7, 0x38, 0xb5, 0x4e, 0xe8, 0x73, 0x96, 0xea, 0xff, 0xff,
  0x04, 0x00, 0x00, 0x00, 0x80, 0x00, 0x00, 0x00, 0x49, 0x82, 0xff, 0xff,
  0x95, 0x7a, 0xff, 0xff, 0x7a, 0xd4, 0xff, 0xff, 0xb4, 0x64, 0xff, 0xff,
  0x98, 0xdf, 0xff, 0xff, 0x8f, 0x21, 0x00, 0x00, 0xb1, 0xd9, 0xff, 0xff,
  0x0a, 0x68, 0x00, 0x00, 0x7d, 0xa0, 0xff, 0xff, 0x88, 0x2b, 0xff, 0xff,
  0xec, 0xb0, 0xff, 0xff, 0x12, 0x7a, 0xff, 0xff, 0x55, 0x75, 0x00, 0x00,
  0xdc, 0x68, 0xff, 0xff, 0x31, 0xc1, 0xff, 0xff, 0x11, 0x38, 0xff, 0xff,
  0x78, 0xa0, 0xff, 0xff, 0x98, 0x84, 0xff, 0xff, 0xe9, 0x69, 0xff, 0xff,
  0x05, 0x75, 0xff, 0xff, 0x5b, 0x80, 0x01, 0x00, 0x36, 0x97, 0xff, 0xff,
  0x37, 0xb5, 0xff, 0xff, 0x6c, 0x97, 0xff, 0xff, 0xeb, 0xd4, 0xff, 0xff,
  0x3b, 0xba, 0xff, 0xff, 0x16, 0x45, 0xff, 0xff, 0xe5, 0xa7, 0xff, 0xff,
  0xf6, 0x57, 0x00, 0x00, 0x33, 0xf2, 0xff, 0xff, 0x52, 0x3e, 0xff, 0xff,
  0x74, 0x67, 0x00, 0x00, 0x22, 0xeb, 0xff, 0xff, 0x04, 0x00, 0x00, 0x00,
  0x90, 0x00, 0x00, 0x00, 0x8b, 0x9b, 0x59, 0xbf, 0x9b, 0xbc, 0x8d, 0x26,
  0xcb, 0x0a, 0x7f, 0xf0, 0xbf, 0x5d, 0xdb, 0x81, 0x32, 0x0b, 0xc9, 0xab,
  0xaf, 0x65, 0x60, 0x35, 0xcd, 0x89, 0xe3, 0x62, 0xa6, 0x1f, 0x81, 0x95,
  0x8d, 0x2b, 0xd6, 0xa3, 0x9c, 0xa8, 0x94, 0x5f, 0x2a, 0x9a, 0x41, 0xfd,
  0x8a, 0x5d, 0x18, 0x90, 0xd5, 0x81, 0x8c, 0xe4, 0xea, 0x43, 0x7f, 0x6c,
  0x24, 0x41, 0xd6, 0x6e, 0xae, 0x81, 0xaf, 0x13, 0xbf, 0x9c, 0x7f, 0x51,
  0xf4, 0x7f, 0x08, 0x6f, 0x81, 0x2a, 0xdf, 0x24, 0x7c, 0x56, 0xc2, 0xd4,
  0x19, 0xec, 0x00, 0x2a, 0x54, 0x6d, 0xcc, 0x3b, 0xed, 0xcd, 0x64, 0x61,
  0x81, 0x8a, 0xbc, 0xb3, 0x81, 0xa8, 0xdb, 0x81, 0xa3, 0xfb, 0x5e, 0x6a,
  0x58, 0x1b, 0x31, 0x7f, 0x65, 0xfa, 0x53, 0x38, 0x5c, 0xdd, 0x09, 0x2b,
  0x7f, 0x00, 0x71, 0x81, 0x8b, 0x4a, 0xc9, 0x64, 0xb1, 0x06, 0x6d, 0x75,
  0x0a, 0x6d, 0xd6, 0x3d, 0x17, 0x86, 0x24, 0x2a, 0x65, 0x7f, 0x42, 0xf1,
  0x2d, 0x15, 0x91, 0x06, 0xbe, 0xeb, 0xff, 0xff, 0x04, 0x00, 0x00, 0x00,
  0x40, 0x00, 0x00, 0x00, 0x44, 0xc7, 0x01, 0x00, 0x74, 0xb2, 0x00, 0x00,
  0x43, 0xa3, 0x00, 0x00, 0xd2, 0x14, 0x00, 0x00, 0xce, 0x0a, 0x02, 0x00,
  0xba, 0xf8, 0xff, 0xff, 0xcb, 0x29, 0x00, 0x00, 0xdc, 0xf9, 0x00, 0x00,
  0x62, 0x98, 0x01, 0x00, 0x16, 0xb0, 0x00, 0x00, 0x08, 0x10, 0xff, 0xff,
  0x49, 0x38, 0x00, 0x00, 0xfc, 0xfc, 0x00, 0x00, 0x9e, 0x42, 0x00, 0x00,
  0xbe, 0x58, 0x00, 0x00, 0x14, 0x43, 0x00, 0x00, 0x0a, 0xec, 0xff, 0xff,
  0x04, 0x00, 0x00, 0x00, 0x00, 0x02, 0x00, 0x00, 0x5d, 0x62, 0x66, 0x90,
  0x7d, 0x0a, 0xa9, 0x7a, 0x7f, 0x6e, 0x93, 0x67, 0xc2, 0x70, 0x9b, 0xfb,
  0x31, 0xd7, 0x99, 0x67, 0x4d, 0x6c, 0x81, 0x79, 0x6d, 0x39, 0x3e, 0xcd,
  0x90, 0xa7, 0x45, 0x03, 0xb1, 0x08, 0x98, 0xe5, 0xc5, 0x1b, 0x17, 0x77,
  0xd8, 0xfd, 0x9f, 0x6a, 0xd7, 0x9a, 0xa3, 0x81, 0x8b, 0xcc, 0x0b, 0x8c,
  0x00, 0xbb, 0xf7, 0x83, 0x34, 0x96, 0xf5, 0x7f, 0xeb, 0xcc, 0x81, 0xb9,
  0xca, 0x7d, 0x66, 0x70, 0xab, 0x72, 0xe1, 0xfc, 0x49, 0x85, 0xf5, 0x71,
  0xe5, 0x81, 0xb9, 0x8b, 0x6a, 0x26, 0x64, 0xf6, 0x6b, 0x4f, 0x64, 0x35,
  0xef, 0x81, 0x2d, 0xa9, 0x6d, 0x50, 0xb4, 0x25, 0xc0, 0x08, 0x5c, 0xea,
  0x14, 0xad, 0xd4, 0x5a, 0x81, 0xe9, 0x1f, 0x7d, 0x04, 0x6a, 0x97, 0x1f,
  0xe5, 0x4c, 0xdf, 0x86, 0xd8, 0x35, 0x7f, 0x72, 0x94, 0xd4, 0xbf, 0xa8,
  0x83, 0xd4, 0x85, 0x79, 0xa9, 0x36, 0x72, 0x9b, 0x4d, 0x8f, 0xdf, 0xf6,
  0x82, 0x7e, 0x4a, 0xcb, 0x7f, 0x1a, 0xe5, 0x04, 0x82, 0x7e, 0xc7, 0xf6,
  0x64, 0x01, 0x32, 0xc7, 0x7c, 0x81, 0x8d, 0xea, 0xe9, 0x9d, 0x30, 0xe3,
  0x7f, 0xe9, 0x17, 0xf0, 0x64, 0xe8, 0x08, 0xb7, 0x3c, 0xc4, 0xdd, 0x51,
  0xf5, 0x53, 0x1e, 0x40, 0xd3, 0x84, 0xf8, 0x7f, 0xde, 0xed, 0x6c, 0xd4,
  0xeb, 0x18, 0x53, 0xf1, 0xa1, 0x3f, 0xe2, 0x2e, 0x5b, 0x87, 0x5d, 0x21,
  0x8c, 0xe5, 0x8d, 0x60, 0xb2, 0x8d, 0x87, 0x7f, 0x62, 0xe4, 0x31, 0xdb,
  0x3b, 0xb0, 0xeb, 0x95, 0xfd, 0x09, 0xfc, 0xb2, 0xff, 0xdb, 0xae, 0x4a,
  0x81, 0x34, 0x93, 0x06, 0x12, 0x42, 0xb4, 0x0c, 0x72, 0xf9, 0x5c, 0xfc,
  0xd2, 0x81, 0xd6, 0x19, 0x2e, 0xf5, 0x32, 0x8c, 0x66, 0x0f, 0xd7, 0x81,
  0x56, 0x98, 0x6b, 0x61, 0x4e, 0x30, 0x4a, 0x23, 0xe1, 0xdb, 0x67, 0xaa,
  0x94, 0x42, 0x4e, 0x9e, 0xde, 0x59, 0xdf, 0x7c, 0x81, 0x6f, 0x48, 0x5f,
  0x3a, 0x72, 0xed, 0x38, 0x7f, 0x87, 0x0a, 0xf8, 0x5e, 0x6f, 0x19, 0x75,
  0x93, 0x56, 0x36, 0x89, 0xe3, 0x86, 0x21, 0x8e, 0x7f, 0x0e, 0x45, 0x1c,
  0x94, 0xfe, 0x05, 0xc9, 0xec, 0xc6, 0xb7, 0x3a, 0x29, 0x5e, 0x8e, 0x3d,
  0xe0, 0x72, 0x35, 0x05, 0x1d, 0x81, 0x11, 0xb9, 0xcd, 0xc4, 0x47, 0xd4,
  0xf5, 0x57, 0x6c, 0x55, 0x30, 0x88, 0x8c, 0x5b, 0x9b, 0xd1, 0xdf, 0x91,
  0x5d, 0x81, 0xa3, 0x6e, 0x91, 0x64, 0xd3, 0x20, 0x43, 0x24, 0x81, 0x97,
  0xb2, 0x39, 0xed, 0x5d, 0x35, 0xe9, 0x01, 0xf1, 0xe3, 0x2e, 0x62, 0x84,
  0x8f, 0xf3, 0x90, 0x43, 0x8a, 0x81, 0xb4, 0xcc, 0xff, 0x03, 0xd0, 0x23,
  0xa6, 0x4f, 0xa8, 0x3e, 0xe5, 0x77, 0x8f, 0xee, 0xe9, 0x81, 0x93, 0xf6,
  0x12, 0xc4, 0x62, 0x72, 0x02, 0x4b, 0xb0, 0xb5, 0xf6, 0x9a, 0x0e, 0x05,
  0x7c, 0x94, 0xa8, 0x42, 0x88, 0x66, 0x86, 0x81, 0x12, 0x56, 0x13, 0x6f,
  0x39, 0x26, 0x65, 0x32, 0x6b, 0xad, 0xad, 0x15, 0xf3, 0xf5, 0x81, 0x79,
  0xe5, 0xf5, 0xf3, 0x66, 0x73, 0xfb, 0x71, 0x7b, 0xc6, 0x7e, 0x5c, 0x63,
  0x47, 0xd0, 0xe9, 0x46, 0x7f, 0x31, 0x61, 0xc8, 0x54, 0xcc, 0xd6, 0x6b,
  0x5f, 0x53, 0x53, 0xc7, 0x41, 0x7f, 0xd6, 0x79, 0x48, 0x6d, 0x28, 0x65,
  0xd0, 0xe1, 0x02, 0xd7, 0xe3, 0x51, 0x4f, 0x81, 0xed, 0xdb, 0x26, 0xcd,
  0xb3, 0x44, 0x56, 0xd2, 0xa4, 0xa0, 0xc9, 0xde, 0xe2, 0x9b, 0xb5, 0x0d,
  0x64, 0x27, 0x94, 0x70, 0xdf, 0x36, 0xa2, 0x81, 0x4d, 0x88, 0xd1, 0xa8,
  0x89, 0x28, 0x93, 0x92, 0x34, 0x81, 0x99, 0x3f, 0xd5, 0x57, 0x6f, 0x47,
  0x81, 0xf5, 0x37, 0x82, 0x9e, 0xc2, 0x9d, 0xff, 0x89, 0xb8, 0x4f, 0x20,
  0x66, 0x13, 0xe1, 0xd0, 0x16, 0xee, 0xff, 0xff, 0x04, 0x00, 0x00, 0x00,
  0x80, 0x00, 0x00, 0x00, 0xba, 0xc7, 0x00, 0x00, 0x77, 0x00, 0x00, 0x00,
  0xa9, 0x6f, 0x00, 0x00, 0xaa, 0x09, 0x00, 0x00, 0x1e, 0x8b, 0xff, 0xff,
  0x9d, 0x58, 0x00, 0x00, 0xa7, 0xac, 0xff, 0xff, 0x3d, 0x7a, 0xff, 0xff,
  0xa2, 0xd9, 0xff, 0xff, 0x46, 0x85, 0xff, 0xff, 0x34, 0xc1, 0x00, 0x00,
  0xd2, 0x97, 0xff, 0xff, 0xf2, 0xaf, 0xff, 0xff, 0x63, 0xbc, 0xff, 0xff,
  0x77, 0x3a, 0x00, 0x00, 0x98, 0xed, 0xff, 0xff, 0x1d, 0xd4, 0xff, 0xff,
  0xb1, 0x12, 0x00, 0x00, 0xec, 0x83, 0xff, 0xff, 0xaf, 0xac, 0xff, 0xff,
  0x79, 0xd2, 0xff, 0xff, 0xb5, 0xe6, 0xff, 0xff, 0x10, 0xc1, 0xff, 0xff,
  0xf3, 0x96, 0xff, 0xff, 0x6c, 0x46, 0xff, 0xff, 0x8a, 0xaa, 0x00, 0x00,
  0xc2, 0x86, 0x00, 0x00, 0x04, 0x25, 0x00, 0x00, 0x9f, 0xda, 0xff, 0xff,
  0x52, 0x65, 0x00, 0x00, 0x19, 0x41, 0x00, 0x00, 0x98, 0x52, 0x00, 0x00,
  0xa2, 0xee, 0xff, 0xff, 0x04, 0x00, 0x00, 0x00, 0x00, 0x04, 0x00, 0x00,
  0xd4, 0xa9, 0x11, 0x7e, 0x6d, 0x6d, 0xfa, 0x2a, 0x48, 0xc0, 0xed, 0x43,
  0x3b, 0x5a, 0x12, 0xd0, 0xd1, 0x83, 0xff, 0x3b, 0x81, 0xb1, 0x0f, 0x48,
  0x6c, 0xa0, 0xbc, 0x1e, 0xdb, 0x4d, 0x9e, 0x30, 0x3a, 0x5d, 0x70, 0x34,
  0xb5, 0xe2, 0xd4, 0xba, 0x94, 0x5b, 0x93, 0xac, 0x25, 0x2e, 0xed, 0xb0,
  0x66, 0xd9, 0x8a, 0xa4, 0xc6, 0xc5, 0x9b, 0xb0, 0xc5, 0x71, 0xe8, 0xea,
  0xe6, 0x8e, 0xbd, 0x9e, 0xbd, 0x2c, 0xab, 0xfa, 0x1a, 0x76, 0xe6, 0xad,
  0x77, 0x6b, 0xb7, 0x50, 0x2c, 0x54, 0x4b, 0xd8, 0x86, 0x95, 0xd4, 0xf9,
  0x64, 0xbd, 0xc6, 0xab, 0xf6, 0x52, 0xf0, 0xc9, 0x9f, 0xd8, 0xe0, 0x11,
  0x24, 0x2b, 0xf0, 0x36, 0xfb, 0x02, 0x15, 0x7f, 0x73, 0x9e, 0xe3, 0x3e,
  0x95, 0x85, 0xc1, 0x87, 0x31, 0x3a, 0xd9, 0x07, 0x7c, 0x5d, 0xcb, 0x16,
  0x6c, 0xe7, 0x2a, 0xdc, 0xb0, 0x9d, 0xe6, 0x3e, 0x50, 0x0f, 0xbf, 0x7a,
  0xb2, 0x6d, 0x4e, 0x63, 0x7f, 0xc5, 0xbe, 0x85, 0x5d, 0x01, 0x12, 0xb6,
  0xb4, 0x2c, 0xed, 0x57, 0xcd, 0x00, 0x08, 0x96, 0x46, 0x9f, 0xc1, 0x6a,
  0x39, 0x21, 0x82, 0x99, 0xb2, 0x61, 0x0f, 0xba, 0xf4, 0x69, 0xe2, 0xe2,
  0xdb, 0x30, 0x46, 0x14, 0x12, 0xc9, 0xce, 0x01, 0x1e, 0x5d, 0xb7, 0x29,
  0x07, 0x23, 0xf6, 0x28, 0xd7, 0xcd, 0xd6, 0xad, 0x76, 0xe8, 0x18, 0x63,
  0xa1, 0xdc, 0x3c, 0x7b, 0xb3, 0x35, 0xca, 0x65, 0xd4, 0x58, 0xf0, 0x5a,
  0x81, 0x76, 0x64, 0x04, 0x13, 0xdb, 0x35, 0x28, 0xbf, 0x9b, 0x15, 0x56,
  0x9c, 0x05, 0x5f, 0xa1, 0x28, 0x27, 0xff, 0x51, 0x26, 0xc0, 0xfc, 0xc0,
  0x2d, 0xb4, 0x0f, 0xee, 0xbc, 0x15, 0x99, 0x55, 0xfc, 0x25, 0x8e, 0xcb,
  0x46, 0xa0, 0x62, 0xa6, 0xe6, 0x9b, 0xf6, 0xae, 0x17, 0x4f, 0x1d, 0x2a,
  0xa4, 0xbd, 0x8b, 0x0f, 0x65, 0x18, 0xb7, 0xa6, 0x6e, 0x07, 0xab, 0x35,
  0xcf, 0xe4, 0xbe, 0x33, 0xa9, 0xec, 0xa0, 0x87, 0x4f, 0x13, 0x89, 0xd4,
  0xba, 0x1a, 0x1b, 0xac, 0x81, 0x7f, 0xf4, 0x9d, 0xa3, 0xc0, 0xe7, 0x74,
  0x6b, 0xd8, 0xc4, 0x30, 0x9f, 0x27, 0xcb, 0x85, 0x94, 0xe8, 0x5b, 0xcb,
  0x61, 0xb6, 0xce, 0xb2, 0x6c, 0x05, 0x57, 0x90, 0x70, 0xdd, 0xf0, 0xdc,
  0xc0, 0x6c, 0x59, 0x5a, 0x48, 0xa8, 0xe0, 0x79, 0x44, 0x0a, 0xbf, 0x47,
  0xb9, 0x87, 0x81, 0xca, 0x16, 0xf1, 0x03, 0x60, 0x0a, 0xcc, 0x34, 0x5c,
  0x16, 0x72, 0xbc, 0x26, 0x1a, 0xda, 0xc7, 0xac, 0xc1, 0x0b, 0xc0, 0x81,
  0xa0, 0x4a, 0x3b, 0x42, 0xf6, 0x18, 0xf7, 0x0e, 0x1d, 0x56, 0xa1, 0x75,
  0x29, 0x13, 0xfd, 0xd0, 0x2a, 0x83, 0xf0, 0x21, 0x32, 0x7c, 0x84, 0xb9,
  0xc9, 0x08, 0x51, 0x17, 0x38, 0xff, 0xa6, 0x9d, 0x43, 0x43, 0x71, 0x52,
  0x03, 0xc0, 0x45, 0x9a, 0x27, 0xa3, 0x93, 0x3e, 0xa5, 0xac, 0x3d, 0xb8,
  0xc0, 0x9f, 0x2d, 0x67, 0x1e, 0x27, 0x28, 0xe8, 0x6f, 0xc1, 0x61, 0x8f,
  0x2b, 0xc5, 0xdc, 0xf0, 0x60, 0xe6, 0x41, 0x79, 0xde, 0x19, 0x7f, 0x9a,
  0x44, 0x1f, 0xd6, 0x59, 0x61, 0xe0, 0xc8, 0xf0, 0xbc, 0xb2, 0x12, 0x32,
  0x02, 0x31, 0x22, 0x57, 0x95, 0x4f, 0x3e, 0x53, 0x2f, 0x4b, 0x99, 0x17,
  0x22, 0x56, 0x41, 0x41, 0x15, 0xc3, 0x24, 0x70, 0x1e, 0x6e, 0xe7, 0x82,
  0x28, 0x72, 0x12, 0xa2, 0x69, 0xba, 0x8c, 0xd3, 0x68, 0x33, 0x8d, 0x58,
  0x99, 0x27, 0x7d, 0xd0, 0x63, 0x97, 0x1b, 0x4e, 0xc2, 0x37, 0xd1, 0x7a,
  0xab, 0x3f, 0xe9, 0xbc, 0xbd, 0x62, 0xdb, 0xb9, 0xf6, 0x7e, 0xdd, 0xd7,
  0xb5, 0x01, 0xbc, 0x67, 0x81, 0x89, 0xd8, 0xc8, 0xfb, 0x69, 0x13, 0x8d,
  0x56, 0x27, 0x54, 0x0a, 0x66, 0x3a, 0x10, 0x87, 0xab, 0xca, 0x9f, 0xfd,
  0xa7, 0xc9, 0x4b, 0x6c, 0x82, 0x82, 0x75, 0x57, 0x97, 0xed, 0x9a, 0x18,
  0xb1, 0x74, 0xd4, 0x1d, 0x31, 0xc1, 0xe4, 0x5f, 0x93, 0x64, 0xa2, 0xd9,
  0xcb, 0x9c, 0xf8, 0x8b, 0x04, 0xdd, 0xb3, 0x4e, 0x12, 0x13, 0x62, 0x6a,
  0x60, 0xce, 0x98, 0x34, 0x0d, 0x8d, 0x9f, 0x85, 0x42, 0x98, 0x90, 0x6e,
  0xd0, 0x19, 0x1a, 0x7f, 0xbf, 0x3b, 0x01, 0x77, 0x71, 0xc8, 0x12, 0x0c,
  0x32, 0xfa, 0xc3, 0x12, 0xda, 0xf7, 0x70, 0xcb, 0x31, 0x75, 0x3f, 0xcf,
  0x4f, 0x64, 0x16, 0x7c, 0x03, 0xd2, 0x82, 0xae, 0xa5, 0x59, 0x9c, 0x69,
  0xea, 0xd9, 0x05, 0x24, 0x61, 0x48, 0x0f, 0x77, 0xc1, 0xbd, 0x58, 0x7f,
  0xa0, 0x2a, 0x01, 0x40, 0xff, 0x3f, 0xa2, 0xb5, 0xe9, 0x1a, 0x88, 0x57,
  0x0a, 0x6a, 0x8a, 0xdb, 0xab, 0x58, 0x10, 0xd4, 0xae, 0x0e, 0x8a, 0x71,
  0x7a, 0xc4, 0x4d, 0xa5, 0x12, 0xdd, 0x20, 0x3c, 0x17, 0xd1, 0x14, 0x42,
  0x7d, 0x29, 0xc6, 0x56, 0x97, 0x21, 0xff, 0x74, 0x05, 0xf2, 0xb7, 0xb8,
  0xbe, 0xee, 0x0a, 0x4b, 0xc5, 0x04, 0x0c, 0xbf, 0x8e, 0xed, 0xde, 0x71,
  0x7c, 0xab, 0x04, 0x2d, 0x83, 0xf1, 0x41, 0x95, 0xe9, 0xe9, 0x6e, 0x61,
  0xa9, 0xbc, 0x30, 0xd9, 0x7f, 0x05, 0xba, 0x67, 0xb1, 0xc4, 0xbc, 0xc0,
  0x7d, 0xab, 0x66, 0x5f, 0xd6, 0x14, 0x32, 0xee, 0x0b, 0x72, 0x12, 0xf2,
  0x91, 0x81, 0xca, 0x87, 0x59, 0x8d, 0xff, 0xf6, 0xb8, 0xaf, 0x17, 0x00,
  0x1c, 0x41, 0x1a, 0x37, 0xba, 0x66, 0x51, 0x59, 0x05, 0x52, 0xe7, 0x1f,
  0xb8, 0xc4, 0xc1, 0xd7, 0x84, 0xcb, 0x9d, 0xe2, 0x65, 0xb9, 0x54, 0x5a,
  0x8d, 0x38, 0xc5, 0x2a, 0xab, 0xa2, 0xee, 0xbe, 0x0c, 0xd1, 0x73, 0xd4,
  0x3e, 0x25, 0xc2, 0x63, 0x58, 0xa6, 0xdc, 0xe0, 0x45, 0xe7, 0x92, 0xe6,
  0xf4, 0x71, 0xb1, 0x7d, 0xfb, 0x8a, 0x12, 0x00, 0xdc, 0x0a, 0x66, 0x74,
  0xf7, 0x72, 0x2d, 0x98, 0x0b, 0x69, 0x64, 0x93, 0xd6, 0xa4, 0xc7, 0xd1,
  0x73, 0x44, 0xf1, 0x05, 0x39, 0x45, 0x6c, 0x81, 0x55, 0x36, 0xd8, 0x9a,
  0x0e, 0xe7, 0x9c, 0x9f, 0x75, 0x8d, 0x12, 0xe2, 0xf9, 0x6b, 0xf1, 0xec,
  0xd9, 0xc6, 0xa8, 0x35, 0x5d, 0x92, 0x0f, 0x3f, 0xc7, 0x1f, 0xbb, 0x18,
  0xcd, 0x37, 0xff, 0xa2, 0x70, 0xe8, 0xbc, 0xef, 0xd8, 0xc3, 0x23, 0x6a,
  0x7f, 0x54, 0xe3, 0xa2, 0xa8, 0xfb, 0x47, 0x17, 0x86, 0xbb, 0xd2, 0x1a,
  0xa6, 0x4b, 0xa2, 0xc5, 0xd6, 0x0f, 0xdb, 0xfd, 0x8c, 0x5b, 0x8c, 0x60,
  0xce, 0x65, 0x60, 0xaf, 0x1e, 0x01, 0xf6, 0xe9, 0xdf, 0x89, 0xb9, 0x90,
  0xa2, 0x55, 0x53, 0xb8, 0x91, 0x65, 0xe4, 0xa7, 0x1a, 0xdf, 0xa7, 0x03,
  0x00, 0x8a, 0x53, 0x10, 0xf8, 0x26, 0xf9, 0xa3, 0x2f, 0x2f, 0xde, 0x4d,
  0x54, 0x68, 0x7b, 0x76, 0xad, 0xfc, 0x6c, 0x40, 0x35, 0x31, 0xcf, 0x41,
  0x21, 0x6a, 0xc1, 0x8a, 0x3b, 0xc3, 0x97, 0x10, 0xeb, 0xd7, 0x87, 0xec,
  0x1b, 0x1e, 0xec, 0x66, 0x6b, 0xf9, 0x98, 0xa7, 0xd1, 0x1e, 0x26, 0x38,
  0x38, 0x26, 0xee, 0xbf, 0xbf, 0x49, 0xe9, 0xaa, 0x3f, 0xc9, 0x05, 0x1b,
  0x8f, 0x53, 0xc5, 0x77, 0xab, 0xcc, 0xd2, 0x81, 0x51, 0x38, 0xea, 0xd4,
  0x78, 0xfa, 0x37, 0x3a, 0xe7, 0x79, 0x0b, 0xd1, 0x2b, 0x62, 0x1e, 0xaf,
  0x1f, 0xd8, 0x7a, 0xe2, 0xfa, 0x7f, 0xac, 0xac, 0x53, 0x3b, 0x7a, 0x7b,
  0x3b, 0x1d, 0x15, 0x2c, 0x72, 0x7e, 0x58, 0x24, 0x64, 0x9b, 0x3b, 0x81,
  0xe5, 0xd1, 0x3a, 0x03, 0x87, 0x50, 0x1a, 0xf3, 0xca, 0x09, 0x70, 0xfc,
  0xb8, 0xa8, 0xcf, 0xea, 0x6d, 0xda, 0x9d, 0x89, 0x7f, 0x43, 0xf3, 0x92,
  0x81, 0xf0, 0x62, 0x32, 0xae, 0xf2, 0xff, 0xff, 0x04, 0x00, 0x00, 0x00,
  0x40, 0x00, 0x00, 0x00, 0x57, 0xb5, 0xff, 0xff, 0x9a, 0x1f, 0x00, 0x00,
  0xbe, 0x2b, 0x00, 0x00, 0x41, 0xb2, 0xff, 0xff, 0xbe, 0xbe, 0x00, 0x00,
  0x7a, 0xb6, 0xff, 0xff, 0x6c, 0x83, 0x00, 0x00, 0x14, 0xfe, 0xff, 0xff,
  0x00, 0x00, 0x00, 0x00, 0x26, 0xe4, 0xff, 0xff, 0x9b, 0x35, 0x00, 0x00,
  0x0a, 0xba, 0xff, 0xff, 0x6d, 0xce, 0xff, 0xff, 0xf5, 0x1d, 0x00, 0x00,
  0x8f, 0x70, 0xff, 0xff, 0x90, 0x0d, 0x00, 0x00, 0xfa, 0xf2, 0xff, 0xff,
  0x04, 0x00, 0x00, 0x00, 0x00, 0x02, 0x00, 0x00, 0xc2, 0xdb, 0x52, 0xad,
  0x53, 0x58, 0x08, 0xdc, 0xcd, 0x7a, 0x81, 0x9e, 0x9a, 0xb9, 0x6c, 0xf6,
  0xf4, 0x08, 0x4e, 0xeb, 0xab, 0x4c, 0xae, 0x4d, 0x5c, 0x81, 0x29, 0x47,
  0x21, 0xc2, 0x07, 0x05, 0x83, 0x86, 0xf1, 0xf1, 0x14, 0xba, 0x27, 0x6d,
  0x31, 0x4a, 0x4e, 0x39, 0x7f, 0x6b, 0x10, 0x7a, 0xe9, 0xac, 0x07, 0xab,
  0x17, 0xb0, 0xa3, 0x81, 0xd4, 0x68, 0xbc, 0x68, 0x5c, 0x13, 0xdd, 0xcb,
  0xe3, 0xe6, 0x9e, 0xef, 0xc0, 0xa4, 0xdb, 0xc1, 0x7f, 0x26, 0x6d, 0x09,
  0x6d, 0x40, 0x4a, 0xce, 0x36, 0x3c, 0x8b, 0xb0, 0xf3, 0xf7, 0xfc, 0x81,
  0x13, 0x10, 0x6d, 0xbd, 0x88, 0xc8, 0x45, 0x83, 0xe6, 0xe2, 0x3e, 0x24,
  0x9b, 0xd1, 0xea, 0x49, 0xd7, 0x07, 0x00, 0x3e, 0xb3, 0x81, 0x67, 0x96,
  0xbe, 0x57, 0x28, 0xc1, 0x76, 0x0d, 0x33, 0x59, 0x51, 0x81, 0x37, 0x46,
  0x6f, 0x0d, 0xd3, 0x9b, 0x40, 0xe2, 0x8b, 0x81, 0xc4, 0xd6, 0x8f, 0x93,
  0x22, 0x08, 0x1b, 0xf8, 0xf6, 0x22, 0xcd, 0x7d, 0xf8, 0x24, 0x9d, 0xcb,
  0xfc, 0xbc, 0x81, 0x1b, 0x8d, 0x4d, 0xb1, 0xc7, 0x9c, 0x72, 0xe8, 0xc4,
  0x13, 0x09, 0x90, 0x55, 0xdc, 0xd7, 0xac, 0xcd, 0x6d, 0x81, 0x68, 0xfa,
  0x32, 0x33, 0x10, 0x0e, 0x89, 0x1f, 0x69, 0x50, 0x7f, 0xed, 0xdc, 0x62,
  0x5a, 0x18, 0x54, 0xe5, 0xb6, 0xe2, 0xbe, 0x63, 0x11, 0x44, 0x8a, 0x28,
  0x1d, 0x15, 0x17, 0x24, 0x54, 0xde, 0xf8, 0x8d, 0xd0, 0x81, 0xf1, 0x0b,
  0x7d, 0x8c, 0xc7, 0x88, 0x6a, 0xa1, 0x5f, 0xa3, 0x37, 0x50, 0x27, 0x9f,
  0x7f, 0xae, 0x04, 0x39, 0x74, 0x74, 0x0c, 0x17, 0xfe, 0x92, 0xa4, 0xc8,
  0xb4, 0xaf, 0xa2, 0x8c, 0x0c, 0x81, 0xd6, 0xf6, 0xbe, 0xcd, 0x47, 0x7e,
  0x9b, 0x27, 0x4a, 0x93, 0xe8, 0x56, 0x7f, 0xdd, 0x58, 0x3b, 0xad, 0x64,
  0x1b, 0x8b, 0x7f, 0x9e, 0x18, 0x6c, 0x83, 0xc9, 0x19, 0xa2, 0x99, 0xcf,
  0xfd, 0x3e, 0x63, 0x44, 0x4a, 0x81, 0x94, 0x29, 0x43, 0xbd, 0x1e, 0xf3,
  0xa5, 0xb1, 0xb2, 0x96, 0x6d, 0xe5, 0xfe, 0x09, 0x25, 0xe7, 0xd5, 0xec,
  0x30, 0x02, 0x0f, 0x7d, 0x2f, 0x81, 0x72, 0x7d, 0x48, 0x81, 0x36, 0x6f,
  0xce, 0x9b, 0x72, 0x41, 0x08, 0x8f, 0x81, 0xc6, 0xca, 0xa1, 0xc2, 0xff,
  0x87, 0x6c, 0xf7, 0xaf, 0x33, 0x5c, 0x7f, 0xcb, 0x9d, 0xc6, 0xf1, 0x26,
  0x64, 0xa6, 0xef, 0x6d, 0xd2, 0x14, 0x38, 0x29, 0x7f, 0x6f, 0x95, 0x61,
  0xba, 0x70, 0x8d, 0x7e, 0xc4, 0xfa, 0x16, 0x1a, 0xd2, 0xe9, 0x2f, 0xd0,
  0x68, 0xad, 0xa0, 0x67, 0xd1, 0x7f, 0x1e, 0xc0, 0x4f, 0x2f, 0x34, 0xf2,
  0xad, 0xed, 0x6b, 0x6d, 0x70, 0xb3, 0xaa, 0x31, 0x39, 0xb4, 0x33, 0x05,
  0x8d, 0xaf, 0x5e, 0x57, 0x2c, 0xc2, 0x60, 0x81, 0x62, 0x88, 0xbc, 0x64,
  0x68, 0x64, 0x3b, 0x6a, 0x25, 0x7f, 0x51, 0x23, 0xd5, 0xe7, 0xac, 0x18,
  0xa3, 0x85, 0x99, 0x36, 0x30, 0xb5, 0xcd, 0xc7, 0x81, 0x92, 0xfa, 0x6d,
  0xe5, 0x54, 0x62, 0x39, 0x96, 0x35, 0xdb, 0x85, 0xf5, 0x55, 0xe3, 0x25,
  0x08, 0x60, 0x19, 0xf6, 0x81, 0xe1, 0xc5, 0x78, 0x2c, 0xfa, 0x66, 0x15,
  0x81, 0x3f, 0x1a, 0xd8, 0xa5, 0x9f, 0x21, 0x90, 0x26, 0xc3, 0xc5, 0x81,
  0x7f, 0xe0, 0x4a, 0x8e, 0x19, 0x3b, 0x88, 0x1a, 0x28, 0x0b, 0xd3, 0x9e,
  0x9a, 0x46, 0x74, 0xf8, 0x50, 0x69, 0xfe, 0x7f, 0x1d, 0x6d, 0xce, 0x90,
  0x91, 0xed, 0xe6, 0x7a, 0xab, 0x26, 0xf5, 0x3a, 0xa0, 0x18, 0x8f, 0xa5,
  0xb7, 0xae, 0x64, 0xc2, 0xa5, 0xb9, 0xa0, 0x28, 0x6b, 0x1c, 0x47, 0x7f,
  0x38, 0x6e, 0x0c, 0x7e, 0x1c, 0xd4, 0x90, 0xa7, 0x94, 0xf5, 0xa5, 0xca,
  0xe1, 0xb3, 0x7f, 0x31, 0x06, 0xf5, 0xff, 0xff, 0x04, 0x00, 0x00, 0x00,
  0x80, 0x00, 0x00, 0x00, 0x4f, 0x70, 0xff, 0xff, 0xf7, 0xf0, 0xff, 0xff,
  0xb6, 0x0a, 0x00, 0x00, 0x43, 0xd8, 0xff, 0xff, 0x46, 0xdb, 0xff, 0xff,
  0x51, 0xa1, 0xff, 0xff, 0xcb, 0x38, 0xff, 0xff, 0x3f, 0x3a, 0xff, 0xff,
  0xe7, 0xeb, 0xff, 0xff, 0xfa, 0xfa, 0xff, 0xff, 0xb0, 0xd0, 0xff, 0xff,
  0x38, 0xe8, 0xff, 0xff, 0x1b, 0xb2, 0xff, 0xff, 0x2c, 0x5b, 0x00, 0x00,
  0x00, 0x00, 0x00, 0x00, 0xcb, 0xfe, 0xff, 0xff, 0x1a, 0xc2, 0xff, 0xff,
  0xed, 0xbf, 0xff, 0xff, 0x29, 0x1f, 0x00, 0x00, 0xa6, 0xac, 0xff, 0xff,
  0x6a, 0x06, 0x00, 0x00, 0x92, 0x01, 0x00, 0x00, 0x2f, 0xa3, 0xff, 0xff,
  0x37, 0x86, 0xff, 0xff, 0x3f, 0x04, 0x00, 0x00, 0x87, 0xcd, 0xff, 0xff,
  0x3a, 0x09, 0x00, 0x00, 0xac, 0xc7, 0xff, 0xff, 0x0f, 0xad, 0xff, 0xff,
  0x20, 0x9b, 0xff, 0xff, 0x5d, 0xbe, 0xff, 0xff, 0x21, 0xc1, 0xff, 0xff,
  0x92, 0xf5, 0xff, 0xff, 0x04, 0x00, 0x00, 0x00, 0x90, 0x00, 0x00, 0x00,
  0x46, 0x4c, 0x04, 0xc0, 0xeb, 0xa9, 0x3f, 0xf9, 0x38, 0x7f, 0x0b, 0xaa,
  0x4a, 0xfb, 0xc5, 0xa0, 0x53, 0x18, 0x55, 0x79, 0xe2, 0x94, 0xc7, 0xcc,
  0x1c, 0xed, 0x5b, 0x48, 0xc4, 0x81, 0xfc, 0x81, 0x7b, 0x85, 0x66, 0xc0,
  0x7f, 0x7f, 0x2d, 0xcc, 0x37, 0xba, 0x19, 0x5e, 0x58, 0x98, 0x1c, 0x57,
  0x34, 0x8b, 0x66, 0x12, 0xf5, 0xaf, 0x3a, 0x27, 0x60, 0x24, 0xbe, 0xdc,
  0x95, 0xb4, 0x4b, 0x97, 0x47, 0x81, 0x81, 0x9c, 0xd7, 0xb9, 0x7f, 0x7f,
  0xe4, 0x8d, 0x30, 0xab, 0xdd, 0xa5, 0xed, 0xf6, 0x81, 0x60, 0x2e, 0x4e,
  0xe6, 0x3b, 0xb0, 0xb9, 0x08, 0x42, 0x81, 0xa2, 0xf3, 0xd2, 0x81, 0x9a,
  0x23, 0x1c, 0x5e, 0x1e, 0x91, 0xdd, 0xbb, 0x6d, 0xcc, 0x76, 0xec, 0x81,
  0x95, 0x46, 0xd0, 0xeb, 0x30, 0xd5, 0xfb, 0x81, 0xc7, 0x1d, 0x67, 0x2d,
  0x7f, 0x9e, 0xf0, 0xc6, 0x7f, 0x79, 0x1a, 0x6f, 0xbb, 0x27, 0x87, 0x89,
  0xbe, 0x72, 0xab, 0x8d, 0x44, 0x5f, 0x5f, 0x81, 0x73, 0xb8, 0x54, 0xd1,
  0x2e, 0xf6, 0xff, 0xff, 0x04, 0x00, 0x00, 0x00, 0x40, 0x00, 0x00, 0x00,
  0x0c, 0xe9, 0xff, 0xff, 0x39, 0x58, 0x00, 0x00, 0x76, 0x91, 0x00, 0x00,
  0x7b, 0x77, 0x00, 0x00, 0x60, 0xe5, 0xff, 0xff, 0x92, 0x0c, 0x00, 0x00,
  0x6a, 0xeb, 0x00, 0x00, 0xae, 0x07, 0x00, 0x00, 0x73, 0x1e, 0x00, 0x00,
  0xb9, 0xb7, 0xff, 0xff, 0x93, 0xf0, 0xff, 0xff, 0xf2, 0xc4, 0xff, 0xff,
  0x96, 0xde, 0xff, 0xff, 0x8e, 0x51, 0x00, 0x00, 0x89, 0x8b, 0xff, 0xff,
  0xe5, 0x71, 0x00, 0x00, 0x7a, 0xf6, 0xff, 0xff, 0x04, 0x00, 0x00, 0x00,
  0x00, 0x02, 0x00, 0x00, 0xf8, 0x8a, 0x7c, 0x60, 0x37, 0x99, 0x05, 0x70,
  0x0e, 0x8a, 0xf7, 0x44, 0x7f, 0x7e, 0xbc, 0xf9, 0x33, 0x6e, 0xda, 0x6b,
  0x14, 0x4a, 0x81, 0x1e, 0xd1, 0x1c, 0x9b, 0xa7, 0x0a, 0x9b, 0x5d, 0x45,
  0x97, 0x56, 0x6e, 0xe4, 0xe0, 0x9d, 0xb3, 0x6f, 0xed, 0xd1, 0xb7, 0x81,
  0xd7, 0xbe, 0x04, 0x82, 0xa7, 0x6a, 0x31, 0x13, 0xbc, 0x0d, 0xaf, 0x0f,
  0x02, 0x4d, 0xb5, 0xc5, 0x7a, 0x7f, 0xe2, 0xc4, 0xb0, 0x97, 0x6b, 0xf8,
  0x48, 0x15, 0xe0, 0xb6, 0xd3, 0x05, 0x7f, 0x9d, 0x45, 0x7f, 0x1d, 0xe8,
  0xd9, 0x53, 0x94, 0x7f, 0x0b, 0xc3, 0x8b, 0xa3, 0x86, 0x04, 0x1f, 0x82,
  0x7e, 0x09, 0x47, 0xd6, 0x8f, 0xd2, 0xe5, 0xe3, 0xfe, 0x08, 0x1c, 0x14,
  0x9d, 0x81, 0xe8, 0xac, 0x31, 0x24, 0x2b, 0x41, 0xe3, 0x5c, 0x06, 0xbd,
  0x3a, 0xce, 0x94, 0x30, 0x93, 0x44, 0x42, 0x7f, 0x87, 0x1f, 0x76, 0xcd,
  0x72, 0xb1, 0xba, 0xef, 0x0b, 0x81, 0xea, 0x77, 0xbe, 0xa8, 0x9c, 0x58,
  0x9e, 0xb8, 0x8b, 0x75, 0xd5, 0xaf, 0xaa, 0xbc, 0x5e, 0xb8, 0xb4, 0x52,
  0x0a, 0x7f, 0xba, 0x79, 0xc8, 0x1a, 0x81, 0xc2, 0x4b, 0xe9, 0x13, 0xf9,
  0xe6, 0x09, 0xd5, 0xe1, 0xc8, 0x62, 0xfd, 0x59, 0x2a, 0x7f, 0xcc, 0x02,
  0x07, 0x4f, 0x46, 0xf7, 0xa1, 0xe7, 0xd6, 0xa6, 0x67, 0x23, 0xc9, 0x7c,
  0xe8, 0xc2, 0x7f, 0xd5, 0x34, 0x93, 0xaa, 0x12, 0x51, 0x34, 0xec, 0x44,
  0x4e, 0xd1, 0x7f, 0x65, 0xea, 0xae, 0x7c, 0xc9, 0x8e, 0x0a, 0x59, 0x21,
  0xf2, 0xd5, 0xfe, 0x11, 0x81, 0x68, 0xdc, 0xa4, 0x96, 0x0b, 0x60, 0x03,
  0x35, 0xbe, 0xa4, 0x9f, 0x05, 0x62, 0x32, 0xb5, 0x7f, 0x6b, 0x54, 0x56,
  0x70, 0x8b, 0xe4, 0xab, 0xbb, 0xc5, 0x00, 0xce, 0x40, 0x1f, 0x31, 0xa6,
  0x68, 0x81, 0xdf, 0x86, 0x3b, 0xe4, 0x54, 0xf6, 0x17, 0x22, 0x26, 0xed,
  0xfe, 0x27, 0x93, 0x81, 0xb9, 0xa2, 0xb3, 0x34, 0x75, 0x91, 0x6d, 0x6c,
  0xf2, 0xba, 0x85, 0x78, 0x92, 0x9e, 0xd4, 0x22, 0x77, 0x18, 0x60, 0x8a,
  0x90, 0xf0, 0xf5, 0x81, 0x6f, 0x6a, 0x58, 0x33, 0x74, 0x48, 0x5d, 0x9b,
  0x8a, 0xa7, 0xbd, 0x45, 0x01, 0xdb, 0x32, 0x7f, 0xb2, 0xf1, 0x40, 0xdf,
  0x82, 0x76, 0x5b, 0x76, 0x8c, 0xdb, 0xbb, 0xd5, 0x95, 0x38, 0x81, 0x2c,
  0x4c, 0xc7, 0x58, 0x14, 0xec, 0x81, 0x89, 0x9c, 0x8a, 0xbf, 0xd6, 0xef,
  0xd8, 0x23, 0x46, 0x0c, 0xf3, 0x81, 0xe3, 0xaf, 0xde, 0xad, 0x86, 0xa8,
  0x6c, 0x0c, 0x21, 0x61, 0x00, 0x2d, 0x11, 0xf4, 0x26, 0x0c, 0xd7, 0x7c,
  0x13, 0x8d, 0x19, 0x96, 0xeb, 0x5f, 0x7e, 0x7c, 0x7c, 0x32, 0x81, 0x43,
  0x9b, 0x4f, 0x33, 0xdd, 0x13, 0xf8, 0x74, 0x68, 0x10, 0x02, 0x0d, 0x7f,
  0x09, 0xe8, 0x29, 0xdb, 0x30, 0x61, 0xbb, 0xd3, 0x95, 0x85, 0xb1, 0xba,
  0x19, 0x03, 0xfa, 0x23, 0x46, 0x4a, 0x81, 0x0d, 0x05, 0x76, 0xfb, 0xbd,
  0x7d, 0x7f, 0xdf, 0xeb, 0xaf, 0x6c, 0x5f, 0x2f, 0xea, 0xb8, 0xd1, 0x96,
  0x66, 0x5a, 0xcc, 0x9a, 0xc6, 0xc9, 0xa0, 0xc2, 0x7b, 0xde, 0x97, 0x81,
  0xbd, 0x29, 0xa8, 0x21, 0xdc, 0xb9, 0xf5, 0xf7, 0xd9, 0xba, 0x1b, 0x0e,
  0x42, 0x7e, 0x5b, 0x04, 0x7f, 0x17, 0xab, 0x29, 0x47, 0x02, 0xcf, 0x96,
  0xcd, 0xd9, 0xad, 0x33, 0xe2, 0x37, 0xc7, 0x82, 0x46, 0x81, 0xf4, 0x67,
  0x13, 0x47, 0x14, 0x81, 0xc1, 0x55, 0x70, 0xdd, 0xda, 0x92, 0x2a, 0x6f,
  0x88, 0x3a, 0xe4, 0x7d, 0x41, 0xdf, 0x81, 0xed, 0xd5, 0xc2, 0xd8, 0x30,
  0x93, 0xc2, 0xc8, 0x03, 0xcb, 0x14, 0x6d, 0xfb, 0xc7, 0x97, 0x9c, 0xf9,
  0x73, 0xf0, 0xc1, 0x7e, 0x3f, 0x93, 0xc7, 0x76, 0x78, 0x81, 0x17, 0x2a,
  0x86, 0xf8, 0xff, 0xff, 0x04, 0x00, 0x00, 0x00, 0x80, 0x00, 0x00, 0x00,
  0xbb, 0x8d, 0xff, 0xff, 0xaf, 0xc1, 0xff, 0xff, 0x5d, 0xcb, 0xff, 0xff,
  0x39, 0xcc, 0xff, 0xff, 0xba, 0xc8, 0xff, 0xff, 0xc4, 0x02, 0x00, 0x00,
  0x4a, 0xda, 0xff, 0xff, 0xb3, 0xc8, 0xff, 0xff, 0xf0, 0x5f, 0xff, 0xff,
  0x06, 0xe5, 0xff, 0xff, 0x8b, 0xbb, 0xff, 0xff, 0x56, 0xdc, 0xff, 0xff,
  0xc8, 0xca, 0xff, 0xff, 0x2e, 0x92, 0xff, 0xff, 0x09, 0xb6, 0xff, 0xff,
  0x86, 0xc1, 0xff, 0xff, 0x62, 0xe6, 0xff, 0xff, 0xeb, 0x94, 0xff, 0xff,
  0x98, 0x55, 0xff, 0xff, 0xcf, 0x5b, 0xff, 0xff, 0xa5, 0xd0, 0xff, 0xff,
  0xec, 0xe6, 0xff, 0xff, 0xa9, 0xad, 0xff, 0xff, 0xc9, 0x9d, 0xff, 0xff,
  0xc2, 0xb8, 0xff, 0xff, 0x44, 0xc5, 0xff, 0xff, 0xfc, 0xbe, 0xff, 0xff,
  0x5f, 0xee, 0xff, 0xff, 0xcb, 0xb5, 0xff, 0xff, 0xdb, 0x6d, 0xff, 0xff,
  0x7f, 0x1a, 0x00, 0x00, 0xb5, 0xfd, 0xff, 0xff, 0x12, 0xf9, 0xff, 0xff,
  0x04, 0x00, 0x00, 0x00, 0x80, 0x01, 0x00, 0x00, 0x4f, 0x8b, 0x57, 0x8e,
  0xba, 0x1c, 0xdd, 0x2c, 0x5a, 0x60, 0x95, 0xb7, 0x25, 0x0d, 0x64, 0xf2,
  0xaa, 0xd7, 0x2b, 0xc0, 0x9e, 0xa9, 0x1d, 0xce, 0xef, 0x93, 0x25, 0x1b,
  0x1a, 0xab, 0x01, 0x56, 0x81, 0x8d, 0x3c, 0x8b, 0x70, 0x4c, 0x92, 0xa7,
  0xe1, 0x60, 0x77, 0x46, 0xdc, 0x01, 0x3e, 0xec, 0x2d, 0x01, 0x6e, 0xcd,
  0xe2, 0x74, 0xe4, 0x31, 0xed, 0x7a, 0x9c, 0x22, 0x0e, 0x07, 0xf4, 0x70,
  0xa4, 0x8a, 0x12, 0x6a, 0xda, 0xbc, 0xab, 0x33, 0xb7, 0x00, 0x5b, 0xc0,
  0x9e, 0x55, 0x9d, 0xf5, 0x34, 0x24, 0x1b, 0xa9, 0x19, 0x7f, 0x8e, 0xd7,
  0xd2, 0x1b, 0xf1, 0x31, 0x03, 0xa4, 0x60, 0xa6, 0xdb, 0x3d, 0xf6, 0xcb,
  0x41, 0xfb, 0xe3, 0xa5, 0xce, 0x1e, 0x4d, 0x4b, 0x92, 0x8f, 0x65, 0xae,
  0x2a, 0xd5, 0xd9, 0xb9, 0xf8, 0xb6, 0xf5, 0x22, 0x52, 0x0d, 0x70, 0xb5,
  0xff, 0x15, 0x95, 0x62, 0x60, 0x67, 0x70, 0x21, 0x95, 0x07, 0xa4, 0x55,
  0x28, 0x85, 0x58, 0x93, 0xc1, 0x92, 0x48, 0x11, 0x1a, 0x33, 0x02, 0x22,
  0xed, 0x66, 0x2a, 0x66, 0x15, 0x18, 0x5b, 0x05, 0xce, 0x0e, 0x6f, 0xb6,
  0x2a, 0xca, 0x3a, 0x6b, 0x54, 0xc0, 0x3c, 0x1f, 0x1b, 0x30, 0x40, 0x03,
  0x97, 0x46, 0x1a, 0x2a, 0x2f, 0x90, 0x2d, 0xf4, 0x56, 0xe7, 0x60, 0x4a,
  0x29, 0xed, 0x81, 0xf9, 0xae, 0x75, 0x38, 0xba, 0x56, 0x96, 0xa0, 0xcf,
  0x52, 0x94, 0x0c, 0xd8, 0x09, 0xe8, 0x13, 0x24, 0x38, 0xbf, 0xf8, 0xc1,
  0x6e, 0x45, 0xde, 0xd7, 0xc4, 0xbc, 0x9b, 0xe4, 0x8a, 0x81, 0x4c, 0xb2,
  0x7f, 0x55, 0x31, 0x71, 0x1e, 0x35, 0x37, 0x25, 0x16, 0x92, 0x10, 0x73,
  0xab, 0x38, 0x66, 0xa2, 0xc0, 0xdc, 0xc4, 0x65, 0x19, 0x0c, 0x8d, 0xcf,
  0x7b, 0xa0, 0x12, 0xfe, 0xa4, 0xaf, 0x1b, 0x88, 0x53, 0x98, 0x84, 0xe1,
  0x3b, 0x0d, 0x79, 0xe1, 0x21, 0xa6, 0x4a, 0x3d, 0x81, 0xfd, 0xf6, 0x17,
  0xa8, 0x0c, 0x1d, 0x4b, 0x6f, 0x0e, 0x4a, 0x14, 0xf8, 0xd3, 0x78, 0xd8,
  0xe0, 0xcd, 0xa2, 0xd9, 0x09, 0x6a, 0x41, 0xdc, 0xef, 0xfe, 0x15, 0xa2,
  0xcb, 0x91, 0xe5, 0xce, 0x38, 0x87, 0x46, 0x8e, 0x7e, 0x56, 0x8f, 0xcc,
  0xa8, 0x00, 0x98, 0x33, 0xc4, 0x83, 0x44, 0x04, 0x20, 0x9b, 0x95, 0xf0,
  0xa5, 0x1e, 0x7a, 0x00, 0x35, 0x3d, 0xe5, 0xbc, 0xbd, 0x4e, 0xbf, 0xeb,
  0xae, 0x37, 0x34, 0x36, 0x54, 0x7e, 0x02, 0xcc, 0x35, 0xe5, 0x19, 0xe1,
  0xec, 0x7f, 0xe0, 0xe5, 0xde, 0x00, 0x8f, 0xaf, 0x6e, 0x90, 0x34, 0x8d,
  0x23, 0xf5, 0xba, 0xb5, 0xfb, 0x18, 0x04, 0x5f, 0x87, 0x10, 0xa0, 0x74,
  0x65, 0xb7, 0x5d, 0x43, 0x68, 0x0e, 0x9b, 0x61, 0xc1, 0x68, 0xed, 0xf4,
  0x0a, 0xcf, 0x11, 0x89, 0x96, 0x90, 0xab, 0x90, 0x9e, 0xfa, 0xff, 0xff,
  0x04, 0x00, 0x00, 0x00, 0x18, 0x00, 0x00, 0x00, 0x46, 0x09, 0x00, 0x00,
  0x07, 0x2a, 0x00, 0x00, 0x78, 0x17, 0x00, 0x00, 0xb3, 0xec, 0xff, 0xff,
  0xd6, 0xdc, 0xff, 0xff, 0x21, 0x05, 0x00, 0x00, 0xc2, 0xfa, 0xff, 0xff,
  0x04, 0x00, 0x00, 0x00, 0x08, 0x00, 0x00, 0x00, 0x01, 0x00, 0x00, 0x00,
  0x02, 0x00, 0x00, 0x00, 0xe8, 0xb8, 0xff, 0xff, 0xec, 0xb8, 0xff, 0xff,
  0x0f, 0x00, 0x00, 0x00, 0x4d, 0x4c, 0x49, 0x52, 0x20, 0x43, 0x6f, 0x6e,
  0x76, 0x65, 0x72, 0x74, 0x65, 0x64, 0x2e, 0x00, 0x01, 0x00, 0x00, 0x00,
  0x14, 0x00, 0x00, 0x00, 0x00, 0x00, 0x0e, 0x00, 0x18, 0x00, 0x14, 0x00,
  0x10, 0x00, 0x0c, 0x00, 0x08, 0x00, 0x04, 0x00, 0x0e, 0x00, 0x00, 0x00,
  0x14, 0x00, 0x00, 0x00, 0x1c, 0x00, 0x00, 0x00, 0xd4, 0x06, 0x00, 0x00,
  0xd8, 0x06, 0x00, 0x00, 0xdc, 0x06, 0x00, 0x00, 0x04, 0x00, 0x00, 0x00,
  0x6d, 0x61, 0x69, 0x6e, 0x00, 0x00, 0x00, 0x00, 0x1a, 0x00, 0x00, 0x00,
  0x70, 0x06, 0x00, 0x00, 0x0c, 0x06, 0x00, 0x00, 0xbc, 0x05, 0x00, 0x00,
  0x7c, 0x05, 0x00, 0x00, 0x2c, 0x05, 0x00, 0x00, 0xdc, 0x04, 0x00, 0x00,
  0x9c, 0x04, 0x00, 0x00, 0x5c, 0x04, 0x00, 0x00, 0x1c, 0x04, 0x00, 0x00,
  0xd8, 0x03, 0x00, 0x00, 0x98, 0x03, 0x00, 0x00, 0x60, 0x03, 0x00, 0x00,
  0x1c, 0x03, 0x00, 0x00, 0xdc, 0x02, 0x00, 0x00, 0x9c, 0x02, 0x00, 0x00,
  0x58, 0x02, 0x00, 0x00, 0x18, 0x02, 0x00, 0x00, 0xe0, 0x01, 0x00, 0x00,
  0xa0, 0x01, 0x00, 0x00, 0x60, 0x01, 0x00, 0x00, 0x1c, 0x01, 0x00, 0x00,
  0xdc, 0x00, 0x00, 0x00, 0xa4, 0x00, 0x00, 0x00, 0x70, 0x00, 0x00, 0x00,
  0x38, 0x00, 0x00, 0x00, 0x04, 0x00, 0x00, 0x00, 0x3a, 0xfb, 0xff, 0xff,
  0x14, 0x00, 0x00, 0x00, 0x00, 0x00, 0x00, 0x09, 0x14, 0x00, 0x00, 0x00,
  0x18, 0x00, 0x00, 0x00, 0x06, 0x00, 0x00, 0x00, 0xb2, 0xfb, 0xff, 0xff,
  0x00, 0x00, 0x80, 0x3f, 0x01, 0x00, 0x00, 0x00, 0x3f, 0x00, 0x00, 0x00,
  0x01, 0x00, 0x00, 0x00, 0x3e, 0x00, 0x00, 0x00, 0x6a, 0xfb, 0xff, 0xff,
  0x14, 0x00, 0x00, 0x00, 0x00, 0x00, 0x00, 0x08, 0x10, 0x00, 0x00, 0x00,
  0x14, 0x00, 0x00, 0x00, 0x05, 0x00, 0x00, 0x00, 0xf4, 0xb9, 0xff, 0xff,
  0x01, 0x00, 0x00, 0x00, 0x3e, 0x00, 0x00, 0x00, 0x03, 0x00, 0x00, 0x00,
  0x3d, 0x00, 0x00, 0x00, 0x03, 0x00, 0x00, 0x00, 0x02, 0x00, 0x00, 0x00,
  0x9e, 0xfb, 0xff, 0xff, 0x14, 0x00, 0x00, 0x00, 0x00, 0x00, 0x00, 0x1b,
  0x10, 0x00, 0x00, 0x00, 0x14, 0x00, 0x00, 0x00, 0x04, 0x00, 0x00, 0x00,
  0x28, 0xba, 0xff, 0xff, 0x01, 0x00, 0x00, 0x00, 0x3d, 0x00, 0x00, 0x00,
  0x02, 0x00, 0x00, 0x00, 0x3c, 0x00, 0x00, 0x00, 0x01, 0x00, 0x00, 0x00,
  0xce, 0xfb, 0xff, 0xff, 0x14, 0x00, 0x00, 0x00, 0x00, 0x00, 0x00, 0x0a,
  0x14, 0x00, 0x00, 0x00, 0x18, 0x00, 0x00, 0x00, 0x03, 0x00, 0x00, 0x00,
  0x46, 0xfc, 0xff, 0xff, 0xff, 0xff, 0xff, 0xff, 0x01, 0x00, 0x00, 0x00,
  0x3c, 0x00, 0x00, 0x00, 0x02, 0x00, 0x00, 0x00, 0x39, 0x00, 0x00, 0x00,
  0x3b, 0x00, 0x00, 0x00, 0xce, 0xfa, 0xff, 0xff, 0x10, 0x00, 0x00, 0x00,
  0x00, 0x00, 0x00, 0x01, 0x18, 0x00, 0x00, 0x00, 0x1c, 0x00, 0x00, 0x00,
  0xc0, 0xfa, 0xff, 0xff, 0x00, 0x00, 0x00, 0x01, 0x01, 0x00, 0x00, 0x00,
  0x01, 0x00, 0x00, 0x00, 0x01, 0x00, 0x00, 0x00, 0x3b, 0x00, 0x00, 0x00,
  0x03, 0x00, 0x00, 0x00, 0x3a, 0x00, 0x00, 0x00, 0x05, 0x00, 0x00, 0x00,
  0x04, 0x00, 0x00, 0x00, 0x3e, 0xfc, 0xff, 0xff, 0x14, 0x00, 0x00, 0x00,
  0x00, 0x00, 0x00, 0x02, 0x1c, 0x00, 0x00, 0x00, 0x20, 0x00, 0x00, 0x00,
  0x02, 0x00, 0x00, 0x00, 0x30, 0xfc, 0xff, 0xff, 0x01, 0x00, 0x00, 0x00,
  0x01, 0x00, 0x00, 0x00, 0x01, 0x00, 0x00, 0x00, 0x01, 0x00, 0x00, 0x00,
  0x3a, 0x00, 0x00, 0x00, 0x03, 0x00, 0x00, 0x00, 0x38, 0x00, 0x00, 0x00,
  0x07, 0x00, 0x00, 0x00, 0x06, 0x00, 0x00, 0x00, 0x4a, 0xfb, 0xff, 0xff,
  0x10, 0x00, 0x00, 0x00, 0x00, 0x00, 0x00, 0x01, 0x18, 0x00, 0x00, 0x00,
  0x1c, 0x00, 0x00, 0x00, 0x3c, 0xfb, 0xff, 0xff, 0x00, 0x00, 0x00, 0x01,
  0x01, 0x00, 0x00, 0x00, 0x01, 0x00, 0x00, 0x00, 0x01, 0x00, 0x00, 0x00,
  0x39, 0x00, 0x00, 0x00, 0x03, 0x00, 0x00, 0x00, 0x38, 0x00, 0x00, 0x00,
  0x09, 0x00, 0x00, 0x00, 0x08, 0x00, 0x00, 0x00, 0x86, 0xfb, 0xff, 0xff,
  0x10, 0x00, 0x00, 0x00, 0x00, 0x00, 0x00, 0x01, 0x18, 0x00, 0x00, 0x00,
  0x1c, 0x00, 0x00, 0x00, 0x78, 0xfb, 0xff, 0xff, 0x00, 0x00, 0x00, 0x01,
  0x01, 0x00, 0x00, 0x00, 0x01, 0x00, 0x00, 0x00, 0x01, 0x00, 0x00, 0x00,
  0x38, 0x00, 0x00, 0x00, 0x03, 0x00, 0x00, 0x00, 0x37, 0x00, 0x00, 0x00,
  0x0b, 0x00, 0x00, 0x00, 0x0a, 0x00, 0x00, 0x00, 0xf6, 0xfc, 0xff, 0xff,
  0x14, 0x00, 0x00, 0x00, 0x00, 0x00, 0x00, 0x0a, 0x14, 0x00, 0x00, 0x00,
  0x18, 0x00, 0x00, 0x00, 0x03, 0x00, 0x00, 0x00, 0x6e, 0xfd, 0xff, 0xff,
  0xff, 0xff, 0xff, 0xff, 0x01, 0x00, 0x00, 0x00, 0x37, 0x00, 0x00, 0x00,
  0x02, 0x00, 0x00, 0x00, 0x34, 0x00, 0x00, 0x00, 0x36, 0x00, 0x00, 0x00,
  0xf6, 0xfb, 0xff, 0xff, 0x10, 0x00, 0x00, 0x00, 0x00, 0x00, 0x00, 0x01,
  0x18, 0x00, 0x00, 0x00, 0x1c, 0x00, 0x00, 0x00, 0xe8, 0xfb, 0xff, 0xff,
  0x00, 0x00, 0x00, 0x01, 0x01, 0x00, 0x00, 0x00, 0x01, 0x00, 0x00, 0x00,
  0x01, 0x00, 0x00, 0x00, 0x36, 0x00, 0x00, 0x00, 0x03, 0x00, 0x00, 0x00,
  0x35, 0x00, 0x00, 0x00, 0x0d, 0x00, 0x00, 0x00, 0x0c, 0x00, 0x00, 0x00,
  0x66, 0xfd, 0xff, 0xff, 0x14, 0x00, 0x00, 0x00, 0x00, 0x00, 0x00, 0x02,
  0x1c, 0x00, 0x00, 0x00, 0x20, 0x00, 0x00, 0x00, 0x02, 0x00, 0x00, 0x00,
  0x58, 0xfd, 0xff, 0xff, 0x01, 0x00, 0x00, 0x00, 0x01, 0x00, 0x00, 0x00,
  0x01, 0x00, 0x00, 0x00, 0x01, 0x00, 0x00, 0x00, 0x35, 0x00, 0x00, 0x00,
  0x03, 0x00, 0x00, 0x00, 0x33, 0x00, 0x00, 0x00, 0x0f, 0x00, 0x00, 0x00,
  0x0e, 0x00, 0x00, 0x00, 0x72, 0xfc, 0xff, 0xff, 0x10, 0x00, 0x00, 0x00,
  0x00, 0x00, 0x00, 0x01, 0x18, 0x00, 0x00, 0x00, 0x1c, 0x00, 0x00, 0x00,
  0x64, 0xfc, 0xff, 0xff, 0x00, 0x00, 0x00, 0x01, 0x01, 0x00, 0x00, 0x00,
  0x01, 0x00, 0x00, 0x00, 0x01, 0x00, 0x00, 0x00, 0x34, 0x00, 0x00, 0x00,
  0x03, 0x00, 0x00, 0x00, 0x33, 0x00, 0x00, 0x00, 0x11, 0x00, 0x00, 0x00,
  0x10, 0x00, 0x00, 0x00, 0xae, 0xfc, 0xff, 0xff, 0x10, 0x00, 0x00, 0x00,
  0x00, 0x00, 0x00, 0x01, 0x18, 0x00, 0x00, 0x00, 0x1c, 0x00, 0x00, 0x00,
  0xa0, 0xfc, 0xff, 0xff, 0x00, 0x00, 0x00, 0x01, 0x01, 0x00, 0x00, 0x00,
  0x01, 0x00, 0x00, 0x00, 0x01, 0x00, 0x00, 0x00, 0x33, 0x00, 0x00, 0x00,
  0x03, 0x00, 0x00, 0x00, 0x32, 0x00, 0x00, 0x00, 0x13, 0x00, 0x00, 0x00,
  0x12, 0x00, 0x00, 0x00, 0x1e, 0xfe, 0xff, 0xff, 0x14, 0x00, 0x00, 0x00,
  0x00, 0x00, 0x00, 0x05, 0x24, 0x00, 0x00, 0x00, 0x28, 0x00, 0x00, 0x00,
  0x01, 0x00, 0x00, 0x00, 0x3a, 0xfd, 0xff, 0xff, 0x02, 0x00, 0x00, 0x00,
  0x02, 0x00, 0x00, 0x00, 0x02, 0x00, 0x00, 0x00, 0x02, 0x00, 0x00, 0x00,
  0x00, 0x00, 0x00, 0x01, 0x01, 0x00, 0x00, 0x00, 0x32, 0x00, 0x00, 0x00,
  0x01, 0x00, 0x00, 0x00, 0x31, 0x00, 0x00, 0x00, 0x5e, 0xfe, 0xff, 0xff,
  0x14, 0x00, 0x00, 0x00, 0x00, 0x00, 0x00, 0x0a, 0x14, 0x00, 0x00, 0x00,
  0x18, 0x00, 0x00, 0x00, 0x03, 0x00, 0x00, 0x00, 0xd6, 0xfe, 0xff, 0xff,
  0xff, 0xff, 0xff, 0xff, 0x01, 0x00, 0x00, 0x00, 0x31, 0x00, 0x00, 0x00,
  0x02, 0x00, 0x00, 0x00, 0x2e, 0x00, 0x00, 0x00, 0x30, 0x00, 0x00, 0x00,
  0x5e, 0xfd, 0xff, 0xff, 0x10, 0x00, 0x00, 0x00, 0x00, 0x00, 0x00, 0x01,
  0x18, 0x00, 0x00, 0x00, 0x1c, 0x00, 0x00, 0x00, 0x50, 0xfd, 0xff, 0xff,
  0x00, 0x00, 0x00, 0x01, 0x01, 0x00, 0x00, 0x00, 0x01, 0x00, 0x00, 0x00,
  0x01, 0x00, 0x00, 0x00, 0x30, 0x00, 0x00, 0x00, 0x03, 0x00, 0x00, 0x00,
  0x2f, 0x00, 0x00, 0x00, 0x15, 0x00, 0x00, 0x00, 0x14, 0x00, 0x00, 0x00,
  0xce, 0xfe, 0xff, 0xff, 0x14, 0x00, 0x00, 0x00, 0x00, 0x00, 0x00, 0x02,
  0x1c, 0x00, 0x00, 0x00, 0x20, 0x00, 0x00, 0x00, 0x02, 0x00, 0x00, 0x00,
  0xc0, 0xfe, 0xff, 0xff, 0x01, 0x00, 0x00, 0x00, 0x01, 0x00, 0x00, 0x00,
  0x01, 0x00, 0x00, 0x00, 0x01, 0x00, 0x00, 0x00, 0x2f, 0x00, 0x00, 0x00,
  0x03, 0x00, 0x00, 0x00, 0x2d, 0x00, 0x00, 0x00, 0x17, 0x00, 0x00, 0x00,
  0x16, 0x00, 0x00, 0x00, 0xda, 0xfd, 0xff, 0xff, 0x10, 0x00, 0x00, 0x00,
  0x00, 0x00, 0x00, 0x01, 0x18, 0x00, 0x00, 0x00, 0x1c, 0x00, 0x00, 0x00,
  0xcc, 0xfd, 0xff, 0xff, 0x00, 0x00, 0x00, 0x01, 0x01, 0x00, 0x00, 0x00,
  0x01, 0x00, 0x00, 0x00, 0x01, 0x00, 0x00, 0x00, 0x2e, 0x00, 0x00, 0x00,
  0x03, 0x00, 0x00, 0x00, 0x2d, 0x00, 0x00, 0x00, 0x19, 0x00, 0x00, 0x00,
  0x18, 0x00, 0x00, 0x00, 0x16, 0xfe, 0xff, 0xff, 0x10, 0x00, 0x00, 0x00,
  0x00, 0x00, 0x00, 0x01, 0x18, 0x00, 0x00, 0x00, 0x1c, 0x00, 0x00, 0x00,
  0x08, 0xfe, 0xff, 0xff, 0x00, 0x00, 0x00, 0x01, 0x01, 0x00, 0x00, 0x00,
  0x01, 0x00, 0x00, 0x00, 0x01, 0x00, 0x00, 0x00, 0x2d, 0x00, 0x00, 0x00,
  0x03, 0x00, 0x00, 0x00, 0x2c, 0x00, 0x00, 0x00, 0x1b, 0x00, 0x00, 0x00,
  0x1a, 0x00, 0x00, 0x00, 0xb2, 0xfe, 0xff, 0xff, 0x1c, 0x00, 0x00, 0x00,
  0x00, 0x00, 0x00, 0x0a, 0x1c, 0x00, 0x00, 0x00, 0x20, 0x00, 0x00, 0x00,
  0x03, 0x00, 0x00, 0x00, 0x00, 0x00, 0x06, 0x00, 0x08, 0x00, 0x04, 0x00,
  0x06, 0x00, 0x00, 0x00, 0xff, 0xff, 0xff, 0xff, 0x01, 0x00, 0x00, 0x00,
  0x2c, 0x00, 0x00, 0x00, 0x02, 0x00, 0x00, 0x00, 0x29, 0x00, 0x00, 0x00,
  0x2b, 0x00, 0x00, 0x00, 0x8e, 0xfe, 0xff, 0xff, 0x10, 0x00, 0x00, 0x00,
  0x00, 0x00, 0x00, 0x01, 0x18, 0x00, 0x00, 0x00, 0x1c, 0x00, 0x00, 0x00,
  0x80, 0xfe, 0xff, 0xff, 0x00, 0x00, 0x00, 0x01, 0x01, 0x00, 0x00, 0x00,
  0x01, 0x00, 0x00, 0x00, 0x01, 0x00, 0x00, 0x00, 0x2b, 0x00, 0x00, 0x00,
  0x03, 0x00, 0x00, 0x00, 0x2a, 0x00, 0x00, 0x00, 0x1d, 0x00, 0x00, 0x00,
  0x1c, 0x00, 0x00, 0x00, 0x00, 0x00, 0x0e, 0x00, 0x18, 0x00, 0x14, 0x00,
  0x10, 0x00, 0x0c, 0x00, 0x0b, 0x00, 0x04, 0x00, 0x0e, 0x00, 0x00, 0x00,
  0x20, 0x00, 0x00, 0x00, 0x00, 0x00, 0x00, 0x02, 0x28, 0x00, 0x00, 0x00,
  0x2c, 0x00, 0x00, 0x00, 0x02, 0x00, 0x00, 0x00, 0x0c, 0x00, 0x10, 0x00,
  0x00, 0x00, 0x0c, 0x00, 0x08, 0x00, 0x04, 0x00, 0x0c, 0x00, 0x00, 0x00,
  0x01, 0x00, 0x00, 0x00, 0x01, 0x00, 0x00, 0x00, 0x01, 0x00, 0x00, 0x00,
  0x01, 0x00, 0x00, 0x00, 0x2a, 0x00, 0x00, 0x00, 0x03, 0x00, 0x00, 0x00,
  0x28, 0x00, 0x00, 0x00, 0x1f, 0x00, 0x00, 0x00, 0x1e, 0x00, 0x00, 0x00,
  0x26, 0xff, 0xff, 0xff, 0x10, 0x00, 0x00, 0x00, 0x00, 0x00, 0x00, 0x01,
  0x18, 0x00, 0x00, 0x00, 0x1c, 0x00, 0x00, 0x00, 0x18, 0xff, 0xff, 0xff,
  0x00, 0x00, 0x00, 0x01, 0x01, 0x00, 0x00, 0x00, 0x01, 0x00, 0x00, 0x00,
  0x01, 0x00, 0x00, 0x00, 0x29, 0x00, 0x00, 0x00, 0x03, 0x00, 0x00, 0x00,
  0x28, 0x00, 0x00, 0x00, 0x21, 0x00, 0x00, 0x00, 0x20, 0x00, 0x00, 0x00,
  0x62, 0xff, 0xff, 0xff, 0x10, 0x00, 0x00, 0x00, 0x00, 0x00, 0x00, 0x01,
  0x18, 0x00, 0x00, 0x00, 0x1c, 0x00, 0x00, 0x00, 0x54, 0xff, 0xff, 0xff,
  0x00, 0x00, 0x00, 0x01, 0x01, 0x00, 0x00, 0x00, 0x01, 0x00, 0x00, 0x00,
  0x01, 0x00, 0x00, 0x00, 0x28, 0x00, 0x00, 0x00, 0x03, 0x00, 0x00, 0x00,
  0x27, 0x00, 0x00, 0x00, 0x23, 0x00, 0x00, 0x00, 0x22, 0x00, 0x00, 0x00,
  0x00, 0x00, 0x0e, 0x00, 0x1a, 0x00, 0x14, 0x00, 0x10, 0x00, 0x0c, 0x00,
  0x0b, 0x00, 0x04, 0x00, 0x0e, 0x00, 0x00, 0x00, 0x24, 0x00, 0x00, 0x00,
  0x00, 0x00, 0x00, 0x05, 0x34, 0x00, 0x00, 0x00, 0x38, 0x00, 0x00, 0x00,
  0x01, 0x00, 0x00, 0x00, 0x00, 0x00, 0x0e, 0x00, 0x18, 0x00, 0x17, 0x00,
  0x10, 0x00, 0x0c, 0x00, 0x08, 0x00, 0x04, 0x00, 0x0e, 0x00, 0x00, 0x00,
  0x02, 0x00, 0x00, 0x00, 0x02, 0x00, 0x00, 0x00, 0x02, 0x00, 0x00, 0x00,
  0x02, 0x00, 0x00, 0x00, 0x00, 0x00, 0x00, 0x01, 0x01, 0x00, 0x00, 0x00,
  0x27, 0x00, 0x00, 0x00, 0x01, 0x00, 0x00, 0x00, 0x26, 0x00, 0x00, 0x00,
  0x00, 0x00, 0x0e, 0x00, 0x14, 0x00, 0x00, 0x00, 0x10, 0x00, 0x0c, 0x00,
  0x0b, 0x00, 0x04, 0x00, 0x0e, 0x00, 0x00, 0x00, 0x1c, 0x00, 0x00, 0x00,
  0x00, 0x00, 0x00, 0x01, 0x24, 0x00, 0x00, 0x00, 0x28, 0x00, 0x00, 0x00,
  0x0c, 0x00, 0x10, 0x00, 0x00, 0x00, 0x0c, 0x00, 0x08, 0x00, 0x07, 0x00,
  0x0c, 0x00, 0x00, 0x00, 0x00, 0x00, 0x00, 0x01, 0x02, 0x00, 0x00, 0x00,
  0x02, 0x00, 0x00, 0x00, 0x01, 0x00, 0x00, 0x00, 0x26, 0x00, 0x00, 0x00,
  0x03, 0x00, 0x00, 0x00, 0x00, 0x00, 0x00, 0x00, 0x25, 0x00, 0x00, 0x00,
  0x24, 0x00, 0x00, 0x00, 0x01, 0x00, 0x00, 0x00, 0x3f, 0x00, 0x00, 0x00,
  0x01, 0x00, 0x00, 0x00, 0x00, 0x00, 0x00, 0x00, 0x40, 0x00, 0x00, 0x00,
  0x2c, 0x40, 0x00, 0x00, 0xd0, 0x3f, 0x00, 0x00, 0x18, 0x3f, 0x00, 0x00,
  0x74, 0x3e, 0x00, 0x00, 0xa0, 0x3c, 0x00, 0x00, 0xbc, 0x3a, 0x00, 0x00,
  0xa8, 0x39, 0x00, 0x00, 0x6c, 0x38, 0x00, 0x00, 0x80, 0x36, 0x00, 0x00,
  0x9c, 0x34, 0x00, 0x00, 0x88, 0x33, 0x00, 0x00, 0x64, 0x32, 0x00, 0x00,
  0x90, 0x30, 0x00, 0x00, 0xac, 0x2e, 0x00, 0x00, 0x98, 0x2d, 0x00, 0x00,
  0x70, 0x2c, 0x00, 0x00, 0x98, 0x2a, 0x00, 0x00, 0xb4, 0x28, 0x00, 0x00,
  0xa0, 0x27, 0x00, 0x00, 0x7c, 0x26, 0x00, 0x00, 0x68, 0x25, 0x00, 0x00,
  0x44, 0x24, 0x00, 0x00, 0x90, 0x23, 0x00, 0x00, 0xc8, 0x22, 0x00, 0x00,
  0xb0, 0x21, 0x00, 0x00, 0x8c, 0x20, 0x00, 0x00, 0xd8, 0x1f, 0x00, 0x00,
  0x14, 0x1f, 0x00, 0x00, 0x00, 0x1e, 0x00, 0x00, 0xdc, 0x1c, 0x00, 0x00,
  0x28, 0x1c, 0x00, 0x00, 0x60, 0x1b, 0x00, 0x00, 0x48, 0x1a, 0x00, 0x00,
  0x24, 0x19, 0x00, 0x00, 0x70, 0x18, 0x00, 0x00, 0xac, 0x17, 0x00, 0x00,
  0x98, 0x16, 0x00, 0x00, 0x74, 0x15, 0x00, 0x00, 0x88, 0x14, 0x00, 0x00,
  0xec, 0x13, 0x00, 0x00, 0xf8, 0x12, 0x00, 0x00, 0x04, 0x12, 0x00, 0x00,
  0x18, 0x11, 0x00, 0x00, 0x24, 0x10, 0x00, 0x00, 0x90, 0x0f, 0x00, 0x00,
  0x9c, 0x0e, 0x00, 0x00, 0xa8, 0x0d, 0x00, 0x00, 0xb4, 0x0c, 0x00, 0x00,
  0xc0, 0x0b, 0x00, 0x00, 0x2c, 0x0b, 0x00, 0x00, 0x90, 0x0a, 0x00, 0x00,
  0x9c, 0x09, 0x00, 0x00, 0xa8, 0x08, 0x00, 0x00, 0xb4, 0x07, 0x00, 0x00,
  0xc0, 0x06, 0x00, 0x00, 0x2c, 0x06, 0x00, 0x00, 0x30, 0x05, 0x00, 0x00,
  0x34, 0x04, 0x00, 0x00, 0x40, 0x03, 0x00, 0x00, 0x44, 0x02, 0x00, 0x00,
  0xb0, 0x01, 0x00, 0x00, 0x1c, 0x01, 0x00, 0x00, 0x80, 0x00, 0x00, 0x00,
  0x04, 0x00, 0x00, 0x00, 0xea, 0xc0, 0xff, 0xff, 0x00, 0x00, 0x00, 0x01,
  0x18, 0x00, 0x00, 0x00, 0x20, 0x00, 0x00, 0x00, 0x3c, 0x00, 0x00, 0x00,
  0x40, 0x00, 0x00, 0x00, 0x00, 0x00, 0x00, 0x09, 0x50, 0x00, 0x00, 0x00,
  0x02, 0x00, 0x00, 0x00, 0xff, 0xff, 0xff, 0xff, 0x06, 0x00, 0x00, 0x00,
  0xcc, 0xc0, 0xff, 0xff, 0x08, 0x00, 0x00, 0x00, 0x10, 0x00, 0x00, 0x00,
  0x01, 0x00, 0x00, 0x00, 0x80, 0xff, 0xff, 0xff, 0xff, 0xff, 0xff, 0xff,
  0x01, 0x00, 0x00, 0x00, 0x00, 0x00, 0x80, 0x3b, 0x1b, 0x00, 0x00, 0x00,
  0x53, 0x74, 0x61, 0x74, 0x65, 0x66, 0x75, 0x6c, 0x50, 0x61, 0x72, 0x74,
  0x69, 0x74, 0x69, 0x6f, 0x6e, 0x65, 0x64, 0x43, 0x61, 0x6c, 0x6c, 0x5f,
  0x31, 0x3a, 0x30, 0x00, 0x02, 0x00, 0x00, 0x00, 0x01, 0x00, 0x00, 0x00,
  0x06, 0x00, 0x00, 0x00, 0x62, 0xc1, 0xff, 0xff, 0x00, 0x00, 0x00, 0x01,
  0x18, 0x00, 0x00, 0x00, 0x20, 0x00, 0x00, 0x00, 0x3c, 0x00, 0x00, 0x00,
  0x3f, 0x00, 0x00, 0x00, 0x00, 0x00, 0x00, 0x09, 0x70, 0x00, 0x00, 0x00,
  0x02, 0x00, 0x00, 0x00, 0xff, 0xff, 0xff, 0xff, 0x06, 0x00, 0x00, 0x00,
  0x44, 0xc1, 0xff, 0xff, 0x08, 0x00, 0x00, 0x00, 0x10, 0x00, 0x00, 0x00,
  0x01, 0x00, 0x00, 0x00, 0x1c, 0x00, 0x00, 0x00, 0x00, 0x00, 0x00, 0x00,
  0x01, 0x00, 0x00, 0x00, 0x27, 0xdb, 0x92, 0x38, 0x38, 0x00, 0x00, 0x00,
  0x66, 0x75, 0x6e, 0x63, 0x74, 0x69, 0x6f, 0x6e, 0x61, 0x6c, 0x5f, 0x31,
  0x2f, 0x64, 0x65, 0x6e, 0x73, 0x65, 0x5f, 0x31, 0x2f, 0x4d, 0x61, 0x74,
  0x4d, 0x75, 0x6c, 0x3b, 0x66, 0x75, 0x6e, 0x63, 0x74, 0x69, 0x6f, 0x6e,
  0x61, 0x6c, 0x5f, 0x31, 0x2f, 0x64, 0x65, 0x6e, 0x73, 0x65, 0x5f, 0x31,
  0x2f, 0x42, 0x69, 0x61, 0x73, 0x41, 0x64, 0x64, 0x00, 0x00, 0x00, 0x00,
  0x02, 0x00, 0x00, 0x00, 0x01, 0x00, 0x00, 0x00, 0x06, 0x00, 0x00, 0x00,
  0xfa, 0xc1, 0xff, 0xff, 0x00, 0x00, 0x00, 0x01, 0x18, 0x00, 0x00, 0x00,
  0x20, 0x00, 0x00, 0x00, 0x40, 0x00, 0x00, 0x00, 0x3e, 0x00, 0x00, 0x00,
  0x00, 0x00, 0x00, 0x09, 0x68, 0x00, 0x00, 0x00, 0x02, 0x00, 0x00, 0x00,
  0xff, 0xff, 0xff, 0xff, 0x40, 0x00, 0x00, 0x00, 0xdc, 0xc1, 0xff, 0xff,
  0x08, 0x00, 0x00, 0x00, 0x14, 0x00, 0x00, 0x00, 0x01, 0x00, 0x00, 0x00,
  0x80, 0xff, 0xff, 0xff, 0xff, 0xff, 0xff, 0xff, 0x00, 0x00, 0x00, 0x00,
  0x01, 0x00, 0x00, 0x00, 0xce, 0xe3, 0xce, 0x38, 0x2c, 0x00, 0x00, 0x00,
  0x66, 0x75, 0x6e, 0x63, 0x74, 0x69, 0x6f, 0x6e, 0x61, 0x6c, 0x5f, 0x31,
  0x2f, 0x67, 0x6c, 0x6f, 0x62, 0x61, 0x6c, 0x5f, 0x61, 0x76, 0x65, 0x72,
  0x61, 0x67, 0x65, 0x5f, 0x70, 0x6f, 0x6f, 0x6c, 0x69, 0x6e, 0x67, 0x32,
  0x64, 0x5f, 0x31, 0x2f, 0x4d, 0x65, 0x61, 0x6e, 0x00, 0x00, 0x00, 0x00,
  0x02, 0x00, 0x00, 0x00, 0x01, 0x00, 0x00, 0x00, 0x40, 0x00, 0x00, 0x00,
  0x8a, 0xc2, 0xff, 0xff, 0x00, 0x00, 0x00, 0x01, 0x18, 0x00, 0x00, 0x00,
  0x28, 0x00, 0x00, 0x00, 0x44, 0x00, 0x00, 0x00, 0x3d, 0x00, 0x00, 0x00,
  0x00, 0x00, 0x00, 0x09, 0x60, 0x00, 0x00, 0x00, 0x04, 0x00, 0x00, 0x00,
  0xff, 0xff, 0xff, 0xff, 0x0c, 0x00, 0x00, 0x00, 0x0c, 0x00, 0x00, 0x00,
  0x40, 0x00, 0x00, 0x00, 0x74, 0xc2, 0xff, 0xff, 0x08, 0x00, 0x00, 0x00,
  0x10, 0x00, 0x00, 0x00, 0x01, 0x00, 0x00, 0x00, 0x80, 0xff, 0xff, 0xff,
  0xff, 0xff, 0xff, 0xff, 0x01, 0x00, 0x00, 0x00, 0x54, 0xa3, 0xd4, 0x38,
  0x23, 0x00, 0x00, 0x00, 0x66, 0x75, 0x6e, 0x63, 0x74, 0x69, 0x6f, 0x6e,
  0x61, 0x6c, 0x5f, 0x31, 0x2f, 0x63, 0x6f, 0x6e, 0x63, 0x61, 0x74, 0x65,
  0x6e, 0x61, 0x74, 0x65, 0x5f, 0x33, 0x5f, 0x31, 0x2f, 0x63, 0x6f, 0x6e,
  0x63, 0x61, 0x74, 0x00, 0x04, 0x00, 0x00, 0x00, 0x01, 0x00, 0x00, 0x00,
  0x0c, 0x00, 0x00, 0x00, 0x0c, 0x00, 0x00, 0x00, 0x40, 0x00, 0x00, 0x00,
  0x1a, 0xc3, 0xff, 0xff, 0x00, 0x00, 0x00, 0x01, 0x18, 0x00, 0x00, 0x00,
  0x28, 0x00, 0x00, 0x00, 0x48, 0x00, 0x00, 0x00, 0x3c, 0x00, 0x00, 0x00,
  0x00, 0x00, 0x00, 0x09, 0xc8, 0x00, 0x00, 0x00, 0x04, 0x00, 0x00, 0x00,
  0xff, 0xff, 0xff, 0xff, 0x0c, 0x00, 0x00, 0x00, 0x0c, 0x00, 0x00, 0x00,
  0x20, 0x00, 0x00, 0x00, 0x04, 0xc3, 0xff, 0xff, 0x08, 0x00, 0x00, 0x00,
  0x14, 0x00, 0x00, 0x00, 0x01, 0x00, 0x00, 0x00, 0x80, 0xff, 0xff, 0xff,
  0xff, 0xff, 0xff, 0xff, 0x00, 0x00, 0x00, 0x00, 0x01, 0x00, 0x00, 0x00,
  0x54, 0xa3, 0xd4, 0x38, 0x84, 0x00, 0x00, 0x00, 0x66, 0x75, 0x6e, 0x63,
  0x74, 0x69, 0x6f, 0x6e, 0x61, 0x6c, 0x5f, 0x31, 0x2f, 0x63, 0x6f, 0x6e,
  0x76, 0x32, 0x64, 0x5f, 0x31, 0x32, 0x5f, 0x31, 0x2f, 0x52, 0x65, 0x6c,
  0x75, 0x3b, 0x66, 0x75, 0x6e, 0x63, 0x74, 0x69, 0x6f, 0x6e, 0x61, 0x6c,
  0x5f, 0x31, 0x2f, 0x63, 0x6f, 0x6e, 0x76, 0x32, 0x64, 0x5f, 0x31, 0x32,
  0x5f, 0x31, 0x2f, 0x42, 0x69, 0x61, 0x73, 0x41, 0x64, 0x64, 0x3b, 0x66,
  0x75, 0x6e, 0x63, 0x74, 0x69, 0x6f, 0x6e, 0x61, 0x6c, 0x5f, 0x31, 0x2f,
  0x63, 0x6f, 0x6e, 0x76, 0x32, 0x64, 0x5f, 0x31, 0x32, 0x5f, 0x31, 0x2f,
  0x63, 0x6f, 0x6e, 0x76, 0x6f, 0x6c, 0x75, 0x74, 0x69, 0x6f, 0x6e, 0x3b,
  0x66, 0x75, 0x6e, 0x63, 0x74, 0x69, 0x6f, 0x6e, 0x61, 0x6c, 0x5f, 0x31,
  0x2f, 0x63, 0x6f, 0x6e, 0x76, 0x32, 0x64, 0x5f, 0x31, 0x32, 0x5f, 0x31,
  0x2f, 0x53, 0x71, 0x75, 0x65, 0x65, 0x7a, 0x65, 0x00, 0x00, 0x00, 0x00,
  0x04, 0x00, 0x00, 0x00, 0x01, 0x00, 0x00, 0x00, 0x0c, 0x00, 0x00, 0x00,
  0x0c, 0x00, 0x00, 0x00, 0x20, 0x00, 0x00, 0x00, 0x12, 0xc4, 0xff, 0xff,
  0x00, 0x00, 0x00, 0x01, 0x18, 0x00, 0x00, 0x00, 0x28, 0x00, 0x00, 0x00,
  0x48, 0x00, 0x00, 0x00, 0x3b, 0x00, 0x00, 0x00, 0x00, 0x00, 0x00, 0x09,
  0xc0, 0x00, 0x00, 0x00, 0x04, 0x00, 0x00, 0x00, 0xff, 0xff, 0xff, 0xff,
  0x0c, 0x00, 0x00, 0x00, 0x0c, 0x00, 0x00, 0x00, 0x10, 0x00, 0x00, 0x00,
  0xfc, 0xc3, 0xff, 0xff, 0x08, 0x00, 0x00, 0x00, 0x14, 0x00, 0x00, 0x00,
  0x01, 0x00, 0x00, 0x00, 0x00, 0x00, 0x00, 0x00, 0x00, 0x00, 0x00, 0x00,
  0x00, 0x00, 0x00, 0x00, 0x01, 0x00, 0x00, 0x00, 0x37, 0x3f, 0x0e, 0x39,
  0x7f, 0x00, 0x00, 0x00, 0x66, 0x75, 0x6e, 0x63, 0x74, 0x69, 0x6f, 0x6e,
  0x61, 0x6c, 0x5f, 0x31, 0x2f, 0x64, 0x65, 0x70, 0x74, 0x68, 0x77, 0x69,
  0x73, 0x65, 0x5f, 0x63, 0x6f, 0x6e, 0x76, 0x32, 0x64, 0x5f, 0x33, 0x5f,
  0x31, 0x2f, 0x42, 0x69, 0x61, 0x73, 0x41, 0x64, 0x64, 0x3b, 0x66, 0x75,
  0x6e, 0x63, 0x74, 0x69, 0x6f, 0x6e, 0x61, 0x6c, 0x5f, 0x31, 0x2f, 0x64,
  0x65, 0x70, 0x74, 0x68, 0x77, 0x69, 0x73, 0x65, 0x5f, 0x63, 0x6f, 0x6e,
  0x76, 0x32, 0x64, 0x5f, 0x33, 0x5f, 0x31, 0x2f, 0x64, 0x65, 0x70, 0x74,
  0x68, 0x77, 0x69, 0x73, 0x65, 0x3b, 0x66, 0x75, 0x6e, 0x63, 0x74, 0x69,
  0x6f, 0x6e, 0x61, 0x6c, 0x5f, 0x31, 0x2f, 0x64, 0x65, 0x70, 0x74, 0x68,
  0x77, 0x69, 0x73, 0x65, 0x5f, 0x63, 0x6f, 0x6e, 0x76, 0x32, 0x64, 0x5f,
  0x33, 0x5f, 0x31, 0x2f, 0x53, 0x71, 0x75, 0x65, 0x65, 0x7a, 0x65, 0x00,
  0x04, 0x00, 0x00, 0x00, 0x01, 0x00, 0x00, 0x00, 0x0c, 0x00, 0x00, 0x00,
  0x0c, 0x00, 0x00, 0x00, 0x10, 0x00, 0x00, 0x00, 0x02, 0xc5, 0xff, 0xff,
  0x00, 0x00, 0x00, 0x01, 0x18, 0x00, 0x00, 0x00, 0x28, 0x00, 0x00, 0x00,
  0x48, 0x00, 0x00, 0x00, 0x3a, 0x00, 0x00, 0x00, 0x00, 0x00, 0x00, 0x09,
  0xc8, 0x00, 0x00, 0x00, 0x04, 0x00, 0x00, 0x00, 0xff, 0xff, 0xff, 0xff,
  0x0c, 0x00, 0x00, 0x00, 0x0c, 0x00, 0x00, 0x00, 0x20, 0x00, 0x00, 0x00,
  0xec, 0xc4, 0xff, 0xff, 0x08, 0x00, 0x00, 0x00, 0x14, 0x00, 0x00, 0x00,
  0x01, 0x00, 0x00, 0x00, 0x80, 0xff, 0xff, 0xff, 0xff, 0xff, 0xff, 0xff,
  0x00, 0x00, 0x00, 0x00, 0x01, 0x00, 0x00, 0x00, 0x54, 0xa3, 0xd4, 0x38,
  0x84, 0x00, 0x00, 0x00, 0x66, 0x75, 0x6e, 0x63, 0x74, 0x69, 0x6f, 0x6e,
  0x61, 0x6c, 0x5f, 0x31, 0x2f, 0x63, 0x6f, 0x6e, 0x76, 0x32, 0x64, 0x5f,
  0x31, 0x31, 0x5f, 0x31, 0x2f, 0x52, 0x65, 0x6c, 0x75, 0x3b, 0x66, 0x75,
  0x6e, 0x63, 0x74, 0x69, 0x6f, 0x6e, 0x61, 0x6c, 0x5f, 0x31, 0x2f, 0x63,
  0x6f, 0x6e, 0x76, 0x32, 0x64, 0x5f, 0x31, 0x31, 0x5f, 0x31, 0x2f, 0x42,
  0x69, 0x61, 0x73, 0x41, 0x64, 0x64, 0x3b, 0x66, 0x75, 0x6e, 0x63, 0x74,
  0x69, 0x6f, 0x6e, 0x61, 0x6c, 0x5f, 0x31, 0x2f, 0x63, 0x6f, 0x6e, 0x76,
  0x32, 0x64, 0x5f, 0x31, 0x31, 0x5f, 0x31, 0x2f, 0x63, 0x6f, 0x6e, 0x76,
  0x6f, 0x6c, 0x75, 0x74, 0x69, 0x6f, 0x6e, 0x3b, 0x66, 0x75, 0x6e, 0x63,
  0x74, 0x69, 0x6f, 0x6e, 0x61, 0x6c, 0x5f, 0x31, 0x2f, 0x63, 0x6f, 0x6e,
  0x76, 0x32, 0x64, 0x5f, 0x31, 0x31, 0x5f, 0x31, 0x2f, 0x53, 0x71, 0x75,
  0x65, 0x65, 0x7a, 0x65, 0x00, 0x00, 0x00, 0x00, 0x04, 0x00, 0x00, 0x00,
  0x01, 0x00, 0x00, 0x00, 0x0c, 0x00, 0x00, 0x00, 0x0c, 0x00, 0x00, 0x00,
  0x20, 0x00, 0x00, 0x00, 0xfa, 0xc5, 0xff, 0xff, 0x00, 0x00, 0x00, 0x01,
  0x18, 0x00, 0x00, 0x00, 0x28, 0x00, 0x00, 0x00, 0x48, 0x00, 0x00, 0x00,
  0x39, 0x00, 0x00, 0x00, 0x00, 0x00, 0x00, 0x09, 0xc8, 0x00, 0x00, 0x00,
  0x04, 0x00, 0x00, 0x00, 0xff, 0xff, 0xff, 0xff, 0x0c, 0x00, 0x00, 0x00,
  0x0c, 0x00, 0x00, 0x00, 0x10, 0x00, 0x00, 0x00, 0xe4, 0xc5, 0xff, 0xff,
  0x08, 0x00, 0x00, 0x00, 0x14, 0x00, 0x00, 0x00, 0x01, 0x00, 0x00, 0x00,
  0x80, 0xff, 0xff, 0xff, 0xff, 0xff, 0xff, 0xff, 0x00, 0x00, 0x00, 0x00,
  0x01, 0x00, 0x00, 0x00, 0x71, 0x79, 0x10, 0x39, 0x84, 0x00, 0x00, 0x00,
  0x66, 0x75, 0x6e, 0x63, 0x74, 0x69, 0x6f, 0x6e, 0x61, 0x6c, 0x5f, 0x31,
  0x2f, 0x63, 0x6f, 0x6e, 0x76, 0x32, 0x64, 0x5f, 0x31, 0x30, 0x5f, 0x31,
  0x2f, 0x52, 0x65, 0x6c, 0x75, 0x3b, 0x66, 0x75, 0x6e, 0x63, 0x74, 0x69,
  0x6f, 0x6e, 0x61, 0x6c, 0x5f, 0x31, 0x2f, 0x63, 0x6f, 0x6e, 0x76, 0x32,
  0x64, 0x5f, 0x31, 0x30, 0x5f, 0x31, 0x2f, 0x42, 0x69, 0x61, 0x73, 0x41,
  0x64, 0x64, 0x3b, 0x66, 0x75, 0x6e, 0x63, 0x74, 0x69, 0x6f, 0x6e, 0x61,
  0x6c, 0x5f, 0x31, 0x2f, 0x63, 0x6f, 0x6e, 0x76, 0x32, 0x64, 0x5f, 0x31,
  0x30, 0x5f, 0x31, 0x2f, 0x63, 0x6f, 0x6e, 0x76, 0x6f, 0x6c, 0x75, 0x74,
  0x69, 0x6f, 0x6e, 0x3b, 0x66, 0x75, 0x6e, 0x63, 0x74, 0x69, 0x6f, 0x6e,
  0x61, 0x6c, 0x5f, 0x31, 0x2f, 0x63, 0x6f, 0x6e, 0x76, 0x32, 0x64, 0x5f,
  0x31, 0x30, 0x5f, 0x31, 0x2f, 0x53, 0x71, 0x75, 0x65, 0x65, 0x7a, 0x65,
  0x00, 0x00, 0x00, 0x00, 0x04, 0x00, 0x00, 0x00, 0x01, 0x00, 0x00, 0x00,
  0x0c, 0x00, 0x00, 0x00, 0x0c, 0x00, 0x00, 0x00, 0x10, 0x00, 0x00, 0x00,
  0xf2, 0xc6, 0xff, 0xff, 0x00, 0x00, 0x00, 0x01, 0x18, 0x00, 0x00, 0x00,
  0x28, 0x00, 0x00, 0x00, 0x44, 0x00, 0x00, 0x00, 0x38, 0x00, 0x00, 0x00,
  0x00, 0x00, 0x00, 0x09, 0x60, 0x00, 0x00, 0x00, 0x04, 0x00, 0x00, 0x00,
  0xff, 0xff, 0xff, 0xff, 0x0c, 0x00, 0x00, 0x00, 0x0c, 0x00, 0x00, 0x00,
  0x40, 0x00, 0x00, 0x00, 0xdc, 0xc6, 0xff, 0xff, 0x08, 0x00, 0x00, 0x00,
  0x10, 0x00, 0x00, 0x00, 0x01, 0x00, 0x00, 0x00, 0x80, 0xff, 0xff, 0xff,
  0xff, 0xff, 0xff, 0xff, 0x01, 0x00, 0x00, 0x00, 0xf1, 0x3b, 0x13, 0x39,
  0x23, 0x00, 0x00, 0x00, 0x66, 0x75, 0x6e, 0x63, 0x74, 0x69, 0x6f, 0x6e,
  0x61, 0x6c, 0x5f, 0x31, 0x2f, 0x63, 0x6f, 0x6e, 0x63, 0x61, 0x74, 0x65,
  0x6e, 0x61, 0x74, 0x65, 0x5f, 0x32, 0x5f, 0x31, 0x2f, 0x63, 0x6f, 0x6e,
  0x63, 0x61, 0x74, 0x00, 0x04, 0x00, 0x00, 0x00, 0x01, 0x00, 0x00, 0x00,
  0x0c, 0x00, 0x00, 0x00, 0x0c, 0x00, 0x00, 0x00, 0x40, 0x00, 0x00, 0x00,
  0x82, 0xc7, 0xff, 0xff, 0x00, 0x00, 0x00, 0x01, 0x18, 0x00, 0x00, 0x00,
  0x28, 0x00, 0x00, 0x00, 0x44, 0x00, 0x00, 0x00, 0x37, 0x00, 0x00, 0x00,
  0x00, 0x00, 0x00, 0x09, 0xc0, 0x00, 0x00, 0x00, 0x04, 0x00, 0x00, 0x00,
  0xff, 0xff, 0xff, 0xff, 0x0c, 0x00, 0x00, 0x00, 0x0c, 0x00, 0x00, 0x00,
  0x20, 0x00, 0x00, 0x00, 0x6c, 0xc7, 0xff, 0xff, 0x08, 0x00, 0x00, 0x00,
  0x10, 0x00, 0x00, 0x00, 0x01, 0x00, 0x00, 0x00, 0x80, 0xff, 0xff, 0xff,
  0xff, 0xff, 0xff, 0xff, 0x01, 0x00, 0x00, 0x00, 0xf1, 0x3b, 0x13, 0x39,
  0x80, 0x00, 0x00, 0x00, 0x66, 0x75, 0x6e, 0x63, 0x74, 0x69, 0x6f, 0x6e,
  0x61, 0x6c, 0x5f, 0x31, 0x2f, 0x63, 0x6f, 0x6e, 0x76, 0x32, 0x64, 0x5f,
  0x39, 0x5f, 0x31, 0x2f, 0x52, 0x65, 0x6c, 0x75, 0x3b, 0x66, 0x75, 0x6e,
  0x63, 0x74, 0x69, 0x6f, 0x6e, 0x61, 0x6c, 0x5f, 0x31, 0x2f, 0x63, 0x6f,
  0x6e, 0x76, 0x32, 0x64, 0x5f, 0x39, 0x5f, 0x31, 0x2f, 0x42, 0x69, 0x61,
  0x73, 0x41, 0x64, 0x64, 0x3b, 0x66, 0x75, 0x6e, 0x63, 0x74, 0x69, 0x6f,
  0x6e, 0x61, 0x6c, 0x5f, 0x31, 0x2f, 0x63, 0x6f, 0x6e, 0x76, 0x32, 0x64,
  0x5f, 0x39, 0x5f, 0x31, 0x2f, 0x63, 0x6f, 0x6e, 0x76, 0x6f, 0x6c, 0x75,
  0x74, 0x69, 0x6f, 0x6e, 0x3b, 0x66, 0x75, 0x6e, 0x63, 0x74, 0x69, 0x6f,
  0x6e, 0x61, 0x6c, 0x5f, 0x31, 0x2f, 0x63, 0x6f, 0x6e, 0x76, 0x32, 0x64,
  0x5f, 0x39, 0x5f, 0x31, 0x2f, 0x53, 0x71, 0x75, 0x65, 0x65, 0x7a, 0x65,
  0x00, 0x00, 0x00, 0x00, 0x04, 0x00, 0x00, 0x00, 0x01, 0x00, 0x00, 0x00,
  0x0c, 0x00, 0x00, 0x00, 0x0c, 0x00, 0x00, 0x00, 0x20, 0x00, 0x00, 0x00,
  0x72, 0xc8, 0xff, 0xff, 0x00, 0x00, 0x00, 0x01, 0x18, 0x00, 0x00, 0x00,
  0x28, 0x00, 0x00, 0x00, 0x48, 0x00, 0x00, 0x00, 0x36, 0x00, 0x00, 0x00,
  0x00, 0x00, 0x00, 0x09, 0xc0, 0x00, 0x00, 0x00, 0x04, 0x00, 0x00, 0x00,
  0xff, 0xff, 0xff, 0xff, 0x0c, 0x00, 0x00, 0x00, 0x0c, 0x00, 0x00, 0x00,
  0x10, 0x00, 0x00, 0x00, 0x5c, 0xc8, 0xff, 0xff, 0x08, 0x00, 0x00, 0x00,
  0x14, 0x00, 0x00, 0x00, 0x01, 0x00, 0x00, 0x00, 0xd0, 0xff, 0xff, 0xff,
  0xff, 0xff, 0xff, 0xff, 0x00, 0x00, 0x00, 0x00, 0x01, 0x00, 0x00, 0x00,
  0xa7, 0xc0, 0xcc, 0x38, 0x7f, 0x00, 0x00, 0x00, 0x66, 0x75, 0x6e, 0x63,
  0x74, 0x69, 0x6f, 0x6e, 0x61, 0x6c, 0x5f, 0x31, 0x2f, 0x64, 0x65, 0x70,
  0x74, 0x68, 0x77, 0x69, 0x73, 0x65, 0x5f, 0x63, 0x6f, 0x6e, 0x76, 0x32,
  0x64, 0x5f, 0x32, 0x5f, 0x31, 0x2f, 0x42, 0x69, 0x61, 0x73, 0x41, 0x64,
  0x64, 0x3b, 0x66, 0x75, 0x6e, 0x63, 0x74, 0x69, 0x6f, 0x6e, 0x61, 0x6c,
  0x5f, 0x31, 0x2f, 0x64, 0x65, 0x70, 0x74, 0x68, 0x77, 0x69, 0x73, 0x65,
  0x5f, 0x63, 0x6f, 0x6e, 0x76, 0x32, 0x64, 0x5f, 0x32, 0x5f, 0x31, 0x2f,
  0x64, 0x65, 0x70, 0x74, 0x68, 0x77, 0x69, 0x73, 0x65, 0x3b, 0x66, 0x75,
  0x6e, 0x63, 0x74, 0x69, 0x6f, 0x6e, 0x61, 0x6c, 0x5f, 0x31, 0x2f, 0x64,
  0x65, 0x70, 0x74, 0x68, 0x77, 0x69, 0x73, 0x65, 0x5f, 0x63, 0x6f, 0x6e,
  0x76, 0x32, 0x64, 0x5f, 0x32, 0x5f, 0x31, 0x2f, 0x53, 0x71, 0x75, 0x65,
  0x65, 0x7a, 0x65, 0x00, 0x04, 0x00, 0x00, 0x00, 0x01, 0x00, 0x00, 0x00,
  0x0c, 0x00, 0x00, 0x00, 0x0c, 0x00, 0x00, 0x00, 0x10, 0x00, 0x00, 0x00,
  0x62, 0xc9, 0xff, 0xff, 0x00, 0x00, 0x00, 0x01, 0x18, 0x00, 0x00, 0x00,
  0x28, 0x00, 0x00, 0x00, 0x44, 0x00, 0x00, 0x00, 0x35, 0x00, 0x00, 0x00,
  0x00, 0x00, 0x00, 0x09, 0xc0, 0x00, 0x00, 0x00, 0x04, 0x00, 0x00, 0x00,
  0xff, 0xff, 0xff, 0xff, 0x0c, 0x00, 0x00, 0x00, 0x0c, 0x00, 0x00, 0x00,
  0x20, 0x00, 0x00, 0x00, 0x4c, 0xc9, 0xff, 0xff, 0x08, 0x00, 0x00, 0x00,
  0x10, 0x00, 0x00, 0x00, 0x01, 0x00, 0x00, 0x00, 0x80, 0xff, 0xff, 0xff,
  0xff, 0xff, 0xff, 0xff, 0x01, 0x00, 0x00, 0x00, 0xf1, 0x3b, 0x13, 0x39,
  0x80, 0x00, 0x00, 0x00, 0x66, 0x75, 0x6e, 0x63, 0x74, 0x69, 0x6f, 0x6e,
  0x61, 0x6c, 0x5f, 0x31, 0x2f, 0x63, 0x6f, 0x6e, 0x76, 0x32, 0x64, 0x5f,
  0x38, 0x5f, 0x31, 0x2f, 0x52, 0x65, 0x6c, 0x75, 0x3b, 0x66, 0x75, 0x6e,
  0x63, 0x74, 0x69, 0x6f, 0x6e, 0x61, 0x6c, 0x5f, 0x31, 0x2f, 0x63, 0x6f,
  0x6e, 0x76, 0x32, 0x64, 0x5f, 0x38, 0x5f, 0x31, 0x2f, 0x42, 0x69, 0x61,
  0x73, 0x41, 0x64, 0x64, 0x3b, 0x66, 0x75, 0x6e, 0x63, 0x74, 0x69, 0x6f,
  0x6e, 0x61, 0x6c, 0x5f, 0x31, 0x2f, 0x63, 0x6f, 0x6e, 0x76, 0x32, 0x64,
  0x5f, 0x38, 0x5f, 0x31, 0x2f, 0x63, 0x6f, 0x6e, 0x76, 0x6f, 0x6c, 0x75,
  0x74, 0x69, 0x6f, 0x6e, 0x3b, 0x66, 0x75, 0x6e, 0x63, 0x74, 0x69, 0x6f,
  0x6e, 0x61, 0x6c, 0x5f, 0x31, 0x2f, 0x63, 0x6f, 0x6e, 0x76, 0x32, 0x64,
  0x5f, 0x38, 0x5f, 0x31, 0x2f, 0x53, 0x71, 0x75, 0x65, 0x65, 0x7a, 0x65,
  0x00, 0x00, 0x00, 0x00, 0x04, 0x00, 0x00, 0x00, 0x01, 0x00, 0x00, 0x00,
  0x0c, 0x00, 0x00, 0x00, 0x0c, 0x00, 0x00, 0x00, 0x20, 0x00, 0x00, 0x00,
  0x52, 0xca, 0xff, 0xff, 0x00, 0x00, 0x00, 0x01, 0x18, 0x00, 0x00, 0x00,
  0x28, 0x00, 0x00, 0x00, 0x44, 0x00, 0x00, 0x00, 0x34, 0x00, 0x00, 0x00,
  0x00, 0x00, 0x00, 0x09, 0xc0, 0x00, 0x00, 0x00, 0x04, 0x00, 0x00, 0x00,
  0xff, 0xff, 0xff, 0xff, 0x0c, 0x00, 0x00, 0x00, 0x0c, 0x00, 0x00, 0x00,
  0x10, 0x00, 0x00, 0x00, 0x3c, 0xca, 0xff, 0xff, 0x08, 0x00, 0x00, 0x00,
  0x10, 0x00, 0x00, 0x00, 0x01, 0x00, 0x00, 0x00, 0x80, 0xff, 0xff, 0xff,
  0xff, 0xff, 0xff, 0xff, 0x01, 0x00, 0x00, 0x00, 0x96, 0x53, 0xae, 0x38,
  0x80, 0x00, 0x00, 0x00, 0x66, 0x75, 0x6e, 0x63, 0x74, 0x69, 0x6f, 0x6e,
  0x61, 0x6c, 0x5f, 0x31, 0x2f, 0x63, 0x6f, 0x6e, 0x76, 0x32, 0x64, 0x5f,
  0x37, 0x5f, 0x31, 0x2f, 0x52, 0x65, 0x6c, 0x75, 0x3b, 0x66, 0x75, 0x6e,
  0x63, 0x74, 0x69, 0x6f, 0x6e, 0x61, 0x6c, 0x5f, 0x31, 0x2f, 0x63, 0x6f,
  0x6e, 0x76, 0x32, 0x64, 0x5f, 0x37, 0x5f, 0x31, 0x2f, 0x42, 0x69, 0x61,
  0x73, 0x41, 0x64, 0x64, 0x3b, 0x66, 0x75, 0x6e, 0x63, 0x74, 0x69, 0x6f,
  0x6e, 0x61, 0x6c, 0x5f, 0x31, 0x2f, 0x63, 0x6f, 0x6e, 0x76, 0x32, 0x64,
  0x5f, 0x37, 0x5f, 0x31, 0x2f, 0x63, 0x6f, 0x6e, 0x76, 0x6f, 0x6c, 0x75,
  0x74, 0x69, 0x6f, 0x6e, 0x3b, 0x66, 0x75, 0x6e, 0x63, 0x74, 0x69, 0x6f,
  0x6e, 0x61, 0x6c, 0x5f, 0x31, 0x2f, 0x63, 0x6f, 0x6e, 0x76, 0x32, 0x64,
  0x5f, 0x37, 0x5f, 0x31, 0x2f, 0x53, 0x71, 0x75, 0x65, 0x65, 0x7a, 0x65,
  0x00, 0x00, 0x00, 0x00, 0x04, 0x00, 0x00, 0x00, 0x01, 0x00, 0x00, 0x00,
  0x0c, 0x00, 0x00, 0x00, 0x0c, 0x00, 0x00, 0x00, 0x10, 0x00, 0x00, 0x00,
  0x42, 0xcb, 0xff, 0xff, 0x00, 0x00, 0x00, 0x01, 0x18, 0x00, 0x00, 0x00,
  0x28, 0x00, 0x00, 0x00, 0x44, 0x00, 0x00, 0x00, 0x33, 0x00, 0x00, 0x00,
  0x00, 0x00, 0x00, 0x09, 0x68, 0x00, 0x00, 0x00, 0x04, 0x00, 0x00, 0x00,
  0xff, 0xff, 0xff, 0xff, 0x0c, 0x00, 0x00, 0x00, 0x0c, 0x00, 0x00, 0x00,
  0x20, 0x00, 0x00, 0x00, 0x2c, 0xcb, 0xff, 0xff, 0x08, 0x00, 0x00, 0x00,
  0x10, 0x00, 0x00, 0x00, 0x01, 0x00, 0x00, 0x00, 0x80, 0xff, 0xff, 0xff,
  0xff, 0xff, 0xff, 0xff, 0x01, 0x00, 0x00, 0x00, 0xa6, 0x3e, 0x7c, 0x39,
  0x28, 0x00, 0x00, 0x00, 0x66, 0x75, 0x6e, 0x63, 0x74, 0x69, 0x6f, 0x6e,
  0x61, 0x6c, 0x5f, 0x31, 0x2f, 0x6d, 0x61, 0x78, 0x5f, 0x70, 0x6f, 0x6f,
  0x6c, 0x69, 0x6e, 0x67, 0x32, 0x64, 0x5f, 0x31, 0x5f, 0x32, 0x2f, 0x4d,
  0x61, 0x78, 0x50, 0x6f, 0x6f, 0x6c, 0x32, 0x64, 0x00, 0x00, 0x00, 0x00,
  0x04, 0x00, 0x00, 0x00, 0x01, 0x00, 0x00, 0x00, 0x0c, 0x00, 0x00, 0x00,
  0x0c, 0x00, 0x00, 0x00, 0x20, 0x00, 0x00, 0x00, 0xda, 0xcb, 0xff, 0xff,
  0x00, 0x00, 0x00, 0x01, 0x18, 0x00, 0x00, 0x00, 0x28, 0x00, 0x00, 0x00,
  0x44, 0x00, 0x00, 0x00, 0x32, 0x00, 0x00, 0x00, 0x00, 0x00, 0x00, 0x09,
  0x60, 0x00, 0x00, 0x00, 0x04, 0x00, 0x00, 0x00, 0xff, 0xff, 0xff, 0xff,
  0x18, 0x00, 0x00, 0x00, 0x18, 0x00, 0x00, 0x00, 0x20, 0x00, 0x00, 0x00,
  0xc4, 0xcb, 0xff, 0xff, 0x08, 0x00, 0x00, 0x00, 0x10, 0x00, 0x00, 0x00,
  0x01, 0x00, 0x00, 0x00, 0x80, 0xff, 0xff, 0xff, 0xff, 0xff, 0xff, 0xff,
  0x01, 0x00, 0x00, 0x00, 0xa6, 0x3e, 0x7c, 0x39, 0x23, 0x00, 0x00, 0x00,
  0x66, 0x75, 0x6e, 0x63, 0x74, 0x69, 0x6f, 0x6e, 0x61, 0x6c, 0x5f, 0x31,
  0x2f, 0x63, 0x6f, 0x6e, 0x63, 0x61, 0x74, 0x65, 0x6e, 0x61, 0x74, 0x65,
  0x5f, 0x31, 0x5f, 0x32, 0x2f, 0x63, 0x6f, 0x6e, 0x63, 0x61, 0x74, 0x00,
  0x04, 0x00, 0x00, 0x00, 0x01, 0x00, 0x00, 0x00, 0x18, 0x00, 0x00, 0x00,
  0x18, 0x00, 0x00, 0x00, 0x20, 0x00, 0x00, 0x00, 0x6a, 0xcc, 0xff, 0xff,
  0x00, 0x00, 0x00, 0x01, 0x18, 0x00, 0x00, 0x00, 0x28, 0x00, 0x00, 0x00,
  0x44, 0x00, 0x00, 0x00, 0x31, 0x00, 0x00, 0x00, 0x00, 0x00, 0x00, 0x09,
  0xc0, 0x00, 0x00, 0x00, 0x04, 0x00, 0x00, 0x00, 0xff, 0xff, 0xff, 0xff,
  0x18, 0x00, 0x00, 0x00, 0x18, 0x00, 0x00, 0x00, 0x10, 0x00, 0x00, 0x00,
  0x54, 0xcc, 0xff, 0xff, 0x08, 0x00, 0x00, 0x00, 0x10, 0x00, 0x00, 0x00,
  0x01, 0x00, 0x00, 0x00, 0x80, 0xff, 0xff, 0xff, 0xff, 0xff, 0xff, 0xff,
  0x01, 0x00, 0x00, 0x00, 0xa6, 0x3e, 0x7c, 0x39, 0x80, 0x00, 0x00, 0x00,
  0x66, 0x75, 0x6e, 0x63, 0x74, 0x69, 0x6f, 0x6e, 0x61, 0x6c, 0x5f, 0x31,
  0x2f, 0x63, 0x6f, 0x6e, 0x76, 0x32, 0x64, 0x5f, 0x36, 0x5f, 0x31, 0x2f,
  0x52, 0x65, 0x6c, 0x75, 0x3b, 0x66, 0x75, 0x6e, 0x63, 0x74, 0x69, 0x6f,
  0x6e, 0x61, 0x6c, 0x5f, 0x31, 0x2f, 0x63, 0x6f, 0x6e, 0x76, 0x32, 0x64,
  0x5f, 0x36, 0x5f, 0x31, 0x2f, 0x42, 0x69, 0x61, 0x73, 0x41, 0x64, 0x64,
  0x3b, 0x66, 0x75, 0x6e, 0x63, 0x74, 0x69, 0x6f, 0x6e, 0x61, 0x6c, 0x5f,
  0x31, 0x2f, 0x63, 0x6f, 0x6e, 0x76, 0x32, 0x64, 0x5f, 0x36, 0x5f, 0x31,
  0x2f, 0x63, 0x6f, 0x6e, 0x76, 0x6f, 0x6c, 0x75, 0x74, 0x69, 0x6f, 0x6e,
  0x3b, 0x66, 0x75, 0x6e, 0x63, 0x74, 0x69, 0x6f, 0x6e, 0x61, 0x6c, 0x5f,
  0x31, 0x2f, 0x63, 0x6f, 0x6e, 0x76, 0x32, 0x64, 0x5f, 0x36, 0x5f, 0x31,
  0x2f, 0x53, 0x71, 0x75, 0x65, 0x65, 0x7a, 0x65, 0x00, 0x00, 0x00, 0x00,
  0x04, 0x00, 0x00, 0x00, 0x01, 0x00, 0x00, 0x00, 0x18, 0x00, 0x00, 0x00,
  0x18, 0x00, 0x00, 0x00, 0x10, 0x00, 0x00, 0x00, 0x5a, 0xcd, 0xff, 0xff,
  0x00, 0x00, 0x00, 0x01, 0x18, 0x00, 0x00, 0x00, 0x28, 0x00, 0x00, 0x00,
  0x48, 0x00, 0x00, 0x00, 0x30, 0x00, 0x00, 0x00, 0x00, 0x00, 0x00, 0x09,
  0xc0, 0x00, 0x00, 0x00, 0x04, 0x00, 0x00, 0x00, 0xff, 0xff, 0xff, 0xff,
  0x18, 0x00, 0x00, 0x00, 0x18, 0x00, 0x00, 0x00, 0x08, 0x00, 0x00, 0x00,
  0x44, 0xcd, 0xff, 0xff, 0x08, 0x00, 0x00, 0x00, 0x14, 0x00, 0x00, 0x00,
  0x01, 0x00, 0x00, 0x00, 0x01, 0x00, 0x00, 0x00, 0x00, 0x00, 0x00, 0x00,
  0x00, 0x00, 0x00, 0x00, 0x01, 0x00, 0x00, 0x00, 0xd5, 0x6a, 0x19, 0x39,
  0x7f, 0x00, 0x00, 0x00, 0x66, 0x75, 0x6e, 0x63, 0x74, 0x69, 0x6f, 0x6e,
  0x61, 0x6c, 0x5f, 0x31, 0x2f, 0x64, 0x65, 0x70, 0x74, 0x68, 0x77, 0x69,
  0x73, 0x65, 0x5f, 0x63, 0x6f, 0x6e, 0x76, 0x32, 0x64, 0x5f, 0x31, 0x5f,
  0x32, 0x2f, 0x42, 0x69, 0x61, 0x73, 0x41, 0x64, 0x64, 0x3b, 0x66, 0x75,
  0x6e, 0x63, 0x74, 0x69, 0x6f, 0x6e, 0x61, 0x6c, 0x5f, 0x31, 0x2f, 0x64,
  0x65, 0x70, 0x74, 0x68, 0x77, 0x69, 0x73, 0x65, 0x5f, 0x63, 0x6f, 0x6e,
  0x76, 0x32, 0x64, 0x5f, 0x31, 0x5f, 0x32, 0x2f, 0x64, 0x65, 0x70, 0x74,
  0x68, 0x77, 0x69, 0x73, 0x65, 0x3b, 0x66, 0x75, 0x6e, 0x63, 0x74, 0x69,
  0x6f, 0x6e, 0x61, 0x6c, 0x5f, 0x31, 0x2f, 0x64, 0x65, 0x70, 0x74, 0x68,
  0x77, 0x69, 0x73, 0x65, 0x5f, 0x63, 0x6f, 0x6e, 0x76, 0x32, 0x64, 0x5f,
  0x31, 0x5f, 0x32, 0x2f, 0x53, 0x71, 0x75, 0x65, 0x65, 0x7a, 0x65, 0x00,
  0x04, 0x00, 0x00, 0x00, 0x01, 0x00, 0x00, 0x00, 0x18, 0x00, 0x00, 0x00,
  0x18, 0x00, 0x00, 0x00, 0x08, 0x00, 0x00, 0x00, 0x4a, 0xce, 0xff, 0xff,
  0x00, 0x00, 0x00, 0x01, 0x18, 0x00, 0x00, 0x00, 0x28, 0x00, 0x00, 0x00,
  0x44, 0x00, 0x00, 0x00, 0x2f, 0x00, 0x00, 0x00, 0x00, 0x00, 0x00, 0x09,
  0xc0, 0x00, 0x00, 0x00, 0x04, 0x00, 0x00, 0x00, 0xff, 0xff, 0xff, 0xff,
  0x18, 0x00, 0x00, 0x00, 0x18, 0x00, 0x00, 0x00, 0x10, 0x00, 0x00, 0x00,
  0x34, 0xce, 0xff, 0xff, 0x08, 0x00, 0x00, 0x00, 0x10, 0x00, 0x00, 0x00,
  0x01, 0x00, 0x00, 0x00, 0x80, 0xff, 0xff, 0xff, 0xff, 0xff, 0xff, 0xff,
  0x01, 0x00, 0x00, 0x00, 0xa6, 0x3e, 0x7c, 0x39, 0x80, 0x00, 0x00, 0x00,
  0x66, 0x75, 0x6e, 0x63, 0x74, 0x69, 0x6f, 0x6e, 0x61, 0x6c, 0x5f, 0x31,
  0x2f, 0x63, 0x6f, 0x6e, 0x76, 0x32, 0x64, 0x5f, 0x35, 0x5f, 0x31, 0x2f,
  0x52, 0x65, 0x6c, 0x75, 0x3b, 0x66, 0x75, 0x6e, 0x63, 0x74, 0x69, 0x6f,
  0x6e, 0x61, 0x6c, 0x5f, 0x31, 0x2f, 0x63, 0x6f, 0x6e, 0x76, 0x32, 0x64,
  0x5f, 0x35, 0x5f, 0x31, 0x2f, 0x42, 0x69, 0x61, 0x73, 0x41, 0x64, 0x64,
  0x3b, 0x66, 0x75, 0x6e, 0x63, 0x74, 0x69, 0x6f, 0x6e, 0x61, 0x6c, 0x5f,
  0x31, 0x2f, 0x63, 0x6f, 0x6e, 0x76, 0x32, 0x64, 0x5f, 0x35, 0x5f, 0x31,
  0x2f, 0x63, 0x6f, 0x6e, 0x76, 0x6f, 0x6c, 0x75, 0x74, 0x69, 0x6f, 0x6e,
  0x3b, 0x66, 0x75, 0x6e, 0x63, 0x74, 0x69, 0x6f, 0x6e, 0x61, 0x6c, 0x5f,
  0x31, 0x2f, 0x63, 0x6f, 0x6e, 0x76, 0x32, 0x64, 0x5f, 0x35, 0x5f, 0x31,
  0x2f, 0x53, 0x71, 0x75, 0x65, 0x65, 0x7a, 0x65, 0x00, 0x00, 0x00, 0x00,
  0x04, 0x00, 0x00, 0x00, 0x01, 0x00, 0x00, 0x00, 0x18, 0x00, 0x00, 0x00,
  0x18, 0x00, 0x00, 0x00, 0x10, 0x00, 0x00, 0x00, 0x3a, 0xcf, 0xff, 0xff,
  0x00, 0x00, 0x00, 0x01, 0x18, 0x00, 0x00, 0x00, 0x28, 0x00, 0x00, 0x00,
  0x44, 0x00, 0x00, 0x00, 0x2e, 0x00, 0x00, 0x00, 0x00, 0x00, 0x00, 0x09,
  0xc0, 0x00, 0x00, 0x00, 0x04, 0x00, 0x00, 0x00, 0xff, 0xff, 0xff, 0xff,
  0x18, 0x00, 0x00, 0x00, 0x18, 0x00, 0x00, 0x00, 0x08, 0x00, 0x00, 0x00,
  0x24, 0xcf, 0xff, 0xff, 0x08, 0x00, 0x00, 0x00, 0x10, 0x00, 0x00, 0x00,
  0x01, 0x00, 0x00, 0x00, 0x80, 0xff, 0xff, 0xff, 0xff, 0xff, 0xff, 0xff,
  0x01, 0x00, 0x00, 0x00, 0x27, 0x77, 0x6f, 0x39, 0x80, 0x00, 0x00, 0x00,
  0x66, 0x75, 0x6e, 0x63, 0x74, 0x69, 0x6f, 0x6e, 0x61, 0x6c, 0x5f, 0x31,
  0x2f, 0x63, 0x6f, 0x6e, 0x76, 0x32, 0x64, 0x5f, 0x34, 0x5f, 0x31, 0x2f,
  0x52, 0x65, 0x6c, 0x75, 0x3b, 0x66, 0x75, 0x6e, 0x63, 0x74, 0x69, 0x6f,
  0x6e, 0x61, 0x6c, 0x5f, 0x31, 0x2f, 0x63, 0x6f, 0x6e, 0x76, 0x32, 0x64,
  0x5f, 0x34, 0x5f, 0x31, 0x2f, 0x42, 0x69, 0x61, 0x73, 0x41, 0x64, 0x64,
  0x3b, 0x66, 0x75, 0x6e, 0x63, 0x74, 0x69, 0x6f, 0x6e, 0x61, 0x6c, 0x5f,
  0x31, 0x2f, 0x63, 0x6f, 0x6e, 0x76, 0x32, 0x64, 0x5f, 0x34, 0x5f, 0x31,
  0x2f, 0x63, 0x6f, 0x6e, 0x76, 0x6f, 0x6c, 0x75, 0x74, 0x69, 0x6f, 0x6e,
  0x3b, 0x66, 0x75, 0x6e, 0x63, 0x74, 0x69, 0x6f, 0x6e, 0x61, 0x6c, 0x5f,
  0x31, 0x2f, 0x63, 0x6f, 0x6e, 0x76, 0x32, 0x64, 0x5f, 0x34, 0x5f, 0x31,
  0x2f, 0x53, 0x71, 0x75, 0x65, 0x65, 0x7a, 0x65, 0x00, 0x00, 0x00, 0x00,
  0x04, 0x00, 0x00, 0x00, 0x01, 0x00, 0x00, 0x00, 0x18, 0x00, 0x00, 0x00,
  0x18, 0x00, 0x00, 0x00, 0x08, 0x00, 0x00, 0x00, 0x2a, 0xd0, 0xff, 0xff,
  0x00, 0x00, 0x00, 0x01, 0x18, 0x00, 0x00, 0x00, 0x28, 0x00, 0x00, 0x00,
  0x44, 0x00, 0x00, 0x00, 0x2d, 0x00, 0x00, 0x00, 0x00, 0x00, 0x00, 0x09,
  0x60, 0x00, 0x00, 0x00, 0x04, 0x00, 0x00, 0x00, 0xff, 0xff, 0xff, 0xff,
  0x18, 0x00, 0x00, 0x00, 0x18, 0x00, 0x00, 0x00, 0x20, 0x00, 0x00, 0x00,
  0x14, 0xd0, 0xff, 0xff, 0x08, 0x00, 0x00, 0x00, 0x10, 0x00, 0x00, 0x00,
  0x01, 0x00, 0x00, 0x00, 0x80, 0xff, 0xff, 0xff, 0xff, 0xff, 0xff, 0xff,
  0x01, 0x00, 0x00, 0x00, 0x89, 0x75, 0x9d, 0x3a, 0x21, 0x00, 0x00, 0x00,
  0x66, 0x75, 0x6e, 0x63, 0x74, 0x69, 0x6f, 0x6e, 0x61, 0x6c, 0x5f, 0x31,
  0x2f, 0x63, 0x6f, 0x6e, 0x63, 0x61, 0x74, 0x65, 0x6e, 0x61, 0x74, 0x65,
  0x5f, 0x31, 0x2f, 0x63, 0x6f, 0x6e, 0x63, 0x61, 0x74, 0x00, 0x00, 0x00,
  0x04, 0x00, 0x00, 0x00, 0x01, 0x00, 0x00, 0x00, 0x18, 0x00, 0x00, 0x00,
  0x18, 0x00, 0x00, 0x00, 0x20, 0x00, 0x00, 0x00, 0xba, 0xd0, 0xff, 0xff,
  0x00, 0x00, 0x00, 0x01, 0x18, 0x00, 0x00, 0x00, 0x28, 0x00, 0x00, 0x00,
  0x44, 0x00, 0x00, 0x00, 0x2c, 0x00, 0x00, 0x00, 0x00, 0x00, 0x00, 0x09,
  0xc0, 0x00, 0x00, 0x00, 0x04, 0x00, 0x00, 0x00, 0xff, 0xff, 0xff, 0xff,
  0x18, 0x00, 0x00, 0x00, 0x18, 0x00, 0x00, 0x00, 0x10, 0x00, 0x00, 0x00,
  0xa4, 0xd0, 0xff, 0xff, 0x08, 0x00, 0x00, 0x00, 0x10, 0x00, 0x00, 0x00,
  0x01, 0x00, 0x00, 0x00, 0x80, 0xff, 0xff, 0xff, 0xff, 0xff, 0xff, 0xff,
  0x01, 0x00, 0x00, 0x00, 0x89, 0x75, 0x9d, 0x3a, 0x80, 0x00, 0x00, 0x00,
  0x66, 0x75, 0x6e, 0x63, 0x74, 0x69, 0x6f, 0x6e, 0x61, 0x6c, 0x5f, 0x31,
  0x2f, 0x63, 0x6f, 0x6e, 0x76, 0x32, 0x64, 0x5f, 0x33, 0x5f, 0x31, 0x2f,
  0x52, 0x65, 0x6c, 0x75, 0x3b, 0x66, 0x75, 0x6e, 0x63, 0x74, 0x69, 0x6f,
  0x6e, 0x61, 0x6c, 0x5f, 0x31, 0x2f, 0x63, 0x6f, 0x6e, 0x76, 0x32, 0x64,
  0x5f, 0x33, 0x5f, 0x31, 0x2f, 0x42, 0x69, 0x61, 0x73, 0x41, 0x64, 0x64,
  0x3b, 0x66, 0x75, 0x6e, 0x63, 0x74, 0x69, 0x6f, 0x6e, 0x61, 0x6c, 0x5f,
  0x31, 0x2f, 0x63, 0x6f, 0x6e, 0x76, 0x32, 0x64, 0x5f, 0x33, 0x5f, 0x31,
  0x2f, 0x63, 0x6f, 0x6e, 0x76, 0x6f, 0x6c, 0x75, 0x74, 0x69, 0x6f, 0x6e,
  0x3b, 0x66, 0x75, 0x6e, 0x63, 0x74, 0x69, 0x6f, 0x6e, 0x61, 0x6c, 0x5f,
  0x31, 0x2f, 0x63, 0x6f, 0x6e, 0x76, 0x32, 0x64, 0x5f, 0x33, 0x5f, 0x31,
  0x2f, 0x53, 0x71, 0x75, 0x65, 0x65, 0x7a, 0x65, 0x00, 0x00, 0x00, 0x00,
  0x04, 0x00, 0x00, 0x00, 0x01, 0x00, 0x00, 0x00, 0x18, 0x00, 0x00, 0x00,
  0x18, 0x00, 0x00, 0x00, 0x10, 0x00, 0x00, 0x00, 0xaa, 0xd1, 0xff, 0xff,
  0x00, 0x00, 0x00, 0x01, 0x18, 0x00, 0x00, 0x00, 0x28, 0x00, 0x00, 0x00,
  0x44, 0x00, 0x00, 0x00, 0x2b, 0x00, 0x00, 0x00, 0x00, 0x00, 0x00, 0x09,
  0xb8, 0x00, 0x00, 0x00, 0x04, 0x00, 0x00, 0x00, 0xff, 0xff, 0xff, 0xff,
  0x18, 0x00, 0x00, 0x00, 0x18, 0x00, 0x00, 0x00, 0x08, 0x00, 0x00, 0x00,
  0x94, 0xd1, 0xff, 0xff, 0x08, 0x00, 0x00, 0x00, 0x10, 0x00, 0x00, 0x00,
  0x01, 0x00, 0x00, 0x00, 0xbf, 0xff, 0xff, 0xff, 0xff, 0xff, 0xff, 0xff,
  0x01, 0x00, 0x00, 0x00, 0x2e, 0x40, 0xf1, 0x3a, 0x79, 0x00, 0x00, 0x00,
  0x66, 0x75, 0x6e, 0x63, 0x74, 0x69, 0x6f, 0x6e, 0x61, 0x6c, 0x5f, 0x31,
  0x2f, 0x64, 0x65, 0x70, 0x74, 0x68, 0x77, 0x69, 0x73, 0x65, 0x5f, 0x63,
  0x6f, 0x6e, 0x76, 0x32, 0x64, 0x5f, 0x31, 0x2f, 0x42, 0x69, 0x61, 0x73,
  0x41, 0x64, 0x64, 0x3b, 0x66, 0x75, 0x6e, 0x63, 0x74, 0x69, 0x6f, 0x6e,
  0x61, 0x6c, 0x5f, 0x31, 0x2f, 0x64, 0x65, 0x70, 0x74, 0x68, 0x77, 0x69,
  0x73, 0x65, 0x5f, 0x63, 0x6f, 0x6e, 0x76, 0x32, 0x64, 0x5f, 0x31, 0x2f,
  0x64, 0x65, 0x70, 0x74, 0x68, 0x77, 0x69, 0x73, 0x65, 0x3b, 0x66, 0x75,
  0x6e, 0x63, 0x74, 0x69, 0x6f, 0x6e, 0x61, 0x6c, 0x5f, 0x31, 0x2f, 0x64,
  0x65, 0x70, 0x74, 0x68, 0x77, 0x69, 0x73, 0x65, 0x5f, 0x63, 0x6f, 0x6e,
  0x76, 0x32, 0x64, 0x5f, 0x31, 0x2f, 0x53, 0x71, 0x75, 0x65, 0x65, 0x7a,
  0x65, 0x00, 0x00, 0x00, 0x04, 0x00, 0x00, 0x00, 0x01, 0x00, 0x00, 0x00,
  0x18, 0x00, 0x00, 0x00, 0x18, 0x00, 0x00, 0x00, 0x08, 0x00, 0x00, 0x00,
  0x92, 0xd2, 0xff, 0xff, 0x00, 0x00, 0x00, 0x01, 0x18, 0x00, 0x00, 0x00,
  0x28, 0x00, 0x00, 0x00, 0x44, 0x00, 0x00, 0x00, 0x2a, 0x00, 0x00, 0x00,
  0x00, 0x00, 0x00, 0x09, 0xc0, 0x00, 0x00, 0x00, 0x04, 0x00, 0x00, 0x00,
  0xff, 0xff, 0xff, 0xff, 0x18, 0x00, 0x00, 0x00, 0x18, 0x00, 0x00, 0x00,
  0x10, 0x00, 0x00, 0x00, 0x7c, 0xd2, 0xff, 0xff, 0x08, 0x00, 0x00, 0x00,
  0x10, 0x00, 0x00, 0x00, 0x01, 0x00, 0x00, 0x00, 0x80, 0xff, 0xff, 0xff,
  0xff, 0xff, 0xff, 0xff, 0x01, 0x00, 0x00, 0x00, 0x89, 0x75, 0x9d, 0x3a,
  0x80, 0x00, 0x00, 0x00, 0x66, 0x75, 0x6e, 0x63, 0x74, 0x69, 0x6f, 0x6e,
  0x61, 0x6c, 0x5f, 0x31, 0x2f, 0x63, 0x6f, 0x6e, 0x76, 0x32, 0x64, 0x5f,
  0x32, 0x5f, 0x31, 0x2f, 0x52, 0x65, 0x6c, 0x75, 0x3b, 0x66, 0x75, 0x6e,
  0x63, 0x74, 0x69, 0x6f, 0x6e, 0x61, 0x6c, 0x5f, 0x31, 0x2f, 0x63, 0x6f,
  0x6e, 0x76, 0x32, 0x64, 0x5f, 0x32, 0x5f, 0x31, 0x2f, 0x42, 0x69, 0x61,
  0x73, 0x41, 0x64, 0x64, 0x3b, 0x66, 0x75, 0x6e, 0x63, 0x74, 0x69, 0x6f,
  0x6e, 0x61, 0x6c, 0x5f, 0x31, 0x2f, 0x63, 0x6f, 0x6e, 0x76, 0x32, 0x64,
  0x5f, 0x32, 0x5f, 0x31, 0x2f, 0x63, 0x6f, 0x6e, 0x76, 0x6f, 0x6c, 0x75,
  0x74, 0x69, 0x6f, 0x6e, 0x3b, 0x66, 0x75, 0x6e, 0x63, 0x74, 0x69, 0x6f,
  0x6e, 0x61, 0x6c, 0x5f, 0x31, 0x2f, 0x63, 0x6f, 0x6e, 0x76, 0x32, 0x64,
  0x5f, 0x32, 0x5f, 0x31, 0x2f, 0x53, 0x71, 0x75, 0x65, 0x65, 0x7a, 0x65,
  0x00, 0x00, 0x00, 0x00, 0x04, 0x00, 0x00, 0x00, 0x01, 0x00, 0x00, 0x00,
  0x18, 0x00, 0x00, 0x00, 0x18, 0x00, 0x00, 0x00, 0x10, 0x00, 0x00, 0x00,
  0x82, 0xd3, 0xff, 0xff, 0x00, 0x00, 0x00, 0x01, 0x18, 0x00, 0x00, 0x00,
  0x28, 0x00, 0x00, 0x00, 0x44, 0x00, 0x00, 0x00, 0x29, 0x00, 0x00, 0x00,
  0x00, 0x00, 0x00, 0x09, 0xc0, 0x00, 0x00, 0x00, 0x04, 0x00, 0x00, 0x00,
  0xff, 0xff, 0xff, 0xff, 0x18, 0x00, 0x00, 0x00, 0x18, 0x00, 0x00, 0x00,
  0x08, 0x00, 0x00, 0x00, 0x6c, 0xd3, 0xff, 0xff, 0x08, 0x00, 0x00, 0x00,
  0x10, 0x00, 0x00, 0x00, 0x01, 0x00, 0x00, 0x00, 0x80, 0xff, 0xff, 0xff,
  0xff, 0xff, 0xff, 0xff, 0x01, 0x00, 0x00, 0x00, 0x58, 0x3c, 0x1e, 0x3b,
  0x80, 0x00, 0x00, 0x00, 0x66, 0x75, 0x6e, 0x63, 0x74, 0x69, 0x6f, 0x6e,
  0x61, 0x6c, 0x5f, 0x31, 0x2f, 0x63, 0x6f, 0x6e, 0x76, 0x32, 0x64, 0x5f,
  0x31, 0x5f, 0x32, 0x2f, 0x52, 0x65, 0x6c, 0x75, 0x3b, 0x66, 0x75, 0x6e,
  0x63, 0x74, 0x69, 0x6f, 0x6e, 0x61, 0x6c, 0x5f, 0x31, 0x2f, 0x63, 0x6f,
  0x6e, 0x76, 0x32, 0x64, 0x5f, 0x31, 0x5f, 0x32, 0x2f, 0x42, 0x69, 0x61,
  0x73, 0x41, 0x64, 0x64, 0x3b, 0x66, 0x75, 0x6e, 0x63, 0x74, 0x69, 0x6f,
  0x6e, 0x61, 0x6c, 0x5f, 0x31, 0x2f, 0x63, 0x6f, 0x6e, 0x76, 0x32, 0x64,
  0x5f, 0x31, 0x5f, 0x32, 0x2f, 0x63, 0x6f, 0x6e, 0x76, 0x6f, 0x6c, 0x75,
  0x74, 0x69, 0x6f, 0x6e, 0x3b, 0x66, 0x75, 0x6e, 0x63, 0x74, 0x69, 0x6f,
  0x6e, 0x61, 0x6c, 0x5f, 0x31, 0x2f, 0x63, 0x6f, 0x6e, 0x76, 0x32, 0x64,
  0x5f, 0x31, 0x5f, 0x32, 0x2f, 0x53, 0x71, 0x75, 0x65, 0x65, 0x7a, 0x65,
  0x00, 0x00, 0x00, 0x00, 0x04, 0x00, 0x00, 0x00, 0x01, 0x00, 0x00, 0x00,
  0x18, 0x00, 0x00, 0x00, 0x18, 0x00, 0x00, 0x00, 0x08, 0x00, 0x00, 0x00,
  0x72, 0xd4, 0xff, 0xff, 0x00, 0x00, 0x00, 0x01, 0x18, 0x00, 0x00, 0x00,
  0x28, 0x00, 0x00, 0x00, 0x48, 0x00, 0x00, 0x00, 0x28, 0x00, 0x00, 0x00,
  0x00, 0x00, 0x00, 0x09, 0x68, 0x00, 0x00, 0x00, 0x04, 0x00, 0x00, 0x00,
  0xff, 0xff, 0xff, 0xff, 0x18, 0x00, 0x00, 0x00, 0x18, 0x00, 0x00, 0x00,
  0x10, 0x00, 0x00, 0x00, 0x5c, 0xd4, 0xff, 0xff, 0x08, 0x00, 0x00, 0x00,
  0x14, 0x00, 0x00, 0x00, 0x01, 0x00, 0x00, 0x00, 0x80, 0xff, 0xff, 0xff,
  0xff, 0xff, 0xff, 0xff, 0x00, 0x00, 0x00, 0x00, 0x01, 0x00, 0x00, 0x00,
  0x38, 0x8c, 0x5c, 0x3b, 0x26, 0x00, 0x00, 0x00, 0x66, 0x75, 0x6e, 0x63,
  0x74, 0x69, 0x6f, 0x6e, 0x61, 0x6c, 0x5f, 0x31, 0x2f, 0x6d, 0x61, 0x78,
  0x5f, 0x70, 0x6f, 0x6f, 0x6c, 0x69, 0x6e, 0x67, 0x32, 0x64, 0x5f, 0x31,
  0x2f, 0x4d, 0x61, 0x78, 0x50, 0x6f, 0x6f, 0x6c, 0x32, 0x64, 0x00, 0x00,
  0x04, 0x00, 0x00, 0x00, 0x01, 0x00, 0x00, 0x00, 0x18, 0x00, 0x00, 0x00,
  0x18, 0x00, 0x00, 0x00, 0x10, 0x00, 0x00, 0x00, 0x0a, 0xd5, 0xff, 0xff,
  0x00, 0x00, 0x00, 0x01, 0x18, 0x00, 0x00, 0x00, 0x28, 0x00, 0x00, 0x00,
  0x44, 0x00, 0x00, 0x00, 0x27, 0x00, 0x00, 0x00, 0x00, 0x00, 0x00, 0x09,
  0xb8, 0x00, 0x00, 0x00, 0x04, 0x00, 0x00, 0x00, 0xff, 0xff, 0xff, 0xff,
  0x30, 0x00, 0x00, 0x00, 0x30, 0x00, 0x00, 0x00, 0x10, 0x00, 0x00, 0x00,
  0xf4, 0xd4, 0xff, 0xff, 0x08, 0x00, 0x00, 0x00, 0x10, 0x00, 0x00, 0x00,
  0x01, 0x00, 0x00, 0x00, 0x80, 0xff, 0xff, 0xff, 0xff, 0xff, 0xff, 0xff,
  0x01, 0x00, 0x00, 0x00, 0x38, 0x8c, 0x5c, 0x3b, 0x79, 0x00, 0x00, 0x00,
  0x66, 0x75, 0x6e, 0x63, 0x74, 0x69, 0x6f, 0x6e, 0x61, 0x6c, 0x5f, 0x31,
  0x2f, 0x63, 0x6f, 0x6e, 0x76, 0x32, 0x64, 0x5f, 0x31, 0x2f, 0x52, 0x65,
  0x6c, 0x75, 0x3b, 0x66, 0x75, 0x6e, 0x63, 0x74, 0x69, 0x6f, 0x6e, 0x61,
  0x6c, 0x5f, 0x31, 0x2f, 0x63, 0x6f, 0x6e, 0x76, 0x32, 0x64, 0x5f, 0x31,
  0x2f, 0x42, 0x69, 0x61, 0x73, 0x41, 0x64, 0x64, 0x3b, 0x66, 0x75, 0x6e,
  0x63, 0x74, 0x69, 0x6f, 0x6e, 0x61, 0x6c, 0x5f, 0x31, 0x2f, 0x63, 0x6f,
  0x6e, 0x76, 0x32, 0x64, 0x5f, 0x31, 0x2f, 0x63, 0x6f, 0x6e, 0x76, 0x6f,
  0x6c, 0x75, 0x74, 0x69, 0x6f, 0x6e, 0x3b, 0x66, 0x75, 0x6e, 0x63, 0x74,
  0x69, 0x6f, 0x6e, 0x61, 0x6c, 0x5f, 0x31, 0x2f, 0x63, 0x6f, 0x6e, 0x76,
  0x32, 0x64, 0x5f, 0x31, 0x2f, 0x53, 0x71, 0x75, 0x65, 0x65, 0x7a, 0x65,
  0x31, 0x00, 0x00, 0x00, 0x04, 0x00, 0x00, 0x00, 0x01, 0x00, 0x00, 0x00,
  0x30, 0x00, 0x00, 0x00, 0x30, 0x00, 0x00, 0x00, 0x10, 0x00, 0x00, 0x00,
  0x4a, 0xd6, 0xff, 0xff, 0x00, 0x00, 0x00, 0x01, 0x14, 0x00, 0x00, 0x00,
  0xe8, 0x00, 0x00, 0x00, 0x26, 0x00, 0x00, 0x00, 0x00, 0x00, 0x00, 0x09,
  0xf4, 0x00, 0x00, 0x00, 0xc4, 0xd5, 0xff, 0xff, 0x08, 0x00, 0x00, 0x00,
  0x8c, 0x00, 0x00, 0x00, 0x10, 0x00, 0x00, 0x00, 0x00, 0x00, 0x00, 0x00,
  0x00, 0x00, 0x00, 0x00, 0x00, 0x00, 0x00, 0x00, 0x00, 0x00, 0x00, 0x00,
  0x00, 0x00, 0x00, 0x00, 0x00, 0x00, 0x00, 0x00, 0x00, 0x00, 0x00, 0x00,
  0x00, 0x00, 0x00, 0x00, 0x00, 0x00, 0x00, 0x00, 0x00, 0x00, 0x00, 0x00,
  0x00, 0x00, 0x00, 0x00, 0x00, 0x00, 0x00, 0x00, 0x00, 0x00, 0x00, 0x00,
  0x00, 0x00, 0x00, 0x00, 0x00, 0x00, 0x00, 0x00, 0x00, 0x00, 0x00, 0x00,
  0x00, 0x00, 0x00, 0x00, 0x00, 0x00, 0x00, 0x00, 0x00, 0x00, 0x00, 0x00,
  0x00, 0x00, 0x00, 0x00, 0x00, 0x00, 0x00, 0x00, 0x00, 0x00, 0x00, 0x00,
  0x00, 0x00, 0x00, 0x00, 0x00, 0x00, 0x00, 0x00, 0x00, 0x00, 0x00, 0x00,
  0x00, 0x00, 0x00, 0x00, 0x00, 0x00, 0x00, 0x00, 0x00, 0x00, 0x00, 0x00,
  0x00, 0x00, 0x00, 0x00, 0x00, 0x00, 0x00, 0x00, 0x00, 0x00, 0x00, 0x00,
  0x00, 0x00, 0x00, 0x00, 0x00, 0x00, 0x00, 0x00, 0x10, 0x00, 0x00, 0x00,
  0x19, 0xd4, 0xcd, 0x3a, 0xd3, 0x20, 0xbc, 0x3a, 0x17, 0x49, 0xbb, 0x3a,
  0x4d, 0x54, 0xb9, 0x3a, 0xf0, 0x46, 0xc0, 0x3a, 0xd2, 0xfe, 0x9f, 0x3a,
  0x04, 0x85, 0xb6, 0x3a, 0xbb, 0x72, 0xb2, 0x3a, 0x02, 0xae, 0xb6, 0x3a,
  0x32, 0x22, 0xaf, 0x3a, 0xcc, 0x0f, 0xc5, 0x3a, 0xa1, 0x84, 0xc2, 0x3a,
  0xab, 0x65, 0xb6, 0x3a, 0xe4, 0xcf, 0x92, 0x3a, 0x07, 0xaa, 0xad, 0x3a,
  0xee, 0x2d, 0xbe, 0x3a, 0x13, 0x00, 0x00, 0x00, 0x74, 0x66, 0x6c, 0x2e,
  0x70, 0x73, 0x65, 0x75, 0x64, 0x6f, 0x5f, 0x71, 0x63, 0x6f, 0x6e, 0x73,
  0x74, 0x33, 0x35, 0x00, 0x04, 0x00, 0x00, 0x00, 0x10, 0x00, 0x00, 0x00,
  0x03, 0x00, 0x00, 0x00, 0x03, 0x00, 0x00, 0x00, 0x01, 0x00, 0x00, 0x00,
  0x6a, 0xd7, 0xff, 0xff, 0x00, 0x00, 0x00, 0x01, 0x14, 0x00, 0x00, 0x00,
  0xe4, 0x00, 0x00, 0x00, 0x25, 0x00, 0x00, 0x00, 0x00, 0x00, 0x00, 0x02,
  0xf0, 0x00, 0x00, 0x00, 0xe4, 0xd6, 0xff, 0xff, 0x08, 0x00, 0x00, 0x00,
  0x88, 0x00, 0x00, 0x00, 0x10, 0x00, 0x00, 0x00, 0x00, 0x00, 0x00, 0x00,
  0x00, 0x00, 0x00, 0x00, 0x00, 0x00, 0x00, 0x00, 0x00, 0x00, 0x00, 0x00,
  0x00, 0x00, 0x00, 0x00, 0x00, 0x00, 0x00, 0x00, 0x00, 0x00, 0x00, 0x00,
  0x00, 0x00, 0x00, 0x00, 0x00, 0x00, 0x00, 0x00, 0x00, 0x00, 0x00, 0x00,
  0x00, 0x00, 0x00, 0x00, 0x00, 0x00, 0x00, 0x00, 0x00, 0x00, 0x00, 0x00,
  0x00, 0x00, 0x00, 0x00, 0x00, 0x00, 0x00, 0x00, 0x00, 0x00, 0x00, 0x00,
  0x00, 0x00, 0x00, 0x00, 0x00, 0x00, 0x00, 0x00, 0x00, 0x00, 0x00, 0x00,
  0x00, 0x00, 0x00, 0x00, 0x00, 0x00, 0x00, 0x00, 0x00, 0x00, 0x00, 0x00,
  0x00, 0x00, 0x00, 0x00, 0x00, 0x00, 0x00, 0x00, 0x00, 0x00, 0x00, 0x00,
  0x00, 0x00, 0x00, 0x00, 0x00, 0x00, 0x00, 0x00, 0x00, 0x00, 0x00, 0x00,
  0x00, 0x00, 0x00, 0x00, 0x00, 0x00, 0x00, 0x00, 0x00, 0x00, 0x00, 0x00,
  0x00, 0x00, 0x00, 0x00, 0x10, 0x00, 0x00, 0x00, 0xbd, 0xa2, 0xce, 0x36,
  0xb1, 0xdd, 0xbc, 0x36, 0x1d, 0x05, 0xbc, 0x36, 0x5c, 0x0e, 0xba, 0x36,
  0xf9, 0x07, 0xc1, 0x36, 0x72, 0x9f, 0xa0, 0x36, 0x41, 0x3c, 0xb7, 0x36,
  0xe2, 0x25, 0xb3, 0x36, 0x68, 0x65, 0xb7, 0x36, 0x05, 0xd2, 0xaf, 0x36,
  0xa2, 0xd5, 0xc5, 0x36, 0xea, 0x47, 0xc3, 0x36, 0xc8, 0x1c, 0xb7, 0x36,
  0x48, 0x63, 0x93, 0x36, 0x60, 0x58, 0xae, 0x36, 0xdc, 0xec, 0xbe, 0x36,
  0x13, 0x00, 0x00, 0x00, 0x74, 0x66, 0x6c, 0x2e, 0x70, 0x73, 0x65, 0x75,
  0x64, 0x6f, 0x5f, 0x71, 0x63, 0x6f, 0x6e, 0x73, 0x74, 0x33, 0x34, 0x00,
  0x01, 0x00, 0x00, 0x00, 0x10, 0x00, 0x00, 0x00, 0x7a, 0xd8, 0xff, 0xff,
  0x00, 0x00, 0x00, 0x01, 0x14, 0x00, 0x00, 0x00, 0x88, 0x00, 0x00, 0x00,
  0x24, 0x00, 0x00, 0x00, 0x00, 0x00, 0x00, 0x09, 0x94, 0x00, 0x00, 0x00,
  0xf4, 0xd7, 0xff, 0xff, 0x08, 0x00, 0x00, 0x00, 0x4c, 0x00, 0x00, 0x00,
  0x08, 0x00, 0x00, 0x00, 0x00, 0x00, 0x00, 0x00, 0x00, 0x00, 0x00, 0x00,
  0x00, 0x00, 0x00, 0x00, 0x00, 0x00, 0x00, 0x00, 0x00, 0x00, 0x00, 0x00,
  0x00, 0x00, 0x00, 0x00, 0x00, 0x00, 0x00, 0x00, 0x00, 0x00, 0x00, 0x00,
  0x00, 0x00, 0x00, 0x00, 0x00, 0x00, 0x00, 0x00, 0x00, 0x00, 0x00, 0x00,
  0x00, 0x00, 0x00, 0x00, 0x00, 0x00, 0x00, 0x00, 0x00, 0x00, 0x00, 0x00,
  0x00, 0x00, 0x00, 0x00, 0x00, 0x00, 0x00, 0x00, 0x00, 0x00, 0x00, 0x00,
  0x08, 0x00, 0x00, 0x00, 0x9e, 0xf5, 0x7a, 0x3b, 0x6a, 0xd3, 0x7a, 0x3b,
  0xb9, 0x6c, 0x80, 0x3b, 0x9d, 0xc3, 0x67, 0x3b, 0x28, 0x93, 0x7c, 0x3b,
  0x66, 0x3c, 0x79, 0x3b, 0x20, 0x79, 0x76, 0x3b, 0xfc, 0x8c, 0x78, 0x3b,
  0x13, 0x00, 0x00, 0x00, 0x74, 0x66, 0x6c, 0x2e, 0x70, 0x73, 0x65, 0x75,
