
#ifndef A1_TINYESP32CNN_INT8_H
#define A1_TINYESP32CNN_INT8_H

#include <cstdint>

alignas(16) const unsigned char A1_TinyESP32CNN_INT8[] = {
  0x20, 0x00, 0x00, 0x00, 0x54, 0x46, 0x4c, 0x33, 0x00, 0x00, 0x00, 0x00,
  0x14, 0x00, 0x20, 0x00, 0x1c, 0x00, 0x18, 0x00, 0x14, 0x00, 0x10, 0x00,
  0x0c, 0x00, 0x00, 0x00, 0x08, 0x00, 0x04, 0x00, 0x14, 0x00, 0x00, 0x00,
  0x1c, 0x00, 0x00, 0x00, 0x98, 0x00, 0x00, 0x00, 0x18, 0x01, 0x00, 0x00,
  0xe0, 0x1f, 0x00, 0x00, 0xf0, 0x1f, 0x00, 0x00, 0x64, 0x37, 0x00, 0x00,
  0x03, 0x00, 0x00, 0x00, 0x01, 0x00, 0x00, 0x00, 0x10, 0x00, 0x00, 0x00,
  0x00, 0x00, 0x0a, 0x00, 0x10, 0x00, 0x0c, 0x00, 0x08, 0x00, 0x04, 0x00,
  0x0a, 0x00, 0x00, 0x00, 0x0c, 0x00, 0x00, 0x00, 0x1c, 0x00, 0x00, 0x00,
  0x3c, 0x00, 0x00, 0x00, 0x0f, 0x00, 0x00, 0x00, 0x73, 0x65, 0x72, 0x76,
  0x69, 0x6e, 0x67, 0x5f, 0x64, 0x65, 0x66, 0x61, 0x75, 0x6c, 0x74, 0x00,
  0x01, 0x00, 0x00, 0x00, 0x04, 0x00, 0x00, 0x00, 0x68, 0xff, 0xff, 0xff,
  0x15, 0x00, 0x00, 0x00, 0x04, 0x00, 0x00, 0x00, 0x08, 0x00, 0x00, 0x00,
  0x6f, 0x75, 0x74, 0x70, 0x75, 0x74, 0x5f, 0x30, 0x00, 0x00, 0x00, 0x00,
  0x01, 0x00, 0x00, 0x00, 0x04, 0x00, 0x00, 0x00, 0xfe, 0xdf, 0xff, 0xff,
  0x04, 0x00, 0x00, 0x00, 0x0c, 0x00, 0x00, 0x00, 0x6b, 0x65, 0x72, 0x61,
  0x73, 0x5f, 0x74, 0x65, 0x6e, 0x73, 0x6f, 0x72, 0x00, 0x00, 0x00, 0x00,
  0x03, 0x00, 0x00, 0x00, 0x5c, 0x00, 0x00, 0x00, 0x2c, 0x00, 0x00, 0x00,
  0x04, 0x00, 0x00, 0x00, 0xb8, 0xff, 0xff, 0xff, 0x19, 0x00, 0x00, 0x00,
  0x04, 0x00, 0x00, 0x00, 0x13, 0x00, 0x00, 0x00, 0x43, 0x4f, 0x4e, 0x56,
  0x45, 0x52, 0x53, 0x49, 0x4f, 0x4e, 0x5f, 0x4d, 0x45, 0x54, 0x41, 0x44,
  0x41, 0x54, 0x41, 0x00, 0xdc, 0xff, 0xff, 0xff, 0x18, 0x00, 0x00, 0x00,
  0x04, 0x00, 0x00, 0x00, 0x13, 0x00, 0x00, 0x00, 0x6d, 0x69, 0x6e, 0x5f,
  0x72, 0x75, 0x6e, 0x74, 0x69, 0x6d, 0x65, 0x5f, 0x76, 0x65, 0x72, 0x73,
  0x69, 0x6f, 0x6e, 0x00, 0x08, 0x00, 0x0c, 0x00, 0x08, 0x00, 0x04, 0x00,
  0x08, 0x00, 0x00, 0x00, 0x17, 0x00, 0x00, 0x00, 0x04, 0x00, 0x00, 0x00,
  0x13, 0x00, 0x00, 0x00, 0x6d, 0x69, 0x6e, 0x5f, 0x72, 0x75, 0x6e, 0x74,
  0x69, 0x6d, 0x65, 0x5f, 0x76, 0x65, 0x72, 0x73, 0x69, 0x6f, 0x6e, 0x00,
  0x1a, 0x00, 0x00, 0x00, 0xc4, 0x1e, 0x00, 0x00, 0xbc, 0x1e, 0x00, 0x00,
  0xa4, 0x1e, 0x00, 0x00, 0x7c, 0x1e, 0x00, 0x00, 0xac, 0x1d, 0x00, 0x00,
  0x1c, 0x1d, 0x00, 0x00, 0x0c, 0x19, 0x00, 0x00, 0x7c, 0x18, 0x00, 0x00,
  0x6c, 0x06, 0x00, 0x00, 0x1c, 0x06, 0x00, 0x00, 0x8c, 0x01, 0x00, 0x00,
  0x5c, 0x01, 0x00, 0x00, 0x04, 0x01, 0x00, 0x00, 0xfc, 0x00, 0x00, 0x00,
  0xf4, 0x00, 0x00, 0x00, 0xec, 0x00, 0x00, 0x00, 0xe4, 0x00, 0x00, 0x00,
  0xdc, 0x00, 0x00, 0x00, 0xd4, 0x00, 0x00, 0x00, 0xcc, 0x00, 0x00, 0x00,
  0xc4, 0x00, 0x00, 0x00, 0xbc, 0x00, 0x00, 0x00, 0xb4, 0x00, 0x00, 0x00,
  0x94, 0x00, 0x00, 0x00, 0x74, 0x00, 0x00, 0x00, 0x04, 0x00, 0x00, 0x00,
  0x0a, 0xe1, 0xff, 0xff, 0x04, 0x00, 0x00, 0x00, 0x60, 0x00, 0x00, 0x00,
  0x0c, 0x00, 0x00, 0x00, 0x08, 0x00, 0x0e, 0x00, 0x08, 0x00, 0x04, 0x00,
  0x08, 0x00, 0x00, 0x00, 0x10, 0x00, 0x00, 0x00, 0x28, 0x00, 0x00, 0x00,
  0x00, 0x00, 0x06, 0x00, 0x08, 0x00, 0x04, 0x00, 0x06, 0x00, 0x00, 0x00,
  0x04, 0x00, 0x00, 0x00, 0x01, 0x00, 0x00, 0x00, 0xeb, 0x03, 0x00, 0x00,
  0x0c, 0x00, 0x18, 0x00, 0x14, 0x00, 0x10, 0x00, 0x0c, 0x00, 0x04, 0x00,
  0x0c, 0x00, 0x00, 0x00, 0x2a, 0xc7, 0x24, 0x85, 0x8c, 0xd8, 0xac, 0x6f,
  0x02, 0x00, 0x00, 0x00, 0x02, 0x00, 0x00, 0x00, 0x04, 0x00, 0x00, 0x00,
  0x06, 0x00, 0x00, 0x00, 0x32, 0x2e, 0x31, 0x39, 0x2e, 0x30, 0x00, 0x00,
  0x76, 0xe1, 0xff, 0xff, 0x04, 0x00, 0x00, 0x00, 0x10, 0x00, 0x00, 0x00,
  0x00, 0x00, 0x00, 0x00, 0x00, 0x00, 0x00, 0x00, 0x00, 0x00, 0x00, 0x00,
  0x00, 0x00, 0x00, 0x00, 0x92, 0xe1, 0xff, 0xff, 0x04, 0x00, 0x00, 0x00,
  0x10, 0x00, 0x00, 0x00, 0x31, 0x2e, 0x31, 0x34, 0x2e, 0x30, 0x00, 0x00,
  0x00, 0x00, 0x00, 0x00, 0x00, 0x00, 0x00, 0x00, 0x90, 0xcb, 0xff, 0xff,
  0x94, 0xcb, 0xff, 0xff, 0x98, 0xcb, 0xff, 0xff, 0x9c, 0xcb, 0xff, 0xff,
  0xa0, 0xcb, 0xff, 0xff, 0xa4, 0xcb, 0xff, 0xff, 0xa8, 0xcb, 0xff, 0xff,
  0xac, 0xcb, 0xff, 0xff, 0xb0, 0xcb, 0xff, 0xff, 0xb4, 0xcb, 0xff, 0xff,
  0xd6, 0xe1, 0xff, 0xff, 0x04, 0x00, 0x00, 0x00, 0x48, 0x00, 0x00, 0x00,
  0x6d, 0xae, 0xbe, 0xc1, 0xa1, 0x0d, 0x7f, 0x33, 0xf5, 0x43, 0x42, 0xf8,
  0xe8, 0x81, 0xa7, 0xa7, 0x6a, 0x2f, 0xe9, 0x9f, 0x6d, 0x73, 0x6e, 0x27,
  0x9a, 0x7f, 0xb5, 0x0e, 0x30, 0xf1, 0x81, 0x58, 0x44, 0x96, 0x2f, 0x5a,
  0x58, 0xd2, 0xf4, 0x7c, 0x9d, 0xf4, 0x7f, 0x62, 0xbb, 0x0c, 0xc5, 0xf1,
  0xdb, 0xd9, 0x7f, 0xba, 0x3b, 0x22, 0x62, 0x01, 0x61, 0x50, 0x64, 0x86,
  0x08, 0x0f, 0x81, 0x7f, 0xb1, 0x40, 0x14, 0x03, 0x8b, 0x25, 0xae, 0x0b,
  0x2a, 0xe2, 0xff, 0xff, 0x04, 0x00, 0x00, 0x00, 0x20, 0x00, 0x00, 0x00,
  0x87, 0x00, 0x00, 0x00, 0x54, 0x04, 0x00, 0x00, 0xd1, 0xa1, 0xff, 0xff,
  0xec, 0xd5, 0xff, 0xff, 0x58, 0xbc, 0xff, 0xff, 0x0a, 0xe8, 0xff, 0xff,
  0x5a, 0xd9, 0xff, 0xff, 0xe9, 0x00, 0x00, 0x00, 0x56, 0xe2, 0xff, 0xff,
  0x04, 0x00, 0x00, 0x00, 0x80, 0x04, 0x00, 0x00, 0x50, 0x08, 0xec, 0xe8,
  0x08, 0xfb, 0x0f, 0x0d, 0xec, 0xef, 0xdb, 0xf4, 0xe8, 0xcd, 0x2b, 0x19,
  0x53, 0xf5, 0x17, 0x02, 0xfc, 0x1f, 0x43, 0x7f, 0x4b, 0x1b, 0xba, 0xf9,
  0xcf, 0x0e, 0x20, 0x74, 0x03, 0xee, 0xf2, 0x01, 0xcc, 0x1a, 0xc4, 0x13,
  0x28, 0x02, 0xd5, 0xb6, 0x17, 0x03, 0xc5, 0x50, 0x46, 0x02, 0xfc, 0xf6,
  0x06, 0x0a, 0xbd, 0xfd, 0x63, 0x12, 0x0c, 0x35, 0xe6, 0xe5, 0xfd, 0xda,
  0x6d, 0xf8, 0xeb, 0x19, 0xd7, 0x31, 0xe8, 0x06, 0x26, 0x04, 0xe4, 0x0b,
  0x06, 0x2c, 0xe1, 0xfd, 0xf9, 0x07, 0x00, 0x40, 0xe0, 0x23, 0xcd, 0xe0,
  0x74, 0x06, 0xd7, 0xda, 0x2d, 0xf9, 0x16, 0x7f, 0x20, 0xff, 0xfb, 0xd5,
  0xea, 0xe8, 0xbb, 0x2a, 0x34, 0x01, 0x0a, 0x16, 0xc7, 0x0e, 0xdc, 0xad,
  0x79, 0x4e, 0xfa, 0x36, 0xe3, 0x40, 0x20, 0x5e, 0x47, 0x36, 0xec, 0x11,
  0xf0, 0x14, 0x16, 0x47, 0xfe, 0x1a, 0xc3, 0xd2, 0x1d, 0x32, 0x07, 0xf3,
  0x35, 0x1a, 0xeb, 0x3e, 0xde, 0x5c, 0xd0, 0x52, 0x52, 0xf5, 0x3b, 0x07,
  0xe5, 0xd4, 0xf0, 0xe3, 0xf4, 0xdd, 0x4b, 0x0a, 0x22, 0xd9, 0x42, 0xdc,
  0xf2, 0x09, 0x4f, 0x03, 0xee, 0xe5, 0x16, 0x1d, 0xf0, 0x39, 0xe0, 0x20,
  0xf9, 0xf2, 0x01, 0x4e, 0x1e, 0x36, 0x0f, 0xef, 0xfd, 0xca, 0x15, 0x44,
  0xf5, 0x2f, 0x11, 0xfb, 0xba, 0xe2, 0x40, 0x61, 0x7f, 0x47, 0xb4, 0xcc,
  0xba, 0xf9, 0x01, 0x65, 0x72, 0x07, 0xbd, 0xc2, 0xbf, 0x2a, 0xd9, 0x63,
  0x70, 0x44, 0x90, 0xc7, 0x03, 0x3f, 0xb2, 0x49, 0xe6, 0x1f, 0xf3, 0x47,
  0xe6, 0xe3, 0xd1, 0x04, 0x4b, 0x15, 0x11, 0xfc, 0x06, 0x08, 0x16, 0x0b,
  0x24, 0xde, 0xf5, 0x0f, 0x2e, 0x1c, 0x2b, 0xf6, 0x0f, 0x05, 0xc4, 0x13,
  0xc9, 0xfc, 0x11, 0x14, 0x36, 0xfc, 0xc3, 0xe5, 0xf0, 0x29, 0x1e, 0x35,
  0x0d, 0xfa, 0x0e, 0xe3, 0x1a, 0x21, 0x15, 0x26, 0x7f, 0x1f, 0xe7, 0xdb,
  0x18, 0x02, 0xdd, 0x14, 0x5a, 0xf6, 0xe4, 0xf0, 0xe1, 0xfa, 0xbc, 0xf4,
  0x08, 0xec, 0xb4, 0x0f, 0xea, 0xe2, 0xce, 0x38, 0x4a, 0xfd, 0xf1, 0xfb,
  0x1a, 0x0f, 0xfc, 0x46, 0xf3, 0x15, 0xd3, 0xe4, 0xdd, 0xdd, 0xe7, 0x1e,
  0x3d, 0xeb, 0xf7, 0x03, 0x1c, 0x1a, 0xdd, 0x1f, 0x3f, 0x19, 0xfa, 0xf5,
  0xdd, 0xd5, 0xf5, 0x15, 0xf4, 0x11, 0xfb, 0x47, 0xb6, 0x48, 0xdb, 0xff,
  0x77, 0x1f, 0x0e, 0xf5, 0x20, 0x04, 0x0d, 0x22, 0x36, 0x02, 0xef, 0x26,
  0xf3, 0x46, 0xb5, 0xe4, 0x11, 0xce, 0x2d, 0x1e, 0xe5, 0xe2, 0x2f, 0x27,
  0x5b, 0x2c, 0xb1, 0xef, 0xdd, 0xdc, 0xfa, 0x7f, 0x8f, 0xff, 0x14, 0x2e,
  0xef, 0x01, 0xf8, 0x2b, 0xbc, 0x2e, 0x2f, 0x21, 0x9c, 0xcf, 0x5e, 0x05,
  0x14, 0x22, 0x26, 0x3f, 0x62, 0x40, 0x72, 0x47, 0x0d, 0x4e, 0x1f, 0x9d,
  0x24, 0xe4, 0xdd, 0xff, 0x66, 0x52, 0xbe, 0xbf, 0xea, 0xae, 0x69, 0x66,
  0xff, 0x35, 0x1d, 0xd1, 0x9d, 0x19, 0x1b, 0x5a, 0x7e, 0x3c, 0xbe, 0xfc,
  0xd5, 0x13, 0xbd, 0x45, 0x49, 0x9b, 0x2c, 0x0d, 0x05, 0xac, 0x83, 0x73,
  0x79, 0x14, 0x33, 0x81, 0xec, 0x25, 0x96, 0xb6, 0xca, 0x22, 0xa1, 0xa4,
  0xc5, 0xe9, 0xe6, 0x12, 0xd0, 0x1a, 0xdc, 0xf5, 0x92, 0xb8, 0x23, 0x14,
  0xd2, 0x5f, 0x05, 0x2d, 0xd1, 0x0e, 0xef, 0xce, 0xe4, 0xff, 0xfe, 0xba,
  0xb3, 0x23, 0xbf, 0x36, 0xc8, 0x2e, 0xde, 0xd3, 0xeb, 0xfe, 0xd5, 0x59,
  0xc9, 0x3f, 0xdb, 0xce, 0x14, 0x13, 0x99, 0x04, 0xda, 0x3c, 0xfa, 0xf8,
  0x06, 0x18, 0xcf, 0x32, 0xcb, 0x3d, 0x18, 0xed, 0xa7, 0xb1, 0x01, 0x04,
  0xa6, 0x32, 0xd9, 0x23, 0xea, 0x81, 0xce, 0xb8, 0xa0, 0xc6, 0x0b, 0xd5,
  0xb8, 0x1a, 0xf5, 0xd5, 0xb0, 0xcb, 0xbf, 0x07, 0xbf, 0xec, 0xd3, 0xd6,
  0x91, 0xe5, 0xc0, 0xfb, 0xbb, 0xec, 0xe6, 0xe8, 0xd5, 0x08, 0xd3, 0xe9,
  0x04, 0xd4, 0x07, 0xf6, 0xc0, 0xe2, 0xe7, 0x01, 0x0c, 0xfa, 0x27, 0xde,
  0xf2, 0xd2, 0x04, 0xf4, 0xb4, 0x26, 0x19, 0xe9, 0x81, 0xd2, 0xd8, 0x0b,
  0xe5, 0xf5, 0xd5, 0xe3, 0x83, 0xf6, 0xcd, 0xef, 0xaf, 0xd9, 0xc7, 0xfc,
  0x9c, 0x04, 0xf3, 0xf7, 0xb2, 0xe5, 0xe8, 0xd4, 0x4a, 0xe6, 0x0c, 0x03,
  0x38, 0xab, 0x2a, 0x51, 0x11, 0x1c, 0xf0, 0xd5, 0x27, 0xc2, 0xf4, 0x3c,
  0xef, 0xba, 0xbc, 0x91, 0xfa, 0xa5, 0xca, 0xe3, 0x5d, 0x04, 0x2e, 0x21,
  0x1b, 0xca, 0x21, 0x3b, 0xf2, 0xd7, 0xc6, 0xcc, 0xf5, 0xb9, 0x0e, 0x07,
  0xf0, 0x13, 0xd9, 0xb6, 0xd7, 0xbc, 0xbb, 0xf8, 0x7f, 0x28, 0x0a, 0x14,
  0x58, 0x13, 0x3f, 0x34, 0x31, 0x14, 0x10, 0xd0, 0x0f, 0xf5, 0x02, 0x3b,
  0x39, 0xf7, 0x05, 0xb2, 0xbd, 0xfd, 0xe3, 0xf4, 0x87, 0xf0, 0xe6, 0xd1,
  0xe5, 0xef, 0xbf, 0xca, 0x81, 0x04, 0x1f, 0xf7, 0xd9, 0x28, 0xba, 0xc1,
  0xae, 0x02, 0x27, 0x37, 0xdf, 0x1d, 0xe2, 0xf6, 0xa2, 0x00, 0xef, 0xed,
  0xee, 0x01, 0xf6, 0xfe, 0xa8, 0xe6, 0xfa, 0xfb, 0xdc, 0x10, 0xe3, 0xfb,
  0xcf, 0x09, 0x35, 0x23, 0xff, 0x4b, 0xf9, 0x05, 0x84, 0xff, 0xec, 0xda,
  0xd7, 0xe8, 0xd2, 0xc2, 0xb1, 0x0d, 0xfe, 0x06, 0xbe, 0xfd, 0xcd, 0xf1,
  0x05, 0x0f, 0x3d, 0x2e, 0xe4, 0x3e, 0xcc, 0xfa, 0xa4, 0xdc, 0xda, 0xe2,
  0xe0, 0x10, 0xec, 0xb3, 0x85, 0xda, 0xf5, 0x05, 0xe0, 0xed, 0xe0, 0xc8,
  0x8b, 0xdd, 0x29, 0x2f, 0x0b, 0x33, 0xf3, 0xe8, 0x98, 0xd3, 0xd8, 0xf6,
  0xd6, 0xfe, 0xf8, 0xb5, 0x89, 0xe9, 0x14, 0x02, 0xcb, 0x1e, 0xf1, 0xd8,
  0xd1, 0x0c, 0x35, 0x19, 0xf2, 0x35, 0xe2, 0xd0, 0x81, 0x03, 0xdc, 0x04,
  0xe5, 0xf9, 0xfe, 0xc7, 0x9a, 0x07, 0x24, 0xf9, 0xdb, 0x28, 0xd5, 0x0a,
  0x93, 0x06, 0x02, 0x27, 0x0d, 0x08, 0x0c, 0xd8, 0xcc, 0x11, 0x18, 0x09,
  0xf3, 0xb7, 0xcc, 0x09, 0xfc, 0xd0, 0x17, 0xeb, 0xfa, 0xb5, 0x05, 0x31,
  0x18, 0xc4, 0xbc, 0xc3, 0x2a, 0x36, 0xd8, 0xd2, 0xbd, 0x45, 0x15, 0x12,
  0xf9, 0x1e, 0x92, 0xf7, 0x53, 0x35, 0x27, 0xf1, 0x00, 0x11, 0x5f, 0xc7,
  0xf0, 0xb2, 0xc3, 0x84, 0x10, 0xd9, 0x22, 0xe3, 0x81, 0x33, 0x37, 0x48,
  0x0f, 0x01, 0x9e, 0xb1, 0x51, 0xba, 0xfb, 0x18, 0x34, 0xc3, 0x63, 0x2e,
  0xfd, 0x18, 0x89, 0xea, 0xd0, 0x33, 0xb2, 0xfb, 0x23, 0x04, 0xf2, 0xfd,
  0xfa, 0xe7, 0x01, 0x1a, 0x35, 0xee, 0x06, 0x29, 0x1c, 0xe8, 0xfe, 0x4b,
  0x30, 0xf0, 0xe1, 0xd5, 0xff, 0xe8, 0xd4, 0xf5, 0x43, 0xf8, 0x15, 0x1c,
  0x2d, 0xd8, 0xff, 0x40, 0x30, 0x21, 0xf8, 0x12, 0x01, 0xf0, 0x08, 0x1f,
  0x1e, 0x1b, 0xdf, 0xfc, 0xe0, 0x18, 0xf6, 0x1f, 0x7f, 0xe3, 0xf4, 0xfd,
  0x2f, 0x1c, 0x2e, 0x51, 0x2b, 0xf2, 0x05, 0xf8, 0x0f, 0x2a, 0x22, 0x25,
  0x21, 0xf3, 0x14, 0xd9, 0x11, 0xe0, 0xeb, 0x34, 0x18, 0x5f, 0x16, 0x25,
  0xa0, 0x2d, 0xc6, 0xcc, 0x13, 0x08, 0xd2, 0xf1, 0xc1, 0x03, 0x15, 0x24,
  0x4d, 0x17, 0xe7, 0xd2, 0x1c, 0xde, 0xd1, 0x4b, 0x11, 0x38, 0xce, 0x59,
  0x07, 0x4d, 0xa4, 0xda, 0x2a, 0xf4, 0x19, 0xf8, 0xf1, 0x24, 0x46, 0x09,
  0x25, 0x10, 0xc8, 0xd5, 0x30, 0xe1, 0x3c, 0x25, 0xef, 0x16, 0x16, 0x53,
  0xe0, 0x13, 0xf8, 0xc8, 0x7f, 0x3d, 0xf9, 0xb6, 0x22, 0xb8, 0xe4, 0x76,
  0xe8, 0x25, 0xe5, 0x33, 0xea, 0x42, 0xe7, 0x3b, 0xfa, 0xee, 0xdb, 0xd9,
  0xd3, 0xe5, 0x05, 0x13, 0x3a, 0x18, 0x06, 0xdc, 0x2e, 0x0f, 0x04, 0x5c,
  0x34, 0xfb, 0xec, 0xfe, 0xe3, 0x33, 0xd0, 0x46, 0xdd, 0xfa, 0x03, 0x0a,
  0xb9, 0x0f, 0xc5, 0x22, 0x4b, 0x1a, 0xf2, 0x2e, 0x10, 0x1b, 0x0a, 0x1a,
  0x33, 0xe6, 0xd6, 0xea, 0x0f, 0xde, 0xea, 0x21, 0x00, 0xea, 0xd9, 0xf9,
  0xb3, 0x30, 0xd3, 0xf0, 0x15, 0x16, 0xee, 0x0d, 0x3a, 0xf3, 0x23, 0x4a,
  0x25, 0x0e, 0xce, 0xf1, 0x1e, 0x0a, 0x1f, 0x7f, 0xf3, 0x0b, 0xa4, 0xd2,
  0xb4, 0xd1, 0x1b, 0x19, 0x22, 0xec, 0xdf, 0xed, 0xed, 0xaa, 0xc0, 0xf5,
  0x04, 0xe8, 0xb5, 0xf9, 0xb6, 0xc1, 0xe0, 0x28, 0x21, 0x2a, 0x8c, 0xe2,
  0x1b, 0xa3, 0x0e, 0xe6, 0x3e, 0xf6, 0xa2, 0xeb, 0xbc, 0xf9, 0xfb, 0x28,
  0x1c, 0x2b, 0xa2, 0x09, 0xe7, 0x9f, 0xe1, 0xf4, 0xf7, 0xd7, 0xbd, 0x18,
  0xfb, 0xba, 0xf9, 0xf0, 0xf7, 0xd9, 0xd5, 0x23, 0xde, 0x9d, 0x12, 0x23,
  0xfd, 0xec, 0xd6, 0xff, 0xd8, 0x81, 0x03, 0xdd, 0xe2, 0xe6, 0xff, 0xff,
  0x04, 0x00, 0x00, 0x00, 0x40, 0x00, 0x00, 0x00, 0x21, 0x0a, 0x00, 0x00,
  0xdc, 0xf0, 0xff, 0xff, 0x32, 0x11, 0x00, 0x00, 0xda, 0x09, 0x00, 0x00,
  0x14, 0xfd, 0xff, 0xff, 0x7f, 0x0d, 0x00, 0x00, 0xfc, 0x56, 0x00, 0x00,
  0x20, 0x1c, 0x00, 0x00, 0x25, 0xc9, 0xff, 0xff, 0x50, 0x12, 0x00, 0x00,
  0x13, 0x0f, 0x00, 0x00, 0x64, 0xff, 0xff, 0xff, 0xa9, 0xc8, 0xff, 0xff,
  0xae, 0x01, 0x00, 0x00, 0x8d, 0x09, 0x00, 0x00, 0x40, 0x51, 0x00, 0x00,
  0x2e, 0xe7, 0xff, 0xff, 0x04, 0x00, 0x00, 0x00, 0x00, 0x12, 0x00, 0x00,
  0x24, 0x27, 0x0d, 0xe9, 0x30, 0xea, 0x02, 0xd0, 0x44, 0x13, 0x32, 0x0f,
  0x4f, 0x0e, 0x2d, 0xe2, 0x1d, 0x2e, 0xda, 0xfa, 0xf8, 0x13, 0xd0, 0x0c,
  0x7f, 0x39, 0x0d, 0xe8, 0x67, 0x04, 0x06, 0xea, 0xe9, 0xe3, 0x02, 0xd5,
  0x1e, 0x1a, 0xf2, 0xf2, 0x5e, 0x26, 0x43, 0x01, 0x1e, 0x13, 0xea, 0xc9,
  0x0a, 0x07, 0xfc, 0x0d, 0xe0, 0xed, 0xea, 0xe6, 0x57, 0x13, 0x2c, 0x0d,
  0x1f, 0x07, 0xd9, 0xd5, 0xee, 0x2f, 0x17, 0x1e, 0x27, 0xce, 0xeb, 0xd4,
  0x5b, 0x10, 0x4e, 0x25, 0x6c, 0x2a, 0x4c, 0xbb, 0x16, 0x16, 0xf2, 0x06,
  0x2d, 0xd6, 0xfc, 0x0e, 0x59, 0x18, 0x0e, 0xe1, 0x45, 0x23, 0xe3, 0xce,
  0xfd, 0x16, 0xd0, 0xf0, 0xe2, 0x0f, 0x12, 0xf1, 0x41, 0x38, 0x06, 0xe2,
  0x10, 0xf7, 0xdc, 0xe8, 0xdf, 0x1c, 0xcf, 0x04, 0xdb, 0xe3, 0xc3, 0xc6,
  0x5b, 0x33, 0x4a, 0x17, 0x6c, 0x2a, 0x14, 0xe2, 0xf9, 0xe3, 0xe8, 0xe7,
  0x1f, 0x05, 0xe6, 0x07, 0x66, 0x34, 0x2e, 0xd4, 0x41, 0x17, 0x1d, 0xf4,
  0xad, 0x23, 0xe7, 0xdb, 0xcd, 0x10, 0xfb, 0xd5, 0xc3, 0x97, 0xd6, 0xe5,
  0xd5, 0xea, 0xeb, 0xe6, 0xac, 0xdf, 0xcf, 0xeb, 0xe1, 0xc9, 0x19, 0xe8,
  0xf4, 0xb0, 0xf7, 0xd0, 0xdc, 0xdd, 0xfa, 0x00, 0xb4, 0x02, 0x1d, 0xc3,
  0xea, 0xfb, 0x1d, 0x04, 0xed, 0xb6, 0xaf, 0x16, 0xd2, 0xe7, 0x38, 0xd9,
  0xe6, 0xd0, 0xe6, 0xf8, 0x02, 0x0e, 0xe1, 0x13, 0xa6, 0x81, 0xa6, 0x11,
  0xf2, 0x24, 0x18, 0x03, 0xab, 0xcd, 0xff, 0x0f, 0xdc, 0x1c, 0xeb, 0x43,
  0xdb, 0x89, 0xc7, 0xe3, 0xb1, 0xe1, 0xc1, 0xe7, 0xd2, 0xe4, 0x1b, 0x10,
  0x12, 0x1e, 0xd5, 0x19, 0xd0, 0xa1, 0xdb, 0x03, 0x06, 0x01, 0x18, 0x05,
  0xcd, 0xfe, 0xec, 0xd1, 0xcf, 0x02, 0xe4, 0xf6, 0x92, 0xa4, 0x96, 0x23,
  0x9f, 0xff, 0x34, 0xfc, 0xdc, 0xde, 0xe6, 0xd1, 0xe1, 0xd7, 0xf8, 0x03,
  0xf0, 0xb5, 0x0e, 0xf4, 0xc8, 0x22, 0xda, 0x16, 0xcc, 0xd8, 0x01, 0xe6,
  0x0e, 0xdc, 0xbf, 0xed, 0xc6, 0x93, 0xa4, 0x34, 0xcf, 0xf8, 0x39, 0xc8,
  0xfb, 0x00, 0x2a, 0xf7, 0xba, 0x39, 0x21, 0xbf, 0x44, 0xf2, 0x08, 0xec,
  0x15, 0xbc, 0xc6, 0x3e, 0x13, 0x0d, 0x05, 0xfb, 0xdc, 0x01, 0x0f, 0xe7,
  0x54, 0x50, 0x45, 0x0f, 0x08, 0xc4, 0x81, 0x25, 0x12, 0x03, 0x18, 0xf2,
  0x03, 0x0b, 0x1d, 0xf8, 0xf3, 0xeb, 0x1c, 0x24, 0x39, 0xd4, 0xce, 0x2e,
  0x2d, 0xb8, 0xf9, 0xd6, 0xdf, 0xe6, 0xfa, 0xee, 0x0f, 0xf9, 0xf2, 0x1a,
  0x2b, 0xbd, 0xcd, 0x35, 0xec, 0xe8, 0xeb, 0xfe, 0xcb, 0xdd, 0xff, 0xf6,
  0x2d, 0x1b, 0x0c, 0xdb, 0x38, 0xa3, 0xaa, 0x2e, 0xc6, 0xe0, 0x44, 0xcc,
  0xe2, 0x0e, 0xfb, 0xec, 0xbc, 0xf9, 0x39, 0x21, 0x2f, 0xb9, 0xa5, 0x15,
  0x0b, 0xc3, 0x02, 0x06, 0xbe, 0xe3, 0x17, 0xb9, 0x42, 0x18, 0xed, 0xe0,
  0x17, 0xbd, 0xb6, 0x2a, 0xe9, 0xd3, 0xd8, 0x00, 0xc7, 0x1f, 0x30, 0xec,
  0x2c, 0x1b, 0x10, 0x13, 0x0b, 0x9b, 0x9d, 0x5b, 0xdb, 0xe2, 0x34, 0xe9,
  0xe0, 0x03, 0x2b, 0x0a, 0xfc, 0x0e, 0x1c, 0xf0, 0xee, 0xf3, 0x93, 0x1c,
  0x18, 0xf4, 0x22, 0x26, 0xee, 0xf3, 0x4d, 0xe7, 0xc1, 0xe3, 0xff, 0x02,
  0xc3, 0xfd, 0x01, 0x2d, 0x11, 0x0c, 0x69, 0x2f, 0x01, 0x2c, 0x50, 0x06,
  0xcc, 0xee, 0x01, 0x13, 0xd9, 0x04, 0xff, 0x7f, 0x10, 0xed, 0x6b, 0x35,
  0xf6, 0xf4, 0x6d, 0x03, 0xe2, 0xcb, 0xfc, 0x08, 0xcb, 0xf3, 0x0a, 0x65,
  0xf7, 0xcf, 0x04, 0x15, 0xf4, 0x14, 0x24, 0xea, 0xa6, 0xe1, 0xe0, 0xfb,
  0xd6, 0x0b, 0x17, 0x06, 0x16, 0xf9, 0x39, 0x24, 0xf6, 0xfd, 0x37, 0xe6,
  0xd8, 0xde, 0xe3, 0xf7, 0xed, 0xe3, 0x1d, 0x57, 0x3e, 0x06, 0x15, 0x24,
  0x14, 0x23, 0x4a, 0xea, 0xf0, 0xe2, 0xe1, 0x14, 0xc4, 0xff, 0x05, 0x6b,
  0x11, 0xf2, 0x08, 0x20, 0xe4, 0x02, 0xf4, 0xc6, 0x9f, 0xc8, 0xc1, 0xf4,
  0xb9, 0xdf, 0xea, 0x1a, 0x10, 0xc7, 0x1d, 0xfe, 0xec, 0xf1, 0x22, 0xda,
  0xb4, 0xac, 0xeb, 0xff, 0xa4, 0xe9, 0xf2, 0x50, 0x12, 0xed, 0x32, 0x0d,
  0xee, 0xee, 0x43, 0xd5, 0xd9, 0xa9, 0xe2, 0xf7, 0xbf, 0xee, 0xea, 0x31,
  0x33, 0xd1, 0xfb, 0x2a, 0xe8, 0x08, 0xe8, 0xed, 0x20, 0x01, 0xf7, 0xfb,
  0x4f, 0xc3, 0xf2, 0x36, 0x34, 0xe3, 0xd8, 0x12, 0xe4, 0x21, 0x30, 0xfc,
  0x63, 0x07, 0xfa, 0xf0, 0x0b, 0x9f, 0xc5, 0x31, 0x14, 0xd0, 0xf5, 0x0b,
  0xd7, 0x01, 0x30, 0xe1, 0x13, 0x4d, 0x23, 0x19, 0x1c, 0xbd, 0xb0, 0x41,
  0x25, 0xdd, 0xfc, 0xe4, 0x03, 0xf3, 0xf5, 0xfd, 0x07, 0xbc, 0x9c, 0xcd,
  0x56, 0xfa, 0xfc, 0xf7, 0x28, 0xf7, 0xf0, 0xe8, 0xf2, 0xff, 0xf8, 0x23,
  0x31, 0xd5, 0xfb, 0x12, 0x60, 0xee, 0xbb, 0x06, 0x10, 0xee, 0xb3, 0x01,
  0xd7, 0xde, 0x2a, 0x0e, 0x7f, 0x14, 0xfe, 0xf9, 0x02, 0xc3, 0x9a, 0x2d,
  0x17, 0xbb, 0xd2, 0xd7, 0xec, 0xda, 0xe2, 0xdb, 0x12, 0xcc, 0xef, 0x26,
  0x18, 0xce, 0xe8, 0xf9, 0xdc, 0x01, 0x98, 0xf5, 0xed, 0x10, 0xf2, 0xbe,
  0x07, 0x01, 0x02, 0xeb, 0x5c, 0xc0, 0xb9, 0x17, 0x27, 0x06, 0xec, 0x1b,
  0x1c, 0xdc, 0x0f, 0xf6, 0x2a, 0x14, 0xe6, 0x17, 0x5e, 0xc3, 0x9f, 0xfb,
  0x00, 0xac, 0x5c, 0x12, 0x01, 0x3c, 0x64, 0xfa, 0x3e, 0x0b, 0x18, 0xfe,
  0x29, 0xd1, 0x15, 0x5d, 0x1b, 0xbc, 0x50, 0x3d, 0xd5, 0x2d, 0x7f, 0x0b,
  0x32, 0x34, 0x47, 0xc2, 0x00, 0xd6, 0x09, 0x54, 0x31, 0xd7, 0x2e, 0xf8,
  0xbc, 0x34, 0x61, 0x2e, 0xed, 0x41, 0x64, 0x0d, 0xd5, 0x11, 0xfa, 0x46,
  0xdf, 0xb2, 0xcd, 0xde, 0xb6, 0xf4, 0x25, 0x1c, 0x17, 0x21, 0xf6, 0x16,
  0x2d, 0x02, 0xf4, 0x4f, 0xe6, 0x9c, 0xbd, 0xec, 0xcc, 0xf2, 0x4e, 0x17,
  0xee, 0x38, 0x25, 0xbc, 0x04, 0xe7, 0xef, 0x69, 0xe5, 0xda, 0xec, 0xdc,
  0xa7, 0x0a, 0x49, 0x08, 0xf1, 0x18, 0x3d, 0x0a, 0xac, 0xcb, 0xbc, 0x55,
  0xc8, 0xa6, 0xb8, 0xc0, 0xa6, 0xdc, 0x43, 0xd5, 0x00, 0xf7, 0x07, 0x00,
  0x19, 0xe6, 0xf5, 0x12, 0xc6, 0xce, 0xb5, 0xf9, 0xde, 0xfc, 0x48, 0x19,
  0xe6, 0x4d, 0x17, 0xcf, 0x2f, 0xcc, 0x9c, 0x3f, 0xaf, 0x9c, 0xf7, 0xf7,
  0xcc, 0xe4, 0x3a, 0x02, 0xd9, 0xf8, 0x47, 0x0a, 0xdf, 0xbe, 0xa7, 0x2a,
  0x1f, 0xf8, 0x1b, 0xe0, 0x0c, 0x19, 0x26, 0xed, 0x31, 0x45, 0x39, 0x0f,
  0x32, 0xee, 0xe3, 0xf2, 0xf7, 0x0a, 0x12, 0xe0, 0x04, 0x1b, 0x06, 0x14,
  0x36, 0x3f, 0x28, 0x1e, 0x41, 0x01, 0xfb, 0x0c, 0xf0, 0x16, 0x0f, 0x0c,
  0xf9, 0x00, 0x10, 0x19, 0x46, 0x5f, 0x31, 0x0c, 0x2c, 0x03, 0xbf, 0xe2,
  0xff, 0xf5, 0x30, 0xfc, 0x04, 0x05, 0xfb, 0x10, 0x5f, 0x3b, 0x25, 0x0a,
  0x1e, 0xdf, 0xe9, 0xeb, 0xf0, 0xdf, 0x19, 0xd9, 0xee, 0x18, 0x16, 0x2c,
  0x47, 0x5f, 0x3c, 0x08, 0x13, 0xf5, 0xd0, 0x06, 0xf7, 0x1b, 0xf2, 0x08,
  0xf4, 0x00, 0xff, 0x35, 0x40, 0x54, 0x2f, 0xf9, 0x1a, 0xed, 0xec, 0x0b,
  0x15, 0xfd, 0x1d, 0x04, 0xe5, 0x16, 0x33, 0x11, 0x4d, 0x70, 0x44, 0xf8,
  0x33, 0xe8, 0xcb, 0x0a, 0xfa, 0xfd, 0xf0, 0xe5, 0xf1, 0x06, 0x1d, 0x10,
  0x5f, 0x7f, 0x3c, 0x1a, 0x2b, 0x0f, 0xe0, 0x02, 0x0e, 0x1e, 0x18, 0xf4,
  0x0f, 0x15, 0x26, 0x39, 0x2d, 0x58, 0x43, 0xfa, 0x25, 0x14, 0xcc, 0xfc,
  0xf5, 0xf5, 0x05, 0xaf, 0xc4, 0xdf, 0x43, 0x14, 0x54, 0x3d, 0x28, 0x08,
  0x46, 0xc8, 0xf4, 0x28, 0xc1, 0x15, 0xcc, 0xa6, 0xc5, 0xa8, 0x2f, 0x30,
  0x72, 0x70, 0x46, 0xc6, 0x3e, 0xda, 0xcb, 0x2f, 0xaf, 0xee, 0xc3, 0xa0,
  0xce, 0xa9, 0x3f, 0x1a, 0xce, 0x43, 0x40, 0x02, 0xe6, 0x05, 0xce, 0x36,
  0xde, 0xf5, 0xda, 0xac, 0xda, 0xc8, 0x36, 0x0c, 0x6b, 0x50, 0x2f, 0x13,
  0x37, 0xd8, 0xf0, 0x32, 0xef, 0x0c, 0xc9, 0xc0, 0xc7, 0xdd, 0x25, 0x17,
  0x55, 0x57, 0x43, 0x9f, 0x1d, 0xbf, 0xea, 0x19, 0x83, 0xf5, 0xc3, 0xb0,
  0xa7, 0xb3, 0x0c, 0x22, 0xe9, 0x49, 0x23, 0xe8, 0xe3, 0x09, 0xd5, 0x11,
  0xe2, 0xe7, 0xdb, 0xdc, 0xdb, 0xfc, 0x31, 0x29, 0x50, 0x22, 0x39, 0xdf,
  0x63, 0xac, 0x07, 0x1d, 0xdc, 0x1a, 0xc8, 0xc1, 0xbd, 0xdf, 0x34, 0x33,
  0x53, 0x5c, 0x56, 0x9b, 0x10, 0xd4, 0xd1, 0x23, 0x81, 0xfc, 0xde, 0xd7,
  0xbc, 0xee, 0x17, 0x1b, 0xdb, 0x3b, 0x44, 0xd9, 0xf4, 0x07, 0xd8, 0x24,
  0x0d, 0x0e, 0xfd, 0x05, 0xef, 0x1d, 0xd5, 0x03, 0x55, 0xb7, 0xe0, 0xe4,
  0xf8, 0x3d, 0x2a, 0xf6, 0x31, 0x2a, 0xbe, 0xd6, 0xf6, 0x25, 0xe3, 0xf6,
  0x2b, 0x2d, 0xbe, 0x2a, 0x29, 0xe0, 0x0e, 0x95, 0x05, 0x2f, 0x12, 0x0d,
  0x30, 0x2c, 0xbd, 0xf7, 0x1c, 0x90, 0x94, 0x2c, 0x33, 0x45, 0x6e, 0x88,
  0x10, 0x2b, 0xe8, 0x39, 0xfb, 0x2e, 0x81, 0x0d, 0x47, 0xd7, 0x92, 0xf3,
  0xec, 0xe2, 0x10, 0xc7, 0x1c, 0x1d, 0x04, 0xe6, 0x39, 0xe3, 0xc8, 0x04,
  0x1e, 0xe7, 0xa7, 0xf7, 0xe9, 0xe6, 0x0b, 0xf6, 0xca, 0xff, 0x26, 0x31,
  0x31, 0xf3, 0x84, 0x25, 0xfe, 0xfe, 0xce, 0x18, 0x1f, 0xe6, 0x56, 0xa2,
  0x09, 0x0d, 0x0b, 0xff, 0x2b, 0xd7, 0xa7, 0xca, 0x2b, 0xaa, 0xe9, 0x17,
  0x2a, 0x3d, 0x4b, 0xf4, 0xe1, 0x2d, 0xd3, 0xf1, 0x0a, 0x24, 0xaf, 0xc5,
  0x31, 0x3e, 0x06, 0xfb, 0x0e, 0xe3, 0x16, 0xd6, 0xd3, 0x2b, 0xe2, 0xd6,
  0xe6, 0xe7, 0xc3, 0xfa, 0x07, 0x3c, 0xf8, 0x36, 0xf5, 0xed, 0x50, 0xb8,
  0x21, 0xe8, 0x0e, 0xff, 0x00, 0x21, 0x01, 0x3a, 0xc6, 0x36, 0xa7, 0x23,
  0xad, 0xe1, 0xe8, 0xa5, 0xc2, 0xbf, 0x2a, 0xbf, 0xf2, 0xc0, 0x29, 0xe3,
  0xbb, 0x1a, 0x2f, 0xb8, 0x08, 0xec, 0xd9, 0xec, 0x43, 0x3c, 0x10, 0xf6,
  0x2d, 0xcd, 0xd2, 0xd0, 0x0b, 0xd3, 0xe1, 0xfd, 0xaa, 0xe0, 0xc8, 0xd8,
  0xec, 0x19, 0xbd, 0xab, 0xc4, 0x0f, 0xe4, 0xdd, 0xf2, 0xd2, 0xda, 0xb6,
  0xff, 0x06, 0xf2, 0xa3, 0x38, 0x23, 0xb0, 0xcd, 0x1b, 0x39, 0x1a, 0xbd,
  0x83, 0xe6, 0xa7, 0xdd, 0xa5, 0xc6, 0x20, 0x17, 0x29, 0x0e, 0xee, 0xed,
  0x0f, 0x08, 0x14, 0xe0, 0xbc, 0xd0, 0xf2, 0x17, 0xc6, 0xa5, 0xf3, 0x81,
  0x10, 0xc9, 0xfa, 0x14, 0x05, 0x06, 0x2a, 0x34, 0x98, 0xff, 0xe3, 0x14,
  0xf2, 0xd6, 0xcb, 0xdb, 0x39, 0xde, 0x17, 0xe6, 0xef, 0x3b, 0xf5, 0xbd,
  0x0e, 0xfa, 0xbc, 0x33, 0xbc, 0xd1, 0x0b, 0xa3, 0x0f, 0x07, 0xb3, 0xd3,
  0xc6, 0xce, 0x9f, 0x06, 0xee, 0xda, 0xf1, 0xbf, 0x22, 0x20, 0x98, 0x89,
  0x13, 0x53, 0x09, 0x07, 0x10, 0xde, 0x24, 0x06, 0x09, 0xab, 0x16, 0xdc,
  0xd2, 0xf8, 0x5e, 0x15, 0x33, 0x54, 0x3a, 0x43, 0x0d, 0x18, 0xd3, 0xa3,
  0xcf, 0xd6, 0xcb, 0xef, 0xfb, 0x1a, 0x19, 0x22, 0x2c, 0x34, 0x3a, 0x37,
  0x36, 0x06, 0xca, 0xd1, 0xeb, 0x8c, 0xe2, 0xda, 0xdc, 0x3e, 0x79, 0xee,
  0x22, 0x0c, 0x44, 0x16, 0x4c, 0xce, 0xe1, 0xe8, 0xe6, 0xfd, 0xde, 0x1b,
  0x1d, 0x18, 0x4a, 0x2e, 0x12, 0x1f, 0x2c, 0x33, 0x0d, 0x09, 0xf0, 0xea,
  0x19, 0xf0, 0xe4, 0xde, 0x0c, 0x09, 0x4d, 0xdf, 0x35, 0x2e, 0x04, 0x1c,
  0x22, 0xff, 0xe6, 0x9c, 0xf3, 0x93, 0xba, 0x04, 0xd0, 0x3b, 0x7f, 0xfa,
  0x09, 0x4b, 0x0c, 0x13, 0x1f, 0x0d, 0x34, 0xc8, 0x0a, 0xf4, 0x0a, 0xea,
  0x1e, 0xf9, 0x39, 0x30, 0x27, 0x1f, 0x27, 0x31, 0x21, 0x15, 0xf6, 0xff,
  0xff, 0xec, 0xf2, 0x18, 0xe0, 0x21, 0x3a, 0x2c, 0x19, 0x31, 0xeb, 0x11,
  0x36, 0xd5, 0x31, 0xbc, 0xec, 0x01, 0x1e, 0xf6, 0xdb, 0x34, 0x6b, 0xef,
  0x28, 0x15, 0x02, 0xf3, 0x2c, 0xf2, 0xd6, 0x1c, 0x46, 0xdc, 0xe9, 0xfd,
  0x1c, 0x47, 0x21, 0xbe, 0xfe, 0x01, 0xdd, 0xff, 0xf7, 0xf9, 0xe3, 0xe7,
  0x4e, 0x5b, 0x2a, 0x08, 0x1f, 0x01, 0x0a, 0xbe, 0x18, 0x20, 0x15, 0xfb,
  0x16, 0xe9, 0xae, 0xfd, 0x27, 0x5b, 0x19, 0x1f, 0x01, 0x47, 0x39, 0xc0,
  0x1e, 0x0d, 0xef, 0xff, 0x1e, 0x0d, 0xde, 0xe3, 0x4c, 0xdd, 0xdf, 0x17,
  0x08, 0x38, 0x09, 0xa2, 0xfe, 0x19, 0x04, 0xe8, 0x00, 0xeb, 0xef, 0xe9,
  0x3f, 0x35, 0x3d, 0x02, 0x1f, 0xe9, 0x1a, 0xbf, 0x11, 0x19, 0xf8, 0x12,
  0x17, 0xf2, 0xa4, 0xd1, 0x1a, 0x19, 0x03, 0x34, 0x15, 0x26, 0x4d, 0x81,
  0x11, 0x16, 0xe0, 0x14, 0x01, 0xf1, 0xed, 0xcf, 0x75, 0x0e, 0x33, 0xef,
  0x26, 0x17, 0x1d, 0xf4, 0x01, 0x07, 0xda, 0xea, 0x09, 0x15, 0xcc, 0xe0,
  0x4b, 0x43, 0x15, 0x07, 0x00, 0xee, 0x23, 0xe6, 0x01, 0x21, 0xf9, 0x1b,
  0x20, 0x14, 0xfc, 0xef, 0x3a, 0x58, 0x24, 0x34, 0x24, 0x06, 0x2e, 0xdb,
  0x1b, 0x4a, 0x47, 0x05, 0x2a, 0x29, 0xc0, 0xe4, 0x43, 0xb3, 0xe4, 0x1c,
  0x22, 0x18, 0x22, 0xe4, 0x38, 0x11, 0x28, 0xfe, 0x29, 0x0e, 0xd6, 0xf4,
  0x28, 0x30, 0x08, 0x09, 0xfb, 0x2a, 0x34, 0xb6, 0x2f, 0x3f, 0x01, 0x26,
  0x02, 0xfb, 0xc9, 0xc7, 0x0b, 0x14, 0xf8, 0x28, 0x16, 0x31, 0x2c, 0xaf,
  0x39, 0x24, 0x38, 0x42, 0x43, 0x1f, 0xaf, 0xcf, 0x6e, 0xbc, 0xd3, 0xf5,
  0x20, 0xf9, 0x12, 0xc4, 0x2d, 0x45, 0x09, 0x38, 0xf4, 0xff, 0xc3, 0xaa,
  0x28, 0xf9, 0xfe, 0xe6, 0xe4, 0x20, 0x30, 0x99, 0xff, 0x6a, 0x5e, 0x30,
  0x3d, 0x17, 0xc3, 0x81, 0x02, 0xb2, 0xef, 0x44, 0x0b, 0x08, 0x3f, 0x95,
  0x43, 0x30, 0x00, 0xfe, 0x31, 0x0b, 0xe8, 0xed, 0x42, 0x14, 0x1f, 0x07,
  0x14, 0xfb, 0x47, 0xf3, 0x28, 0x3a, 0xf6, 0x37, 0x10, 0x03, 0xfe, 0x0a,
  0x3a, 0x1b, 0x43, 0xe8, 0x3f, 0xf8, 0x44, 0x12, 0x20, 0x6c, 0x3a, 0x11,
  0x26, 0xfd, 0xbc, 0xb3, 0x07, 0x25, 0xf9, 0x4c, 0x28, 0x25, 0x3f, 0xe5,
  0xed, 0x30, 0x47, 0xf9, 0x04, 0x33, 0x02, 0xc7, 0xef, 0x0d, 0xe6, 0x03,
  0xde, 0xf5, 0x04, 0x1b, 0xff, 0x1a, 0x06, 0x26, 0x17, 0xf0, 0x02, 0x00,
  0xd9, 0x0f, 0x11, 0x21, 0xe9, 0xfc, 0xfd, 0x2b, 0xee, 0x39, 0x0f, 0x22,
  0x25, 0xfb, 0x0a, 0xc4, 0xd5, 0xe2, 0x19, 0xf9, 0xb0, 0xe9, 0xee, 0x1b,
  0x4a, 0x17, 0x42, 0x1f, 0x27, 0x09, 0xe5, 0xb7, 0xe9, 0xdf, 0xc6, 0x3c,
  0xf8, 0xf5, 0x48, 0x28, 0x06, 0x43, 0x26, 0x29, 0x20, 0x1e, 0xe6, 0xc4,
  0xd7, 0xb9, 0xbb, 0x07, 0x00, 0x2d, 0x0a, 0xf2, 0x2e, 0x3c, 0x07, 0x01,
  0x24, 0x01, 0x16, 0x9b, 0x13, 0xbf, 0xcd, 0xef, 0xf8, 0x09, 0x30, 0xff,
  0x13, 0x3e, 0x44, 0x37, 0x35, 0xdc, 0xe7, 0xc4, 0x03, 0xdf, 0xf3, 0x1f,
  0x08, 0x01, 0x72, 0x15, 0x4b, 0x66, 0x00, 0x11, 0x51, 0x20, 0x1e, 0xa2,
  0xf3, 0xdb, 0xff, 0x09, 0x00, 0x24, 0x37, 0xf2, 0x20, 0x68, 0x29, 0x32,
  0x54, 0xf6, 0x08, 0x81, 0xf1, 0xab, 0xe3, 0x1e, 0xde, 0x2d, 0x65, 0xd5,
  0x05, 0x12, 0x18, 0xe4, 0xde, 0xef, 0xc6, 0x03, 0xd4, 0xf9, 0x19, 0xf2,
  0x81, 0xb4, 0xd4, 0x17, 0xe3, 0xd1, 0xff, 0xdd, 0xee, 0xe9, 0xe7, 0xe5,
  0x15, 0xcd, 0xd2, 0x25, 0xca, 0xe2, 0xf4, 0x02, 0x06, 0xe8, 0x13, 0x05,
  0x21, 0xfc, 0xed, 0xd6, 0x04, 0xc2, 0xf2, 0xea, 0xd0, 0xc9, 0x04, 0x1d,
  0x03, 0xdd, 0xe7, 0xec, 0xff, 0xd4, 0xe2, 0xef, 0xfa, 0x02, 0xfe, 0x1e,
  0xe0, 0xd5, 0x3e, 0x1b, 0x01, 0xf8, 0x28, 0x25, 0x16, 0x19, 0xd4, 0xc4,
  0x56, 0x24, 0x0a, 0x02, 0xf0, 0x0a, 0xf8, 0xe2, 0xf0, 0xe2, 0xcd, 0xe7,
  0xec, 0x03, 0xda, 0xf5, 0xf9, 0xf2, 0x14, 0xef, 0xc4, 0x1d, 0x3c, 0x2a,
  0x1c, 0x2d, 0x32, 0x2d, 0xef, 0x0b, 0x1c, 0x11, 0x17, 0xd6, 0xd7, 0x25,
  0x04, 0x06, 0x7d, 0xfa, 0xea, 0x07, 0x0d, 0xe8, 0xe7, 0xf7, 0x02, 0x13,
  0xdd, 0x09, 0xfc, 0x04, 0xf4, 0x02, 0xde, 0xf7, 0x00, 0x40, 0xcd, 0xe3,
  0x36, 0x1c, 0xd4, 0xdb, 0x1c, 0xcd, 0xfb, 0x0d, 0xe2, 0x1d, 0x2d, 0xd4,
  0xd7, 0xfc, 0x01, 0xfd, 0xe4, 0x1b, 0x18, 0x15, 0x00, 0x4a, 0x36, 0xfd,
  0x3d, 0xfb, 0x04, 0x0e, 0xf8, 0xea, 0x1a, 0xe1, 0xb5, 0xfc, 0x3d, 0x43,
  0x2c, 0x5f, 0x66, 0x00, 0x10, 0xe0, 0xd3, 0x70, 0xe7, 0xd3, 0x35, 0x25,
  0xb3, 0x15, 0x1b, 0xf2, 0x2a, 0x49, 0x42, 0xd4, 0x17, 0xfb, 0xc9, 0x3b,
  0xdf, 0xb0, 0xea, 0xbf, 0xf8, 0xea, 0x04, 0xd0, 0x3b, 0x03, 0x4f, 0x0a,
  0x3b, 0xfd, 0xe2, 0x26, 0xdb, 0xdb, 0xee, 0x06, 0xaa, 0x29, 0x3e, 0x20,
  0x54, 0x3b, 0x7f, 0x01, 0x1c, 0xe6, 0xbc, 0x37, 0x22, 0xdb, 0x1e, 0xe1,
  0xf5, 0x27, 0x0b, 0xf6, 0x4c, 0x11, 0x5e, 0x14, 0x0c, 0xe1, 0xc9, 0x37,
  0xd5, 0xd5, 0xd2, 0xbe, 0xc8, 0x02, 0x41, 0xff, 0xfd, 0x08, 0x3f, 0xf6,
  0x30, 0xc0, 0xcf, 0x4f, 0xd2, 0xb6, 0xb3, 0xc7, 0xca, 0xe7, 0x61, 0x30,
  0x4d, 0x67, 0x41, 0xd3, 0x14, 0xcc, 0x94, 0x31, 0xbc, 0x8e, 0xd3, 0xdc,
  0xdd, 0xbf, 0x41, 0x04, 0x2d, 0x2c, 0x50, 0xcc, 0x27, 0xf9, 0xb3, 0x44,
  0x32, 0xf9, 0x32, 0x36, 0x05, 0x01, 0x4c, 0x08, 0xff, 0xef, 0xf5, 0xef,
  0xc9, 0x09, 0x16, 0x5c, 0x1e, 0xfa, 0x77, 0x0a, 0x11, 0x10, 0x58, 0x18,
  0x0a, 0x3b, 0x56, 0x02, 0xde, 0x19, 0xdc, 0x4e, 0xfc, 0xaa, 0x57, 0x20,
  0x1f, 0xf2, 0x58, 0x1e, 0xd7, 0xe1, 0x4e, 0xd7, 0x1a, 0x0a, 0xd0, 0x5d,
  0x26, 0xbd, 0xf7, 0x00, 0x0b, 0xf9, 0x47, 0xd4, 0xea, 0xb0, 0x36, 0xe1,
  0xbe, 0x0a, 0xf1, 0x38, 0x48, 0xc9, 0x23, 0x08, 0xfb, 0xea, 0x7f, 0x02,
  0xda, 0x12, 0x46, 0xfe, 0xce, 0x0d, 0xec, 0x75, 0x16, 0xdd, 0x11, 0xdc,
  0xc9, 0x2c, 0x3d, 0xee, 0xc8, 0xfc, 0x0d, 0x05, 0xb2, 0x24, 0x07, 0x3d,
  0x22, 0xd3, 0x09, 0xef, 0xce, 0x05, 0x17, 0xcc, 0xeb, 0xf3, 0x12, 0x12,
  0x99, 0xf3, 0xd2, 0x40, 0x0e, 0xef, 0xbe, 0x1d, 0xe9, 0xe0, 0x63, 0xcb,
  0xe0, 0xd2, 0x23, 0xe8, 0x9f, 0xfa, 0xd3, 0x64, 0xfe, 0x9a, 0xc8, 0x02,
  0x08, 0x2b, 0x3c, 0x0f, 0xf2, 0xe9, 0x28, 0x02, 0xa0, 0xec, 0xc7, 0x38,
  0xfe, 0xc7, 0x2c, 0x22, 0xff, 0x39, 0x6b, 0xe4, 0x3a, 0x60, 0x2d, 0x1c,
  0x28, 0xe2, 0xfe, 0x61, 0x0b, 0xf1, 0x42, 0xe4, 0xbc, 0x39, 0x5a, 0x20,
  0x49, 0x7a, 0x49, 0xfa, 0x40, 0xd4, 0xb4, 0x62, 0xff, 0xaa, 0x3f, 0x23,
  0xfc, 0x06, 0x7a, 0x1e, 0x26, 0x37, 0x40, 0x15, 0x11, 0xc7, 0xd7, 0x79,
  0xe6, 0xac, 0xf4, 0xb9, 0xc9, 0xed, 0x57, 0x22, 0xfa, 0x0a, 0x2e, 0x20,
  0x4e, 0xf9, 0xfa, 0x6e, 0x0c, 0xa6, 0xc5, 0xbf, 0xe2, 0x14, 0x6e, 0x20,
  0x0d, 0x2a, 0x64, 0xce, 0x36, 0xc6, 0xb1, 0x38, 0x15, 0xc4, 0xcc, 0xf9,
  0xbe, 0xf1, 0x66, 0x1d, 0x2d, 0xff, 0x52, 0xe0, 0x16, 0xd4, 0xa8, 0x2e,
  0xf7, 0x9f, 0xe8, 0xae, 0xc9, 0xf3, 0x27, 0x10, 0x28, 0x03, 0x0b, 0xef,
  0x0a, 0xd8, 0xdc, 0x6b, 0xeb, 0x94, 0xaf, 0xfa, 0xee, 0x13, 0x29, 0x2c,
  0x37, 0x5b, 0x3e, 0xf4, 0x1b, 0xa1, 0xa3, 0x7f, 0xc1, 0xc2, 0xcf, 0xbb,
  0xdd, 0x16, 0x31, 0xea, 0x1d, 0x3e, 0x32, 0xd3, 0x33, 0xc1, 0xc6, 0x48,
  0x2e, 0xf7, 0x71, 0xf4, 0xf2, 0x03, 0xe0, 0x00, 0xf1, 0xc6, 0xe8, 0xee,
  0x04, 0x1a, 0xdd, 0x16, 0x13, 0xe7, 0x7f, 0x29, 0xed, 0x2b, 0x1a, 0x1b,
  0x14, 0xd8, 0xc8, 0xec, 0x19, 0xe9, 0xd4, 0x01, 0x23, 0xfd, 0x5b, 0x15,
  0xe0, 0x2b, 0x13, 0x37, 0xd9, 0xf5, 0xd7, 0x11, 0x15, 0xc9, 0xf5, 0xe4,
  0xf8, 0xd8, 0x39, 0x1b, 0xdf, 0x0c, 0x2f, 0x12, 0x04, 0xcd, 0xdf, 0xf2,
  0x03, 0xd4, 0xe8, 0x19, 0x2d, 0x11, 0x02, 0xf1, 0x12, 0x18, 0x10, 0x22,
  0x05, 0xec, 0xc6, 0xf4, 0x05, 0x15, 0xf4, 0x1c, 0x04, 0xf6, 0xe1, 0xfe,
  0x14, 0x1f, 0x2b, 0xec, 0xbb, 0xe5, 0xcf, 0x1e, 0xd4, 0xee, 0xfb, 0xf6,
  0xda, 0xfb, 0x0a, 0x16, 0x07, 0xe3, 0xf9, 0x0c, 0xaf, 0xf3, 0xd4, 0x02,
  0xb9, 0x0e, 0xbc, 0xc8, 0xe5, 0xf1, 0xfd, 0xf5, 0x10, 0x23, 0xdc, 0xf8,
  0x91, 0xce, 0xdc, 0x01, 0xd9, 0x09, 0x97, 0x01, 0x18, 0xc4, 0x2e, 0xec,
  0xee, 0x08, 0x13, 0xeb, 0xd0, 0xd9, 0xa7, 0x0c, 0xcd, 0xe1, 0xb0, 0xee,
  0x34, 0xe1, 0x65, 0x61, 0x0c, 0x05, 0x54, 0xe6, 0xaa, 0xe8, 0x08, 0xf8,
  0xdc, 0xf7, 0x19, 0x39, 0x60, 0xd1, 0x7f, 0x7a, 0x09, 0x3c, 0x25, 0xea,
  0xe7, 0xb2, 0xf5, 0xdf, 0xbb, 0xd6, 0x1a, 0x36, 0x6e, 0xd8, 0x5b, 0x52,
  0x24, 0x33, 0x47, 0x0c, 0xe4, 0x9f, 0xff, 0xee, 0xb0, 0xfd, 0x12, 0x72,
  0x45, 0xff, 0x2a, 0x39, 0x0f, 0x07, 0x44, 0xd3, 0xbc, 0xae, 0x04, 0x0d,
  0xd6, 0xf9, 0x13, 0x29, 0x3f, 0xd0, 0x3c, 0x58, 0xf2, 0x1c, 0x2c, 0xcf,
  0xb1, 0xbd, 0xd9, 0xdf, 0xe8, 0xe9, 0x1f, 0x23, 0x39, 0xf4, 0x43, 0x28,
  0xf8, 0xfb, 0x34, 0xf4, 0xeb, 0x91, 0xca, 0xd4, 0xae, 0xe7, 0x2a, 0x4a,
  0x1e, 0xd9, 0x3c, 0x2b, 0xe3, 0x23, 0x2e, 0xeb, 0x95, 0xbc, 0xd8, 0x19,
  0xcd, 0xdd, 0x1b, 0x43, 0x01, 0xd6, 0x1c, 0x04, 0xdb, 0x2a, 0x2b, 0xb4,
  0xa4, 0x92, 0xfd, 0xe6, 0xda, 0x10, 0x19, 0x0b, 0x14, 0xdc, 0x30, 0x12,
  0xe1, 0x28, 0x32, 0xe7, 0xd1, 0xab, 0xce, 0xe0, 0xf3, 0x0d, 0x17, 0x3c,
  0xdc, 0x98, 0x11, 0xa9, 0xa2, 0xc1, 0x42, 0x10, 0x42, 0x2f, 0x12, 0x39,
  0x68, 0xf7, 0xee, 0x57, 0xc1, 0xd0, 0xf1, 0xd4, 0x9d, 0xba, 0x35, 0x3d,
  0x7f, 0x6b, 0x3f, 0xbd, 0x2e, 0xc8, 0xd5, 0x4e, 0xc8, 0xdd, 0xcb, 0xcf,
  0x9d, 0xc3, 0x63, 0x21, 0x40, 0x78, 0x58, 0xf0, 0x47, 0xd2, 0xd4, 0x46,
  0xc2, 0xa2, 0xe6, 0xa6, 0xad, 0xc7, 0x11, 0x04, 0x7d, 0xf3, 0x06, 0x30,
  0x53, 0xc9, 0x11, 0x23, 0x04, 0xf2, 0xd2, 0xba, 0xa7, 0xd9, 0x41, 0x14,
  0x6b, 0x35, 0x2b, 0xd1, 0x57, 0x97, 0xaf, 0x63, 0xcf, 0xf5, 0xe3, 0xd6,
  0xb5, 0xb0, 0x54, 0x32, 0x77, 0x47, 0x40, 0xf5, 0x31, 0xda, 0xbd, 0x3b,
  0xbc, 0x8c, 0xd7, 0xb2, 0xc6, 0xe0, 0x0f, 0xf0, 0x73, 0x2e, 0xfb, 0xe8,
  0x7b, 0xcf, 0x04, 0x37, 0xd1, 0xb1, 0xbc, 0xcc, 0x9b, 0xc9, 0x58, 0x32,
  0x46, 0x40, 0x30, 0xc3, 0x2a, 0xb4, 0xd3, 0x33, 0xb7, 0xcf, 0xcd, 0xbc,
  0x87, 0xb4, 0x26, 0x4b, 0x2a, 0x48, 0x62, 0xd3, 0x03, 0xea, 0xcb, 0x67,
  0x33, 0xfe, 0x28, 0xfb, 0x2a, 0x2a, 0xd7, 0x2a, 0x5e, 0x28, 0x1a, 0xb6,
  0x00, 0x11, 0xcc, 0x0e, 0x2d, 0x2d, 0x2f, 0x2c, 0x16, 0xf7, 0x32, 0x39,
  0x2f, 0x75, 0x1b, 0xc2, 0x32, 0x12, 0xdc, 0xfe, 0x02, 0x20, 0x68, 0x08,
  0x21, 0x44, 0x20, 0x31, 0x21, 0x77, 0x1b, 0xc9, 0x2d, 0xae, 0xc0, 0x11,
  0xfc, 0x1e, 0xc1, 0xf9, 0x1b, 0xea, 0x24, 0x05, 0x28, 0x35, 0x1c, 0xb5,
  0x65, 0x02, 0xbe, 0x1a, 0xe2, 0x23, 0x00, 0x1c, 0xdd, 0xf2, 0x01, 0x31,
  0x29, 0x4f, 0x47, 0xb2, 0x27, 0xe8, 0xc6, 0x24, 0x0e, 0xe8, 0xe4, 0xe5,
  0xb9, 0xcc, 0x14, 0x04, 0x24, 0x7f, 0x0b, 0xbb, 0xe3, 0xd9, 0xb5, 0xfb,
  0x2c, 0xf4, 0xbf, 0xe4, 0x08, 0x04, 0x17, 0xf1, 0x48, 0x7c, 0x44, 0xe9,
  0x6e, 0x11, 0xf6, 0xf1, 0x2c, 0x02, 0xf9, 0x0f, 0xe4, 0xc5, 0x1d, 0x23,
  0x0e, 0x45, 0x5c, 0xe1, 0x3f, 0xe7, 0xc0, 0xe4, 0xec, 0x09, 0xe2, 0xb7,
  0xf2, 0xcd, 0x3e, 0x2e, 0x12, 0x7c, 0x08, 0xcf, 0x23, 0xf9, 0xd9, 0xf1,
  0xe6, 0x0b, 0x08, 0xee, 0xc8, 0x37, 0x2e, 0xe9, 0x2d, 0xe4, 0xdb, 0xf7,
  0xbb, 0x16, 0x58, 0x7f, 0x34, 0x1e, 0x11, 0x4b, 0xe3, 0xe5, 0x70, 0x22,
  0xc1, 0xc7, 0xfc, 0x29, 0x10, 0x19, 0xc4, 0x67, 0x26, 0x03, 0x65, 0x3b,
  0x18, 0x39, 0x29, 0x29, 0xe3, 0xbc, 0x0c, 0xfb, 0xb6, 0x04, 0x67, 0xf9,
  0x0b, 0xe4, 0x3c, 0x16, 0x08, 0x1d, 0xb2, 0xb3, 0xfd, 0x9e, 0xe1, 0xcd,
  0xbe, 0xc7, 0x30, 0xf9, 0xdf, 0x11, 0x07, 0xe8, 0x0d, 0xd1, 0xf6, 0xa1,
  0xe6, 0xf4, 0x01, 0x23, 0xc4, 0x20, 0x27, 0x3c, 0x13, 0xca, 0xb8, 0x18,
  0x06, 0xca, 0xf4, 0xa6, 0x14, 0xe0, 0xe5, 0x09, 0xdf, 0xd2, 0x26, 0x1a,
  0x29, 0x0c, 0xeb, 0xe6, 0x29, 0x24, 0xa7, 0xe4, 0xba, 0xa1, 0x9b, 0x0e,
  0xd4, 0xd8, 0x4c, 0x2c, 0xf0, 0xee, 0x35, 0x33, 0x27, 0x04, 0x46, 0xab,
  0x29, 0xe9, 0xc1, 0x00, 0xc1, 0x0c, 0x02, 0x05, 0xe2, 0xc7, 0xf2, 0xd1,
  0xf3, 0xf2, 0x05, 0x06, 0xed, 0xe3, 0xe4, 0xe4, 0xd4, 0x1c, 0x14, 0xe5,
  0x22, 0xd2, 0xe9, 0x21, 0xf0, 0x8c, 0xf7, 0x9e, 0xe7, 0xc7, 0xd6, 0x9e,
  0x23, 0xcd, 0xe0, 0x97, 0x37, 0xd0, 0xe7, 0xb2, 0x2d, 0xbf, 0xf2, 0xc9,
  0xb5, 0x34, 0xa6, 0xde, 0xc3, 0xcc, 0xfd, 0xa1, 0xf2, 0xd4, 0xb4, 0x9f,
  0xb6, 0xad, 0xde, 0x44, 0x11, 0xe8, 0xc5, 0x36, 0xdb, 0xe4, 0x28, 0xc6,
  0xd4, 0xd3, 0xc9, 0xf1, 0xa6, 0x2d, 0x0c, 0xf0, 0xbb, 0x18, 0xa5, 0x18,
  0xb4, 0xbf, 0x37, 0x27, 0xda, 0xd5, 0xd2, 0x12, 0xc7, 0xda, 0x3e, 0x81,
  0x1f, 0xad, 0xf8, 0xc0, 0xed, 0x51, 0xb5, 0x45, 0x2b, 0x07, 0x0b, 0xee,
  0xcc, 0x1c, 0xfd, 0x2a, 0xd7, 0xfc, 0x99, 0xeb, 0xea, 0xa6, 0x26, 0x09,
  0x08, 0xfb, 0x38, 0xb0, 0x2a, 0xfc, 0xe6, 0x2a, 0xad, 0x0a, 0x09, 0x1b,
  0xc0, 0xee, 0xf6, 0x27, 0x24, 0xd4, 0xd9, 0xc2, 0xee, 0x90, 0x46, 0xaa,
  0xd6, 0x17, 0x1b, 0xed, 0x03, 0xe3, 0xf6, 0x25, 0x0c, 0xbb, 0xf9, 0xb5,
  0xd5, 0xc7, 0x0a, 0x35, 0xf9, 0x01, 0xa4, 0x28, 0x45, 0xcc, 0xc3, 0xd2,
  0xf6, 0x43, 0xde, 0xb2, 0xdc, 0x1c, 0x25, 0x15, 0x17, 0x29, 0x3d, 0xc1,
  0x3a, 0x00, 0xa8, 0xf8, 0xcf, 0xd3, 0x03, 0xf5, 0xe8, 0xd8, 0xc5, 0xc2,
  0x64, 0xf3, 0x29, 0xfa, 0x62, 0x4f, 0x1c, 0xcf, 0x37, 0x9f, 0x02, 0xda,
  0xc7, 0xf3, 0x18, 0x34, 0x36, 0xaf, 0xfc, 0x2c, 0x56, 0xf6, 0x07, 0x0b,
  0xe0, 0x10, 0xde, 0xd8, 0xd8, 0x05, 0xe2, 0xfe, 0x08, 0x28, 0x4a, 0xc2,
  0x28, 0xb8, 0xcf, 0x1d, 0xd9, 0xae, 0xee, 0xef, 0xd7, 0x26, 0xf4, 0x9d,
  0x31, 0xda, 0x27, 0x30, 0x1d, 0x41, 0x45, 0xda, 0xba, 0xc7, 0xc4, 0xce,
  0x08, 0xbe, 0x28, 0x1e, 0x28, 0xeb, 0x3c, 0xdf, 0x2a, 0x0c, 0xdb, 0xd2,
  0xab, 0xee, 0x81, 0xf7, 0x04, 0x05, 0x25, 0xd1, 0xd3, 0x13, 0x29, 0xe9,
  0xc3, 0xd6, 0xbc, 0xf9, 0xb2, 0xdc, 0x10, 0x04, 0xbc, 0x0e, 0xe3, 0xf5,
  0xbc, 0xa7, 0xef, 0x53, 0xf1, 0x55, 0x24, 0x11, 0x17, 0xce, 0xdc, 0xcf,
  0xea, 0xe0, 0xcc, 0xc5, 0x1d, 0xb5, 0x26, 0xe1, 0x17, 0x03, 0x26, 0xed,
  0x30, 0x1b, 0x2a, 0xcf, 0x0b, 0x13, 0xe6, 0x16, 0x44, 0x0f, 0xd8, 0x21,
  0x20, 0xf3, 0x1c, 0x12, 0x03, 0x3e, 0xc5, 0x17, 0xfa, 0x0b, 0xb8, 0x08,
  0xcc, 0x14, 0xd6, 0x08, 0x00, 0x1c, 0xe4, 0x16, 0x0c, 0xd0, 0x37, 0x1c,
  0x1c, 0x16, 0xf7, 0xee, 0x2f, 0x15, 0x14, 0x09, 0xfd, 0x2f, 0x4b, 0xf7,
  0xc6, 0x24, 0x28, 0xf5, 0xe4, 0xe5, 0xfe, 0x01, 0x0c, 0x34, 0x32, 0xe8,
  0xf6, 0xf7, 0x2a, 0x1e, 0x21, 0xea, 0xec, 0xfe, 0x2e, 0xe3, 0x15, 0xc6,
  0x14, 0x33, 0x42, 0x27, 0xf9, 0xd4, 0xed, 0xdc, 0xcc, 0xdc, 0x3d, 0xe6,
  0xe2, 0xe4, 0x96, 0x04, 0x67, 0xb6, 0xff, 0xd7, 0x35, 0xf5, 0x20, 0x17,
  0xe6, 0x30, 0xf7, 0x0b, 0xfd, 0xe1, 0xe7, 0xc3, 0x4e, 0x7f, 0x60, 0xfc,
  0xf0, 0xe9, 0x1b, 0x16, 0xfd, 0xed, 0xef, 0x19, 0x1d, 0x16, 0x05, 0xc7,
  0xcd, 0x29, 0x3b, 0x27, 0xb3, 0x0f, 0x3a, 0xc9, 0x0f, 0x05, 0x09, 0xcd,
  0x11, 0x0e, 0xb0, 0x17, 0x18, 0xf7, 0x02, 0xfe, 0x32, 0x34, 0x50, 0x1a,
  0x00, 0xed, 0xfc, 0xd7, 0xda, 0xfb, 0x02, 0x0c, 0x7a, 0x25, 0x22, 0xef,
  0x4d, 0xde, 0xdb, 0x02, 0xfe, 0xfa, 0xc7, 0xe1, 0x01, 0xeb, 0x09, 0x15,
  0x67, 0x67, 0x3e, 0xfc, 0x48, 0xd2, 0xb7, 0x16, 0x05, 0xfe, 0xd9, 0xf2,
  0xe1, 0xfb, 0xfe, 0x2d, 0x57, 0x70, 0x52, 0xf6, 0x23, 0xfc, 0xb0, 0x00,
  0xf5, 0xd4, 0xf4, 0xfc, 0xef, 0x0c, 0x1e, 0x14, 0x7f, 0x40, 0x0a, 0x11,
  0x36, 0xe9, 0xf4, 0x14, 0xf9, 0xde, 0xd5, 0xf0, 0xf7, 0xf7, 0x12, 0x0b,
  0x67, 0x49, 0x1e, 0xea, 0x3f, 0xcb, 0xba, 0xf2, 0xe4, 0x1d, 0xe7, 0xde,
  0x0f, 0xff, 0xfb, 0x2a, 0x39, 0x7c, 0x50, 0x15, 0x23, 0xef, 0xc7, 0x08,
  0xfa, 0xfc, 0x0f, 0xe8, 0xfa, 0xe5, 0x05, 0x23, 0x63, 0x3b, 0x25, 0x17,
  0x40, 0xe3, 0xde, 0x19, 0xfc, 0xf5, 0x0b, 0xf8, 0x06, 0xfd, 0x1d, 0x32,
  0x49, 0x65, 0x3f, 0x14, 0x43, 0xc9, 0xc1, 0x0b, 0xe9, 0xf8, 0xd3, 0xfb,
  0xf9, 0x17, 0x0c, 0x23, 0x36, 0x75, 0x5a, 0x0c, 0x22, 0x0a, 0xde, 0x07,
  0x19, 0xcb, 0x06, 0x07, 0xcb, 0x22, 0x11, 0x0f, 0x4a, 0x31, 0xe6, 0xf5,
  0x19, 0xef, 0xfe, 0x39, 0xf5, 0xe8, 0x24, 0x02, 0xe8, 0x02, 0x29, 0x3b,
  0x2e, 0x2e, 0x4d, 0xce, 0x00, 0xd4, 0xac, 0x15, 0x11, 0xc5, 0x45, 0xe6,
  0xfe, 0x2a, 0x53, 0x1b, 0x02, 0x3f, 0x72, 0xea, 0xe8, 0xe1, 0xdf, 0x37,
  0xd2, 0xe7, 0xf1, 0xe9, 0xe3, 0x24, 0x1f, 0xf9, 0x71, 0x1a, 0x0a, 0xde,
  0x15, 0xe9, 0xf9, 0x1f, 0xec, 0xce, 0xeb, 0xbe, 0xe6, 0xe2, 0x2b, 0x36,
  0x36, 0x34, 0x30, 0xe9, 0x24, 0xa1, 0xc9, 0x20, 0xe7, 0xdf, 0x01, 0xf7,
  0xdc, 0xe7, 0x2d, 0x03, 0x02, 0x35, 0x64, 0x11, 0xd1, 0xcb, 0x95, 0x25,
  0xde, 0xbe, 0xef, 0xc8, 0xe8, 0xd7, 0x05, 0xf5, 0x33, 0x2b, 0x24, 0x1c,
  0x28, 0xad, 0xda, 0x22, 0xcf, 0xcc, 0xcb, 0xbf, 0xd3, 0xef, 0x43, 0x18,
  0x42, 0x28, 0x43, 0xe8, 0x37, 0xa0, 0x81, 0x25, 0xa5, 0xbd, 0xe4, 0xf4,
  0xe6, 0xca, 0x28, 0x2d, 0x49, 0x43, 0x29, 0xf3, 0x08, 0xcc, 0xc0, 0x3a,
  0x2e, 0x40, 0x30, 0x29, 0xd3, 0xf3, 0x24, 0xe9, 0xfa, 0xba, 0xd0, 0xd0,
  0x92, 0x0c, 0x63, 0x23, 0x20, 0xdf, 0xe2, 0x1e, 0x35, 0xda, 0xf1, 0x36,
  0x02, 0xd0, 0x14, 0x28, 0xdf, 0x02, 0x17, 0x25, 0x2d, 0xf0, 0x24, 0xea,
  0xed, 0x10, 0xcb, 0xee, 0x1f, 0xce, 0xc9, 0xc9, 0x00, 0x07, 0xda, 0x1b,
  0x01, 0x2a, 0xfa, 0xbe, 0x26, 0x0d, 0xd9, 0xaa, 0xc4, 0xa1, 0xd9, 0x02,
  0xc5, 0x12, 0xf1, 0x29, 0xe6, 0x36, 0x3d, 0x3d, 0xce, 0xdf, 0x2e, 0x9f,
  0xc7, 0xfb, 0xda, 0x31, 0x81, 0xf7, 0xc2, 0xf5, 0x30, 0x0a, 0xf6, 0xd9,
  0xf5, 0xf4, 0x17, 0x9b, 0xec, 0xec, 0xa8, 0x29, 0x81, 0xef, 0x4d, 0xeb,
  0x13, 0x45, 0x48, 0x00, 0x27, 0xed, 0xea, 0xab, 0xbc, 0xaf, 0xa9, 0x32,
  0xe4, 0xcc, 0xed, 0x25, 0x12, 0xe5, 0x0c, 0x2d, 0xd3, 0xc0, 0x02, 0x9e,
  0x08, 0xac, 0xb7, 0x2b, 0x9c, 0xc4, 0x3b, 0xd4, 0xef, 0x42, 0xc3, 0xe3,
  0xdc, 0xe3, 0xea, 0xd0, 0xe0, 0xa5, 0xde, 0x0b, 0xdb, 0x41, 0x1f, 0xfb,
  0x04, 0x14, 0x04, 0xee, 0xfe, 0x01, 0x08, 0x1f, 0x60, 0x5d, 0x2b, 0xee,
  0x30, 0x02, 0x09, 0xef, 0x00, 0x0a, 0x11, 0xe7, 0x10, 0x13, 0xf5, 0x1f,
  0x7f, 0x55, 0x39, 0x09, 0x45, 0x09, 0xf0, 0xf8, 0xf7, 0xf8, 0xf9, 0xe5,
  0xea, 0xf7, 0xf9, 0x08, 0x52, 0x64, 0x55, 0x08, 0x25, 0xfe, 0xdd, 0xff,
  0xf9, 0xfe, 0xfb, 0xec, 0xec, 0xfd, 0x0f, 0xfa, 0x5b, 0x48, 0x44, 0xe8,
  0x2c, 0xfb, 0x01, 0xeb, 0x16, 0x0b, 0x05, 0xfe, 0xe9, 0x0d, 0x01, 0x19,
  0x74, 0x34, 0x31, 0x10, 0x35, 0x28, 0xe8, 0xe4, 0xed, 0x06, 0xf8, 0xe0,
  0xff, 0xf8, 0x01, 0x0f, 0x69, 0x74, 0x34, 0xec, 0x41, 0xfa, 0xd7, 0xfb,
  0xed, 0x19, 0x02, 0xda, 0xfd, 0x02, 0x1c, 0x19, 0x59, 0x5c, 0x48, 0x0e,
  0x2a, 0x19, 0xf9, 0xf4, 0xf0, 0xfa, 0xfa, 0xdd, 0x02, 0x12, 0x09, 0x25,
  0x50, 0x3a, 0x4c, 0x24, 0x31, 0x25, 0xec, 0xf1, 0x04, 0x04, 0xef, 0xe3,
  0xfe, 0x04, 0x0b, 0x19, 0x3e, 0x73, 0x52, 0x06, 0x2d, 0x18, 0xc9, 0x0b,
  0x04, 0x00, 0x31, 0x10, 0x0d, 0x0a, 0xed, 0xb1, 0xd8, 0xa5, 0xd8, 0x11,
  0xce, 0xec, 0x28, 0xed, 0x18, 0x04, 0x2d, 0x1f, 0x0b, 0x05, 0xd5, 0xc4,
  0xe3, 0x81, 0xc1, 0x0a, 0xdb, 0x12, 0x12, 0xe2, 0x26, 0x24, 0x47, 0x39,
  0x19, 0xee, 0xeb, 0xa0, 0xe3, 0x97, 0xab, 0xf8, 0xd6, 0x12, 0x14, 0x09,
  0x19, 0x12, 0x41, 0x34, 0x10, 0x1d, 0x29, 0xfa, 0xde, 0xdc, 0xec, 0x05,
  0xe4, 0x0c, 0x2b, 0x21, 0x0f, 0xfd, 0x40, 0x30, 0x01, 0x11, 0x15, 0xff,
  0xec, 0xee, 0x0e, 0x09, 0xc7, 0xef, 0x1f, 0x38, 0x26, 0x11, 0x23, 0x3b,
  0x02, 0x18, 0x0a, 0xd4, 0xf1, 0xe7, 0xeb, 0xfc, 0x9c, 0x11, 0x3d, 0x17,
  0x16, 0x02, 0x37, 0x0d, 0x17, 0xf3, 0x1d, 0xdb, 0xde, 0xdf, 0xf5, 0x03,
  0xfa, 0xf5, 0x42, 0x34, 0x21, 0xf8, 0x15, 0x1d, 0x04, 0x07, 0x17, 0xd5,
  0xd1, 0xd2, 0xf4, 0xfa, 0xd6, 0x15, 0x32, 0x33, 0x09, 0x03, 0x1d, 0x07,
  0x00, 0x02, 0x38, 0xf6, 0xe3, 0xc0, 0xf4, 0x0e, 0xde, 0x02, 0x28, 0x10,
  0x0d, 0x0b, 0x72, 0x02, 0xe3, 0x32, 0x2f, 0x0d, 0xf9, 0x1f, 0x33, 0x0b,
  0x04, 0xd5, 0x19, 0x37, 0x3c, 0xcd, 0x7f, 0x14, 0x0d, 0x2a, 0x47, 0xfc,
  0xef, 0x04, 0x29, 0xc5, 0x0f, 0xf4, 0x0b, 0x40, 0x4d, 0xb7, 0x58, 0x27,
  0xed, 0x2b, 0x4a, 0xfd, 0xb4, 0xec, 0x01, 0xda, 0xda, 0xff, 0x16, 0x40,
  0x3f, 0xd8, 0x15, 0xf8, 0xe3, 0x33, 0x2e, 0x11, 0xfa, 0xf0, 0x22, 0xe0,
  0xe1, 0xeb, 0x13, 0x25, 0x4e, 0xbf, 0x01, 0xeb, 0x06, 0xe5, 0x45, 0x06,
  0xee, 0xec, 0x0e, 0xb5, 0xe9, 0xe8, 0x13, 0x41, 0x24, 0x9d, 0xec, 0xe8,
  0xc6, 0x0a, 0x0c, 0x03, 0xdb, 0xc7, 0xda, 0x08, 0xc5, 0xf4, 0xe7, 0x37,
  0xf7, 0xc6, 0xfe, 0xdc, 0xc3, 0xff, 0x15, 0x1a, 0xd4, 0xf9, 0xf5, 0xbe,
  0xaf, 0xf1, 0x0f, 0x46, 0xcd, 0xd3, 0xe0, 0xf7, 0xc5, 0xcf, 0x35, 0x06,
  0xca, 0xcc, 0xfd, 0xf2, 0x99, 0xd0, 0xf2, 0x15, 0xdd, 0x8a, 0x1c, 0xe4,
  0x98, 0xfa, 0x0d, 0xf3, 0x9e, 0xec, 0xd7, 0xeb, 0xb6, 0xd3, 0xfc, 0xea,
  0x3a, 0xf9, 0xff, 0xff, 0x04, 0x00, 0x00, 0x00, 0x80, 0x00, 0x00, 0x00,
  0x17, 0x05, 0x00, 0x00, 0xb3, 0x2d, 0x00, 0x00, 0x54, 0xfc, 0xff, 0xff,
  0x61, 0xff, 0xff, 0xff, 0x14, 0x01, 0x00, 0x00, 0xbd, 0xff, 0xff, 0xff,
  0x41, 0xef, 0xff, 0xff, 0xd2, 0xff, 0xff, 0xff, 0x33, 0x2a, 0x00, 0x00,
  0xce, 0xf6, 0xff, 0xff, 0x94, 0xf7, 0xff, 0xff, 0x63, 0x1a, 0x00, 0x00,
  0xd4, 0x1d, 0x00, 0x00, 0x5d, 0xfc, 0xff, 0xff, 0x56, 0xf8, 0xff, 0xff,
  0x88, 0xfc, 0xff, 0xff, 0x6b, 0xfd, 0xff, 0xff, 0x92, 0xfe, 0xff, 0xff,
  0xb7, 0x00, 0x00, 0x00, 0x91, 0xff, 0xff, 0xff, 0x13, 0x00, 0x00, 0x00,
  0x05, 0xef, 0xff, 0xff, 0x18, 0xfd, 0xff, 0xff, 0x0e, 0xdd, 0xff, 0xff,
  0x8e, 0xf5, 0xff, 0xff, 0x4a, 0xee, 0xff, 0xff, 0x8c, 0xf5, 0xff, 0xff,
  0x6b, 0xff, 0xff, 0xff, 0x84, 0xf7, 0xff, 0xff, 0xeb, 0xf4, 0xff, 0xff,
  0x51, 0xfe, 0xff, 0xff, 0xd8, 0xfe, 0xff, 0xff, 0xc6, 0xf9, 0xff, 0xff,
  0x04, 0x00, 0x00, 0x00, 0x00, 0x04, 0x00, 0x00, 0x4b, 0x2a, 0x57, 0x96,
  0xf5, 0x46, 0x8e, 0x98, 0x8a, 0xa7, 0xc3, 0xe3, 0x16, 0x98, 0xf7, 0x00,
  0xbc, 0xae, 0xb8, 0x81, 0x67, 0x53, 0xed, 0x25, 0x05, 0x1b, 0x97, 0xe2,
  0xd7, 0x0e, 0xd8, 0x04, 0xf4, 0x42, 0x10, 0x4a, 0x64, 0x0e, 0x52, 0x0c,
  0xde, 0xa7, 0xb9, 0x9a, 0xed, 0x21, 0xa5, 0x52, 0x73, 0x09, 0x7f, 0x13,
  0x36, 0x1c, 0xf0, 0xdf, 0xd4, 0xb9, 0xa8, 0x54, 0xf1, 0x38, 0x02, 0x50,
  0x4a, 0xbc, 0x08, 0xdd, 0xf8, 0x4c, 0x52, 0x61, 0xb5, 0x1a, 0x35, 0x32,
  0xc6, 0x1c, 0xe0, 0x0b, 0x2b, 0x30, 0xdf, 0xc4, 0xed, 0x61, 0xcf, 0x20,
  0x65, 0x18, 0x5f, 0xfb, 0x2e, 0x7f, 0x9f, 0xd5, 0xd5, 0x05, 0x0c, 0x4c,
  0x0e, 0x00, 0xa6, 0xf6, 0xf8, 0x00, 0x4f, 0xee, 0x20, 0x52, 0x1f, 0xf0,
  0x37, 0xf8, 0x00, 0x51, 0xe9, 0xc8, 0x11, 0x2d, 0xc3, 0x18, 0x89, 0xe5,
  0x3b, 0x81, 0x71, 0x08, 0x25, 0x4b, 0x14, 0xcb, 0x08, 0x90, 0xe2, 0xcb,
  0x33, 0x91, 0xd6, 0x57, 0x5e, 0x3a, 0xed, 0x88, 0x9e, 0x81, 0xbf, 0x13,
  0xf4, 0xe7, 0x14, 0x33, 0x37, 0xe2, 0xdf, 0xb8, 0xc9, 0xd1, 0xd1, 0xa7,
  0x6b, 0x61, 0x8d, 0x5f, 0xf5, 0xa5, 0x70, 0x97, 0x81, 0x5d, 0xa9, 0xef,
  0xe5, 0x36, 0xa5, 0xe2, 0x22, 0xab, 0xb9, 0x37, 0x26, 0x4d, 0x8d, 0xfe,
  0x13, 0xc1, 0x38, 0x14, 0x15, 0xb3, 0x91, 0x27, 0x58, 0x3a, 0xc2, 0x9f,
  0x19, 0x95, 0xb0, 0x81, 0x46, 0x05, 0xf6, 0x39, 0x61, 0xfd, 0x13, 0xee,
  0x9c, 0xed, 0xfc, 0xc1, 0x9f, 0x38, 0xf2, 0xe7, 0x31, 0x2f, 0xca, 0x9e,
  0xdc, 0x1e, 0xf2, 0xd1, 0x49, 0x17, 0xaa, 0x44, 0x0f, 0xda, 0x72, 0xf7,
  0xb0, 0x9e, 0x81, 0xf5, 0x0a, 0x5c, 0x81, 0xad, 0x10, 0xcd, 0x83, 0x8d,
  0x08, 0xc1, 0xac, 0xe9, 0x8a, 0xa0, 0xd5, 0x75, 0x9b, 0x0c, 0xbd, 0x6b,
  0xc0, 0x14, 0x66, 0x2c, 0x90, 0xef, 0x00, 0xca, 0xef, 0xb3, 0x91, 0xf1,
  0x35, 0xfa, 0x60, 0xe3, 0xd2, 0xd0, 0x91, 0x6c, 0xc4, 0x0f, 0x3c, 0x9d,
  0xe9, 0xad, 0x61, 0x0e, 0x64, 0x20, 0x81, 0x2c, 0xdd, 0x6c, 0x26, 0xa0,
  0xac, 0xc8, 0x87, 0x2c, 0x29, 0xb9, 0x5d, 0xdb, 0xe0, 0x0c, 0xc6, 0x1a,
  0x3d, 0x9b, 0x55, 0xc6, 0xc2, 0x65, 0x95, 0x98, 0x1c, 0x34, 0xc4, 0xed,
  0x22, 0x81, 0x2f, 0xc3, 0x30, 0x9e, 0x99, 0x40, 0xd1, 0x4a, 0x0c, 0xb0,
  0x25, 0xe2, 0x40, 0x00, 0xbd, 0xb0, 0x94, 0x1b, 0x61, 0xaf, 0x18, 0xf8,
  0x93, 0x81, 0x12, 0x6a, 0xdf, 0xc2, 0x5f, 0xb4, 0x14, 0x10, 0xd9, 0xcc,
  0x3f, 0xb3, 0xc8, 0x57, 0xc2, 0x02, 0x8e, 0xc7, 0xe2, 0xea, 0x15, 0xde,
  0x11, 0x7f, 0x6a, 0xf1, 0x4b, 0xdd, 0xf5, 0x2a, 0xd0, 0x2c, 0x5f, 0x1a,
  0x13, 0xd8, 0x92, 0xcc, 0x32, 0x8a, 0x5e, 0x58, 0x0f, 0xf8, 0x1b, 0x57,
  0xee, 0x63, 0xca, 0x65, 0x02, 0xe5, 0xaa, 0xa6, 0xc4, 0xc4, 0xec, 0xf2,
  0x58, 0x58, 0xf6, 0x1a, 0x7f, 0xca, 0xfb, 0xf8, 0x52, 0x46, 0xe2, 0x65,
  0xda, 0x4a, 0x8d, 0x1c, 0xce, 0x28, 0x2e, 0xee, 0x6a, 0x42, 0xe1, 0x4e,
  0xd8, 0x17, 0xe6, 0x1c, 0xd5, 0x81, 0xc4, 0x3a, 0x4f, 0x42, 0x22, 0x00,
  0x48, 0xcf, 0xb9, 0xa6, 0xf4, 0xe3, 0x42, 0x09, 0x27, 0x1d, 0xe8, 0x35,
  0x13, 0x4a, 0xc7, 0xc1, 0x98, 0x96, 0xa9, 0x55, 0xa6, 0x53, 0xdd, 0xe2,
  0xe8, 0x11, 0xcb, 0xcf, 0xd3, 0x3f, 0xb3, 0x3f, 0x38, 0xfc, 0x13, 0x5a,
  0xae, 0xdd, 0x81, 0xe0, 0x68, 0x01, 0x20, 0xf7, 0xc5, 0x47, 0xc1, 0x75,
  0x2a, 0x4b, 0xba, 0xd8, 0xb4, 0xde, 0x41, 0xe9, 0xdd, 0x11, 0xd8, 0xe5,
  0xe4, 0xff, 0x62, 0x74, 0x02, 0x42, 0x7f, 0xe5, 0xee, 0xd8, 0xf0, 0xca,
  0xd4, 0xce, 0x00, 0x13, 0x0a, 0x48, 0x1c, 0x10, 0xd7, 0x09, 0x2d, 0xed,
  0x58, 0xc8, 0x27, 0x55, 0x1f, 0x17, 0xf9, 0xe3, 0xba, 0x9e, 0x22, 0x81,
  0xb6, 0xe9, 0x1a, 0xda, 0xfb, 0xde, 0x1d, 0x0c, 0xe4, 0xf7, 0xb2, 0xc1,
  0xaf, 0xbe, 0x5e, 0xca, 0x5c, 0x2c, 0xa9, 0x40, 0x4d, 0x29, 0xb7, 0xc4,
  0x4c, 0xf6, 0x9a, 0xeb, 0x90, 0x13, 0x51, 0x39, 0xb7, 0xc7, 0x14, 0x1b,
  0x0c, 0x41, 0xd9, 0x81, 0x98, 0xf1, 0xae, 0x2a, 0x43, 0xc8, 0xb0, 0x41,
  0xbd, 0xf6, 0x49, 0xe5, 0xc1, 0x13, 0xa5, 0xf7, 0x36, 0x3c, 0x09, 0x36,
  0x04, 0xdd, 0x1f, 0x81, 0xc9, 0x03, 0xc1, 0x25, 0x0a, 0x2f, 0x29, 0x2d,
  0x46, 0x97, 0x23, 0xb1, 0x34, 0x00, 0xf7, 0xca, 0xc2, 0x9d, 0xca, 0x81,
  0x13, 0xb5, 0x2b, 0x4e, 0x3e, 0x30, 0xcf, 0xba, 0xb1, 0x8c, 0xa4, 0xfb,
  0x19, 0xe5, 0xb5, 0xdd, 0x31, 0x49, 0x36, 0xc5, 0x13, 0x3d, 0xf0, 0xc6,
  0xfb, 0x7e, 0xa7, 0x81, 0x06, 0x98, 0x38, 0xc1, 0x1d, 0x0e, 0x0c, 0x55,
  0x6c, 0xec, 0xfd, 0xca, 0xfd, 0xa0, 0xa4, 0x01, 0xbb, 0x51, 0xee, 0x31,
  0xe8, 0x2e, 0xf1, 0xbb, 0xda, 0x48, 0xef, 0x83, 0xfb, 0xad, 0x22, 0x52,
  0xe2, 0xa2, 0xd9, 0x81, 0x99, 0xaf, 0xa3, 0x01, 0x98, 0x34, 0x2d, 0xb7,
  0x02, 0x48, 0x51, 0x39, 0xb8, 0x22, 0xf0, 0xd1, 0xf5, 0xcc, 0x0a, 0x47,
  0x60, 0x39, 0xb2, 0x13, 0x30, 0x8c, 0x5a, 0x40, 0xf5, 0x05, 0xed, 0xf8,
  0xf8, 0x02, 0xe8, 0xb1, 0x05, 0x09, 0xfe, 0x0d, 0x39, 0x3b, 0x7f, 0x0a,
  0x3f, 0x55, 0x13, 0xc8, 0x4f, 0xd6, 0xee, 0x4c, 0xb4, 0xf6, 0x42, 0x55,
  0x2d, 0xfc, 0x3a, 0x91, 0xe2, 0xc9, 0x6b, 0xd2, 0x1f, 0xfa, 0xf0, 0x5c,
  0x4f, 0xdc, 0x49, 0x61, 0x41, 0xa2, 0xdd, 0xb1, 0x41, 0xd6, 0x1a, 0xa5,
  0x27, 0x58, 0x34, 0x4a, 0xc1, 0x7f, 0xbf, 0xb1, 0x36, 0x00, 0x16, 0x33,
  0x60, 0x23, 0xeb, 0x7f, 0xdf, 0x14, 0x97, 0xf4, 0xa7, 0x97, 0xe3, 0x43,
  0x55, 0x6a, 0x1d, 0x0b, 0x56, 0xe6, 0xcb, 0xc4, 0x24, 0xa7, 0x58, 0x00,
  0xef, 0xfd, 0xee, 0x01, 0x03, 0xf8, 0x06, 0xea, 0x51, 0xf5, 0xfb, 0x34,
  0x03, 0xf6, 0xe0, 0xed, 0x25, 0xb3, 0x09, 0x38, 0xd6, 0x37, 0x1f, 0x04,
  0x34, 0x4a, 0xcd, 0xcb, 0xe1, 0x24, 0x7f, 0x64, 0xb2, 0x2b, 0xbd, 0x40,
  0x81, 0x16, 0xad, 0x06, 0x2c, 0x4d, 0x12, 0x9f, 0xc3, 0x02, 0x2a, 0xd5,
  0x31, 0xb2, 0x94, 0x22, 0xd2, 0xb5, 0x44, 0xad, 0x38, 0xf4, 0x29, 0xc5,
  0x32, 0x33, 0x0a, 0xb1, 0x05, 0x71, 0x2e, 0x59, 0x0c, 0xd3, 0xa7, 0x0c,
  0x0d, 0x0d, 0x97, 0x16, 0xc6, 0xd6, 0x2f, 0x08, 0x2b, 0xcf, 0xcc, 0x11,
  0x81, 0xff, 0xcb, 0xbc, 0x8b, 0xd5, 0x4d, 0xbc, 0xd2, 0x1e, 0xd7, 0x0b,
  0x2c, 0xe8, 0x4e, 0xe5, 0x81, 0x8d, 0xcc, 0xa3, 0x62, 0x13, 0xff, 0x0f,
  0x6b, 0xf0, 0x58, 0xcf, 0x17, 0x3e, 0xbb, 0x1f, 0x8d, 0xf8, 0xfc, 0x89,
  0x4a, 0x19, 0xc4, 0x15, 0xdf, 0xd5, 0x8e, 0xfd, 0x23, 0xd6, 0xfb, 0xa3,
  0x37, 0x6b, 0xf7, 0x81, 0xe0, 0x87, 0x57, 0x1c, 0x06, 0x24, 0xa7, 0xce,
  0x31, 0x0f, 0x50, 0x06, 0x33, 0x0a, 0x60, 0x35, 0x4a, 0x93, 0xd0, 0x26,
  0xad, 0x25, 0xf5, 0xba, 0x61, 0x9d, 0xa3, 0x07, 0xdc, 0xe2, 0x0b, 0xf0,
  0x2a, 0x3c, 0xcf, 0xa0, 0x97, 0xee, 0x0a, 0x09, 0x01, 0xf3, 0xf9, 0x42,
  0x60, 0x1f, 0x25, 0x69, 0xeb, 0xe3, 0x61, 0x0f, 0x3f, 0x28, 0xec, 0xd7,
  0x0c, 0xc1, 0x7f, 0x15, 0xa4, 0xeb, 0x26, 0xff, 0xc5, 0x50, 0xc7, 0xf6,
  0x04, 0x3b, 0x35, 0xfb, 0xbf, 0x30, 0x51, 0x3a, 0x54, 0x1e, 0x1d, 0xc7,
  0x49, 0xb4, 0x37, 0x49, 0xf5, 0x29, 0x34, 0x3a, 0x13, 0x99, 0x0a, 0x7f,
  0xd2, 0xfd, 0xff, 0xff, 0x04, 0x00, 0x00, 0x00, 0x80, 0x00, 0x00, 0x00,
  0x9b, 0xf4, 0xff, 0xff, 0x51, 0x04, 0x00, 0x00, 0x4d, 0xe9, 0xff, 0xff,
  0x71, 0xee, 0xff, 0xff, 0x14, 0x2b, 0x00, 0x00, 0x35, 0xf6, 0xff, 0xff,
  0x03, 0x21, 0x00, 0x00, 0xeb, 0xf9, 0xff, 0xff, 0xf8, 0xf4, 0xff, 0xff,
  0x74, 0xf8, 0xff, 0xff, 0x0a, 0xfd, 0xff, 0xff, 0x2f, 0x02, 0x00, 0x00,
  0x16, 0x13, 0x00, 0x00, 0xbf, 0x09, 0x00, 0x00, 0x51, 0xfe, 0xff, 0xff,
  0xe4, 0x06, 0x00, 0x00, 0x74, 0x1c, 0x00, 0x00, 0x2a, 0xf3, 0xff, 0xff,
  0x4d, 0xf8, 0xff, 0xff, 0xec, 0x15, 0x00, 0x00, 0x3c, 0x1c, 0x00, 0x00,
  0xbb, 0xf9, 0xff, 0xff, 0x22, 0xee, 0xff, 0xff, 0x2d, 0xf7, 0xff, 0xff,
  0x38, 0x01, 0x00, 0x00, 0x53, 0xec, 0xff, 0xff, 0x37, 0xf1, 0xff, 0xff,
  0x80, 0xf0, 0xff, 0xff, 0x0b, 0xfb, 0xff, 0xff, 0x5b, 0xf9, 0xff, 0xff,
  0x98, 0xf2, 0xff, 0xff, 0x69, 0x06, 0x00, 0x00, 0x5e, 0xfe, 0xff, 0xff,
  0x04, 0x00, 0x00, 0x00, 0xc0, 0x00, 0x00, 0x00, 0x0d, 0x0e, 0x9b, 0x67,
  0xd7, 0xb0, 0x09, 0x2b, 0xfc, 0x24, 0x51, 0x3a, 0x1e, 0x23, 0x39, 0x67,
  0xb3, 0xb0, 0x2d, 0xc9, 0xd4, 0x1b, 0xda, 0x81, 0xfc, 0x98, 0xd6, 0x3d,
  0x30, 0x0d, 0x0a, 0x22, 0xea, 0x18, 0x15, 0x2e, 0x98, 0x0c, 0x81, 0x0d,
  0x37, 0xe1, 0xef, 0x0c, 0x0d, 0x0e, 0x22, 0x2f, 0x93, 0xe2, 0x02, 0xb2,
  0x9f, 0xf3, 0x26, 0x16, 0x2f, 0x18, 0x37, 0xd2, 0xfc, 0xda, 0x38, 0xfa,
  0x1c, 0x81, 0xcd, 0x39, 0x4a, 0xc4, 0x60, 0x32, 0x10, 0xd4, 0xdb, 0x33,
  0x90, 0x96, 0xe9, 0xe1, 0x42, 0x0c, 0xea, 0x72, 0x72, 0xfd, 0x87, 0x34,
  0xa5, 0x8e, 0x47, 0xab, 0x23, 0xc9, 0xd6, 0xbb, 0x36, 0xee, 0xf6, 0x9d,
  0x7f, 0xca, 0x0d, 0xa2, 0xa2, 0x62, 0xb4, 0x93, 0x12, 0xfd, 0x13, 0xcf,
  0x67, 0x17, 0x58, 0xf3, 0x59, 0xb0, 0xb7, 0xdc, 0x47, 0xfc, 0x4e, 0x2e,
  0xc1, 0x1c, 0x94, 0x51, 0x3e, 0xea, 0x35, 0x91, 0xf9, 0xe1, 0x1b, 0xc3,
  0xc0, 0x11, 0xcc, 0x81, 0x12, 0x1d, 0xc5, 0xae, 0x18, 0xb4, 0x48, 0x23,
  0x38, 0xd1, 0xf1, 0x63, 0x27, 0x24, 0x2e, 0xc3, 0xb7, 0xec, 0xf0, 0xb2,
  0xf8, 0x29, 0x35, 0x9f, 0xef, 0xbd, 0xf1, 0x91, 0x0e, 0xe5, 0xef, 0x87,
  0x2f, 0x41, 0xa0, 0xfb, 0x11, 0x3e, 0xce, 0x35, 0xca, 0x0e, 0x0c, 0x28,
  0x3d, 0x3e, 0xb4, 0x7f, 0xf2, 0x23, 0xd2, 0xf7, 0x2a, 0xff, 0xff, 0xff,
  0x04, 0x00, 0x00, 0x00, 0x18, 0x00, 0x00, 0x00, 0x4f, 0x06, 0x00, 0x00,
  0x92, 0xf9, 0xff, 0xff, 0xeb, 0x04, 0x00, 0x00, 0x7f, 0x09, 0x00, 0x00,
  0xfc, 0xfe, 0xff, 0xff, 0x09, 0xf8, 0xff, 0xff, 0x4e, 0xff, 0xff, 0xff,
  0x04, 0x00, 0x00, 0x00, 0x08, 0x00, 0x00, 0x00, 0x01, 0x00, 0x00, 0x00,
  0x02, 0x00, 0x00, 0x00, 0x44, 0xe9, 0xff, 0xff, 0x48, 0xe9, 0xff, 0xff,
  0x0f, 0x00, 0x00, 0x00, 0x4d, 0x4c, 0x49, 0x52, 0x20, 0x43, 0x6f, 0x6e,
  0x76, 0x65, 0x72, 0x74, 0x65, 0x64, 0x2e, 0x00, 0x01, 0x00, 0x00, 0x00,
  0x14, 0x00, 0x00, 0x00, 0x00, 0x00, 0x0e, 0x00, 0x18, 0x00, 0x14, 0x00,
  0x10, 0x00, 0x0c, 0x00, 0x08, 0x00, 0x04, 0x00, 0x0e, 0x00, 0x00, 0x00,
  0x14, 0x00, 0x00, 0x00, 0x1c, 0x00, 0x00, 0x00, 0xe0, 0x02, 0x00, 0x00,
  0xe4, 0x02, 0x00, 0x00, 0xe8, 0x02, 0x00, 0x00, 0x04, 0x00, 0x00, 0x00,
  0x6d, 0x61, 0x69, 0x6e, 0x00, 0x00, 0x00, 0x00, 0x0a, 0x00, 0x00, 0x00,
  0x7c, 0x02, 0x00, 0x00, 0x18, 0x02, 0x00, 0x00, 0xc8, 0x01, 0x00, 0x00,
  0x84, 0x01, 0x00, 0x00, 0x34, 0x01, 0x00, 0x00, 0xf0, 0x00, 0x00, 0x00,
  0xbc, 0x00, 0x00, 0x00, 0x78, 0x00, 0x00, 0x00, 0x40, 0x00, 0x00, 0x00,
  0x04, 0x00, 0x00, 0x00, 0x1a, 0xfe, 0xff, 0xff, 0x1c, 0x00, 0x00, 0x00,
  0x00, 0x00, 0x00, 0x09, 0x1c, 0x00, 0x00, 0x00, 0x20, 0x00, 0x00, 0x00,
  0x04, 0x00, 0x00, 0x00, 0x00, 0x00, 0x06, 0x00, 0x08, 0x00, 0x04, 0x00,
  0x06, 0x00, 0x00, 0x00, 0x00, 0x00, 0x80, 0x3f, 0x01, 0x00, 0x00, 0x00,
  0x15, 0x00, 0x00, 0x00, 0x01, 0x00, 0x00, 0x00, 0x14, 0x00, 0x00, 0x00,
  0xde, 0xfe, 0xff, 0xff, 0x14, 0x00, 0x00, 0x00, 0x00, 0x00, 0x00, 0x08,
  0x10, 0x00, 0x00, 0x00, 0x14, 0x00, 0x00, 0x00, 0x03, 0x00, 0x00, 0x00,
  0x18, 0xea, 0xff, 0xff, 0x01, 0x00, 0x00, 0x00, 0x14, 0x00, 0x00, 0x00,
  0x03, 0x00, 0x00, 0x00, 0x13, 0x00, 0x00, 0x00, 0x03, 0x00, 0x00, 0x00,
  0x02, 0x00, 0x00, 0x00, 0x86, 0xfe, 0xff, 0xff, 0x1c, 0x00, 0x00, 0x00,
  0x00, 0x00, 0x00, 0x08, 0x1c, 0x00, 0x00, 0x00, 0x20, 0x00, 0x00, 0x00,
  0x03, 0x00, 0x00, 0x00, 0x00, 0x00, 0x06, 0x00, 0x08, 0x00, 0x07, 0x00,
  0x06, 0x00, 0x00, 0x00, 0x00, 0x00, 0x00, 0x01, 0x01, 0x00, 0x00, 0x00,
  0x13, 0x00, 0x00, 0x00, 0x03, 0x00, 0x00, 0x00, 0x12, 0x00, 0x00, 0x00,
  0x05, 0x00, 0x00, 0x00, 0x04, 0x00, 0x00, 0x00, 0x52, 0xff, 0xff, 0xff,
  0x14, 0x00, 0x00, 0x00, 0x00, 0x00, 0x00, 0x1b, 0x10, 0x00, 0x00, 0x00,
  0x14, 0x00, 0x00, 0x00, 0x02, 0x00, 0x00, 0x00, 0x8c, 0xea, 0xff, 0xff,
  0x01, 0x00, 0x00, 0x00, 0x12, 0x00, 0x00, 0x00, 0x02, 0x00, 0x00, 0x00,
  0x11, 0x00, 0x00, 0x00, 0x01, 0x00, 0x00, 0x00, 0x82, 0xff, 0xff, 0xff,
  0x14, 0x00, 0x00, 0x00, 0x00, 0x00, 0x00, 0x05, 0x24, 0x00, 0x00, 0x00,
  0x28, 0x00, 0x00, 0x00, 0x01, 0x00, 0x00, 0x00, 0xe6, 0xfe, 0xff, 0xff,
  0x02, 0x00, 0x00, 0x00, 0x02, 0x00, 0x00, 0x00, 0x02, 0x00, 0x00, 0x00,
  0x02, 0x00, 0x00, 0x00, 0x00, 0x00, 0x00, 0x01, 0x01, 0x00, 0x00, 0x00,
  0x11, 0x00, 0x00, 0x00, 0x01, 0x00, 0x00, 0x00, 0x10, 0x00, 0x00, 0x00,
  0xd6, 0xfe, 0xff, 0xff, 0x10, 0x00, 0x00, 0x00, 0x00, 0x00, 0x00, 0x01,
  0x18, 0x00, 0x00, 0x00, 0x1c, 0x00, 0x00, 0x00, 0xc8, 0xfe, 0xff, 0xff,
  0x00, 0x00, 0x00, 0x01, 0x01, 0x00, 0x00, 0x00, 0x01, 0x00, 0x00, 0x00,
  0x01, 0x00, 0x00, 0x00, 0x10, 0x00, 0x00, 0x00, 0x03, 0x00, 0x00, 0x00,
  0x0f, 0x00, 0x00, 0x00, 0x07, 0x00, 0x00, 0x00, 0x06, 0x00, 0x00, 0x00,
  0x00, 0x00, 0x0e, 0x00, 0x18, 0x00, 0x14, 0x00, 0x10, 0x00, 0x0c, 0x00,
  0x0b, 0x00, 0x04, 0x00, 0x0e, 0x00, 0x00, 0x00, 0x14, 0x00, 0x00, 0x00,
  0x00, 0x00, 0x00, 0x05, 0x24, 0x00, 0x00, 0x00, 0x28, 0x00, 0x00, 0x00,
  0x01, 0x00, 0x00, 0x00, 0x72, 0xff, 0xff, 0xff, 0x02, 0x00, 0x00, 0x00,
  0x02, 0x00, 0x00, 0x00, 0x02, 0x00, 0x00, 0x00, 0x02, 0x00, 0x00, 0x00,
  0x00, 0x00, 0x00, 0x01, 0x01, 0x00, 0x00, 0x00, 0x0f, 0x00, 0x00, 0x00,
  0x01, 0x00, 0x00, 0x00, 0x0e, 0x00, 0x00, 0x00, 0x62, 0xff, 0xff, 0xff,
  0x10, 0x00, 0x00, 0x00, 0x00, 0x00, 0x00, 0x01, 0x18, 0x00, 0x00, 0x00,
  0x1c, 0x00, 0x00, 0x00, 0x54, 0xff, 0xff, 0xff, 0x00, 0x00, 0x00, 0x01,
  0x01, 0x00, 0x00, 0x00, 0x01, 0x00, 0x00, 0x00, 0x01, 0x00, 0x00, 0x00,
  0x0e, 0x00, 0x00, 0x00, 0x03, 0x00, 0x00, 0x00, 0x0d, 0x00, 0x00, 0x00,
  0x09, 0x00, 0x00, 0x00, 0x08, 0x00, 0x00, 0x00, 0x00, 0x00, 0x0e, 0x00,
  0x1a, 0x00, 0x14, 0x00, 0x10, 0x00, 0x0c, 0x00, 0x0b, 0x00, 0x04, 0x00,
  0x0e, 0x00, 0x00, 0x00, 0x24, 0x00, 0x00, 0x00, 0x00, 0x00, 0x00, 0x05,
  0x34, 0x00, 0x00, 0x00, 0x38, 0x00, 0x00, 0x00, 0x01, 0x00, 0x00, 0x00,
  0x00, 0x00, 0x0e, 0x00, 0x18, 0x00, 0x17, 0x00, 0x10, 0x00, 0x0c, 0x00,
  0x08, 0x00, 0x04, 0x00, 0x0e, 0x00, 0x00, 0x00, 0x02, 0x00, 0x00, 0x00,
  0x02, 0x00, 0x00, 0x00, 0x02, 0x00, 0x00, 0x00, 0x02, 0x00, 0x00, 0x00,
  0x00, 0x00, 0x00, 0x01, 0x01, 0x00, 0x00, 0x00, 0x0d, 0x00, 0x00, 0x00,
  0x01, 0x00, 0x00, 0x00, 0x0c, 0x00, 0x00, 0x00, 0x00, 0x00, 0x0e, 0x00,
  0x14, 0x00, 0x00, 0x00, 0x10, 0x00, 0x0c, 0x00, 0x0b, 0x00, 0x04, 0x00,
  0x0e, 0x00, 0x00, 0x00, 0x1c, 0x00, 0x00, 0x00, 0x00, 0x00, 0x00, 0x01,
  0x24, 0x00, 0x00, 0x00, 0x28, 0x00, 0x00, 0x00, 0x0c, 0x00, 0x10, 0x00,
  0x00, 0x00, 0x0c, 0x00, 0x08, 0x00, 0x07, 0x00, 0x0c, 0x00, 0x00, 0x00,
  0x00, 0x00, 0x00, 0x01, 0x01, 0x00, 0x00, 0x00, 0x01, 0x00, 0x00, 0x00,
  0x01, 0x00, 0x00, 0x00, 0x0c, 0x00, 0x00, 0x00, 0x03, 0x00, 0x00, 0x00,
  0x00, 0x00, 0x00, 0x00, 0x0b, 0x00, 0x00, 0x00, 0x0a, 0x00, 0x00, 0x00,
  0x01, 0x00, 0x00, 0x00, 0x15, 0x00, 0x00, 0x00, 0x01, 0x00, 0x00, 0x00,
  0x00, 0x00, 0x00, 0x00, 0x16, 0x00, 0x00, 0x00, 0xc4, 0x13, 0x00, 0x00,
  0x68, 0x13, 0x00, 0x00, 0xb0, 0x12, 0x00, 0x00, 0x0c, 0x12, 0x00, 0x00,
  0x38, 0x10, 0x00, 0x00, 0x5c, 0x0e, 0x00, 0x00, 0x88, 0x0c, 0x00, 0x00,
  0xa4, 0x0a, 0x00, 0x00, 0x90, 0x09, 0x00, 0x00, 0x6c, 0x08, 0x00, 0x00,
  0xb8, 0x07, 0x00, 0x00, 0xf4, 0x06, 0x00, 0x00, 0x20, 0x06, 0x00, 0x00,
  0x84, 0x05, 0x00, 0x00, 0x88, 0x04, 0x00, 0x00, 0xec, 0x03, 0x00, 0x00,
  0x10, 0x03, 0x00, 0x00, 0x74, 0x02, 0x00, 0x00, 0xe0, 0x01, 0x00, 0x00,
  0x24, 0x01, 0x00, 0x00, 0x80, 0x00, 0x00, 0x00, 0x04, 0x00, 0x00, 0x00,
  0xaa, 0xec, 0xff, 0xff, 0x00, 0x00, 0x00, 0x01, 0x18, 0x00, 0x00, 0x00,
  0x20, 0x00, 0x00, 0x00, 0x3c, 0x00, 0x00, 0x00, 0x16, 0x00, 0x00, 0x00,
  0x00, 0x00, 0x00, 0x09, 0x50, 0x00, 0x00, 0x00, 0x02, 0x00, 0x00, 0x00,
  0xff, 0xff, 0xff, 0xff, 0x06, 0x00, 0x00, 0x00, 0x8c, 0xec, 0xff, 0xff,
  0x08, 0x00, 0x00, 0x00, 0x10, 0x00, 0x00, 0x00, 0x01, 0x00, 0x00, 0x00,
  0x80, 0xff, 0xff, 0xff, 0xff, 0xff, 0xff, 0xff, 0x01, 0x00, 0x00, 0x00,
  0x00, 0x00, 0x80, 0x3b, 0x1b, 0x00, 0x00, 0x00, 0x53, 0x74, 0x61, 0x74,
  0x65, 0x66, 0x75, 0x6c, 0x50, 0x61, 0x72, 0x74, 0x69, 0x74, 0x69, 0x6f,
  0x6e, 0x65, 0x64, 0x43, 0x61, 0x6c, 0x6c, 0x5f, 0x31, 0x3a, 0x30, 0x00,
  0x02, 0x00, 0x00, 0x00, 0x01, 0x00, 0x00, 0x00, 0x06, 0x00, 0x00, 0x00,
  0x22, 0xed, 0xff, 0xff, 0x00, 0x00, 0x00, 0x01, 0x18, 0x00, 0x00, 0x00,
  0x20, 0x00, 0x00, 0x00, 0x3c, 0x00, 0x00, 0x00, 0x15, 0x00, 0x00, 0x00,
  0x00, 0x00, 0x00, 0x09, 0x78, 0x00, 0x00, 0x00, 0x02, 0x00, 0x00, 0x00,
  0xff, 0xff, 0xff, 0xff, 0x06, 0x00, 0x00, 0x00, 0x04, 0xed, 0xff, 0xff,
  0x08, 0x00, 0x00, 0x00, 0x10, 0x00, 0x00, 0x00, 0x01, 0x00, 0x00, 0x00,
  0x1b, 0x00, 0x00, 0x00, 0x00, 0x00, 0x00, 0x00, 0x01, 0x00, 0x00, 0x00,
  0x1c, 0x0a, 0x88, 0x3c, 0x40, 0x00, 0x00, 0x00, 0x73, 0x65, 0x71, 0x75,
  0x65, 0x6e, 0x74, 0x69, 0x61, 0x6c, 0x5f, 0x31, 0x5f, 0x31, 0x2f, 0x64,
  0x65, 0x6e, 0x73, 0x65, 0x5f, 0x31, 0x5f, 0x32, 0x2f, 0x4d, 0x61, 0x74,
  0x4d, 0x75, 0x6c, 0x3b, 0x73, 0x65, 0x71, 0x75, 0x65, 0x6e, 0x74, 0x69,
  0x61, 0x6c, 0x5f, 0x31, 0x5f, 0x31, 0x2f, 0x64, 0x65, 0x6e, 0x73, 0x65,
  0x5f, 0x31, 0x5f, 0x32, 0x2f, 0x42, 0x69, 0x61, 0x73, 0x41, 0x64, 0x64,
  0x00, 0x00, 0x00, 0x00, 0x02, 0x00, 0x00, 0x00, 0x01, 0x00, 0x00, 0x00,
  0x06, 0x00, 0x00, 0x00, 0xc2, 0xed, 0xff, 0xff, 0x00, 0x00, 0x00, 0x01,
  0x18, 0x00, 0x00, 0x00, 0x20, 0x00, 0x00, 0x00, 0x3c, 0x00, 0x00, 0x00,
  0x14, 0x00, 0x00, 0x00, 0x00, 0x00, 0x00, 0x09, 0x90, 0x00, 0x00, 0x00,
  0x02, 0x00, 0x00, 0x00, 0xff, 0xff, 0xff, 0xff, 0x20, 0x00, 0x00, 0x00,
  0xa4, 0xed, 0xff, 0xff, 0x08, 0x00, 0x00, 0x00, 0x10, 0x00, 0x00, 0x00,
  0x01, 0x00, 0x00, 0x00, 0x80, 0xff, 0xff, 0xff, 0xff, 0xff, 0xff, 0xff,
  0x01, 0x00, 0x00, 0x00, 0x7c, 0x2e, 0xbc, 0x3b, 0x58, 0x00, 0x00, 0x00,
  0x73, 0x65, 0x71, 0x75, 0x65, 0x6e, 0x74, 0x69, 0x61, 0x6c, 0x5f, 0x31,
  0x5f, 0x31, 0x2f, 0x64, 0x65, 0x6e, 0x73, 0x65, 0x5f, 0x31, 0x2f, 0x4d,
  0x61, 0x74, 0x4d, 0x75, 0x6c, 0x3b, 0x73, 0x65, 0x71, 0x75, 0x65, 0x6e,
  0x74, 0x69, 0x61, 0x6c, 0x5f, 0x31, 0x5f, 0x31, 0x2f, 0x64, 0x65, 0x6e,
  0x73, 0x65, 0x5f, 0x31, 0x2f, 0x52, 0x65, 0x6c, 0x75, 0x3b, 0x73, 0x65,
  0x71, 0x75, 0x65, 0x6e, 0x74, 0x69, 0x61, 0x6c, 0x5f, 0x31, 0x5f, 0x31,
  0x2f, 0x64, 0x65, 0x6e, 0x73, 0x65, 0x5f, 0x31, 0x2f, 0x42, 0x69, 0x61,
  0x73, 0x41, 0x64, 0x64, 0x00, 0x00, 0x00, 0x00, 0x02, 0x00, 0x00, 0x00,
  0x01, 0x00, 0x00, 0x00, 0x20, 0x00, 0x00, 0x00, 0x7a, 0xee, 0xff, 0xff,
  0x00, 0x00, 0x00, 0x01, 0x18, 0x00, 0x00, 0x00, 0x20, 0x00, 0x00, 0x00,
  0x40, 0x00, 0x00, 0x00, 0x13, 0x00, 0x00, 0x00, 0x00, 0x00, 0x00, 0x09,
  0x68, 0x00, 0x00, 0x00, 0x02, 0x00, 0x00, 0x00, 0xff, 0xff, 0xff, 0xff,
  0x20, 0x00, 0x00, 0x00, 0x5c, 0xee, 0xff, 0xff, 0x08, 0x00, 0x00, 0x00,
  0x14, 0x00, 0x00, 0x00, 0x01, 0x00, 0x00, 0x00, 0x80, 0xff, 0xff, 0xff,
  0xff, 0xff, 0xff, 0xff, 0x00, 0x00, 0x00, 0x00, 0x01, 0x00, 0x00, 0x00,
  0x78, 0x9d, 0x9a, 0x3b, 0x2e, 0x00, 0x00, 0x00, 0x73, 0x65, 0x71, 0x75,
  0x65, 0x6e, 0x74, 0x69, 0x61, 0x6c, 0x5f, 0x31, 0x5f, 0x31, 0x2f, 0x67,
  0x6c, 0x6f, 0x62, 0x61, 0x6c, 0x5f, 0x61, 0x76, 0x65, 0x72, 0x61, 0x67,
  0x65, 0x5f, 0x70, 0x6f, 0x6f, 0x6c, 0x69, 0x6e, 0x67, 0x32, 0x64, 0x5f,
  0x31, 0x2f, 0x4d, 0x65, 0x61, 0x6e, 0x00, 0x00, 0x02, 0x00, 0x00, 0x00,
  0x01, 0x00, 0x00, 0x00, 0x20, 0x00, 0x00, 0x00, 0x0a, 0xef, 0xff, 0xff,
  0x00, 0x00, 0x00, 0x01, 0x18, 0x00, 0x00, 0x00, 0x28, 0x00, 0x00, 0x00,
  0x44, 0x00, 0x00, 0x00, 0x12, 0x00, 0x00, 0x00, 0x00, 0x00, 0x00, 0x09,
  0x68, 0x00, 0x00, 0x00, 0x04, 0x00, 0x00, 0x00, 0xff, 0xff, 0xff, 0xff,
  0x0c, 0x00, 0x00, 0x00, 0x0c, 0x00, 0x00, 0x00, 0x20, 0x00, 0x00, 0x00,
  0xf4, 0xee, 0xff, 0xff, 0x08, 0x00, 0x00, 0x00, 0x10, 0x00, 0x00, 0x00,
  0x01, 0x00, 0x00, 0x00, 0x80, 0xff, 0xff, 0xff, 0xff, 0xff, 0xff, 0xff,
  0x01, 0x00, 0x00, 0x00, 0x0c, 0x24, 0xb6, 0x3c, 0x2a, 0x00, 0x00, 0x00,
  0x73, 0x65, 0x71, 0x75, 0x65, 0x6e, 0x74, 0x69, 0x61, 0x6c, 0x5f, 0x31,
  0x5f, 0x31, 0x2f, 0x6d, 0x61, 0x78, 0x5f, 0x70, 0x6f, 0x6f, 0x6c, 0x69,
  0x6e, 0x67, 0x32, 0x64, 0x5f, 0x32, 0x5f, 0x31, 0x2f, 0x4d, 0x61, 0x78,
  0x50, 0x6f, 0x6f, 0x6c, 0x32, 0x64, 0x00, 0x00, 0x04, 0x00, 0x00, 0x00,
  0x01, 0x00, 0x00, 0x00, 0x0c, 0x00, 0x00, 0x00, 0x0c, 0x00, 0x00, 0x00,
  0x20, 0x00, 0x00, 0x00, 0xa2, 0xef, 0xff, 0xff, 0x00, 0x00, 0x00, 0x01,
  0x18, 0x00, 0x00, 0x00, 0x28, 0x00, 0x00, 0x00, 0x48, 0x00, 0x00, 0x00,
  0x11, 0x00, 0x00, 0x00, 0x00, 0x00, 0x00, 0x09, 0xa8, 0x00, 0x00, 0x00,
  0x04, 0x00, 0x00, 0x00, 0xff, 0xff, 0xff, 0xff, 0x18, 0x00, 0x00, 0x00,
  0x18, 0x00, 0x00, 0x00, 0x20, 0x00, 0x00, 0x00, 0x8c, 0xef, 0xff, 0xff,
  0x08, 0x00, 0x00, 0x00, 0x14, 0x00, 0x00, 0x00, 0x01, 0x00, 0x00, 0x00,
  0x80, 0xff, 0xff, 0xff, 0xff, 0xff, 0xff, 0xff, 0x00, 0x00, 0x00, 0x00,
  0x01, 0x00, 0x00, 0x00, 0x0c, 0x24, 0xb6, 0x3c, 0x67, 0x00, 0x00, 0x00,
  0x73, 0x65, 0x71, 0x75, 0x65, 0x6e, 0x74, 0x69, 0x61, 0x6c, 0x5f, 0x31,
  0x5f, 0x31, 0x2f, 0x63, 0x6f, 0x6e, 0x76, 0x32, 0x64, 0x5f, 0x32, 0x5f,
  0x31, 0x2f, 0x52, 0x65, 0x6c, 0x75, 0x3b, 0x73, 0x65, 0x71, 0x75, 0x65,
  0x6e, 0x74, 0x69, 0x61, 0x6c, 0x5f, 0x31, 0x5f, 0x31, 0x2f, 0x63, 0x6f,
  0x6e, 0x76, 0x32, 0x64, 0x5f, 0x32, 0x5f, 0x31, 0x2f, 0x42, 0x69, 0x61,
  0x73, 0x41, 0x64, 0x64, 0x3b, 0x73, 0x65, 0x71, 0x75, 0x65, 0x6e, 0x74,
  0x69, 0x61, 0x6c, 0x5f, 0x31, 0x5f, 0x31, 0x2f, 0x63, 0x6f, 0x6e, 0x76,
  0x32, 0x64, 0x5f, 0x32, 0x5f, 0x31, 0x2f, 0x63, 0x6f, 0x6e, 0x76, 0x6f,
  0x6c, 0x75, 0x74, 0x69, 0x6f, 0x6e, 0x3b, 0x00, 0x04, 0x00, 0x00, 0x00,
  0x01, 0x00, 0x00, 0x00, 0x18, 0x00, 0x00, 0x00, 0x18, 0x00, 0x00, 0x00,
  0x20, 0x00, 0x00, 0x00, 0x7a, 0xf0, 0xff, 0xff, 0x00, 0x00, 0x00, 0x01,
  0x18, 0x00, 0x00, 0x00, 0x28, 0x00, 0x00, 0x00, 0x44, 0x00, 0x00, 0x00,
  0x10, 0x00, 0x00, 0x00, 0x00, 0x00, 0x00, 0x09, 0x68, 0x00, 0x00, 0x00,
  0x04, 0x00, 0x00, 0x00, 0xff, 0xff, 0xff, 0xff, 0x18, 0x00, 0x00, 0x00,
  0x18, 0x00, 0x00, 0x00, 0x10, 0x00, 0x00, 0x00, 0x64, 0xf0, 0xff, 0xff,
  0x08, 0x00, 0x00, 0x00, 0x10, 0x00, 0x00, 0x00, 0x01, 0x00, 0x00, 0x00,
  0x80, 0xff, 0xff, 0xff, 0xff, 0xff, 0xff, 0xff, 0x01, 0x00, 0x00, 0x00,
  0x50, 0xf2, 0xb3, 0x3b, 0x2a, 0x00, 0x00, 0x00, 0x73, 0x65, 0x71, 0x75,
  0x65, 0x6e, 0x74, 0x69, 0x61, 0x6c, 0x5f, 0x31, 0x5f, 0x31, 0x2f, 0x6d,
  0x61, 0x78, 0x5f, 0x70, 0x6f, 0x6f, 0x6c, 0x69, 0x6e, 0x67, 0x32, 0x64,
  0x5f, 0x31, 0x5f, 0x32, 0x2f, 0x4d, 0x61, 0x78, 0x50, 0x6f, 0x6f, 0x6c,
  0x32, 0x64, 0x00, 0x00, 0x04, 0x00, 0x00, 0x00, 0x01, 0x00, 0x00, 0x00,
  0x18, 0x00, 0x00, 0x00, 0x18, 0x00, 0x00, 0x00, 0x10, 0x00, 0x00, 0x00,
  0x12, 0xf1, 0xff, 0xff, 0x00, 0x00, 0x00, 0x01, 0x18, 0x00, 0x00, 0x00,
  0x28, 0x00, 0x00, 0x00, 0x44, 0x00, 0x00, 0x00, 0x0f, 0x00, 0x00, 0x00,
  0x00, 0x00, 0x00, 0x09, 0xc8, 0x00, 0x00, 0x00, 0x04, 0x00, 0x00, 0x00,
  0xff, 0xff, 0xff, 0xff, 0x30, 0x00, 0x00, 0x00, 0x30, 0x00, 0x00, 0x00,
  0x10, 0x00, 0x00, 0x00, 0xfc, 0xf0, 0xff, 0xff, 0x08, 0x00, 0x00, 0x00,
  0x10, 0x00, 0x00, 0x00, 0x01, 0x00, 0x00, 0x00, 0x80, 0xff, 0xff, 0xff,
  0xff, 0xff, 0xff, 0xff, 0x01, 0x00, 0x00, 0x00, 0x50, 0xf2, 0xb3, 0x3b,
  0x88, 0x00, 0x00, 0x00, 0x73, 0x65, 0x71, 0x75, 0x65, 0x6e, 0x74, 0x69,
  0x61, 0x6c, 0x5f, 0x31, 0x5f, 0x31, 0x2f, 0x63, 0x6f, 0x6e, 0x76, 0x32,
  0x64, 0x5f, 0x31, 0x5f, 0x32, 0x2f, 0x52, 0x65, 0x6c, 0x75, 0x3b, 0x73,
  0x65, 0x71, 0x75, 0x65, 0x6e, 0x74, 0x69, 0x61, 0x6c, 0x5f, 0x31, 0x5f,
  0x31, 0x2f, 0x63, 0x6f, 0x6e, 0x76, 0x32, 0x64, 0x5f, 0x31, 0x5f, 0x32,
  0x2f, 0x42, 0x69, 0x61, 0x73, 0x41, 0x64, 0x64, 0x3b, 0x73, 0x65, 0x71,
  0x75, 0x65, 0x6e, 0x74, 0x69, 0x61, 0x6c, 0x5f, 0x31, 0x5f, 0x31, 0x2f,
  0x63, 0x6f, 0x6e, 0x76, 0x32, 0x64, 0x5f, 0x31, 0x5f, 0x32, 0x2f, 0x63,
  0x6f, 0x6e, 0x76, 0x6f, 0x6c, 0x75, 0x74, 0x69, 0x6f, 0x6e, 0x3b, 0x73,
  0x65, 0x71, 0x75, 0x65, 0x6e, 0x74, 0x69, 0x61, 0x6c, 0x5f, 0x31, 0x5f,
  0x31, 0x2f, 0x63, 0x6f, 0x6e, 0x76, 0x32, 0x64, 0x5f, 0x31, 0x5f, 0x32,
  0x2f, 0x53, 0x71, 0x75, 0x65, 0x65, 0x7a, 0x65, 0x00, 0x00, 0x00, 0x00,
  0x04, 0x00, 0x00, 0x00, 0x01, 0x00, 0x00, 0x00, 0x30, 0x00, 0x00, 0x00,
  0x30, 0x00, 0x00, 0x00, 0x10, 0x00, 0x00, 0x00, 0x0a, 0xf2, 0xff, 0xff,
  0x00, 0x00, 0x00, 0x01, 0x18, 0x00, 0x00, 0x00, 0x28, 0x00, 0x00, 0x00,
  0x44, 0x00, 0x00, 0x00, 0x0e, 0x00, 0x00, 0x00, 0x00, 0x00, 0x00, 0x09,
  0x68, 0x00, 0x00, 0x00, 0x04, 0x00, 0x00, 0x00, 0xff, 0xff, 0xff, 0xff,
  0x30, 0x00, 0x00, 0x00, 0x30, 0x00, 0x00, 0x00, 0x08, 0x00, 0x00, 0x00,
  0xf4, 0xf1, 0xff, 0xff, 0x08, 0x00, 0x00, 0x00, 0x10, 0x00, 0x00, 0x00,
  0x01, 0x00, 0x00, 0x00, 0x80, 0xff, 0xff, 0xff, 0xff, 0xff, 0xff, 0xff,
  0x01, 0x00, 0x00, 0x00, 0x6b, 0xe9, 0x40, 0x3b, 0x28, 0x00, 0x00, 0x00,
  0x73, 0x65, 0x71, 0x75, 0x65, 0x6e, 0x74, 0x69, 0x61, 0x6c, 0x5f, 0x31,
  0x5f, 0x31, 0x2f, 0x6d, 0x61, 0x78, 0x5f, 0x70, 0x6f, 0x6f, 0x6c, 0x69,
  0x6e, 0x67, 0x32, 0x64, 0x5f, 0x31, 0x2f, 0x4d, 0x61, 0x78, 0x50, 0x6f,
  0x6f, 0x6c, 0x32, 0x64, 0x00, 0x00, 0x00, 0x00, 0x04, 0x00, 0x00, 0x00,
  0x01, 0x00, 0x00, 0x00, 0x30, 0x00, 0x00, 0x00, 0x30, 0x00, 0x00, 0x00,
  0x08, 0x00, 0x00, 0x00, 0xa2, 0xf2, 0xff, 0xff, 0x00, 0x00, 0x00, 0x01,
  0x18, 0x00, 0x00, 0x00, 0x28, 0x00, 0x00, 0x00, 0x44, 0x00, 0x00, 0x00,
  0x0d, 0x00, 0x00, 0x00, 0x00, 0x00, 0x00, 0x09, 0xa0, 0x00, 0x00, 0x00,
  0x04, 0x00, 0x00, 0x00, 0xff, 0xff, 0xff, 0xff, 0x60, 0x00, 0x00, 0x00,
  0x60, 0x00, 0x00, 0x00, 0x08, 0x00, 0x00, 0x00, 0x8c, 0xf2, 0xff, 0xff,
  0x08, 0x00, 0x00, 0x00, 0x10, 0x00, 0x00, 0x00, 0x01, 0x00, 0x00, 0x00,
  0x80, 0xff, 0xff, 0xff, 0xff, 0xff, 0xff, 0xff, 0x01, 0x00, 0x00, 0x00,
  0x6b, 0xe9, 0x40, 0x3b, 0x62, 0x00, 0x00, 0x00, 0x73, 0x65, 0x71, 0x75,
  0x65, 0x6e, 0x74, 0x69, 0x61, 0x6c, 0x5f, 0x31, 0x5f, 0x31, 0x2f, 0x63,
  0x6f, 0x6e, 0x76, 0x32, 0x64, 0x5f, 0x31, 0x2f, 0x52, 0x65, 0x6c, 0x75,
  0x3b, 0x73, 0x65, 0x71, 0x75, 0x65, 0x6e, 0x74, 0x69, 0x61, 0x6c, 0x5f,
  0x31, 0x5f, 0x31, 0x2f, 0x63, 0x6f, 0x6e, 0x76, 0x32, 0x64, 0x5f, 0x31,
  0x2f, 0x42, 0x69, 0x61, 0x73, 0x41, 0x64, 0x64, 0x3b, 0x73, 0x65, 0x71,
  0x75, 0x65, 0x6e, 0x74, 0x69, 0x61, 0x6c, 0x5f, 0x31, 0x5f, 0x31, 0x2f,
  0x63, 0x6f, 0x6e, 0x76, 0x32, 0x64, 0x5f, 0x31, 0x2f, 0x63, 0x6f, 0x6e,
  0x76, 0x6f, 0x6c, 0x75, 0x74, 0x69, 0x6f, 0x6e, 0x3b, 0x31, 0x00, 0x00,
  0x04, 0x00, 0x00, 0x00, 0x01, 0x00, 0x00, 0x00, 0x60, 0x00, 0x00, 0x00,
  0x60, 0x00, 0x00, 0x00, 0x08, 0x00, 0x00, 0x00, 0xca, 0xf3, 0xff, 0xff,
  0x00, 0x00, 0x00, 0x01, 0x14, 0x00, 0x00, 0x00, 0x88, 0x00, 0x00, 0x00,
  0x0c, 0x00, 0x00, 0x00, 0x00, 0x00, 0x00, 0x09, 0x94, 0x00, 0x00, 0x00,
  0x44, 0xf3, 0xff, 0xff, 0x08, 0x00, 0x00, 0x00, 0x4c, 0x00, 0x00, 0x00,
  0x08, 0x00, 0x00, 0x00, 0x00, 0x00, 0x00, 0x00, 0x00, 0x00, 0x00, 0x00,
  0x00, 0x00, 0x00, 0x00, 0x00, 0x00, 0x00, 0x00, 0x00, 0x00, 0x00, 0x00,
  0x00, 0x00, 0x00, 0x00, 0x00, 0x00, 0x00, 0x00, 0x00, 0x00, 0x00, 0x00,
  0x00, 0x00, 0x00, 0x00, 0x00, 0x00, 0x00, 0x00, 0x00, 0x00, 0x00, 0x00,
  0x00, 0x00, 0x00, 0x00, 0x00, 0x00, 0x00, 0x00, 0x00, 0x00, 0x00, 0x00,
  0x00, 0x00, 0x00, 0x00, 0x00, 0x00, 0x00, 0x00, 0x00, 0x00, 0x00, 0x00,
  0x08, 0x00, 0x00, 0x00, 0xc3, 0x33, 0x1f, 0x3b, 0x17, 0xeb, 0xda, 0x3a,
  0x6a, 0x9b, 0xeb, 0x3a, 0x53, 0xe4, 0x2a, 0x3b, 0x99, 0xd4, 0x0e, 0x3b,
  0x0b, 0x1e, 0x0c, 0x3b, 0x65, 0x9f, 0x1c, 0x3b, 0x56, 0x4b, 0x2e, 0x3b,
  0x12, 0x00, 0x00, 0x00, 0x74, 0x66, 0x6c, 0x2e, 0x70, 0x73, 0x65, 0x75,
  0x64, 0x6f, 0x5f, 0x71, 0x63, 0x6f, 0x6e, 0x73, 0x74, 0x39, 0x00, 0x00,
  0x04, 0x00, 0x00, 0x00, 0x08, 0x00, 0x00, 0x00, 0x03, 0x00, 0x00, 0x00,
  0x03, 0x00, 0x00, 0x00, 0x01, 0x00, 0x00, 0x00, 0x8a, 0xf4, 0xff, 0xff,
  0x00, 0x00, 0x00, 0x01, 0x14, 0x00, 0x00, 0x00, 0x84, 0x00, 0x00, 0x00,
  0x0b, 0x00, 0x00, 0x00, 0x00, 0x00, 0x00, 0x02, 0x90, 0x00, 0x00, 0x00,
  0x04, 0xf4, 0xff, 0xff, 0x08, 0x00, 0x00, 0x00, 0x48, 0x00, 0x00, 0x00,
  0x08, 0x00, 0x00, 0x00, 0x00, 0x00, 0x00, 0x00, 0x00, 0x00, 0x00, 0x00,
  0x00, 0x00, 0x00, 0x00, 0x00, 0x00, 0x00, 0x00, 0x00, 0x00, 0x00, 0x00,
  0x00, 0x00, 0x00, 0x00, 0x00, 0x00, 0x00, 0x00, 0x00, 0x00, 0x00, 0x00,
  0x00, 0x00, 0x00, 0x00, 0x00, 0x00, 0x00, 0x00, 0x00, 0x00, 0x00, 0x00,
  0x00, 0x00, 0x00, 0x00, 0x00, 0x00, 0x00, 0x00, 0x00, 0x00, 0x00, 0x00,
  0x00, 0x00, 0x00, 0x00, 0x00, 0x00, 0x00, 0x00, 0x08, 0x00, 0x00, 0x00,
  0x97, 0xd3, 0x1f, 0x37, 0xdf, 0xc6, 0xdb, 0x36, 0xf3, 0x87, 0xec, 0x36,
  0xe4, 0x8f, 0x2b, 0x37, 0xfe, 0x63, 0x0f, 0x37, 0xb6, 0xaa, 0x0c, 0x37,
  0xa2, 0x3c, 0x1d, 0x37, 0x51, 0xfa, 0x2e, 0x37, 0x12, 0x00, 0x00, 0x00,
  0x74, 0x66, 0x6c, 0x2e, 0x70, 0x73, 0x65, 0x75, 0x64, 0x6f, 0x5f, 0x71,
  0x63, 0x6f, 0x6e, 0x73, 0x74, 0x38, 0x00, 0x00, 0x01, 0x00, 0x00, 0x00,
  0x08, 0x00, 0x00, 0x00, 0x3a, 0xf5, 0xff, 0xff, 0x00, 0x00, 0x00, 0x01,
  0x14, 0x00, 0x00, 0x00, 0xe8, 0x00, 0x00, 0x00, 0x0a, 0x00, 0x00, 0x00,
  0x00, 0x00, 0x00, 0x09, 0xf4, 0x00, 0x00, 0x00, 0xb4, 0xf4, 0xff, 0xff,
  0x08, 0x00, 0x00, 0x00, 0x8c, 0x00, 0x00, 0x00, 0x10, 0x00, 0x00, 0x00,
  0x00, 0x00, 0x00, 0x00, 0x00, 0x00, 0x00, 0x00, 0x00, 0x00, 0x00, 0x00,
  0x00, 0x00, 0x00, 0x00, 0x00, 0x00, 0x00, 0x00, 0x00, 0x00, 0x00, 0x00,
  0x00, 0x00, 0x00, 0x00, 0x00, 0x00, 0x00, 0x00, 0x00, 0x00, 0x00, 0x00,
  0x00, 0x00, 0x00, 0x00, 0x00, 0x00, 0x00, 0x00, 0x00, 0x00, 0x00, 0x00,
  0x00, 0x00, 0x00, 0x00, 0x00, 0x00, 0x00, 0x00, 0x00, 0x00, 0x00, 0x00,
  0x00, 0x00, 0x00, 0x00, 0x00, 0x00, 0x00, 0x00, 0x00, 0x00, 0x00, 0x00,
  0x00, 0x00, 0x00, 0x00, 0x00, 0x00, 0x00, 0x00, 0x00, 0x00, 0x00, 0x00,
  0x00, 0x00, 0x00, 0x00, 0x00, 0x00, 0x00, 0x00, 0x00, 0x00, 0x00, 0x00,
  0x00, 0x00, 0x00, 0x00, 0x00, 0x00, 0x00, 0x00, 0x00, 0x00, 0x00, 0x00,
  0x00, 0x00, 0x00, 0x00, 0x00, 0x00, 0x00, 0x00, 0x00, 0x00, 0x00, 0x00,
  0x00, 0x00, 0x00, 0x00, 0x00, 0x00, 0x00, 0x00, 0x00, 0x00, 0x00, 0x00,
  0x10, 0x00, 0x00, 0x00, 0x24, 0x47, 0x54, 0x3b, 0xf1, 0x38, 0x4b, 0x3b,
  0x00, 0x66, 0x66, 0x3b, 0xfa, 0x16, 0x85, 0x3b, 0x1b, 0x9c, 0x63, 0x3b,
  0x6b, 0x6d, 0xda, 0x3a, 0xb0, 0xfe, 0x1c, 0x3b, 0x51, 0x2a, 0x5e, 0x3b,
  0x19, 0xc6, 0x82, 0x3b, 0x44, 0xee, 0xcd, 0x3b, 0x1a, 0x8c, 0x9d, 0x3b,
  0xea, 0xa4, 0x0d, 0x3b, 0xc9, 0x06, 0x85, 0x3b, 0xd6, 0x5c, 0x3d, 0x3b,
  0x08, 0x8a, 0x89, 0x3b, 0xaf, 0x50, 0x34, 0x3b, 0x12, 0x00, 0x00, 0x00,
  0x74, 0x66, 0x6c, 0x2e, 0x70, 0x73, 0x65, 0x75, 0x64, 0x6f, 0x5f, 0x71,
  0x63, 0x6f, 0x6e, 0x73, 0x74, 0x37, 0x00, 0x00, 0x04, 0x00, 0x00, 0x00,
  0x10, 0x00, 0x00, 0x00, 0x03, 0x00, 0x00, 0x00, 0x03, 0x00, 0x00, 0x00,
  0x08, 0x00, 0x00, 0x00, 0x5a, 0xf6, 0xff, 0xff, 0x00, 0x00, 0x00, 0x01,
  0x14, 0x00, 0x00, 0x00, 0xe4, 0x00, 0x00, 0x00, 0x09, 0x00, 0x00, 0x00,
  0x00, 0x00, 0x00, 0x02, 0xf0, 0x00, 0x00, 0x00, 0xd4, 0xf5, 0xff, 0xff,
  0x08, 0x00, 0x00, 0x00, 0x88, 0x00, 0x00, 0x00, 0x10, 0x00, 0x00, 0x00,
  0x00, 0x00, 0x00, 0x00, 0x00, 0x00, 0x00, 0x00, 0x00, 0x00, 0x00, 0x00,
  0x00, 0x00, 0x00, 0x00, 0x00, 0x00, 0x00, 0x00, 0x00, 0x00, 0x00, 0x00,
  0x00, 0x00, 0x00, 0x00, 0x00, 0x00, 0x00, 0x00, 0x00, 0x00, 0x00, 0x00,
  0x00, 0x00, 0x00, 0x00, 0x00, 0x00, 0x00, 0x00, 0x00, 0x00, 0x00, 0x00,
  0x00, 0x00, 0x00, 0x00, 0x00, 0x00, 0x00, 0x00, 0x00, 0x00, 0x00, 0x00,
  0x00, 0x00, 0x00, 0x00, 0x00, 0x00, 0x00, 0x00, 0x00, 0x00, 0x00, 0x00,
  0x00, 0x00, 0x00, 0x00, 0x00, 0x00, 0x00, 0x00, 0x00, 0x00, 0x00, 0x00,
  0x00, 0x00, 0x00, 0x00, 0x00, 0x00, 0x00, 0x00, 0x00, 0x00, 0x00, 0x00,
  0x00, 0x00, 0x00, 0x00, 0x00, 0x00, 0x00, 0x00, 0x00, 0x00, 0x00, 0x00,
  0x00, 0x00, 0x00, 0x00, 0x00, 0x00, 0x00, 0x00, 0x00, 0x00, 0x00, 0x00,
  0x00, 0x00, 0x00, 0x00, 0x00, 0x00, 0x00, 0x00, 0x10, 0x00, 0x00, 0x00,
  0xe8, 0xf6, 0x1f, 0x37, 0x01, 0x24, 0x19, 0x37, 0x93, 0x9e, 0x2d, 0x37,
  0x2a, 0x95, 0x48, 0x37, 0x9c, 0x84, 0x2b, 0x37, 0x39, 0x99, 0xa4, 0x36,
  0x53, 0x9c, 0xec, 0x36, 0x4e, 0x6a, 0x27, 0x37, 0x9f, 0x17, 0x45, 0x37,
  0x77, 0x2e, 0x9b, 0x37, 0x74, 0x71, 0x6d, 0x37, 0xac, 0x79, 0xd5, 0x36,
  0xc3, 0x7c, 0x48, 0x37, 0x49, 0xb2, 0x0e, 0x37, 0xdc, 0x49, 0x4f, 0x37,
  0xec, 0xe0, 0x07, 0x37, 0x12, 0x00, 0x00, 0x00, 0x74, 0x66, 0x6c, 0x2e,
  0x70, 0x73, 0x65, 0x75, 0x64, 0x6f, 0x5f, 0x71, 0x63, 0x6f, 0x6e, 0x73,
  0x74, 0x36, 0x00, 0x00, 0x01, 0x00, 0x00, 0x00, 0x10, 0x00, 0x00, 0x00,
  0x6a, 0xf7, 0xff, 0xff, 0x00, 0x00, 0x00, 0x01, 0x14, 0x00, 0x00, 0x00,
  0xa8, 0x01, 0x00, 0x00, 0x08, 0x00, 0x00, 0x00, 0x00, 0x00, 0x00, 0x09,
  0xb4, 0x01, 0x00, 0x00, 0xe4, 0xf6, 0xff, 0xff, 0x08, 0x00, 0x00, 0x00,
  0x0c, 0x01, 0x00, 0x00, 0x20, 0x00, 0x00, 0x00, 0x00, 0x00, 0x00, 0x00,
  0x00, 0x00, 0x00, 0x00, 0x00, 0x00, 0x00, 0x00, 0x00, 0x00, 0x00, 0x00,
  0x00, 0x00, 0x00, 0x00, 0x00, 0x00, 0x00, 0x00, 0x00, 0x00, 0x00, 0x00,
  0x00, 0x00, 0x00, 0x00, 0x00, 0x00, 0x00, 0x00, 0x00, 0x00, 0x00, 0x00,
  0x00, 0x00, 0x00, 0x00, 0x00, 0x00, 0x00, 0x00, 0x00, 0x00, 0x00, 0x00,
  0x00, 0x00, 0x00, 0x00, 0x00, 0x00, 0x00, 0x00, 0x00, 0x00, 0x00, 0x00,
  0x00, 0x00, 0x00, 0x00, 0x00, 0x00, 0x00, 0x00, 0x00, 0x00, 0x00, 0x00,
  0x00, 0x00, 0x00, 0x00, 0x00, 0x00, 0x00, 0x00, 0x00, 0x00, 0x00, 0x00,
  0x00, 0x00, 0x00, 0x00, 0x00, 0x00, 0x00, 0x00, 0x00, 0x00, 0x00, 0x00,
  0x00, 0x00, 0x00, 0x00, 0x00, 0x00, 0x00, 0x00, 0x00, 0x00, 0x00, 0x00,
  0x00, 0x00, 0x00, 0x00, 0x00, 0x00, 0x00, 0x00, 0x00, 0x00, 0x00, 0x00,
  0x00, 0x00, 0x00, 0x00, 0x00, 0x00, 0x00, 0x00, 0x00, 0x00, 0x00, 0x00,
  0x00, 0x00, 0x00, 0x00, 0x00, 0x00, 0x00, 0x00, 0x00, 0x00, 0x00, 0x00,
  0x00, 0x00, 0x00, 0x00, 0x00, 0x00, 0x00, 0x00, 0x00, 0x00, 0x00, 0x00,
  0x00, 0x00, 0x00, 0x00, 0x00, 0x00, 0x00, 0x00, 0x00, 0x00, 0x00, 0x00,
  0x00, 0x00, 0x00, 0x00, 0x00, 0x00, 0x00, 0x00, 0x00, 0x00, 0x00, 0x00,
  0x00, 0x00, 0x00, 0x00, 0x00, 0x00, 0x00, 0x00, 0x00, 0x00, 0x00, 0x00,
  0x00, 0x00, 0x00, 0x00, 0x00, 0x00, 0x00, 0x00, 0x00, 0x00, 0x00, 0x00,
  0x00, 0x00, 0x00, 0x00, 0x00, 0x00, 0x00, 0x00, 0x00, 0x00, 0x00, 0x00,
  0x00, 0x00, 0x00, 0x00, 0x00, 0x00, 0x00, 0x00, 0x00, 0x00, 0x00, 0x00,
  0x00, 0x00, 0x00, 0x00, 0x00, 0x00, 0x00, 0x00, 0x00, 0x00, 0x00, 0x00,
  0x00, 0x00, 0x00, 0x00, 0x00, 0x00, 0x00, 0x00, 0x00, 0x00, 0x00, 0x00,
  0x00, 0x00, 0x00, 0x00, 0x20, 0x00, 0x00, 0x00, 0x9a, 0x3d, 0x3e, 0x3b,
  0x65, 0x06, 0x49, 0x3b, 0xcb, 0xa5, 0x1a, 0x3b, 0x52, 0xe2, 0x72, 0x3b,
  0x44, 0x85, 0x22, 0x3b, 0xfb, 0x90, 0x31, 0x3b, 0x4f, 0xad, 0x75, 0x3b,
  0xe8, 0x0a, 0x8f, 0x3b, 0x4c, 0xf0, 0x1a, 0x3b, 0x48, 0x39, 0xc8, 0x3a,
  0x42, 0x46, 0x34, 0x3b, 0x81, 0xc4, 0x7f, 0x3b, 0x9c, 0x6e, 0x4b, 0x3b,
  0x93, 0x6b, 0x50, 0x3b, 0xd0, 0x44, 0x38, 0x3b, 0xbd, 0x4a, 0x19, 0x3b,
  0x43, 0x3b, 0x26, 0x3b, 0x3b, 0x39, 0x32, 0x3b, 0x39, 0xc3, 0x43, 0x3b,
  0xf5, 0x41, 0x58, 0x3b, 0xd1, 0xe2, 0x45, 0x3b, 0xaa, 0x32, 0x10, 0x3b,
  0x6c, 0x6c, 0x10, 0x3b, 0x48, 0x25, 0xa1, 0x3a, 0x56, 0xf6, 0x01, 0x3b,
  0x9c, 0x58, 0x10, 0x3b, 0xf0, 0x12, 0x93, 0x3b, 0x7d, 0x27, 0x4b, 0x3b,
  0xe1, 0x5b, 0xf9, 0x3a, 0x70, 0x2c, 0xa6, 0x3b, 0x56, 0x61, 0xa6, 0x3b,
  0x75, 0x2d, 0x6b, 0x3b, 0x12, 0x00, 0x00, 0x00, 0x74, 0x66, 0x6c, 0x2e,
  0x70, 0x73, 0x65, 0x75, 0x64, 0x6f, 0x5f, 0x71, 0x63, 0x6f, 0x6e, 0x73,
  0x74, 0x35, 0x00, 0x00, 0x04, 0x00, 0x00, 0x00, 0x20, 0x00, 0x00, 0x00,
  0x03, 0x00, 0x00, 0x00, 0x03, 0x00, 0x00, 0x00, 0x10, 0x00, 0x00, 0x00,
  0x4a, 0xf9, 0xff, 0xff, 0x00, 0x00, 0x00, 0x01, 0x14, 0x00, 0x00, 0x00,
  0xa4, 0x01, 0x00, 0x00, 0x07, 0x00, 0x00, 0x00, 0x00, 0x00, 0x00, 0x02,
  0xb0, 0x01, 0x00, 0x00, 0xc4, 0xf8, 0xff, 0xff, 0x08, 0x00, 0x00, 0x00,
  0x08, 0x01, 0x00, 0x00, 0x20, 0x00, 0x00, 0x00, 0x00, 0x00, 0x00, 0x00,
  0x00, 0x00, 0x00, 0x00, 0x00, 0x00, 0x00, 0x00, 0x00, 0x00, 0x00, 0x00,
  0x00, 0x00, 0x00, 0x00, 0x00, 0x00, 0x00, 0x00, 0x00, 0x00, 0x00, 0x00,
  0x00, 0x00, 0x00, 0x00, 0x00, 0x00, 0x00, 0x00, 0x00, 0x00, 0x00, 0x00,
  0x00, 0x00, 0x00, 0x00, 0x00, 0x00, 0x00, 0x00, 0x00, 0x00, 0x00, 0x00,
  0x00, 0x00, 0x00, 0x00, 0x00, 0x00, 0x00, 0x00, 0x00, 0x00, 0x00, 0x00,
  0x00, 0x00, 0x00, 0x00, 0x00, 0x00, 0x00, 0x00, 0x00, 0x00, 0x00, 0x00,
  0x00, 0x00, 0x00, 0x00, 0x00, 0x00, 0x00, 0x00, 0x00, 0x00, 0x00, 0x00,
  0x00, 0x00, 0x00, 0x00, 0x00, 0x00, 0x00, 0x00, 0x00, 0x00, 0x00, 0x00,
  0x00, 0x00, 0x00, 0x00, 0x00, 0x00, 0x00, 0x00, 0x00, 0x00, 0x00, 0x00,
  0x00, 0x00, 0x00, 0x00, 0x00, 0x00, 0x00, 0x00, 0x00, 0x00, 0x00, 0x00,
  0x00, 0x00, 0x00, 0x00, 0x00, 0x00, 0x00, 0x00, 0x00, 0x00, 0x00, 0x00,
  0x00, 0x00, 0x00, 0x00, 0x00, 0x00, 0x00, 0x00, 0x00, 0x00, 0x00, 0x00,
  0x00, 0x00, 0x00, 0x00, 0x00, 0x00, 0x00, 0x00, 0x00, 0x00, 0x00, 0x00,
  0x00, 0x00, 0x00, 0x00, 0x00, 0x00, 0x00, 0x00, 0x00, 0x00, 0x00, 0x00,
  0x00, 0x00, 0x00, 0x00, 0x00, 0x00, 0x00, 0x00, 0x00, 0x00, 0x00, 0x00,
  0x00, 0x00, 0x00, 0x00, 0x00, 0x00, 0x00, 0x00, 0x00, 0x00, 0x00, 0x00,
  0x00, 0x00, 0x00, 0x00, 0x00, 0x00, 0x00, 0x00, 0x00, 0x00, 0x00, 0x00,
  0x00, 0x00, 0x00, 0x00, 0x00, 0x00, 0x00, 0x00, 0x00, 0x00, 0x00, 0x00,
  0x00, 0x00, 0x00, 0x00, 0x00, 0x00, 0x00, 0x00, 0x00, 0x00, 0x00, 0x00,
  0x00, 0x00, 0x00, 0x00, 0x00, 0x00, 0x00, 0x00, 0x00, 0x00, 0x00, 0x00,
  0x00, 0x00, 0x00, 0x00, 0x00, 0x00, 0x00, 0x00, 0x00, 0x00, 0x00, 0x00,
  0x20, 0x00, 0x00, 0x00, 0x24, 0xb9, 0x85, 0x37, 0xbf, 0x4d, 0x8d, 0x37,
  0x9c, 0x68, 0x59, 0x37, 0x25, 0xba, 0xaa, 0x37, 0x07, 0x7a, 0x64, 0x37,
  0xe4, 0xa0, 0x79, 0x37, 0xb9, 0xb0, 0xac, 0x37, 0x0a, 0x18, 0xc9, 0x37,
  0x59, 0xd1, 0x59, 0x37, 0x92, 0xbd, 0x0c, 0x37, 0x86, 0x6f, 0x7d, 0x37,
  0x7e, 0xc8, 0xb3, 0x37, 0xe5, 0xfe, 0x8e, 0x37, 0x7f, 0x80, 0x92, 0x37,
  0x88, 0x86, 0x81, 0x37, 0xb5, 0x80, 0x57, 0x37, 0x90, 0xb1, 0x69, 0x37,
  0x6c, 0x8d, 0x7a, 0x37, 0xcd, 0x9a, 0x89, 0x37, 0xd0, 0x02, 0x98, 0x37,
  0xe6, 0x18, 0x8b, 0x37, 0xd4, 0xb7, 0x4a, 0x37, 0x06, 0x09, 0x4b, 0x37,
  0x32, 0x8b, 0xe2, 0x36, 0x83, 0xb4, 0x36, 0x37, 0x2c, 0xed, 0x4a, 0x37,
  0xe7, 0xc2, 0xce, 0x37, 0xe7, 0xcc, 0x8e, 0x37, 0x45, 0x47, 0x2f, 0x37,
  0xb8, 0x9c, 0xe9, 0x37, 0x16, 0xe7, 0xe9, 0x37, 0x63, 0x4f, 0xa5, 0x37,
  0x12, 0x00, 0x00, 0x00, 0x74, 0x66, 0x6c, 0x2e, 0x70, 0x73, 0x65, 0x75,
  0x64, 0x6f, 0x5f, 0x71, 0x63, 0x6f, 0x6e, 0x73, 0x74, 0x34, 0x00, 0x00,
  0x01, 0x00, 0x00, 0x00, 0x20, 0x00, 0x00, 0x00, 0x1a, 0xfb, 0xff, 0xff,
  0x00, 0x00, 0x00, 0x01, 0x14, 0x00, 0x00, 0x00, 0xa8, 0x01, 0x00, 0x00,
  0x06, 0x00, 0x00, 0x00, 0x00, 0x00, 0x00, 0x09, 0xb4, 0x01, 0x00, 0x00,
  0x94, 0xfa, 0xff, 0xff, 0x08, 0x00, 0x00, 0x00, 0x0c, 0x01, 0x00, 0x00,
  0x20, 0x00, 0x00, 0x00, 0x00, 0x00, 0x00, 0x00, 0x00, 0x00, 0x00, 0x00,
  0x00, 0x00, 0x00, 0x00, 0x00, 0x00, 0x00, 0x00, 0x00, 0x00, 0x00, 0x00,
  0x00, 0x00, 0x00, 0x00, 0x00, 0x00, 0x00, 0x00, 0x00, 0x00, 0x00, 0x00,
  0x00, 0x00, 0x00, 0x00, 0x00, 0x00, 0x00, 0x00, 0x00, 0x00, 0x00, 0x00,
  0x00, 0x00, 0x00, 0x00, 0x00, 0x00, 0x00, 0x00, 0x00, 0x00, 0x00, 0x00,
  0x00, 0x00, 0x00, 0x00, 0x00, 0x00, 0x00, 0x00, 0x00, 0x00, 0x00, 0x00,
  0x00, 0x00, 0x00, 0x00, 0x00, 0x00, 0x00, 0x00, 0x00, 0x00, 0x00, 0x00,
  0x00, 0x00, 0x00, 0x00, 0x00, 0x00, 0x00, 0x00, 0x00, 0x00, 0x00, 0x00,
  0x00, 0x00, 0x00, 0x00, 0x00, 0x00, 0x00, 0x00, 0x00, 0x00, 0x00, 0x00,
  0x00, 0x00, 0x00, 0x00, 0x00, 0x00, 0x00, 0x00, 0x00, 0x00, 0x00, 0x00,
  0x00, 0x00, 0x00, 0x00, 0x00, 0x00, 0x00, 0x00, 0x00, 0x00, 0x00, 0x00,
  0x00, 0x00, 0x00, 0x00, 0x00, 0x00, 0x00, 0x00, 0x00, 0x00, 0x00, 0x00,
  0x00, 0x00, 0x00, 0x00, 0x00, 0x00, 0x00, 0x00, 0x00, 0x00, 0x00, 0x00,
  0x00, 0x00, 0x00, 0x00, 0x00, 0x00, 0x00, 0x00, 0x00, 0x00, 0x00, 0x00,
  0x00, 0x00, 0x00, 0x00, 0x00, 0x00, 0x00, 0x00, 0x00, 0x00, 0x00, 0x00,
  0x00, 0x00, 0x00, 0x00, 0x00, 0x00, 0x00, 0x00, 0x00, 0x00, 0x00, 0x00,
  0x00, 0x00, 0x00, 0x00, 0x00, 0x00, 0x00, 0x00, 0x00, 0x00, 0x00, 0x00,
  0x00, 0x00, 0x00, 0x00, 0x00, 0x00, 0x00, 0x00, 0x00, 0x00, 0x00, 0x00,
  0x00, 0x00, 0x00, 0x00, 0x00, 0x00, 0x00, 0x00, 0x00, 0x00, 0x00, 0x00,
  0x00, 0x00, 0x00, 0x00, 0x00, 0x00, 0x00, 0x00, 0x00, 0x00, 0x00, 0x00,
  0x00, 0x00, 0x00, 0x00, 0x00, 0x00, 0x00, 0x00, 0x00, 0x00, 0x00, 0x00,
  0x00, 0x00, 0x00, 0x00, 0x00, 0x00, 0x00, 0x00, 0x00, 0x00, 0x00, 0x00,
  0x20, 0x00, 0x00, 0x00, 0x8e, 0xf4, 0x2c, 0x3b, 0x0c, 0xbd, 0x48, 0x3b,
  0x04, 0xdd, 0x95, 0x3b, 0x01, 0xed, 0xa6, 0x3b, 0xd4, 0x8f, 0x6c, 0x3b,
  0x36, 0x7b, 0x23, 0x3b, 0xbd, 0x5b, 0x86, 0x3b, 0x20, 0xb7, 0x18, 0x3b,
  0xe0, 0x73, 0x2c, 0x3b, 0xc2, 0x19, 0x2c, 0x3b, 0x25, 0xf5, 0x30, 0x3b,
  0x2a, 0xe7, 0x6f, 0x3b, 0x0e, 0x2b, 0x56, 0x3b, 0x13, 0xea, 0x3e, 0x3b,
  0x21, 0x4b, 0x2b, 0x3b, 0xa6, 0x1a, 0x63, 0x3b, 0x85, 0x2e, 0xa0, 0x3b,
  0xdc, 0xc1, 0x2e, 0x3b, 0x82, 0x41, 0x5b, 0x3b, 0xf2, 0xce, 0x67, 0x3b,
  0xc5, 0xbe, 0x8a, 0x3b, 0x7f, 0x42, 0x3f, 0x3b, 0xd7, 0xec, 0x6b, 0x3b,
  0xd3, 0x27, 0x50, 0x3b, 0x3e, 0x4b, 0x81, 0x3b, 0xf1, 0x5e, 0x9f, 0x3b,
  0xd3, 0x08, 0x21, 0x3b, 0xc5, 0x09, 0x5e, 0x3b, 0x55, 0xdb, 0x21, 0x3b,
  0x52, 0x26, 0x1d, 0x3b, 0xd5, 0x35, 0x66, 0x3b, 0x82, 0x84, 0x33, 0x3b,
  0x12, 0x00, 0x00, 0x00, 0x74, 0x66, 0x6c, 0x2e, 0x70, 0x73, 0x65, 0x75,
  0x64, 0x6f, 0x5f, 0x71, 0x63, 0x6f, 0x6e, 0x73, 0x74, 0x33, 0x00, 0x00,
  0x02, 0x00, 0x00, 0x00, 0x20, 0x00, 0x00, 0x00, 0x20, 0x00, 0x00, 0x00,
  0xf2, 0xfc, 0xff, 0xff, 0x00, 0x00, 0x00, 0x01, 0x14, 0x00, 0x00, 0x00,
  0xa4, 0x01, 0x00, 0x00, 0x05, 0x00, 0x00, 0x00, 0x00, 0x00, 0x00, 0x02,
  0xb0, 0x01, 0x00, 0x00, 0x6c, 0xfc, 0xff, 0xff, 0x08, 0x00, 0x00, 0x00,
  0x08, 0x01, 0x00, 0x00, 0x20, 0x00, 0x00, 0x00, 0x00, 0x00, 0x00, 0x00,
  0x00, 0x00, 0x00, 0x00, 0x00, 0x00, 0x00, 0x00, 0x00, 0x00, 0x00, 0x00,
  0x00, 0x00, 0x00, 0x00, 0x00, 0x00, 0x00, 0x00, 0x00, 0x00, 0x00, 0x00,
  0x00, 0x00, 0x00, 0x00, 0x00, 0x00, 0x00, 0x00, 0x00, 0x00, 0x00, 0x00,
  0x00, 0x00, 0x00, 0x00, 0x00, 0x00, 0x00, 0x00, 0x00, 0x00, 0x00, 0x00,
  0x00, 0x00, 0x00, 0x00, 0x00, 0x00, 0x00, 0x00, 0x00, 0x00, 0x00, 0x00,
  0x00, 0x00, 0x00, 0x00, 0x00, 0x00, 0x00, 0x00, 0x00, 0x00, 0x00, 0x00,
  0x00, 0x00, 0x00, 0x00, 0x00, 0x00, 0x00, 0x00, 0x00, 0x00, 0x00, 0x00,
  0x00, 0x00, 0x00, 0x00, 0x00, 0x00, 0x00, 0x00, 0x00, 0x00, 0x00, 0x00,
  0x00, 0x00, 0x00, 0x00, 0x00, 0x00, 0x00, 0x00, 0x00, 0x00, 0x00, 0x00,
  0x00, 0x00, 0x00, 0x00, 0x00, 0x00, 0x00, 0x00, 0x00, 0x00, 0x00, 0x00,
  0x00, 0x00, 0x00, 0x00, 0x00, 0x00, 0x00, 0x00, 0x00, 0x00, 0x00, 0x00,
  0x00, 0x00, 0x00, 0x00, 0x00, 0x00, 0x00, 0x00, 0x00, 0x00, 0x00, 0x00,
  0x00, 0x00, 0x00, 0x00, 0x00, 0x00, 0x00, 0x00, 0x00, 0x00, 0x00, 0x00,
  0x00, 0x00, 0x00, 0x00, 0x00, 0x00, 0x00, 0x00, 0x00, 0x00, 0x00, 0x00,
  0x00, 0x00, 0x00, 0x00, 0x00, 0x00, 0x00, 0x00, 0x00, 0x00, 0x00, 0x00,
  0x00, 0x00, 0x00, 0x00, 0x00, 0x00, 0x00, 0x00, 0x00, 0x00, 0x00, 0x00,
  0x00, 0x00, 0x00, 0x00, 0x00, 0x00, 0x00, 0x00, 0x00, 0x00, 0x00, 0x00,
  0x00, 0x00, 0x00, 0x00, 0x00, 0x00, 0x00, 0x00, 0x00, 0x00, 0x00, 0x00,
  0x00, 0x00, 0x00, 0x00, 0x00, 0x00, 0x00, 0x00, 0x00, 0x00, 0x00, 0x00,
  0x00, 0x00, 0x00, 0x00, 0x00, 0x00, 0x00, 0x00, 0x00, 0x00, 0x00, 0x00,
  0x00, 0x00, 0x00, 0x00, 0x00, 0x00, 0x00, 0x00, 0x00, 0x00, 0x00, 0x00,
  0x20, 0x00, 0x00, 0x00, 0x01, 0xeb, 0x50, 0x37, 0x67, 0x7a, 0x72, 0x37,
  0x46, 0x06, 0xb5, 0x37, 0x80, 0xa2, 0xc9, 0x37, 0x09, 0xe0, 0x8e, 0x37,
  0x5b, 0x79, 0x45, 0x37, 0xaa, 0x4b, 0xa2, 0x37, 0x32, 0x78, 0x38, 0x37,
  0x91, 0x4f, 0x50, 0x37, 0xb6, 0xe2, 0x4f, 0x37, 0xa3, 0xc0, 0x55, 0x37,
  0xa0, 0xe4, 0x90, 0x37, 0xa3, 0x59, 0x81, 0x37, 0x7d, 0x9c, 0x66, 0x37,
  0x1e, 0xe9, 0x4e, 0x37, 0xba, 0x29, 0x89, 0x37, 0x07, 0x7d, 0xc1, 0x37,
  0x3a, 0x18, 0x53, 0x37, 0x46, 0x6c, 0x84, 0x37, 0x14, 0x01, 0x8c, 0x37,
  0x35, 0x98, 0xa7, 0x37, 0x4c, 0x07, 0x67, 0x37, 0x98, 0x7d, 0x8e, 0x37,
  0xfe, 0x6f, 0x7b, 0x37, 0x96, 0x2d, 0x9c, 0x37, 0x4a, 0x82, 0xc0, 0x37,
  0xba, 0x84, 0x42, 0x37, 0x75, 0x1a, 0x86, 0x37, 0x01, 0x83, 0x43, 0x37,
  0x6f, 0xd3, 0x3d, 0x37, 0xfd, 0x09, 0x8b, 0x37, 0x45, 0xd8, 0x58, 0x37,
  0x12, 0x00, 0x00, 0x00, 0x74, 0x66, 0x6c, 0x2e, 0x70, 0x73, 0x65, 0x75,
  0x64, 0x6f, 0x5f, 0x71, 0x63, 0x6f, 0x6e, 0x73, 0x74, 0x32, 0x00, 0x00,
  0x01, 0x00, 0x00, 0x00, 0x20, 0x00, 0x00, 0x00, 0xc2, 0xfe, 0xff, 0xff,
  0x00, 0x00, 0x00, 0x01, 0x14, 0x00, 0x00, 0x00, 0x70, 0x00, 0x00, 0x00,
  0x04, 0x00, 0x00, 0x00, 0x00, 0x00, 0x00, 0x09, 0x7c, 0x00, 0x00, 0x00,
  0x3c, 0xfe, 0xff, 0xff, 0x08, 0x00, 0x00, 0x00, 0x3c, 0x00, 0x00, 0x00,
  0x06, 0x00, 0x00, 0x00, 0x00, 0x00, 0x00, 0x00, 0x00, 0x00, 0x00, 0x00,
  0x00, 0x00, 0x00, 0x00, 0x00, 0x00, 0x00, 0x00, 0x00, 0x00, 0x00, 0x00,
  0x00, 0x00, 0x00, 0x00, 0x00, 0x00, 0x00, 0x00, 0x00, 0x00, 0x00, 0x00,
  0x00, 0x00, 0x00, 0x00, 0x00, 0x00, 0x00, 0x00, 0x00, 0x00, 0x00, 0x00,
  0x00, 0x00, 0x00, 0x00, 0x00, 0x00, 0x00, 0x00, 0x06, 0x00, 0x00, 0x00,
  0x1c, 0x84, 0x81, 0x3b, 0x47, 0x43, 0xd6, 0x3b, 0x54, 0xec, 0xa0, 0x3b,
  0xb3, 0x19, 0x6e, 0x3b, 0x2a, 0xc1, 0x99, 0x3b, 0xbb, 0x8c, 0x6e, 0x3b,
  0x12, 0x00, 0x00, 0x00, 0x74, 0x66, 0x6c, 0x2e, 0x70, 0x73, 0x65, 0x75,
  0x64, 0x6f, 0x5f, 0x71, 0x63, 0x6f, 0x6e, 0x73, 0x74, 0x31, 0x00, 0x00,
  0x02, 0x00, 0x00, 0x00, 0x06, 0x00, 0x00, 0x00, 0x20, 0x00, 0x00, 0x00,
  0x62, 0xff, 0xff, 0xff, 0x00, 0x00, 0x00, 0x01, 0x14, 0x00, 0x00, 0x00,
  0x70, 0x00, 0x00, 0x00, 0x03, 0x00, 0x00, 0x00, 0x00, 0x00, 0x00, 0x02,
  0x7c, 0x00, 0x00, 0x00, 0xdc, 0xfe, 0xff, 0xff, 0x08, 0x00, 0x00, 0x00,
  0x3c, 0x00, 0x00, 0x00, 0x06, 0x00, 0x00, 0x00, 0x00, 0x00, 0x00, 0x00,
  0x00, 0x00, 0x00, 0x00, 0x00, 0x00, 0x00, 0x00, 0x00, 0x00, 0x00, 0x00,
  0x00, 0x00, 0x00, 0x00, 0x00, 0x00, 0x00, 0x00, 0x00, 0x00, 0x00, 0x00,
  0x00, 0x00, 0x00, 0x00, 0x00, 0x00, 0x00, 0x00, 0x00, 0x00, 0x00, 0x00,
  0x00, 0x00, 0x00, 0x00, 0x00, 0x00, 0x00, 0x00, 0x00, 0x00, 0x00, 0x00,
  0x06, 0x00, 0x00, 0x00, 0x12, 0x69, 0xbe, 0x37, 0x50, 0x80, 0x1d, 0x38,
  0x8c, 0x95, 0xec, 0x37, 0x1b, 0x06, 0xaf, 0x37, 0x8c, 0x0b, 0xe2, 0x37,
  0xaa, 0x5a, 0xaf, 0x37, 0x11, 0x00, 0x00, 0x00, 0x74, 0x66, 0x6c, 0x2e,
  0x70, 0x73, 0x65, 0x75, 0x64, 0x6f, 0x5f, 0x71, 0x63, 0x6f, 0x6e, 0x73,
  0x74, 0x00, 0x00, 0x00, 0x01, 0x00, 0x00, 0x00, 0x06, 0x00, 0x00, 0x00,
  0x00, 0x00, 0x16, 0x00, 0x1c, 0x00, 0x18, 0x00, 0x17, 0x00, 0x10, 0x00,
  0x0c, 0x00, 0x08, 0x00, 0x00, 0x00, 0x00, 0x00, 0x00, 0x00, 0x07, 0x00,
  0x16, 0x00, 0x00, 0x00, 0x00, 0x00, 0x00, 0x01, 0x18, 0x00, 0x00, 0x00,
  0x18, 0x00, 0x00, 0x00, 0x02, 0x00, 0x00, 0x00, 0x00, 0x00, 0x00, 0x02,
  0x20, 0x00, 0x00, 0x00, 0x04, 0x00, 0x04, 0x00, 0x04, 0x00, 0x00, 0x00,
  0x0e, 0x00, 0x00, 0x00, 0x61, 0x72, 0x69, 0x74, 0x68, 0x2e, 0x63, 0x6f,
  0x6e, 0x73, 0x74, 0x61, 0x6e, 0x74, 0x00, 0x00, 0x01, 0x00, 0x00, 0x00,
  0x02, 0x00, 0x00, 0x00, 0x00, 0x00, 0x16, 0x00, 0x20, 0x00, 0x1c, 0x00,
  0x1b, 0x00, 0x14, 0x00, 0x10, 0x00, 0x0c, 0x00, 0x00, 0x00, 0x00, 0x00,
  0x08, 0x00, 0x07, 0x00, 0x16, 0x00, 0x00, 0x00, 0x00, 0x00, 0x00, 0x01,
  0x18, 0x00, 0x00, 0x00, 0x34, 0x00, 0x00, 0x00, 0x54, 0x00, 0x00, 0x00,
  0x01, 0x00, 0x00, 0x00, 0x00, 0x00, 0x00, 0x09, 0x6c, 0x00, 0x00, 0x00,
  0x04, 0x00, 0x00, 0x00, 0xff, 0xff, 0xff, 0xff, 0x60, 0x00, 0x00, 0x00,
  0x60, 0x00, 0x00, 0x00, 0x01, 0x00, 0x00, 0x00, 0x0c, 0x00, 0x0c, 0x00,
  0x00, 0x00, 0x00, 0x00, 0x08, 0x00, 0x04, 0x00, 0x0c, 0x00, 0x00, 0x00,
  0x08, 0x00, 0x00, 0x00, 0x14, 0x00, 0x00, 0x00, 0x01, 0x00, 0x00, 0x00,
  0x80, 0xff, 0xff, 0xff, 0xff, 0xff, 0xff, 0xff, 0x00, 0x00, 0x00, 0x00,
  0x01, 0x00, 0x00, 0x00, 0x81, 0x80, 0x80, 0x3b, 0x1e, 0x00, 0x00, 0x00,
  0x73, 0x65, 0x72, 0x76, 0x69, 0x6e, 0x67, 0x5f, 0x64, 0x65, 0x66, 0x61,
  0x75, 0x6c, 0x74, 0x5f, 0x6b, 0x65, 0x72, 0x61, 0x73, 0x5f, 0x74, 0x65,
  0x6e, 0x73, 0x6f, 0x72, 0x3a, 0x30, 0x00, 0x00, 0x04, 0x00, 0x00, 0x00,
  0x01, 0x00, 0x00, 0x00, 0x60, 0x00, 0x00, 0x00, 0x60, 0x00, 0x00, 0x00,
  0x01, 0x00, 0x00, 0x00, 0x05, 0x00, 0x00, 0x00, 0x60, 0x00, 0x00, 0x00,
  0x40, 0x00, 0x00, 0x00, 0x2c, 0x00, 0x00, 0x00, 0x18, 0x00, 0x00, 0x00,
  0x04, 0x00, 0x00, 0x00, 0xc0, 0xff, 0xff, 0xff, 0x19, 0x00, 0x00, 0x00,
  0x02, 0x00, 0x00, 0x00, 0x00, 0x00, 0x00, 0x19, 0xd0, 0xff, 0xff, 0xff,
  0x09, 0x00, 0x00, 0x00, 0x04, 0x00, 0x00, 0x00, 0x00, 0x00, 0x00, 0x09,
  0xe0, 0xff, 0xff, 0xff, 0x28, 0x00, 0x00, 0x00, 0x02, 0x00, 0x00, 0x00,
  0x00, 0x00, 0x00, 0x28, 0xf0, 0xff, 0xff, 0xff, 0x11, 0x00, 0x00, 0x00,
  0x02, 0x00, 0x00, 0x00, 0x00, 0x00, 0x00, 0x11, 0x0c, 0x00, 0x10, 0x00,
  0x0f, 0x00, 0x00, 0x00, 0x08, 0x00, 0x04, 0x00, 0x0c, 0x00, 0x00, 0x00,
  0x03, 0x00, 0x00, 0x00, 0x03, 0x00, 0x00, 0x00, 0x00, 0x00, 0x00, 0x03
};

const unsigned int A1_TinyESP32CNN_INT8_len = 14352;

#endif
