
#ifndef A2_DW_ALL_INT8_H
#define A2_DW_ALL_INT8_H

#include <cstdint>

alignas(16) const unsigned char A2_DW_All_INT8[] = {
  0x20, 0x00, 0x00, 0x00, 0x54, 0x46, 0x4c, 0x33, 0x00, 0x00, 0x00, 0x00,
  0x14, 0x00, 0x20, 0x00, 0x1c, 0x00, 0x18, 0x00, 0x14, 0x00, 0x10, 0x00,
  0x0c, 0x00, 0x00, 0x00, 0x08, 0x00, 0x04, 0x00, 0x14, 0x00, 0x00, 0x00,
  0x1c, 0x00, 0x00, 0x00, 0x98, 0x00, 0x00, 0x00, 0x18, 0x01, 0x00, 0x00,
  0x20, 0x16, 0x00, 0x00, 0x30, 0x16, 0x00, 0x00, 0x34, 0x44, 0x00, 0x00,
  0x03, 0x00, 0x00, 0x00, 0x01, 0x00, 0x00, 0x00, 0x10, 0x00, 0x00, 0x00,
  0x00, 0x00, 0x0a, 0x00, 0x10, 0x00, 0x0c, 0x00, 0x08, 0x00, 0x04, 0x00,
  0x0a, 0x00, 0x00, 0x00, 0x0c, 0x00, 0x00, 0x00, 0x1c, 0x00, 0x00, 0x00,
  0x3c, 0x00, 0x00, 0x00, 0x0f, 0x00, 0x00, 0x00, 0x73, 0x65, 0x72, 0x76,
  0x69, 0x6e, 0x67, 0x5f, 0x64, 0x65, 0x66, 0x61, 0x75, 0x6c, 0x74, 0x00,
  0x01, 0x00, 0x00, 0x00, 0x04, 0x00, 0x00, 0x00, 0x68, 0xff, 0xff, 0xff,
  0x21, 0x00, 0x00, 0x00, 0x04, 0x00, 0x00, 0x00, 0x08, 0x00, 0x00, 0x00,
  0x6f, 0x75, 0x74, 0x70, 0x75, 0x74, 0x5f, 0x30, 0x00, 0x00, 0x00, 0x00,
  0x01, 0x00, 0x00, 0x00, 0x04, 0x00, 0x00, 0x00, 0xb6, 0xe9, 0xff, 0xff,
  0x04, 0x00, 0x00, 0x00, 0x0c, 0x00, 0x00, 0x00, 0x6b, 0x65, 0x72, 0x61,
  0x73, 0x5f, 0x74, 0x65, 0x6e, 0x73, 0x6f, 0x72, 0x00, 0x00, 0x00, 0x00,
  0x03, 0x00, 0x00, 0x00, 0x5c, 0x00, 0x00, 0x00, 0x2c, 0x00, 0x00, 0x00,
  0x04, 0x00, 0x00, 0x00, 0xb8, 0xff, 0xff, 0xff, 0x25, 0x00, 0x00, 0x00,
  0x04, 0x00, 0x00, 0x00, 0x13, 0x00, 0x00, 0x00, 0x43, 0x4f, 0x4e, 0x56,
  0x45, 0x52, 0x53, 0x49, 0x4f, 0x4e, 0x5f, 0x4d, 0x45, 0x54, 0x41, 0x44,
  0x41, 0x54, 0x41, 0x00, 0xdc, 0xff, 0xff, 0xff, 0x24, 0x00, 0x00, 0x00,
  0x04, 0x00, 0x00, 0x00, 0x13, 0x00, 0x00, 0x00, 0x6d, 0x69, 0x6e, 0x5f,
  0x72, 0x75, 0x6e, 0x74, 0x69, 0x6d, 0x65, 0x5f, 0x76, 0x65, 0x72, 0x73,
  0x69, 0x6f, 0x6e, 0x00, 0x08, 0x00, 0x0c, 0x00, 0x08, 0x00, 0x04, 0x00,
  0x08, 0x00, 0x00, 0x00, 0x23, 0x00, 0x00, 0x00, 0x04, 0x00, 0x00, 0x00,
  0x13, 0x00, 0x00, 0x00, 0x6d, 0x69, 0x6e, 0x5f, 0x72, 0x75, 0x6e, 0x74,
  0x69, 0x6d, 0x65, 0x5f, 0x76, 0x65, 0x72, 0x73, 0x69, 0x6f, 0x6e, 0x00,
  0x26, 0x00, 0x00, 0x00, 0x04, 0x15, 0x00, 0x00, 0xfc, 0x14, 0x00, 0x00,
  0xe4, 0x14, 0x00, 0x00, 0xbc, 0x14, 0x00, 0x00, 0x8c, 0x13, 0x00, 0x00,
  0xbc, 0x12, 0x00, 0x00, 0xac, 0x0c, 0x00, 0x00, 0x1c, 0x0c, 0x00, 0x00,
  0xec, 0x0a, 0x00, 0x00, 0x5c, 0x0a, 0x00, 0x00, 0x4c, 0x07, 0x00, 0x00,
  0xdc, 0x06, 0x00, 0x00, 0xf4, 0x05, 0x00, 0x00, 0x84, 0x05, 0x00, 0x00,
  0xf4, 0x03, 0x00, 0x00, 0xa4, 0x03, 0x00, 0x00, 0x04, 0x03, 0x00, 0x00,
  0xb4, 0x02, 0x00, 0x00, 0x24, 0x02, 0x00, 0x00, 0xf4, 0x01, 0x00, 0x00,
  0x9c, 0x01, 0x00, 0x00, 0x6c, 0x01, 0x00, 0x00, 0x14, 0x01, 0x00, 0x00,
  0x0c, 0x01, 0x00, 0x00, 0x04, 0x01, 0x00, 0x00, 0xfc, 0x00, 0x00, 0x00,
  0xf4, 0x00, 0x00, 0x00, 0xec, 0x00, 0x00, 0x00, 0xe4, 0x00, 0x00, 0x00,
  0xdc, 0x00, 0x00, 0x00, 0xd4, 0x00, 0x00, 0x00, 0xcc, 0x00, 0x00, 0x00,
  0xc4, 0x00, 0x00, 0x00, 0xbc, 0x00, 0x00, 0x00, 0xb4, 0x00, 0x00, 0x00,
  0x94, 0x00, 0x00, 0x00, 0x74, 0x00, 0x00, 0x00, 0x04, 0x00, 0x00, 0x00,
  0xf2, 0xea, 0xff, 0xff, 0x04, 0x00, 0x00, 0x00, 0x60, 0x00, 0x00, 0x00,
  0x0c, 0x00, 0x00, 0x00, 0x08, 0x00, 0x0e, 0x00, 0x08, 0x00, 0x04, 0x00,
  0x08, 0x00, 0x00, 0x00, 0x10, 0x00, 0x00, 0x00, 0x28, 0x00, 0x00, 0x00,
  0x00, 0x00, 0x06, 0x00, 0x08, 0x00, 0x04, 0x00, 0x06, 0x00, 0x00, 0x00,
  0x04, 0x00, 0x00, 0x00, 0x01, 0x00, 0x00, 0x00, 0xeb, 0x03, 0x00, 0x00,
  0x0c, 0x00, 0x18, 0x00, 0x14, 0x00, 0x10, 0x00, 0x0c, 0x00, 0x04, 0x00,
  0x0c, 0x00, 0x00, 0x00, 0xcc, 0x6f, 0x6d, 0x11, 0xb3, 0x2d, 0x7f, 0x50,
  0x02, 0x00, 0x00, 0x00, 0x02, 0x00, 0x00, 0x00, 0x04, 0x00, 0x00, 0x00,
  0x06, 0x00, 0x00, 0x00, 0x32, 0x2e, 0x31, 0x39, 0x2e, 0x30, 0x00, 0x00,
  0x5e, 0xeb, 0xff, 0xff, 0x04, 0x00, 0x00, 0x00, 0x10, 0x00, 0x00, 0x00,
  0x00, 0x00, 0x00, 0x00, 0x00, 0x00, 0x00, 0x00, 0x00, 0x00, 0x00, 0x00,
  0x00, 0x00, 0x00, 0x00, 0x7a, 0xeb, 0xff, 0xff, 0x04, 0x00, 0x00, 0x00,
  0x10, 0x00, 0x00, 0x00, 0x31, 0x2e, 0x31, 0x34, 0x2e, 0x30, 0x00, 0x00,
  0x00, 0x00, 0x00, 0x00, 0x00, 0x00, 0x00, 0x00, 0xf0, 0xbe, 0xff, 0xff,
  0xf4, 0xbe, 0xff, 0xff, 0xf8, 0xbe, 0xff, 0xff, 0xfc, 0xbe, 0xff, 0xff,
  0x00, 0xbf, 0xff, 0xff, 0x04, 0xbf, 0xff, 0xff, 0x08, 0xbf, 0xff, 0xff,
  0x0c, 0xbf, 0xff, 0xff, 0x10, 0xbf, 0xff, 0xff, 0x14, 0xbf, 0xff, 0xff,
  0x18, 0xbf, 0xff, 0xff, 0x1c, 0xbf, 0xff, 0xff, 0xc6, 0xeb, 0xff, 0xff,
  0x04, 0x00, 0x00, 0x00, 0x48, 0x00, 0x00, 0x00, 0x65, 0xa7, 0xb1, 0x81,
  0x91, 0x19, 0x49, 0x17, 0xdf, 0x32, 0x45, 0xf8, 0xe3, 0x82, 0xa6, 0x9c,
  0x7f, 0x34, 0x14, 0xc4, 0x69, 0x7f, 0x60, 0x26, 0xcd, 0x71, 0xd7, 0x38,
  0x47, 0xd5, 0x87, 0x7f, 0x42, 0xa0, 0x45, 0x67, 0x5c, 0xe2, 0x0c, 0x7c,
  0xa6, 0x0f, 0x7f, 0x7a, 0xd2, 0x46, 0xd2, 0xe1, 0x10, 0xe4, 0x7f, 0xe1,
  0x55, 0x02, 0x70, 0xf3, 0x79, 0x55, 0x71, 0x81, 0x0d, 0x21, 0x8c, 0x6c,
  0x8c, 0x58, 0xf5, 0x10, 0x81, 0x12, 0xa1, 0x26, 0x1a, 0xec, 0xff, 0xff,
  0x04, 0x00, 0x00, 0x00, 0x20, 0x00, 0x00, 0x00, 0x72, 0x47, 0x00, 0x00,
  0x3d, 0x14, 0x00, 0x00, 0xc1, 0x8e, 0xff, 0xff, 0xc2, 0xad, 0xff, 0xff,
  0x50, 0x8c, 0xff, 0xff, 0x46, 0xc4, 0xff, 0xff, 0xe3, 0xb4, 0xff, 0xff,
  0x23, 0x1d, 0x00, 0x00, 0x46, 0xec, 0xff, 0xff, 0x04, 0x00, 0x00, 0x00,
  0x48, 0x00, 0x00, 0x00, 0x7f, 0xac, 0x65, 0x8d, 0x39, 0x96, 0xb3, 0x81,
  0x4d, 0x81, 0x3a, 0x3e, 0xce, 0x31, 0xdb, 0xd9, 0x30, 0x8e, 0xde, 0x4d,
  0xe3, 0x25, 0x0b, 0xa1, 0xc5, 0xf7, 0xf0, 0x02, 0x08, 0x7f, 0xee, 0xe6,
  0x03, 0x12, 0x7f, 0xf1, 0x37, 0x28, 0x81, 0x5f, 0xad, 0xf9, 0xaf, 0x58,
  0x91, 0x76, 0x07, 0xa1, 0xd2, 0x5a, 0xe2, 0x7f, 0x1c, 0x25, 0x82, 0xc8,
  0xe0, 0x99, 0x95, 0x20, 0xc0, 0x1b, 0x9a, 0xd9, 0x43, 0x3b, 0xbc, 0x17,
  0x7f, 0xf9, 0xc2, 0x92, 0x9a, 0xec, 0xff, 0xff, 0x04, 0x00, 0x00, 0x00,
  0x20, 0x00, 0x00, 0x00, 0xd4, 0xea, 0xff, 0xff, 0x65, 0x23, 0x00, 0x00,
  0x5e, 0x0e, 0x00, 0x00, 0x16, 0xc2, 0xff, 0xff, 0x1c, 0xf9, 0xff, 0xff,
  0x49, 0xc0, 0xff, 0xff, 0x44, 0x71, 0x00, 0x00, 0xef, 0x4c, 0x00, 0x00,
  0xc6, 0xec, 0xff, 0xff, 0x04, 0x00, 0x00, 0x00, 0x80, 0x00, 0x00, 0x00,
  0x5f, 0x7f, 0x5c, 0x73, 0x63, 0xcc, 0xd2, 0x74, 0xbf, 0xf3, 0x66, 0xcd,
  0x9e, 0x1f, 0xe5, 0x7f, 0xef, 0x7f, 0x4c, 0x1e, 0xf1, 0x3f, 0xf5, 0x96,
  0x23, 0x0a, 0xee, 0xbb, 0x81, 0xe1, 0x1e, 0x6a, 0x7f, 0x00, 0xdc, 0xbe,
  0xdc, 0x6e, 0x7e, 0xbc, 0xd6, 0x1a, 0x81, 0xe1, 0x5e, 0xff, 0x29, 0xbc,
  0x7f, 0x97, 0xc9, 0x46, 0xe3, 0xb5, 0x8f, 0xad, 0x7f, 0x75, 0xed, 0xdf,
  0x73, 0x3e, 0x0d, 0x75, 0xfa, 0x07, 0xdf, 0x6c, 0x05, 0x10, 0xfc, 0x81,
  0x40, 0x7f, 0xd8, 0x56, 0x33, 0x5b, 0x0d, 0xa0, 0xf1, 0x24, 0x7f, 0x51,
  0x8d, 0x3b, 0xb5, 0x97, 0x7a, 0x7f, 0xff, 0xd6, 0xe1, 0x95, 0x92, 0x75,
  0x81, 0x4e, 0x14, 0x53, 0x62, 0x24, 0x88, 0x43, 0x8e, 0x2c, 0x2f, 0x7f,
  0xf9, 0x07, 0xa6, 0x18, 0x1d, 0xa3, 0x64, 0x93, 0x7e, 0xa8, 0x8a, 0x81,
  0xc4, 0xc8, 0x7c, 0x64, 0xbd, 0x73, 0x44, 0x81, 0x52, 0xed, 0xff, 0xff,
  0x04, 0x00, 0x00, 0x00, 0x40, 0x00, 0x00, 0x00, 0xf7, 0x35, 0xff, 0xff,
  0x37, 0xf1, 0xff, 0xff, 0x29, 0xc2, 0xff, 0xff, 0xfc, 0x0a, 0x00, 0x00,
  0x96, 0xb2, 0xff, 0xff, 0x47, 0x35, 0x00, 0x00, 0x3e, 0x72, 0x00, 0x00,
  0x4f, 0x3c, 0xff, 0xff, 0xa6, 0x04, 0x00, 0x00, 0x47, 0x85, 0xff, 0xff,
  0xf1, 0xf7, 0xff, 0xff, 0x5d, 0xe9, 0xff, 0xff, 0xc2, 0xe1, 0xff, 0xff,
  0x04, 0xeb, 0xff, 0xff, 0x27, 0x98, 0x00, 0x00, 0x9e, 0xcd, 0xff, 0xff,
  0x9e, 0xed, 0xff, 0xff, 0x04, 0x00, 0x00, 0x00, 0x90, 0x00, 0x00, 0x00,
  0x60, 0xe3, 0x7f, 0xb4, 0x29, 0x7f, 0x6c, 0x75, 0xdf, 0x01, 0x51, 0x60,
  0x0d, 0xa4, 0x1f, 0xb1, 0x1d, 0xae, 0x77, 0x1f, 0xd5, 0x0a, 0x4b, 0x14,
  0x41, 0x10, 0x81, 0x2a, 0x83, 0x59, 0xf7, 0x8b, 0x41, 0x3c, 0xad, 0x7f,
  0xf5, 0x78, 0xf4, 0x1c, 0x25, 0x7f, 0x93, 0x89, 0xdb, 0x07, 0x59, 0x56,
  0x22, 0xc3, 0xaa, 0xa9, 0x74, 0xa2, 0x81, 0xf2, 0xf1, 0x55, 0x3a, 0xe4,
  0x94, 0x79, 0x0a, 0xe9, 0x73, 0xfa, 0x15, 0x29, 0x6c, 0x8c, 0xc8, 0x8a,
  0x7f, 0x56, 0x87, 0x81, 0xe9, 0x41, 0xcd, 0x8c, 0x66, 0x7f, 0x91, 0x3a,
  0xad, 0x3a, 0x72, 0x72, 0xfb, 0xdd, 0xaf, 0xa8, 0xc7, 0x02, 0x30, 0x22,
  0x92, 0x4f, 0x21, 0x6d, 0x10, 0x74, 0x95, 0x65, 0x3c, 0xdd, 0x57, 0x25,
  0x7f, 0xfe, 0xb5, 0x7f, 0x7f, 0xcf, 0x6b, 0x12, 0x81, 0x7d, 0x7a, 0x81,
  0x4c, 0xd4, 0x17, 0x37, 0x92, 0x83, 0xcb, 0xeb, 0xf7, 0x69, 0xda, 0x4f,
  0x31, 0x00, 0x53, 0x0b, 0x9c, 0xc9, 0xc8, 0x90, 0xc6, 0x7f, 0x81, 0xfc,
  0x3a, 0xee, 0xff, 0xff, 0x04, 0x00, 0x00, 0x00, 0x40, 0x00, 0x00, 0x00,
  0xff, 0x48, 0xff, 0xff, 0x55, 0xc4, 0xff, 0xff, 0xa7, 0xdb, 0xff, 0xff,
  0x2d, 0xa1, 0xff, 0xff, 0x8c, 0xe5, 0xff, 0xff, 0xbc, 0x7f, 0xff, 0xff,
  0xed, 0x88, 0xff, 0xff, 0x0e, 0xae, 0xff, 0xff, 0x76, 0xb1, 0xff, 0xff,
  0x9c, 0xca, 0xff, 0xff, 0x67, 0x49, 0x00, 0x00, 0xd8, 0x4d, 0x00, 0x00,
  0x75, 0x9a, 0x00, 0x00, 0xb3, 0x8d, 0xff, 0xff, 0xa4, 0x2a, 0x00, 0x00,
  0xbf, 0x2c, 0x00, 0x00, 0x86, 0xee, 0xff, 0xff, 0x04, 0x00, 0x00, 0x00,
  0x80, 0x01, 0x00, 0x00, 0xfd, 0x3a, 0xb5, 0xfd, 0xf8, 0x7d, 0xcc, 0x54,
  0x22, 0x81, 0xd8, 0x9a, 0x7f, 0x8c, 0x1d, 0x8b, 0xf9, 0xcb, 0x5d, 0x39,
  0x24, 0x60, 0xd6, 0x96, 0x7f, 0x9a, 0x12, 0x32, 0x05, 0xa5, 0xc3, 0x7a,
  0x7b, 0xd8, 0xd8, 0x4c, 0x3d, 0x3d, 0x5c, 0x35, 0x2a, 0xf7, 0x39, 0x1a,
  0x67, 0x0f, 0x81, 0xce, 0x5e, 0x60, 0xce, 0x87, 0x68, 0x5b, 0x39, 0x1b,
  0xa7, 0xa1, 0x55, 0x07, 0x67, 0x58, 0xa5, 0x7f, 0x72, 0xe8, 0x87, 0xf8,
  0x04, 0x54, 0xa0, 0x77, 0xa4, 0x6b, 0xd7, 0x9e, 0x7e, 0x2a, 0x7f, 0x97,
  0x7f, 0x4c, 0xd8, 0xb1, 0x50, 0x5a, 0x12, 0xc2, 0xf7, 0xf6, 0x7d, 0x22,
  0x12, 0xc4, 0xef, 0x79, 0xa1, 0xe0, 0x49, 0x39, 0x21, 0x52, 0x0e, 0x6e,
  0x7f, 0x06, 0xdf, 0xd9, 0xf4, 0x12, 0xfb, 0x0a, 0x47, 0xab, 0x7f, 0xc3,
  0x60, 0xa1, 0x9b, 0xdd, 0x5c, 0xbd, 0x78, 0xf9, 0xdd, 0x5e, 0xa6, 0x76,
  0x0e, 0xfd, 0x69, 0x63, 0x7f, 0x60, 0x57, 0x23, 0xb5, 0x81, 0x4b, 0x07,
  0x6a, 0x24, 0x2c, 0x05, 0x09, 0x38, 0xed, 0x17, 0xd1, 0x7a, 0x45, 0x1e,
  0x18, 0x3c, 0x00, 0x7f, 0x90, 0x6d, 0x42, 0x06, 0x36, 0xdb, 0x27, 0x4c,
  0x3f, 0x0d, 0xf6, 0x7f, 0xbb, 0x73, 0xbd, 0x0a, 0x8f, 0x10, 0x9b, 0x23,
  0x64, 0x7f, 0x84, 0xad, 0x3d, 0x19, 0xcd, 0x04, 0x42, 0xca, 0x97, 0x6f,
  0xe1, 0xfb, 0x8a, 0x6d, 0x13, 0x53, 0xd6, 0xc2, 0xcf, 0x41, 0x00, 0x98,
  0x81, 0xde, 0x71, 0xad, 0x04, 0xee, 0x71, 0x00, 0x5d, 0x11, 0xbf, 0x8d,
  0x13, 0x55, 0x2d, 0xe1, 0x7f, 0xfd, 0xf0, 0xdb, 0x04, 0x5d, 0x9d, 0x49,
  0x2a, 0x7f, 0xea, 0x35, 0xc6, 0xd7, 0x0f, 0x7f, 0x47, 0x4b, 0x6d, 0xde,
  0xce, 0xe8, 0xaa, 0xec, 0xd9, 0x0f, 0xb2, 0x20, 0x00, 0x24, 0x4e, 0x63,
  0x23, 0x0a, 0x35, 0x39, 0x18, 0x76, 0x81, 0x45, 0x15, 0xd6, 0x26, 0xb1,
  0xe8, 0x7f, 0x50, 0xcb, 0x60, 0x77, 0xa2, 0x83, 0xe5, 0xcf, 0x05, 0x14,
  0xa4, 0xc2, 0x81, 0x06, 0x43, 0x00, 0x0d, 0x03, 0x1c, 0x44, 0x0f, 0x26,
  0x61, 0xee, 0xda, 0xdb, 0x6f, 0x1f, 0x2f, 0x6c, 0xbb, 0x2a, 0x3f, 0x7f,
  0x20, 0x95, 0xba, 0xee, 0xd7, 0x11, 0xca, 0x17, 0x88, 0x72, 0x1b, 0xb7,
  0x62, 0xd1, 0x79, 0x9e, 0x82, 0xd2, 0xc4, 0xbb, 0x00, 0x81, 0x49, 0xe2,
  0xe8, 0xc8, 0xba, 0x3e, 0x78, 0xf5, 0xe6, 0xab, 0x2d, 0x93, 0xcd, 0x81,
  0xb7, 0x5b, 0x4d, 0xbf, 0x49, 0x53, 0x29, 0x05, 0x0d, 0xae, 0xef, 0x7f,
  0x5c, 0x7b, 0x3f, 0x94, 0x4c, 0x9c, 0xe5, 0xae, 0x3b, 0x74, 0x83, 0x1f,
  0x49, 0x25, 0x3a, 0x7f, 0xe8, 0x79, 0x7b, 0x0e, 0x4d, 0x79, 0x58, 0xbd,
  0x99, 0x77, 0xf1, 0xb6, 0x81, 0x87, 0x1a, 0x5a, 0x5c, 0x7a, 0x10, 0xe5,
  0x4c, 0x88, 0x7a, 0x7e, 0x12, 0xf0, 0xff, 0xff, 0x04, 0x00, 0x00, 0x00,
  0x60, 0x00, 0x00, 0x00, 0x4d, 0xa4, 0x00, 0x00, 0x3e, 0x9c, 0xff, 0xff,
  0x35, 0x0e, 0xfe, 0xff, 0x62, 0x50, 0xfe, 0xff, 0xb0, 0x5e, 0xff, 0xff,
  0xea, 0x6e, 0xfe, 0xff, 0x98, 0xd1, 0xfe, 0xff, 0x0e, 0x9a, 0xff, 0xff,
  0x07, 0x85, 0xfd, 0xff, 0x4b, 0xf7, 0xfd, 0xff, 0x3d, 0x6a, 0xff, 0xff,
  0xfd, 0xcf, 0xff, 0xff, 0xde, 0x74, 0x00, 0x00, 0x08, 0x3b, 0xff, 0xff,
  0x3c, 0xed, 0xfe, 0xff, 0x99, 0x82, 0xfe, 0xff, 0xcd, 0x19, 0x00, 0x00,
  0xac, 0x37, 0x00, 0x00, 0xd7, 0xe1, 0xfe, 0xff, 0xef, 0x9d, 0x01, 0x00,
  0x34, 0x32, 0x01, 0x00, 0x40, 0x01, 0xff, 0xff, 0x8d, 0xa9, 0xfc, 0xff,
  0x1a, 0x63, 0xff, 0xff, 0x7e, 0xf0, 0xff, 0xff, 0x04, 0x00, 0x00, 0x00,
  0xd8, 0x00, 0x00, 0x00, 0x15, 0xd9, 0x54, 0x44, 0x70, 0xe9, 0x1c, 0xfb,
  0x85, 0x81, 0xe8, 0x7b, 0x9f, 0x20, 0xf3, 0xfa, 0x3e, 0x09, 0x7c, 0x34,
  0x41, 0xbf, 0xa5, 0x91, 0x00, 0xdc, 0xf5, 0x7f, 0x86, 0x0e, 0x9b, 0x2e,
  0x90, 0xad, 0xcb, 0xaa, 0x62, 0xa0, 0x33, 0xae, 0xe9, 0xf2, 0x47, 0x26,
  0x4a, 0x81, 0x94, 0x81, 0xe7, 0x7f, 0x0e, 0x92, 0x88, 0x28, 0x66, 0x84,
  0xae, 0x7d, 0x40, 0xca, 0x6b, 0xed, 0xba, 0xab, 0xb5, 0xe5, 0x07, 0x31,
  0x36, 0x95, 0x8d, 0x87, 0x7f, 0xea, 0x9d, 0xc7, 0x1c, 0x6f, 0x70, 0xa2,
  0xbf, 0xb9, 0x47, 0x5d, 0x51, 0x41, 0xdd, 0x28, 0xa0, 0x81, 0x7f, 0x29,
  0xe6, 0x2b, 0xde, 0x4d, 0xc7, 0xac, 0x0c, 0x72, 0x96, 0x63, 0x81, 0xc9,
  0x08, 0x22, 0x81, 0x58, 0x3e, 0x11, 0xd8, 0x7f, 0x7f, 0xb3, 0xb0, 0xdb,
  0x7f, 0xdc, 0xe9, 0x41, 0xcf, 0xce, 0x7f, 0x5d, 0x19, 0x81, 0x33, 0xd7,
  0xf3, 0x85, 0xad, 0x1c, 0x81, 0x71, 0x83, 0xb0, 0x08, 0xf6, 0xdf, 0x5e,
  0x54, 0xd5, 0x52, 0xdb, 0x43, 0x3a, 0xf9, 0x70, 0x55, 0x0e, 0xa7, 0x0a,
  0x81, 0xf1, 0xfc, 0x7f, 0xc6, 0x7f, 0x7f, 0x64, 0x35, 0x9b, 0x65, 0x81,
  0x83, 0x29, 0xb4, 0x7d, 0x4e, 0x00, 0x58, 0xa0, 0x81, 0xfb, 0x26, 0x81,
  0x8b, 0x27, 0xd1, 0x45, 0x00, 0x5e, 0xe4, 0x93, 0x12, 0xb1, 0x42, 0xae,
  0xbc, 0x38, 0x81, 0x2e, 0x33, 0x43, 0x27, 0x16, 0xc9, 0x8b, 0x35, 0x1f,
  0xd4, 0x13, 0x2e, 0xd8, 0x4e, 0xd8, 0x71, 0x52, 0x3e, 0xd0, 0x9d, 0xdb,
  0xf8, 0x32, 0xcd, 0x68, 0x62, 0xf1, 0xff, 0xff, 0x04, 0x00, 0x00, 0x00,
  0x60, 0x00, 0x00, 0x00, 0xfd, 0xf7, 0xfe, 0xff, 0xfe, 0xff, 0xff, 0xff,
  0x12, 0x2d, 0xff, 0xff, 0x78, 0x19, 0xff, 0xff, 0xf8, 0xca, 0x00, 0x00,
  0x4b, 0xe6, 0xff, 0xff, 0x90, 0xe3, 0xff, 0xff, 0x56, 0xe3, 0x00, 0x00,
  0xb9, 0xdb, 0x01, 0x00, 0xff, 0x7e, 0x00, 0x00, 0x38, 0x4b, 0x00, 0x00,
  0x65, 0x04, 0xff, 0xff, 0x8f, 0x64, 0xff, 0xff, 0xd4, 0x4e, 0xff, 0xff,
  0x07, 0x1d, 0x00, 0x00, 0x78, 0x30, 0x00, 0x00, 0xd4, 0xaa, 0xff, 0xff,
  0xde, 0x92, 0x01, 0x00, 0xf8, 0xf2, 0xfe, 0xff, 0xd1, 0xd5, 0xff, 0xff,
  0x36, 0x44, 0xff, 0xff, 0x81, 0x87, 0x00, 0x00, 0x20, 0x98, 0x01, 0x00,
  0xcd, 0x3c, 0x00, 0x00, 0xce, 0xf1, 0xff, 0xff, 0x04, 0x00, 0x00, 0x00,
  0x00, 0x03, 0x00, 0x00, 0x81, 0xf2, 0xc5, 0x1f, 0x0b, 0x78, 0xf5, 0xa8,
  0x79, 0x3e, 0x29, 0x88, 0x49, 0xc4, 0x44, 0xec, 0x2f, 0x36, 0xe7, 0x58,
  0x09, 0xf6, 0x56, 0x72, 0xef, 0xf6, 0xdd, 0xa4, 0x98, 0x8d, 0x7f, 0x50,
  0xd6, 0xd1, 0xfb, 0x4a, 0xbd, 0xd5, 0x04, 0x02, 0xdb, 0x17, 0x56, 0xab,
  0x4e, 0x40, 0x61, 0x60, 0xe6, 0xc0, 0xe8, 0x7f, 0xd7, 0xcb, 0x02, 0x35,
  0x63, 0x2e, 0x34, 0x83, 0xdc, 0x1b, 0xc3, 0x25, 0xec, 0x11, 0x37, 0x08,
  0xfc, 0xd2, 0xdd, 0x11, 0xef, 0x2d, 0xc6, 0x39, 0x8c, 0x44, 0x19, 0xae,
  0xe3, 0xeb, 0x2a, 0x62, 0xb1, 0x8b, 0xb4, 0x12, 0xed, 0x89, 0xdc, 0x2e,
  0x48, 0x81, 0xb1, 0x8b, 0xc8, 0xb4, 0x8a, 0x1c, 0x96, 0x22, 0x7c, 0x7d,
  0x9c, 0x02, 0x2c, 0x9b, 0x51, 0xaf, 0xc2, 0xb8, 0x0a, 0x5c, 0xf8, 0x08,
  0x51, 0x61, 0x81, 0x96, 0x01, 0xac, 0xd9, 0x27, 0xd6, 0x37, 0xd3, 0x12,
  0x35, 0x7a, 0x5c, 0xd8, 0x4c, 0xee, 0x31, 0x7f, 0x6f, 0x01, 0xd0, 0xa4,
  0x7b, 0x6d, 0x3f, 0x9a, 0x00, 0x2d, 0xf9, 0x5a, 0x34, 0x15, 0xd9, 0xbb,
  0x10, 0x6c, 0x9b, 0xf5, 0x58, 0x73, 0xdf, 0xe0, 0x55, 0xfb, 0x44, 0xec,
  0x59, 0x81, 0x03, 0x94, 0x70, 0x04, 0xd9, 0xbc, 0xd5, 0x32, 0x7f, 0x14,
  0x07, 0xca, 0x96, 0x8a, 0xd9, 0x07, 0x6a, 0xe3, 0x28, 0x79, 0x47, 0x0b,
  0xb7, 0x33, 0xb4, 0xfa, 0x0d, 0x5a, 0xc5, 0xa2, 0xe6, 0x00, 0x5f, 0xc2,
  0xf4, 0x8a, 0xe7, 0x33, 0x02, 0x7f, 0xde, 0x26, 0xea, 0xdf, 0xa8, 0xcf,
  0xec, 0x0d, 0xe0, 0x63, 0xed, 0x9b, 0x01, 0x69, 0x94, 0x63, 0xbd, 0xf4,
  0x2b, 0x9d, 0x17, 0x65, 0x50, 0x72, 0x63, 0x01, 0x0e, 0xad, 0xe4, 0xd6,
  0x6b, 0x65, 0x7f, 0xdd, 0x51, 0xe1, 0x23, 0xcc, 0xbf, 0x81, 0x07, 0xc7,
  0x32, 0x4c, 0xec, 0x3e, 0x65, 0xd3, 0xff, 0xfd, 0xc5, 0x82, 0x2a, 0xa0,
  0x4b, 0xde, 0xff, 0xb6, 0x54, 0x63, 0x87, 0x9b, 0x60, 0x7f, 0x32, 0x6e,
  0x26, 0x37, 0xf3, 0x87, 0x47, 0x25, 0x52, 0x9b, 0x56, 0xc9, 0x59, 0x1a,
  0x33, 0xb4, 0x09, 0x66, 0xe8, 0xae, 0x2f, 0x13, 0xc9, 0x5b, 0x07, 0x16,
  0x66, 0x4a, 0x28, 0x16, 0xd8, 0x06, 0x81, 0x4b, 0x2c, 0xc5, 0x98, 0x3d,
  0x6a, 0xb6, 0x38, 0xf1, 0x2b, 0xc1, 0x56, 0x2d, 0x4b, 0x5f, 0x9c, 0xf0,
  0xc8, 0xcd, 0x62, 0xb0, 0x23, 0x37, 0xd9, 0xc3, 0x05, 0x40, 0x43, 0xb5,
  0x7f, 0x5d, 0xea, 0x3a, 0x38, 0xea, 0x4a, 0xd0, 0x5e, 0xa9, 0xf2, 0x81,
  0xc1, 0x53, 0x9c, 0x64, 0x56, 0xcf, 0x57, 0x58, 0xdc, 0xea, 0x89, 0x41,
  0xef, 0xe5, 0x31, 0xcf, 0x16, 0xfc, 0x81, 0x52, 0x5c, 0x9b, 0xb3, 0xda,
  0xf8, 0xfc, 0x58, 0xc1, 0x52, 0x61, 0xb9, 0xa3, 0xee, 0x65, 0x43, 0xbd,
  0xb0, 0x1f, 0x4a, 0x69, 0x1c, 0x24, 0xf2, 0xbc, 0xeb, 0x86, 0x48, 0xc9,
  0x4f, 0x43, 0xb9, 0x84, 0xa7, 0x0a, 0x1c, 0x65, 0x34, 0xb8, 0xa5, 0xf3,
  0x7f, 0xd0, 0xf2, 0xd6, 0x92, 0x4b, 0x65, 0x44, 0x0b, 0x9e, 0xfd, 0xa3,
  0x92, 0xb3, 0x0e, 0x37, 0x38, 0x11, 0x9d, 0x26, 0x47, 0x7f, 0x6f, 0x7c,
  0x37, 0x1d, 0x28, 0x62, 0xb0, 0x3f, 0x9c, 0x87, 0x39, 0x10, 0x16, 0x6a,
  0x94, 0xb0, 0xb7, 0xb7, 0x9a, 0x5c, 0xf0, 0xf8, 0xaf, 0x81, 0xb8, 0x31,
  0xe0, 0xe8, 0xa6, 0x76, 0xd1, 0xc7, 0x67, 0xe4, 0xc4, 0x20, 0xee, 0x50,
  0x0f, 0xb0, 0x4c, 0xf0, 0x5d, 0xee, 0x24, 0x35, 0xcd, 0xb6, 0x81, 0x30,
  0x01, 0x2b, 0xd3, 0x63, 0xfa, 0xf2, 0x63, 0xde, 0x3b, 0xb5, 0x78, 0xbf,
  0x42, 0x3a, 0xc2, 0x1c, 0x72, 0xcd, 0x57, 0x4d, 0x77, 0x15, 0x63, 0x1b,
  0x81, 0x72, 0x79, 0x4b, 0x8b, 0x6c, 0xe5, 0x63, 0x44, 0x32, 0x6b, 0xd4,
  0x35, 0x3d, 0xe3, 0xca, 0x6b, 0x8c, 0xa2, 0x61, 0x00, 0xbc, 0xbe, 0x78,
  0x88, 0x61, 0x81, 0x8e, 0x51, 0x4d, 0x12, 0xbf, 0xf7, 0xb5, 0xe6, 0x1d,
  0x0c, 0x81, 0x34, 0xad, 0xe7, 0x94, 0x2a, 0xcb, 0x72, 0xc3, 0x40, 0x8b,
  0xec, 0xe5, 0x31, 0x18, 0x8d, 0xb7, 0x97, 0xa3, 0x3a, 0x8f, 0xac, 0x53,
  0xfc, 0xcb, 0x38, 0x81, 0xa6, 0xd3, 0x7b, 0x4f, 0x5c, 0x5a, 0x75, 0x0c,
  0x99, 0x57, 0xbf, 0x9b, 0x45, 0x6e, 0x81, 0x03, 0xb5, 0xa8, 0x86, 0x68,
  0x90, 0xeb, 0x2b, 0xa6, 0xc4, 0x75, 0xa7, 0x71, 0x30, 0x94, 0x28, 0x8f,
  0x43, 0x6c, 0x1e, 0xcb, 0x1f, 0x13, 0x4d, 0xed, 0x07, 0x37, 0xf1, 0x8f,
  0xed, 0x9e, 0x11, 0x7f, 0x86, 0x12, 0x15, 0x0b, 0x23, 0xbc, 0xc5, 0x1e,
  0x75, 0xa6, 0x81, 0xd2, 0x20, 0x84, 0x0d, 0x31, 0x73, 0x9a, 0x0d, 0xc8,
  0x09, 0x53, 0x2b, 0xe8, 0x97, 0xf8, 0x69, 0x81, 0x09, 0xa4, 0x25, 0x6e,
  0xf4, 0xf2, 0x27, 0xe1, 0x08, 0x20, 0x1d, 0x2e, 0x02, 0x9c, 0x5d, 0xaa,
  0x7a, 0x2a, 0xf8, 0xbb, 0x5f, 0x19, 0x81, 0x3e, 0x22, 0x4e, 0x96, 0xd4,
  0x2c, 0xf2, 0xcc, 0xa4, 0x7b, 0x81, 0xdf, 0xe7, 0x88, 0x63, 0xca, 0x52,
  0x5a, 0xdb, 0xcb, 0xa6, 0xe4, 0xfb, 0x11, 0x48, 0xd1, 0xd2, 0x45, 0xee,
  0x21, 0xc2, 0x11, 0xc9, 0xec, 0x10, 0x5a, 0xc8, 0x4c, 0x7a, 0xaa, 0xa0,
  0xa9, 0x4e, 0xbf, 0x62, 0x9d, 0xe7, 0x42, 0xe5, 0xae, 0xc6, 0x0b, 0x95,
  0x63, 0x7f, 0xbf, 0x1f, 0xd9, 0x03, 0xa1, 0x7e, 0x8c, 0x3f, 0x1c, 0x25,
  0xd4, 0x5b, 0x09, 0x81, 0xbd, 0x6c, 0xad, 0xad, 0xa5, 0xcf, 0x2a, 0x88,
  0xe9, 0x17, 0x3b, 0xe8, 0xc3, 0xc3, 0xae, 0x98, 0x20, 0x57, 0x0a, 0xca,
  0x81, 0x4c, 0x09, 0xbd, 0x71, 0x0b, 0xda, 0x68, 0x21, 0x60, 0x1f, 0x43,
  0x8b, 0x36, 0xec, 0x37, 0xda, 0xf4, 0xff, 0xff, 0x04, 0x00, 0x00, 0x00,
  0x80, 0x00, 0x00, 0x00, 0x95, 0xa7, 0xfe, 0xff, 0xc5, 0xc8, 0xff, 0xff,
  0x00, 0xd3, 0xff, 0xff, 0xe9, 0x6a, 0x02, 0x00, 0xcc, 0xf9, 0x00, 0x00,
  0x06, 0x00, 0xfe, 0xff, 0xa8, 0x0b, 0xff, 0xff, 0x15, 0xb7, 0xff, 0xff,
  0x3e, 0x90, 0x00, 0x00, 0x26, 0x73, 0xfe, 0xff, 0xab, 0xce, 0x00, 0x00,
  0x23, 0x18, 0xfe, 0xff, 0x88, 0x49, 0xff, 0xff, 0x1f, 0xa8, 0xfe, 0xff,
  0x3c, 0x19, 0x00, 0x00, 0x8c, 0x6a, 0xff, 0xff, 0xcc, 0xea, 0x00, 0x00,
  0x05, 0xee, 0xfd, 0xff, 0xce, 0xb5, 0x02, 0x00, 0x1d, 0x01, 0x00, 0x00,
  0xf1, 0x05, 0xfd, 0xff, 0x19, 0x34, 0x00, 0x00, 0x61, 0xe9, 0x00, 0x00,
  0x94, 0x30, 0x01, 0x00, 0xa6, 0xc8, 0x00, 0x00, 0xe9, 0x02, 0x01, 0x00,
  0x61, 0x25, 0x00, 0x00, 0x02, 0xc1, 0xff, 0xff, 0xa7, 0xa3, 0x00, 0x00,
  0xcf, 0x56, 0x00, 0x00, 0x08, 0x5d, 0x01, 0x00, 0xaa, 0xc6, 0xff, 0xff,
  0x66, 0xf5, 0xff, 0xff, 0x04, 0x00, 0x00, 0x00, 0x20, 0x01, 0x00, 0x00,
  0x4a, 0x52, 0xfb, 0x4a, 0x53, 0x4a, 0x74, 0xab, 0x5c, 0xd8, 0x82, 0x81,
  0x61, 0xbd, 0x18, 0x0d, 0x8b, 0xa3, 0x24, 0x81, 0xb6, 0xd6, 0xea, 0x68,
  0x45, 0x09, 0xe1, 0xef, 0xe4, 0x3d, 0xc1, 0x6e, 0x7d, 0x32, 0x15, 0x11,
  0x3c, 0xe7, 0x42, 0x2a, 0xd1, 0x04, 0x2f, 0xc0, 0xe8, 0xb3, 0xa2, 0x03,
  0x7f, 0x04, 0x81, 0x40, 0x81, 0x1a, 0x81, 0x2d, 0x81, 0x7f, 0x81, 0xdc,
  0x97, 0x7f, 0x03, 0x3a, 0x7f, 0x7f, 0x57, 0xc3, 0x33, 0x5d, 0x7f, 0xaf,
  0xe8, 0xf5, 0x81, 0x00, 0x7e, 0xf0, 0xca, 0x5c, 0xdf, 0x39, 0xb8, 0x3b,
  0xb7, 0xd7, 0x1c, 0x49, 0xa0, 0xa4, 0xed, 0xc8, 0xda, 0x78, 0x14, 0x7f,
  0xbc, 0x93, 0x7f, 0xd0, 0xc7, 0x68, 0xc2, 0x7f, 0x75, 0x7f, 0x02, 0x19,
  0xc3, 0x7f, 0xc1, 0xe8, 0xbb, 0x5d, 0x8b, 0xa9, 0x98, 0x25, 0x1c, 0xc8,
  0xb6, 0x89, 0x2b, 0xd7, 0xb1, 0x02, 0x6d, 0x12, 0x5e, 0x23, 0x85, 0xe9,
  0x45, 0x4f, 0x0d, 0xdf, 0x0a, 0xd4, 0xc8, 0x7d, 0x57, 0x73, 0x81, 0xd6,
  0x4d, 0xc5, 0xe9, 0x0d, 0x3d, 0x12, 0x7a, 0xe8, 0x1c, 0xc7, 0xcc, 0x81,
  0x21, 0xf7, 0xd5, 0xd7, 0x9a, 0xd2, 0xd0, 0x2c, 0xb1, 0xb0, 0x63, 0x7b,
  0x7f, 0xf9, 0x88, 0x25, 0xa9, 0x52, 0x13, 0x47, 0xc7, 0xdf, 0x1a, 0x1e,
  0x12, 0x7f, 0x4a, 0x5d, 0x10, 0xc5, 0x5d, 0xdf, 0xb3, 0xd8, 0x81, 0xac,
  0x9b, 0x5f, 0xef, 0xd8, 0xd5, 0x06, 0xd0, 0x5d, 0x70, 0xb5, 0xd4, 0x7d,
  0x24, 0xd5, 0x04, 0x03, 0xcf, 0x81, 0x88, 0xc6, 0x8c, 0x4e, 0xbb, 0x81,
  0x8b, 0xf0, 0x1b, 0x64, 0x7f, 0x36, 0x9c, 0xd9, 0xee, 0x08, 0x59, 0x7f,
  0x81, 0x70, 0xd1, 0xc9, 0x25, 0x45, 0x68, 0x46, 0x81, 0x8e, 0x95, 0x7f,
  0x19, 0x91, 0x3f, 0xee, 0xf4, 0x69, 0x98, 0x5b, 0x9e, 0x48, 0x37, 0xe3,
  0x65, 0x73, 0xe2, 0x01, 0x5a, 0x1b, 0xc5, 0x25, 0xeb, 0x7f, 0x8c, 0x02,
  0x44, 0xbf, 0x0e, 0x84, 0x62, 0x2e, 0xd2, 0x56, 0xa8, 0xdd, 0xac, 0xa3,
  0x33, 0xd2, 0xd6, 0x2a, 0x9a, 0x87, 0x30, 0x3c, 0xf4, 0x67, 0x5e, 0xf0,
  0x92, 0xf6, 0xff, 0xff, 0x04, 0x00, 0x00, 0x00, 0x80, 0x00, 0x00, 0x00,
  0x65, 0x87, 0xff, 0xff, 0x9d, 0x48, 0xff, 0xff, 0x43, 0xb4, 0xff, 0xff,
  0x89, 0xf1, 0xff, 0xff, 0x4c, 0x22, 0x00, 0x00, 0x5e, 0x13, 0xff, 0xff,
  0x2e, 0xa1, 0xff, 0xff, 0xba, 0x9f, 0xff, 0xff, 0x4b, 0x06, 0xff, 0xff,
  0x6d, 0x07, 0x00, 0x00, 0xe6, 0x7b, 0x00, 0x00, 0x85, 0xb8, 0xff, 0xff,
  0xd2, 0xf8, 0xff, 0xff, 0x6c, 0x0d, 0x00, 0x00, 0xe5, 0xdc, 0x00, 0x00,
  0xd0, 0x20, 0xff, 0xff, 0x17, 0x53, 0x00, 0x00, 0xd2, 0x68, 0x00, 0x00,
  0xa7, 0xd5, 0x00, 0x00, 0x58, 0x5a, 0x00, 0x00, 0xdf, 0xbf, 0x00, 0x00,
  0x57, 0x89, 0xff, 0xff, 0xf4, 0x25, 0x00, 0x00, 0x43, 0x78, 0xff, 0xff,
  0xd8, 0xe8, 0x00, 0x00, 0x3e, 0xa7, 0x00, 0x00, 0x17, 0xcc, 0xff, 0xff,
  0x8e, 0x63, 0x00, 0x00, 0x6a, 0x25, 0x00, 0x00, 0x7e, 0x2e, 0xff, 0xff,
  0x9d, 0x52, 0x00, 0x00, 0x5f, 0xbe, 0xff, 0xff, 0x1e, 0xf7, 0xff, 0xff,
  0x04, 0x00, 0x00, 0x00, 0x00, 0x06, 0x00, 0x00, 0xb8, 0xf5, 0xaa, 0x4a,
  0x58, 0xd4, 0xc7, 0xae, 0xce, 0x2d, 0x2a, 0x81, 0xe2, 0xaf, 0x28, 0xc2,
  0x3e, 0x27, 0x78, 0x41, 0xbd, 0x22, 0x13, 0xf1, 0x58, 0xc5, 0xc5, 0x89,
  0x8b, 0xf9, 0x59, 0xdc, 0x8b, 0x81, 0xa4, 0xc8, 0xb2, 0x5f, 0x65, 0x36,
  0x99, 0xec, 0x92, 0x5d, 0xf3, 0x2d, 0x14, 0x58, 0xc4, 0x7f, 0x9f, 0xf1,
  0x5b, 0x05, 0xff, 0xf3, 0x3f, 0x5f, 0x78, 0xe7, 0x35, 0xc8, 0xff, 0xb4,
  0x4d, 0xa3, 0xe7, 0x9e, 0x27, 0x8a, 0x9c, 0x90, 0xad, 0x10, 0xc5, 0x7f,
  0x75, 0x53, 0xac, 0x9e, 0x84, 0x24, 0xae, 0xca, 0xd5, 0x94, 0xc2, 0x89,
  0xd2, 0xc6, 0x03, 0x0f, 0xa3, 0x3d, 0x51, 0xaa, 0xe2, 0xf6, 0xb3, 0x21,
  0x3f, 0xe3, 0x55, 0x22, 0x8d, 0x72, 0xaa, 0x3a, 0x93, 0xc0, 0xbd, 0x96,
  0x3c, 0xf8, 0xae, 0x13, 0x95, 0xcc, 0x96, 0x56, 0xd5, 0x63, 0x37, 0x81,
  0x6e, 0xc6, 0x14, 0xd9, 0xa2, 0xea, 0xa6, 0xa3, 0x07, 0x96, 0xd3, 0x63,
  0x33, 0x93, 0x5b, 0x2e, 0xe9, 0xd1, 0x68, 0x36, 0x7f, 0x55, 0xaf, 0xb4,
  0xb0, 0x4f, 0xc9, 0xea, 0xe1, 0xbf, 0x40, 0x0f, 0x4f, 0x8b, 0x27, 0x12,
  0xb7, 0x3e, 0xf1, 0x7f, 0xd6, 0x67, 0xb2, 0x86, 0xbe, 0xdf, 0xeb, 0xbb,
  0xea, 0xb2, 0xa8, 0xd8, 0xa2, 0x42, 0x74, 0xca, 0x0b, 0x79, 0x73, 0xdb,
  0xd6, 0x1e, 0x5e, 0x67, 0x0d, 0x9f, 0x70, 0xc4, 0xa6, 0x7f, 0x64, 0xe2,
  0xfc, 0x9d, 0xd4, 0x03, 0xb7, 0xb9, 0x0a, 0xce, 0xe5, 0x61, 0x96, 0x64,
  0x60, 0xbe, 0x68, 0x39, 0x68, 0x7b, 0xdf, 0x69, 0xeb, 0xf7, 0xd0, 0x40,
  0xa6, 0x1b, 0xaa, 0xb2, 0x1a, 0x5f, 0x54, 0xc9, 0x9d, 0xd8, 0x42, 0x46,
  0x25, 0x53, 0x99, 0x17, 0x57, 0xa4, 0x9a, 0xc4, 0x81, 0x2d, 0xba, 0x52,
  0xd2, 0xda, 0x8d, 0xe6, 0xd3, 0xd3, 0xcd, 0x30, 0x14, 0x14, 0x26, 0x96,
  0xd5, 0x2a, 0x47, 0x66, 0x96, 0xf2, 0xc1, 0x5f, 0x94, 0x50, 0xbf, 0x06,
  0xac, 0x21, 0x51, 0xac, 0xf2, 0xdf, 0x1f, 0x32, 0xfb, 0x26, 0x33, 0xd4,
  0xaf, 0xfd, 0xad, 0x4e, 0xa9, 0x81, 0x9d, 0xdc, 0x00, 0x2f, 0x17, 0xf2,
  0x38, 0xca, 0xe4, 0x7f, 0x8a, 0xef, 0xc6, 0xff, 0xbb, 0x72, 0x18, 0x03,
  0xcd, 0xb2, 0x42, 0xc8, 0x9b, 0x38, 0x1c, 0x08, 0xc0, 0x05, 0x51, 0x15,
  0xa4, 0x34, 0x2e, 0xb6, 0x77, 0xd4, 0x24, 0x67, 0x22, 0xe7, 0xb2, 0x67,
  0x29, 0xc8, 0x2c, 0x9a, 0xcc, 0xe2, 0x34, 0x5c, 0x81, 0xbe, 0x79, 0x19,
  0x35, 0x7b, 0xf5, 0xcb, 0x1b, 0x09, 0xed, 0x97, 0x3f, 0xa1, 0x5a, 0xc8,
  0xf9, 0x64, 0x68, 0xfc, 0x52, 0x97, 0xe7, 0x8e, 0x9d, 0x17, 0x96, 0x7f,
  0x8b, 0xaf, 0x19, 0x5a, 0x21, 0xee, 0x27, 0x85, 0x5e, 0x31, 0x3e, 0x22,
  0x56, 0x96, 0x4c, 0xde, 0x90, 0xd1, 0xfa, 0x62, 0xd3, 0xc4, 0x4d, 0x11,
  0xce, 0x91, 0xf6, 0x42, 0xe0, 0x58, 0xe6, 0x42, 0x41, 0x53, 0x0e, 0xbc,
  0x5c, 0xc3, 0x57, 0x18, 0xce, 0x7f, 0xfe, 0x02, 0xc0, 0x63, 0x93, 0xfa,
  0xec, 0x11, 0xcc, 0x0a, 0x65, 0x8f, 0x03, 0xc2, 0xe5, 0x87, 0x6c, 0xe3,
  0x5e, 0x66, 0xd2, 0x56, 0x10, 0x31, 0x3b, 0xe1, 0xdb, 0x1e, 0xa0, 0xc1,
  0x98, 0x58, 0x52, 0x81, 0xdc, 0x42, 0xe8, 0x59, 0x66, 0x31, 0x6f, 0xfb,
  0xdc, 0xc1, 0x38, 0x5e, 0x6e, 0x29, 0x81, 0x6e, 0xc4, 0x1c, 0x16, 0xf7,
  0xd3, 0xea, 0x40, 0x90, 0xc6, 0x90, 0xab, 0xc7, 0x90, 0x8c, 0x8a, 0xa2,
  0xef, 0xf2, 0x3d, 0xb1, 0x51, 0xcf, 0xea, 0xc6, 0x83, 0x19, 0x2f, 0xa6,
  0x67, 0xe5, 0x56, 0x62, 0x3d, 0xcd, 0xe5, 0x81, 0xf6, 0xe9, 0x4e, 0x70,
  0x53, 0x74, 0x2d, 0xe3, 0x7c, 0xdb, 0xa3, 0x5e, 0xf5, 0xde, 0x53, 0x5b,
  0xe5, 0xff, 0xa0, 0xf3, 0x33, 0xd1, 0x47, 0xf7, 0xa2, 0x8a, 0x73, 0xc6,
  0xf9, 0x13, 0x00, 0xb3, 0x67, 0x19, 0x6d, 0x6f, 0x04, 0x19, 0x11, 0xe8,
  0xc4, 0x9d, 0x9b, 0xbe, 0x39, 0x17, 0x97, 0xc4, 0xe7, 0x31, 0x7f, 0x53,
  0x11, 0xaf, 0xe8, 0xcd, 0x04, 0xe1, 0xe5, 0xa8, 0x27, 0x59, 0x3d, 0x14,
  0xb1, 0xff, 0x7f, 0xc7, 0xf2, 0x1b, 0xb9, 0x1d, 0xf6, 0xba, 0x57, 0xbc,
  0xb7, 0x17, 0xe8, 0xfc, 0x96, 0xce, 0x50, 0x19, 0xe6, 0x6e, 0x10, 0x36,
  0x6f, 0x01, 0x15, 0x81, 0x9c, 0xc2, 0x11, 0x61, 0xfc, 0xe0, 0x24, 0xad,
  0x5a, 0x24, 0x48, 0xf9, 0xc5, 0x0e, 0xf2, 0x1f, 0xdd, 0x1e, 0x07, 0x92,
  0xbd, 0xf1, 0xe4, 0xa4, 0xda, 0x2c, 0x15, 0x19, 0x7f, 0x1a, 0xd7, 0xb1,
  0xec, 0x04, 0x39, 0xae, 0x4c, 0xce, 0xc4, 0x31, 0xdf, 0xa1, 0xb0, 0xcc,
  0x2f, 0xc5, 0x43, 0x07, 0xd6, 0xcd, 0xaa, 0x0d, 0xb6, 0xa7, 0xd3, 0x45,
  0xb0, 0xf3, 0x7c, 0x54, 0x4e, 0x6e, 0x06, 0xbc, 0xe3, 0x7f, 0x8e, 0xed,
  0x25, 0x90, 0xff, 0x9f, 0x33, 0x27, 0xea, 0x70, 0xcc, 0xe0, 0xb1, 0x95,
  0xca, 0xa4, 0x4e, 0x39, 0xe1, 0xff, 0x1e, 0x44, 0x64, 0x7f, 0xfa, 0x09,
  0xc6, 0xb8, 0x83, 0x01, 0x0d, 0xb7, 0xbd, 0x30, 0xce, 0xb1, 0xd6, 0x15,
  0x6f, 0x05, 0x51, 0x98, 0x39, 0xf9, 0x69, 0x47, 0xdf, 0x07, 0xc4, 0x70,
  0x73, 0xc4, 0xee, 0x7c, 0x4d, 0x13, 0x6c, 0xba, 0xdd, 0xbf, 0x12, 0x09,
  0x1c, 0x50, 0x9e, 0x65, 0x4e, 0xd2, 0x4d, 0xe8, 0xef, 0xfc, 0x13, 0x96,
  0x7f, 0xc4, 0x12, 0xac, 0xc4, 0xc0, 0xc3, 0x52, 0xf0, 0x96, 0xfc, 0x99,
  0x2b, 0x63, 0x89, 0xa6, 0x04, 0x98, 0x1e, 0x9b, 0xd0, 0x98, 0xec, 0x66,
  0xd6, 0xcb, 0x6c, 0x13, 0xf3, 0x7f, 0xe3, 0x48, 0x4c, 0xf5, 0x56, 0xd7,
  0x34, 0x9e, 0xd9, 0x8c, 0x54, 0x77, 0x8d, 0xc0, 0xd6, 0xa1, 0x9f, 0x61,
  0xd5, 0x87, 0xaf, 0xbd, 0x0c, 0x33, 0xf9, 0x6e, 0xb0, 0x1a, 0xff, 0xee,
  0x6d, 0x50, 0x1f, 0xc7, 0xca, 0xfa, 0x9b, 0xa5, 0x39, 0x0f, 0x6e, 0x92,
  0x19, 0x1d, 0x81, 0xd0, 0x81, 0x1d, 0x46, 0x04, 0x9b, 0x0e, 0xd1, 0xc6,
  0x4d, 0xdc, 0x91, 0xd5, 0xce, 0x44, 0x1e, 0x52, 0x7c, 0x94, 0x9c, 0x4b,
  0x36, 0x8d, 0x27, 0xc5, 0x34, 0xb7, 0x4f, 0x9e, 0x08, 0x6b, 0x34, 0x42,
  0xe9, 0xdd, 0xd1, 0x8b, 0x2c, 0xe7, 0x09, 0xc0, 0x04, 0xed, 0x93, 0x91,
  0x2c, 0x1e, 0x02, 0x9d, 0x4d, 0xf8, 0x8e, 0xc9, 0x1a, 0x24, 0x8e, 0xcc,
  0xd5, 0x7f, 0x22, 0x29, 0xdc, 0xbc, 0xae, 0x22, 0x40, 0x17, 0x46, 0xc6,
  0xa6, 0xe9, 0x24, 0xbf, 0x23, 0xb7, 0xc5, 0x09, 0xad, 0x96, 0xf1, 0x32,
  0x47, 0xf7, 0xcf, 0xbc, 0xea, 0x81, 0x6b, 0x22, 0x38, 0x1f, 0x5b, 0xa8,
  0x2e, 0x11, 0xd3, 0xe3, 0xc4, 0x4b, 0xc0, 0x52, 0x5b, 0x29, 0xa8, 0x0d,
  0x4f, 0xe3, 0x2e, 0x07, 0xa6, 0xbb, 0x46, 0x18, 0x08, 0xf5, 0x81, 0xe5,
  0x73, 0x54, 0xec, 0x2d, 0x4c, 0x5f, 0x07, 0x53, 0xd0, 0x52, 0xdd, 0xa2,
  0x1e, 0x61, 0x0f, 0x58, 0x48, 0xf0, 0xef, 0x3b, 0x0c, 0x9c, 0x9c, 0xc0,
  0xb1, 0xbd, 0x3d, 0x45, 0x4f, 0x5e, 0x81, 0x61, 0x39, 0x49, 0x08, 0xb7,
  0x72, 0xe4, 0x28, 0xf6, 0xee, 0xe6, 0x93, 0xed, 0x98, 0xc3, 0x4f, 0x75,
  0xa5, 0xd2, 0xb0, 0x46, 0xac, 0x1e, 0x0f, 0x85, 0x09, 0x6b, 0x5f, 0xdd,
  0xa1, 0xd2, 0x99, 0x8d, 0x06, 0x34, 0xe7, 0xc8, 0xab, 0xb8, 0x7f, 0x7b,
  0xbc, 0xa2, 0xe3, 0x69, 0xaa, 0xd4, 0x6c, 0x14, 0xf2, 0x39, 0x29, 0x33,
  0xf1, 0xc6, 0xe9, 0xe2, 0xe0, 0xd8, 0x57, 0x68, 0x64, 0x33, 0xfc, 0xba,
  0x63, 0x6c, 0x3b, 0xc7, 0x7f, 0x6d, 0x4f, 0xf1, 0x65, 0x9a, 0xb3, 0xb1,
  0xbd, 0x13, 0x08, 0x9f, 0x37, 0xd5, 0xb5, 0x02, 0xa5, 0xa5, 0xc3, 0x8a,
  0x46, 0x7f, 0xa4, 0x34, 0xfd, 0x6d, 0xc2, 0xcf, 0xd5, 0x07, 0xc1, 0x2d,
  0xfe, 0x20, 0xcc, 0xf0, 0xc7, 0x5f, 0xfc, 0x42, 0x28, 0xf0, 0x64, 0x21,
  0x6c, 0xfb, 0xad, 0xd2, 0x3d, 0x7f, 0x9b, 0xae, 0xef, 0x2e, 0xf0, 0x2c,
  0x3e, 0x24, 0xc4, 0xa1, 0xe5, 0x9d, 0xea, 0xba, 0xcf, 0x96, 0xb3, 0xd1,
  0xd7, 0x0b, 0x4f, 0x52, 0xd6, 0x07, 0xde, 0x51, 0x10, 0xfd, 0x8f, 0xc5,
  0x63, 0x52, 0x3f, 0xd7, 0xb3, 0x51, 0x7f, 0xe5, 0x0f, 0x30, 0x01, 0x71,
  0x4a, 0x3f, 0xba, 0xef, 0x34, 0x24, 0x6a, 0x4d, 0x5a, 0x4f, 0x1b, 0xa9,
  0xca, 0x0d, 0x24, 0x71, 0xcb, 0xef, 0x79, 0xf7, 0x40, 0x1e, 0x07, 0x3f,
  0x12, 0xe7, 0x92, 0xc2, 0x19, 0xef, 0x86, 0x61, 0xa0, 0x81, 0xeb, 0xe2,
  0x03, 0x3a, 0xa7, 0x6e, 0x9d, 0xed, 0xec, 0x94, 0xa6, 0x48, 0x0d, 0x69,
  0x1c, 0x8f, 0x49, 0xf0, 0xb5, 0x93, 0xc9, 0x44, 0x61, 0x1d, 0xda, 0x14,
  0xe9, 0x2d, 0xc3, 0xde, 0x4f, 0x51, 0x12, 0x5a, 0x98, 0x63, 0x9a, 0x98,
  0x47, 0xbe, 0xe1, 0x7f, 0x9e, 0x75, 0x8a, 0x93, 0xfb, 0x9e, 0x02, 0xe9,
  0x7f, 0xc3, 0xb2, 0x53, 0x0a, 0x8f, 0xd4, 0x1b, 0xac, 0xd6, 0xe0, 0xf3,
  0x48, 0x3d, 0x49, 0xdf, 0x69, 0xba, 0x70, 0x29, 0xea, 0x0b, 0x87, 0xb9,
  0x90, 0xd3, 0x28, 0xed, 0x5a, 0xd7, 0x06, 0x1e, 0x6d, 0x73, 0x11, 0xdb,
  0xb3, 0x01, 0x82, 0x6e, 0x3f, 0x90, 0xbd, 0x50, 0x8a, 0x15, 0xe5, 0xf8,
  0xd9, 0x81, 0x14, 0x3b, 0x40, 0xcf, 0x4a, 0x03, 0x4d, 0x36, 0x22, 0x3b,
  0x64, 0x0e, 0x1c, 0x29, 0xa6, 0x3a, 0x46, 0xc6, 0x71, 0x25, 0x49, 0xcb,
  0x25, 0xee, 0xc3, 0x33, 0x81, 0xca, 0x1f, 0x0c, 0xfe, 0x32, 0xcb, 0x16,
  0xd7, 0x2c, 0x45, 0x70, 0x17, 0xf6, 0x4a, 0xf4, 0xad, 0xae, 0xf4, 0xbb,
  0x64, 0xa1, 0x93, 0x9e, 0x4e, 0x11, 0xe5, 0x1c, 0x69, 0x81, 0xa2, 0x00,
  0x08, 0xf4, 0xbc, 0x21, 0x9c, 0x26, 0x8f, 0x31, 0x2c, 0x2a, 0xe3, 0x21,
  0x94, 0xca, 0x7d, 0x85, 0xef, 0x26, 0x88, 0x62, 0x7c, 0x8b, 0x24, 0x06,
  0x2f, 0x85, 0xbb, 0x46, 0x81, 0x28, 0x5b, 0x83, 0x1d, 0x00, 0xa5, 0x61,
  0x47, 0xf2, 0x6d, 0xa3, 0x87, 0xae, 0xc6, 0xed, 0x48, 0x5a, 0x48, 0x29,
  0x32, 0x98, 0x2d, 0xe1, 0xc1, 0x4a, 0xad, 0x40, 0x0e, 0x86, 0xe9, 0x36,
  0xe9, 0xa4, 0x47, 0x81, 0xc2, 0x17, 0x27, 0x7d, 0x07, 0x1c, 0x68, 0x23,
  0xba, 0x9c, 0xf4, 0x44, 0xf9, 0x5e, 0xf3, 0x34, 0x6c, 0x53, 0x56, 0x69,
  0x5e, 0x35, 0x23, 0x0f, 0x52, 0x51, 0x7f, 0x6e, 0x99, 0x33, 0xcd, 0xd4,
  0xd8, 0xb9, 0xe9, 0xf9, 0x55, 0x1c, 0xd1, 0x23, 0x95, 0x42, 0xe7, 0x41,
  0xad, 0xa8, 0x26, 0x38, 0x1e, 0xa2, 0x33, 0x9c, 0x15, 0x48, 0xd6, 0xe1,
  0xf0, 0xd2, 0xe1, 0x59, 0x3b, 0x61, 0xe8, 0xe6, 0x70, 0x91, 0xed, 0x79,
  0x03, 0xfd, 0x62, 0x6d, 0xa1, 0x81, 0x48, 0x48, 0x52, 0x91, 0x12, 0xd4,
  0x6e, 0x96, 0x16, 0x3e, 0xf7, 0x72, 0xf2, 0xd7, 0xe8, 0x6c, 0x8f, 0x24,
  0x45, 0xb4, 0xb5, 0x1f, 0xaa, 0xd4, 0x29, 0xd0, 0x8a, 0x41, 0x3c, 0x5a,
  0x89, 0x81, 0x66, 0x5e, 0x15, 0xb6, 0xa0, 0x81, 0x22, 0x8f, 0x1b, 0xcb,
  0xec, 0xe6, 0xaa, 0x39, 0x67, 0xc9, 0xd4, 0x47, 0xd2, 0xcf, 0x87, 0xd1,
  0x10, 0x64, 0x7b, 0x5a, 0xa4, 0x1e, 0x6d, 0xfb, 0x03, 0xa8, 0x56, 0xb5,
  0x86, 0xb8, 0x0c, 0xd9, 0x55, 0x40, 0x47, 0xc5, 0x98, 0x2f, 0xdc, 0x2c,
  0xfa, 0x22, 0xfa, 0x03, 0x4a, 0x32, 0x8a, 0x7f, 0x5f, 0xba, 0xc5, 0x48,
  0x34, 0xbf, 0x00, 0xdb, 0x7e, 0x06, 0x29, 0xf8, 0x2a, 0xfd, 0xff, 0xff,
  0x04, 0x00, 0x00, 0x00, 0xc0, 0x00, 0x00, 0x00, 0x47, 0xe1, 0x01, 0x00,
  0xef, 0x15, 0x00, 0x00, 0x33, 0xb0, 0x05, 0x00, 0xe5, 0xdd, 0x02, 0x00,
  0xcf, 0xb3, 0x00, 0x00, 0x07, 0x43, 0x00, 0x00, 0x77, 0x40, 0xff, 0xff,
  0x74, 0xaa, 0x02, 0x00, 0xf5, 0x68, 0x02, 0x00, 0x08, 0x8b, 0x00, 0x00,
  0x61, 0x99, 0xfe, 0xff, 0x7a, 0x0d, 0x00, 0x00, 0x52, 0x26, 0xff, 0xff,
  0x7d, 0x6d, 0xfe, 0xff, 0x50, 0x0f, 0x04, 0x00, 0x07, 0x87, 0xfd, 0xff,
  0xcd, 0x7f, 0xff, 0xff, 0xf9, 0x5b, 0x01, 0x00, 0x10, 0x6e, 0x00, 0x00,
  0x71, 0x38, 0x02, 0x00, 0x21, 0x6f, 0x00, 0x00, 0x16, 0x53, 0xfe, 0xff,
  0xe8, 0x0f, 0x01, 0x00, 0x68, 0x86, 0x00, 0x00, 0x2c, 0x43, 0x02, 0x00,
  0x5c, 0x1c, 0x00, 0x00, 0x65, 0x87, 0x03, 0x00, 0x21, 0x58, 0x01, 0x00,
  0xea, 0xa1, 0xfd, 0xff, 0x91, 0x84, 0xfe, 0xff, 0xe9, 0xcc, 0x02, 0x00,
  0x69, 0xb5, 0xfc, 0xff, 0xa0, 0xc6, 0x01, 0x00, 0x0e, 0x0d, 0x01, 0x00,
  0x15, 0x92, 0xfb, 0xff, 0x50, 0xc5, 0x01, 0x00, 0x76, 0x56, 0xff, 0xff,
  0xf3, 0x0c, 0x02, 0x00, 0x28, 0x9e, 0x00, 0x00, 0x93, 0xe5, 0xfc, 0xff,
  0xa9, 0x71, 0x02, 0x00, 0xcc, 0x68, 0x02, 0x00, 0xee, 0x0d, 0xff, 0xff,
  0x08, 0x1b, 0xfb, 0xff, 0x38, 0xe9, 0xfe, 0xff, 0x67, 0x5d, 0x00, 0x00,
  0xa1, 0xbe, 0x01, 0x00, 0x85, 0x0c, 0xff, 0xff, 0xf6, 0xfd, 0xff, 0xff,
  0x04, 0x00, 0x00, 0x00, 0x20, 0x01, 0x00, 0x00, 0xdf, 0x08, 0x01, 0x14,
  0xd8, 0x36, 0xbd, 0x26, 0x7f, 0xa7, 0x7e, 0xb8, 0xb7, 0x56, 0x05, 0xdb,
  0xfb, 0x95, 0x16, 0x65, 0x67, 0x77, 0xd2, 0x75, 0xca, 0xb8, 0x12, 0xc0,
  0x72, 0x68, 0x36, 0x51, 0x39, 0xcb, 0xfc, 0x06, 0xf6, 0x32, 0xae, 0x05,
  0xd6, 0x66, 0xa4, 0xbd, 0xc0, 0x21, 0x19, 0xf9, 0xba, 0x0f, 0x65, 0xdb,
  0xf3, 0xf7, 0xbd, 0x0f, 0xf9, 0x5d, 0xeb, 0xb6, 0xd6, 0xea, 0x90, 0x81,
  0xe2, 0xe5, 0x1a, 0x5a, 0xd4, 0xd0, 0x13, 0x56, 0x60, 0x64, 0x4e, 0xe9,
  0x36, 0x14, 0x5a, 0xf6, 0x1f, 0x58, 0xb0, 0x69, 0x5d, 0xdc, 0x30, 0x13,
  0xd4, 0xd1, 0x0e, 0x0f, 0xfd, 0xf4, 0x6b, 0x3d, 0x4a, 0xac, 0x27, 0x11,
  0xd6, 0x0f, 0x3f, 0xa8, 0x75, 0xfe, 0x50, 0x67, 0x0d, 0x68, 0x99, 0x87,
  0x44, 0x42, 0x76, 0x26, 0x3d, 0x46, 0x99, 0xd9, 0xb9, 0x83, 0xf8, 0xc1,
  0xbf, 0x3f, 0xaf, 0x73, 0x4c, 0x97, 0x2f, 0xe8, 0x1a, 0x0e, 0x21, 0x2e,
  0xad, 0x14, 0x3f, 0x48, 0xfe, 0x81, 0x20, 0x65, 0x9f, 0x2f, 0x6a, 0x03,
  0x72, 0xa6, 0x20, 0xb9, 0x78, 0x09, 0x32, 0xbe, 0x8d, 0x65, 0x60, 0xc4,
  0xc7, 0x68, 0x08, 0xce, 0x81, 0x6f, 0x22, 0x76, 0x4c, 0x6e, 0x60, 0x05,
  0xfd, 0x4b, 0xa5, 0xa5, 0x87, 0x46, 0x1f, 0xc4, 0xaf, 0x42, 0x90, 0x43,
  0x02, 0x78, 0xe4, 0x13, 0x19, 0x99, 0x2a, 0xbf, 0x67, 0x0d, 0xb1, 0xbb,
  0x76, 0xc0, 0xa3, 0xde, 0xaa, 0x36, 0x6d, 0x21, 0xf9, 0x6d, 0xc6, 0x6c,
  0xaa, 0x14, 0x2d, 0x3c, 0x05, 0x7f, 0x8b, 0xb8, 0xe4, 0x2b, 0xf1, 0x38,
  0x66, 0x8d, 0x4e, 0x3f, 0xac, 0x9e, 0x52, 0xa2, 0x70, 0x12, 0x9c, 0xcf,
  0x8e, 0x75, 0xcf, 0x20, 0x09, 0x28, 0x72, 0x6e, 0x46, 0x11, 0x34, 0xcf,
  0xf1, 0x41, 0xc9, 0x3e, 0x49, 0xf5, 0x1e, 0x1e, 0xe0, 0x42, 0x00, 0x71,
  0x92, 0xd2, 0xb6, 0x94, 0x6d, 0xe2, 0x34, 0x31, 0xf9, 0x99, 0xc0, 0x18,
  0xec, 0x60, 0xd7, 0xba, 0x19, 0xc3, 0x57, 0xc7, 0x02, 0x6c, 0x1b, 0x79,
  0x5f, 0x0c, 0x8f, 0x69, 0x91, 0xe1, 0xdd, 0x7f, 0x22, 0xff, 0xff, 0xff,
  0x04, 0x00, 0x00, 0x00, 0x18, 0x00, 0x00, 0x00, 0xf9, 0x12, 0x00, 0x00,
  0x4e, 0xf1, 0xff, 0xff, 0xa6, 0xef, 0xff, 0xff, 0xb3, 0xf4, 0xff, 0xff,
  0x5a, 0x03, 0x00, 0x00, 0xbf, 0x13, 0x00, 0x00, 0x46, 0xff, 0xff, 0xff,
  0x04, 0x00, 0x00, 0x00, 0x08, 0x00, 0x00, 0x00, 0x01, 0x00, 0x00, 0x00,
  0x02, 0x00, 0x00, 0x00, 0xb4, 0xd2, 0xff, 0xff, 0xb8, 0xd2, 0xff, 0xff,
  0x0f, 0x00, 0x00, 0x00, 0x4d, 0x4c, 0x49, 0x52, 0x20, 0x43, 0x6f, 0x6e,
  0x76, 0x65, 0x72, 0x74, 0x65, 0x64, 0x2e, 0x00, 0x01, 0x00, 0x00, 0x00,
  0x14, 0x00, 0x00, 0x00, 0x00, 0x00, 0x0e, 0x00, 0x18, 0x00, 0x14, 0x00,
  0x10, 0x00, 0x0c, 0x00, 0x08, 0x00, 0x04, 0x00, 0x0e, 0x00, 0x00, 0x00,
  0x14, 0x00, 0x00, 0x00, 0x1c, 0x00, 0x00, 0x00, 0x70, 0x03, 0x00, 0x00,
  0x74, 0x03, 0x00, 0x00, 0x78, 0x03, 0x00, 0x00, 0x04, 0x00, 0x00, 0x00,
  0x6d, 0x61, 0x69, 0x6e, 0x00, 0x00, 0x00, 0x00, 0x0c, 0x00, 0x00, 0x00,
  0x0c, 0x03, 0x00, 0x00, 0xa4, 0x02, 0x00, 0x00, 0x54, 0x02, 0x00, 0x00,
  0x0c, 0x02, 0x00, 0x00, 0xbc, 0x01, 0x00, 0x00, 0x74, 0x01, 0x00, 0x00,
  0x34, 0x01, 0x00, 0x00, 0xec, 0x00, 0x00, 0x00, 0xac, 0x00, 0x00, 0x00,
  0x78, 0x00, 0x00, 0x00, 0x40, 0x00, 0x00, 0x00, 0x04, 0x00, 0x00, 0x00,
  0x96, 0xfd, 0xff, 0xff, 0x1c, 0x00, 0x00, 0x00, 0x00, 0x00, 0x00, 0x09,
  0x1c, 0x00, 0x00, 0x00, 0x20, 0x00, 0x00, 0x00, 0x04, 0x00, 0x00, 0x00,
  0x00, 0x00, 0x06, 0x00, 0x08, 0x00, 0x04, 0x00, 0x06, 0x00, 0x00, 0x00,
  0x00, 0x00, 0x80, 0x3f, 0x01, 0x00, 0x00, 0x00, 0x21, 0x00, 0x00, 0x00,
  0x01, 0x00, 0x00, 0x00, 0x20, 0x00, 0x00, 0x00, 0x5e, 0xfe, 0xff, 0xff,
  0x14, 0x00, 0x00, 0x00, 0x00, 0x00, 0x00, 0x08, 0x10, 0x00, 0x00, 0x00,
  0x14, 0x00, 0x00, 0x00, 0x03, 0x00, 0x00, 0x00, 0x90, 0xd3, 0xff, 0xff,
  0x01, 0x00, 0x00, 0x00, 0x20, 0x00, 0x00, 0x00, 0x03, 0x00, 0x00, 0x00,
  0x1f, 0x00, 0x00, 0x00, 0x03, 0x00, 0x00, 0x00, 0x02, 0x00, 0x00, 0x00,
  0x92, 0xfe, 0xff, 0xff, 0x14, 0x00, 0x00, 0x00, 0x00, 0x00, 0x00, 0x1b,
  0x10, 0x00, 0x00, 0x00, 0x14, 0x00, 0x00, 0x00, 0x02, 0x00, 0x00, 0x00,
  0xc4, 0xd3, 0xff, 0xff, 0x01, 0x00, 0x00, 0x00, 0x1f, 0x00, 0x00, 0x00,
  0x02, 0x00, 0x00, 0x00, 0x1e, 0x00, 0x00, 0x00, 0x01, 0x00, 0x00, 0x00,
  0xce, 0xfd, 0xff, 0xff, 0x10, 0x00, 0x00, 0x00, 0x00, 0x00, 0x00, 0x01,
  0x18, 0x00, 0x00, 0x00, 0x1c, 0x00, 0x00, 0x00, 0xc0, 0xfd, 0xff, 0xff,
  0x00, 0x00, 0x00, 0x03, 0x01, 0x00, 0x00, 0x00, 0x01, 0x00, 0x00, 0x00,
  0x01, 0x00, 0x00, 0x00, 0x1e, 0x00, 0x00, 0x00, 0x03, 0x00, 0x00, 0x00,
  0x1d, 0x00, 0x00, 0x00, 0x05, 0x00, 0x00, 0x00, 0x04, 0x00, 0x00, 0x00,
  0xfe, 0xfe, 0xff, 0xff, 0x14, 0x00, 0x00, 0x00, 0x00, 0x00, 0x00, 0x02,
  0x20, 0x00, 0x00, 0x00, 0x24, 0x00, 0x00, 0x00, 0x01, 0x00, 0x00, 0x00,
  0x5e, 0xfe, 0xff, 0xff, 0x00, 0x00, 0x00, 0x03, 0x01, 0x00, 0x00, 0x00,
  0x02, 0x00, 0x00, 0x00, 0x02, 0x00, 0x00, 0x00, 0x01, 0x00, 0x00, 0x00,
  0x1d, 0x00, 0x00, 0x00, 0x03, 0x00, 0x00, 0x00, 0x1c, 0x00, 0x00, 0x00,
  0x07, 0x00, 0x00, 0x00, 0x06, 0x00, 0x00, 0x00, 0x4e, 0xfe, 0xff, 0xff,
  0x10, 0x00, 0x00, 0x00, 0x00, 0x00, 0x00, 0x01, 0x18, 0x00, 0x00, 0x00,
  0x1c, 0x00, 0x00, 0x00, 0x40, 0xfe, 0xff, 0xff, 0x00, 0x00, 0x00, 0x03,
  0x01, 0x00, 0x00, 0x00, 0x01, 0x00, 0x00, 0x00, 0x01, 0x00, 0x00, 0x00,
  0x1c, 0x00, 0x00, 0x00, 0x03, 0x00, 0x00, 0x00, 0x1b, 0x00, 0x00, 0x00,
  0x09, 0x00, 0x00, 0x00, 0x08, 0x00, 0x00, 0x00, 0x7e, 0xff, 0xff, 0xff,
  0x14, 0x00, 0x00, 0x00, 0x00, 0x00, 0x00, 0x02, 0x20, 0x00, 0x00, 0x00,
  0x24, 0x00, 0x00, 0x00, 0x01, 0x00, 0x00, 0x00, 0xde, 0xfe, 0xff, 0xff,
  0x00, 0x00, 0x00, 0x03, 0x01, 0x00, 0x00, 0x00, 0x02, 0x00, 0x00, 0x00,
  0x02, 0x00, 0x00, 0x00, 0x01, 0x00, 0x00, 0x00, 0x1b, 0x00, 0x00, 0x00,
  0x03, 0x00, 0x00, 0x00, 0x1a, 0x00, 0x00, 0x00, 0x0b, 0x00, 0x00, 0x00,
  0x0a, 0x00, 0x00, 0x00, 0xce, 0xfe, 0xff, 0xff, 0x10, 0x00, 0x00, 0x00,
  0x00, 0x00, 0x00, 0x01, 0x18, 0x00, 0x00, 0x00, 0x1c, 0x00, 0x00, 0x00,
  0xc0, 0xfe, 0xff, 0xff, 0x00, 0x00, 0x00, 0x03, 0x01, 0x00, 0x00, 0x00,
  0x01, 0x00, 0x00, 0x00, 0x01, 0x00, 0x00, 0x00, 0x1a, 0x00, 0x00, 0x00,
  0x03, 0x00, 0x00, 0x00, 0x19, 0x00, 0x00, 0x00, 0x0d, 0x00, 0x00, 0x00,
  0x0c, 0x00, 0x00, 0x00, 0x00, 0x00, 0x0e, 0x00, 0x18, 0x00, 0x14, 0x00,
  0x10, 0x00, 0x0c, 0x00, 0x0b, 0x00, 0x04, 0x00, 0x0e, 0x00, 0x00, 0x00,
  0x14, 0x00, 0x00, 0x00, 0x00, 0x00, 0x00, 0x02, 0x20, 0x00, 0x00, 0x00,
  0x24, 0x00, 0x00, 0x00, 0x01, 0x00, 0x00, 0x00, 0x6e, 0xff, 0xff, 0xff,
  0x00, 0x00, 0x00, 0x03, 0x01, 0x00, 0x00, 0x00, 0x02, 0x00, 0x00, 0x00,
  0x02, 0x00, 0x00, 0x00, 0x01, 0x00, 0x00, 0x00, 0x19, 0x00, 0x00, 0x00,
  0x03, 0x00, 0x00, 0x00, 0x18, 0x00, 0x00, 0x00, 0x0f, 0x00, 0x00, 0x00,
  0x0e, 0x00, 0x00, 0x00, 0x5e, 0xff, 0xff, 0xff, 0x10, 0x00, 0x00, 0x00,
  0x00, 0x00, 0x00, 0x01, 0x18, 0x00, 0x00, 0x00, 0x1c, 0x00, 0x00, 0x00,
  0x50, 0xff, 0xff, 0xff, 0x00, 0x00, 0x00, 0x03, 0x01, 0x00, 0x00, 0x00,
  0x01, 0x00, 0x00, 0x00, 0x01, 0x00, 0x00, 0x00, 0x18, 0x00, 0x00, 0x00,
  0x03, 0x00, 0x00, 0x00, 0x17, 0x00, 0x00, 0x00, 0x11, 0x00, 0x00, 0x00,
  0x10, 0x00, 0x00, 0x00, 0x00, 0x00, 0x0e, 0x00, 0x1a, 0x00, 0x14, 0x00,
  0x10, 0x00, 0x0c, 0x00, 0x0b, 0x00, 0x04, 0x00, 0x0e, 0x00, 0x00, 0x00,
  0x24, 0x00, 0x00, 0x00, 0x00, 0x00, 0x00, 0x02, 0x30, 0x00, 0x00, 0x00,
  0x34, 0x00, 0x00, 0x00, 0x01, 0x00, 0x00, 0x00, 0x00, 0x00, 0x0e, 0x00,
  0x14, 0x00, 0x00, 0x00, 0x10, 0x00, 0x0c, 0x00, 0x08, 0x00, 0x07, 0x00,
  0x0e, 0x00, 0x00, 0x00, 0x00, 0x00, 0x00, 0x03, 0x01, 0x00, 0x00, 0x00,
  0x02, 0x00, 0x00, 0x00, 0x02, 0x00, 0x00, 0x00, 0x01, 0x00, 0x00, 0x00,
  0x17, 0x00, 0x00, 0x00, 0x03, 0x00, 0x00, 0x00, 0x16, 0x00, 0x00, 0x00,
  0x13, 0x00, 0x00, 0x00, 0x12, 0x00, 0x00, 0x00, 0x00, 0x00, 0x0e, 0x00,
  0x14, 0x00, 0x00, 0x00, 0x10, 0x00, 0x0c, 0x00, 0x0b, 0x00, 0x04, 0x00,
  0x0e, 0x00, 0x00, 0x00, 0x1c, 0x00, 0x00, 0x00, 0x00, 0x00, 0x00, 0x01,
  0x24, 0x00, 0x00, 0x00, 0x28, 0x00, 0x00, 0x00, 0x0c, 0x00, 0x10, 0x00,
  0x00, 0x00, 0x0c, 0x00, 0x08, 0x00, 0x07, 0x00, 0x0c, 0x00, 0x00, 0x00,
  0x00, 0x00, 0x00, 0x03, 0x01, 0x00, 0x00, 0x00, 0x01, 0x00, 0x00, 0x00,
  0x01, 0x00, 0x00, 0x00, 0x16, 0x00, 0x00, 0x00, 0x03, 0x00, 0x00, 0x00,
  0x00, 0x00, 0x00, 0x00, 0x15, 0x00, 0x00, 0x00, 0x14, 0x00, 0x00, 0x00,
  0x01, 0x00, 0x00, 0x00, 0x21, 0x00, 0x00, 0x00, 0x01, 0x00, 0x00, 0x00,
  0x00, 0x00, 0x00, 0x00, 0x22, 0x00, 0x00, 0x00, 0xc4, 0x29, 0x00, 0x00,
  0x68, 0x29, 0x00, 0x00, 0xb0, 0x28, 0x00, 0x00, 0x0c, 0x28, 0x00, 0x00,
  0x78, 0x25, 0x00, 0x00, 0xd4, 0x22, 0x00, 0x00, 0x00, 0x21, 0x00, 0x00,
  0x04, 0x1f, 0x00, 0x00, 0x18, 0x1d, 0x00, 0x00, 0x34, 0x1b, 0x00, 0x00,
  0xc0, 0x19, 0x00, 0x00, 0x38, 0x18, 0x00, 0x00, 0xc0, 0x16, 0x00, 0x00,
  0x3c, 0x15, 0x00, 0x00, 0x28, 0x14, 0x00, 0x00, 0x00, 0x13, 0x00, 0x00,
  0xe8, 0x11, 0x00, 0x00, 0xc4, 0x10, 0x00, 0x00, 0x10, 0x10, 0x00, 0x00,
  0x48, 0x0f, 0x00, 0x00, 0x90, 0x0e, 0x00, 0x00, 0xcc, 0x0d, 0x00, 0x00,
  0xb0, 0x0c, 0x00, 0x00, 0x1c, 0x0b, 0x00, 0x00, 0xf8, 0x09, 0x00, 0x00,
  0x5c, 0x08, 0x00, 0x00, 0x38, 0x07, 0x00, 0x00, 0x9c, 0x05, 0x00, 0x00,
  0x78, 0x04, 0x00, 0x00, 0xdc, 0x02, 0x00, 0x00, 0xb8, 0x01, 0x00, 0x00,
  0x24, 0x01, 0x00, 0x00, 0x80, 0x00, 0x00, 0x00, 0x04, 0x00, 0x00, 0x00,
  0xda, 0xd6, 0xff, 0xff, 0x00, 0x00, 0x00, 0x01, 0x18, 0x00, 0x00, 0x00,
  0x20, 0x00, 0x00, 0x00, 0x3c, 0x00, 0x00, 0x00, 0x22, 0x00, 0x00, 0x00,
  0x00, 0x00, 0x00, 0x09, 0x50, 0x00, 0x00, 0x00, 0x02, 0x00, 0x00, 0x00,
  0xff, 0xff, 0xff, 0xff, 0x06, 0x00, 0x00, 0x00, 0xbc, 0xd6, 0xff, 0xff,
  0x08, 0x00, 0x00, 0x00, 0x10, 0x00, 0x00, 0x00, 0x01, 0x00, 0x00, 0x00,
  0x80, 0xff, 0xff, 0xff, 0xff, 0xff, 0xff, 0xff, 0x01, 0x00, 0x00, 0x00,
  0x00, 0x00, 0x80, 0x3b, 0x1b, 0x00, 0x00, 0x00, 0x53, 0x74, 0x61, 0x74,
  0x65, 0x66, 0x75, 0x6c, 0x50, 0x61, 0x72, 0x74, 0x69, 0x74, 0x69, 0x6f,
  0x6e, 0x65, 0x64, 0x43, 0x61, 0x6c, 0x6c, 0x5f, 0x31, 0x3a, 0x30, 0x00,
  0x02, 0x00, 0x00, 0x00, 0x01, 0x00, 0x00, 0x00, 0x06, 0x00, 0x00, 0x00,
  0x52, 0xd7, 0xff, 0xff, 0x00, 0x00, 0x00, 0x01, 0x18, 0x00, 0x00, 0x00,
  0x20, 0x00, 0x00, 0x00, 0x40, 0x00, 0x00, 0x00, 0x21, 0x00, 0x00, 0x00,
  0x00, 0x00, 0x00, 0x09, 0x78, 0x00, 0x00, 0x00, 0x02, 0x00, 0x00, 0x00,
  0xff, 0xff, 0xff, 0xff, 0x06, 0x00, 0x00, 0x00, 0x34, 0xd7, 0xff, 0xff,
  0x08, 0x00, 0x00, 0x00, 0x14, 0x00, 0x00, 0x00, 0x01, 0x00, 0x00, 0x00,
  0xd5, 0xff, 0xff, 0xff, 0xff, 0xff, 0xff, 0xff, 0x00, 0x00, 0x00, 0x00,
  0x01, 0x00, 0x00, 0x00, 0xaa, 0xb2, 0x26, 0x3b, 0x3c, 0x00, 0x00, 0x00,
  0x66, 0x75, 0x6e, 0x63, 0x74, 0x69, 0x6f, 0x6e, 0x61, 0x6c, 0x5f, 0x31,
  0x5f, 0x31, 0x2f, 0x64, 0x65, 0x6e, 0x73, 0x65, 0x5f, 0x31, 0x2f, 0x4d,
  0x61, 0x74, 0x4d, 0x75, 0x6c, 0x3b, 0x66, 0x75, 0x6e, 0x63, 0x74, 0x69,
  0x6f, 0x6e, 0x61, 0x6c, 0x5f, 0x31, 0x5f, 0x31, 0x2f, 0x64, 0x65, 0x6e,
  0x73, 0x65, 0x5f, 0x31, 0x2f, 0x42, 0x69, 0x61, 0x73, 0x41, 0x64, 0x64,
  0x00, 0x00, 0x00, 0x00, 0x02, 0x00, 0x00, 0x00, 0x01, 0x00, 0x00, 0x00,
  0x06, 0x00, 0x00, 0x00, 0xf2, 0xd7, 0xff, 0xff, 0x00, 0x00, 0x00, 0x01,
  0x18, 0x00, 0x00, 0x00, 0x20, 0x00, 0x00, 0x00, 0x40, 0x00, 0x00, 0x00,
  0x20, 0x00, 0x00, 0x00, 0x00, 0x00, 0x00, 0x09, 0x68, 0x00, 0x00, 0x00,
  0x02, 0x00, 0x00, 0x00, 0xff, 0xff, 0xff, 0xff, 0x30, 0x00, 0x00, 0x00,
  0xd4, 0xd7, 0xff, 0xff, 0x08, 0x00, 0x00, 0x00, 0x14, 0x00, 0x00, 0x00,
  0x01, 0x00, 0x00, 0x00, 0x80, 0xff, 0xff, 0xff, 0xff, 0xff, 0xff, 0xff,
  0x00, 0x00, 0x00, 0x00, 0x01, 0x00, 0x00, 0x00, 0x6a, 0x83, 0xe7, 0x3a,
  0x2e, 0x00, 0x00, 0x00, 0x66, 0x75, 0x6e, 0x63, 0x74, 0x69, 0x6f, 0x6e,
  0x61, 0x6c, 0x5f, 0x31, 0x5f, 0x31, 0x2f, 0x67, 0x6c, 0x6f, 0x62, 0x61,
  0x6c, 0x5f, 0x61, 0x76, 0x65, 0x72, 0x61, 0x67, 0x65, 0x5f, 0x70, 0x6f,
  0x6f, 0x6c, 0x69, 0x6e, 0x67, 0x32, 0x64, 0x5f, 0x31, 0x2f, 0x4d, 0x65,
  0x61, 0x6e, 0x00, 0x00, 0x02, 0x00, 0x00, 0x00, 0x01, 0x00, 0x00, 0x00,
  0x30, 0x00, 0x00, 0x00, 0x82, 0xd8, 0xff, 0xff, 0x00, 0x00, 0x00, 0x01,
  0x18, 0x00, 0x00, 0x00, 0x28, 0x00, 0x00, 0x00, 0x44, 0x00, 0x00, 0x00,
  0x1f, 0x00, 0x00, 0x00, 0x00, 0x00, 0x00, 0x09, 0xf0, 0x00, 0x00, 0x00,
  0x04, 0x00, 0x00, 0x00, 0xff, 0xff, 0xff, 0xff, 0x06, 0x00, 0x00, 0x00,
  0x06, 0x00, 0x00, 0x00, 0x30, 0x00, 0x00, 0x00, 0x6c, 0xd8, 0xff, 0xff,
  0x08, 0x00, 0x00, 0x00, 0x10, 0x00, 0x00, 0x00, 0x01, 0x00, 0x00, 0x00,
  0x80, 0xff, 0xff, 0xff, 0xff, 0xff, 0xff, 0xff, 0x01, 0x00, 0x00, 0x00,
  0x28, 0x88, 0xe9, 0x3a, 0xb0, 0x00, 0x00, 0x00, 0x66, 0x75, 0x6e, 0x63,
  0x74, 0x69, 0x6f, 0x6e, 0x61, 0x6c, 0x5f, 0x31, 0x5f, 0x31, 0x2f, 0x72,
  0x65, 0x5f, 0x6c, 0x75, 0x5f, 0x38, 0x5f, 0x31, 0x2f, 0x52, 0x65, 0x6c,
  0x75, 0x36, 0x3b, 0x66, 0x75, 0x6e, 0x63, 0x74, 0x69, 0x6f, 0x6e, 0x61,
  0x6c, 0x5f, 0x31, 0x5f, 0x31, 0x2f, 0x62, 0x61, 0x74, 0x63, 0x68, 0x5f,
  0x6e, 0x6f, 0x72, 0x6d, 0x61, 0x6c, 0x69, 0x7a, 0x61, 0x74, 0x69, 0x6f,
  0x6e, 0x5f, 0x38, 0x5f, 0x31, 0x2f, 0x62, 0x61, 0x74, 0x63, 0x68, 0x6e,
  0x6f, 0x72, 0x6d, 0x2f, 0x61, 0x64, 0x64, 0x5f, 0x31, 0x3b, 0x66, 0x75,
  0x6e, 0x63, 0x74, 0x69, 0x6f, 0x6e, 0x61, 0x6c, 0x5f, 0x31, 0x5f, 0x31,
  0x2f, 0x63, 0x6f, 0x6e, 0x76, 0x32, 0x64, 0x5f, 0x34, 0x5f, 0x31, 0x2f,
  0x63, 0x6f, 0x6e, 0x76, 0x6f, 0x6c, 0x75, 0x74, 0x69, 0x6f, 0x6e, 0x3b,
  0x66, 0x75, 0x6e, 0x63, 0x74, 0x69, 0x6f, 0x6e, 0x61, 0x6c, 0x5f, 0x31,
  0x5f, 0x31, 0x2f, 0x62, 0x61, 0x74, 0x63, 0x68, 0x5f, 0x6e, 0x6f, 0x72,
  0x6d, 0x61, 0x6c, 0x69, 0x7a, 0x61, 0x74, 0x69, 0x6f, 0x6e, 0x5f, 0x38,
  0x5f, 0x31, 0x2f, 0x62, 0x61, 0x74, 0x63, 0x68, 0x6e, 0x6f, 0x72, 0x6d,
  0x2f, 0x73, 0x75, 0x62, 0x00, 0x00, 0x00, 0x00, 0x04, 0x00, 0x00, 0x00,
  0x01, 0x00, 0x00, 0x00, 0x06, 0x00, 0x00, 0x00, 0x06, 0x00, 0x00, 0x00,
  0x30, 0x00, 0x00, 0x00, 0xa2, 0xd9, 0xff, 0xff, 0x00, 0x00, 0x00, 0x01,
  0x18, 0x00, 0x00, 0x00, 0x28, 0x00, 0x00, 0x00, 0x48, 0x00, 0x00, 0x00,
  0x1e, 0x00, 0x00, 0x00, 0x00, 0x00, 0x00, 0x09, 0x68, 0x01, 0x00, 0x00,
  0x04, 0x00, 0x00, 0x00, 0xff, 0xff, 0xff, 0xff, 0x06, 0x00, 0x00, 0x00,
  0x06, 0x00, 0x00, 0x00, 0x20, 0x00, 0x00, 0x00, 0x8c, 0xd9, 0xff, 0xff,
  0x08, 0x00, 0x00, 0x00, 0x14, 0x00, 0x00, 0x00, 0x01, 0x00, 0x00, 0x00,
  0x80, 0xff, 0xff, 0xff, 0xff, 0xff, 0xff, 0xff, 0x00, 0x00, 0x00, 0x00,
  0x01, 0x00, 0x00, 0x00, 0x1e, 0x0d, 0x1a, 0x3a, 0x24, 0x01, 0x00, 0x00,
  0x66, 0x75, 0x6e, 0x63, 0x74, 0x69, 0x6f, 0x6e, 0x61, 0x6c, 0x5f, 0x31,
  0x5f, 0x31, 0x2f, 0x72, 0x65, 0x5f, 0x6c, 0x75, 0x5f, 0x37, 0x5f, 0x31,
  0x2f, 0x52, 0x65, 0x6c, 0x75, 0x36, 0x3b, 0x66, 0x75, 0x6e, 0x63, 0x74,
  0x69, 0x6f, 0x6e, 0x61, 0x6c, 0x5f, 0x31, 0x5f, 0x31, 0x2f, 0x62, 0x61,
  0x74, 0x63, 0x68, 0x5f, 0x6e, 0x6f, 0x72, 0x6d, 0x61, 0x6c, 0x69, 0x7a,
  0x61, 0x74, 0x69, 0x6f, 0x6e, 0x5f, 0x37, 0x5f, 0x31, 0x2f, 0x62, 0x61,
  0x74, 0x63, 0x68, 0x6e, 0x6f, 0x72, 0x6d, 0x2f, 0x61, 0x64, 0x64, 0x5f,
  0x31, 0x3b, 0x66, 0x75, 0x6e, 0x63, 0x74, 0x69, 0x6f, 0x6e, 0x61, 0x6c,
  0x5f, 0x31, 0x5f, 0x31, 0x2f, 0x62, 0x61, 0x74, 0x63, 0x68, 0x5f, 0x6e,
  0x6f, 0x72, 0x6d, 0x61, 0x6c, 0x69, 0x7a, 0x61, 0x74, 0x69, 0x6f, 0x6e,
  0x5f, 0x37, 0x5f, 0x31, 0x2f, 0x62, 0x61, 0x74, 0x63, 0x68, 0x6e, 0x6f,
  0x72, 0x6d, 0x2f, 0x6d, 0x75, 0x6c, 0x5f, 0x31, 0x3b, 0x66, 0x75, 0x6e,
  0x63, 0x74, 0x69, 0x6f, 0x6e, 0x61, 0x6c, 0x5f, 0x31, 0x5f, 0x31, 0x2f,
  0x64, 0x65, 0x70, 0x74, 0x68, 0x77, 0x69, 0x73, 0x65, 0x5f, 0x63, 0x6f,
  0x6e, 0x76, 0x32, 0x64, 0x5f, 0x33, 0x5f, 0x31, 0x2f, 0x64, 0x65, 0x70,
  0x74, 0x68, 0x77, 0x69, 0x73, 0x65, 0x3b, 0x66, 0x75, 0x6e, 0x63, 0x74,
  0x69, 0x6f, 0x6e, 0x61, 0x6c, 0x5f, 0x31, 0x5f, 0x31, 0x2f, 0x62, 0x61,
  0x74, 0x63, 0x68, 0x5f, 0x6e, 0x6f, 0x72, 0x6d, 0x61, 0x6c, 0x69, 0x7a,
  0x61, 0x74, 0x69, 0x6f, 0x6e, 0x5f, 0x37, 0x5f, 0x31, 0x2f, 0x62, 0x61,
  0x74, 0x63, 0x68, 0x6e, 0x6f, 0x72, 0x6d, 0x2f, 0x6d, 0x75, 0x6c, 0x3b,
  0x66, 0x75, 0x6e, 0x63, 0x74, 0x69, 0x6f, 0x6e, 0x61, 0x6c, 0x5f, 0x31,
  0x5f, 0x31, 0x2f, 0x62, 0x61, 0x74, 0x63, 0x68, 0x5f, 0x6e, 0x6f, 0x72,
  0x6d, 0x61, 0x6c, 0x69, 0x7a, 0x61, 0x74, 0x69, 0x6f, 0x6e, 0x5f, 0x37,
  0x5f, 0x31, 0x2f, 0x62, 0x61, 0x74, 0x63, 0x68, 0x6e, 0x6f, 0x72, 0x6d,
  0x2f, 0x73, 0x75, 0x62, 0x00, 0x00, 0x00, 0x00, 0x04, 0x00, 0x00, 0x00,
  0x01, 0x00, 0x00, 0x00, 0x06, 0x00, 0x00, 0x00, 0x06, 0x00, 0x00, 0x00,
  0x20, 0x00, 0x00, 0x00, 0x3a, 0xdb, 0xff, 0xff, 0x00, 0x00, 0x00, 0x01,
  0x18, 0x00, 0x00, 0x00, 0x28, 0x00, 0x00, 0x00, 0x44, 0x00, 0x00, 0x00,
  0x1d, 0x00, 0x00, 0x00, 0x00, 0x00, 0x00, 0x09, 0xf0, 0x00, 0x00, 0x00,
  0x04, 0x00, 0x00, 0x00, 0xff, 0xff, 0xff, 0xff, 0x0c, 0x00, 0x00, 0x00,
  0x0c, 0x00, 0x00, 0x00, 0x20, 0x00, 0x00, 0x00, 0x24, 0xdb, 0xff, 0xff,
  0x08, 0x00, 0x00, 0x00, 0x10, 0x00, 0x00, 0x00, 0x01, 0x00, 0x00, 0x00,
  0x80, 0xff, 0xff, 0xff, 0xff, 0xff, 0xff, 0xff, 0x01, 0x00, 0x00, 0x00,
  0xd4, 0x5f, 0xc6, 0x3a, 0xb0, 0x00, 0x00, 0x00, 0x66, 0x75, 0x6e, 0x63,
  0x74, 0x69, 0x6f, 0x6e, 0x61, 0x6c, 0x5f, 0x31, 0x5f, 0x31, 0x2f, 0x72,
  0x65, 0x5f, 0x6c, 0x75, 0x5f, 0x36, 0x5f, 0x31, 0x2f, 0x52, 0x65, 0x6c,
  0x75, 0x36, 0x3b, 0x66, 0x75, 0x6e, 0x63, 0x74, 0x69, 0x6f, 0x6e, 0x61,
  0x6c, 0x5f, 0x31, 0x5f, 0x31, 0x2f, 0x62, 0x61, 0x74, 0x63, 0x68, 0x5f,
  0x6e, 0x6f, 0x72, 0x6d, 0x61, 0x6c, 0x69, 0x7a, 0x61, 0x74, 0x69, 0x6f,
  0x6e, 0x5f, 0x36, 0x5f, 0x31, 0x2f, 0x62, 0x61, 0x74, 0x63, 0x68, 0x6e,
  0x6f, 0x72, 0x6d, 0x2f, 0x61, 0x64, 0x64, 0x5f, 0x31, 0x3b, 0x66, 0x75,
  0x6e, 0x63, 0x74, 0x69, 0x6f, 0x6e, 0x61, 0x6c, 0x5f, 0x31, 0x5f, 0x31,
  0x2f, 0x63, 0x6f, 0x6e, 0x76, 0x32, 0x64, 0x5f, 0x33, 0x5f, 0x31, 0x2f,
  0x63, 0x6f, 0x6e, 0x76, 0x6f, 0x6c, 0x75, 0x74, 0x69, 0x6f, 0x6e, 0x3b,
  0x66, 0x75, 0x6e, 0x63, 0x74, 0x69, 0x6f, 0x6e, 0x61, 0x6c, 0x5f, 0x31,
  0x5f, 0x31, 0x2f, 0x62, 0x61, 0x74, 0x63, 0x68, 0x5f, 0x6e, 0x6f, 0x72,
  0x6d, 0x61, 0x6c, 0x69, 0x7a, 0x61, 0x74, 0x69, 0x6f, 0x6e, 0x5f, 0x36,
  0x5f, 0x31, 0x2f, 0x62, 0x61, 0x74, 0x63, 0x68, 0x6e, 0x6f, 0x72, 0x6d,
  0x2f, 0x73, 0x75, 0x62, 0x00, 0x00, 0x00, 0x00, 0x04, 0x00, 0x00, 0x00,
  0x01, 0x00, 0x00, 0x00, 0x0c, 0x00, 0x00, 0x00, 0x0c, 0x00, 0x00, 0x00,
  0x20, 0x00, 0x00, 0x00, 0x5a, 0xdc, 0xff, 0xff, 0x00, 0x00, 0x00, 0x01,
  0x18, 0x00, 0x00, 0x00, 0x28, 0x00, 0x00, 0x00, 0x48, 0x00, 0x00, 0x00,
  0x1c, 0x00, 0x00, 0x00, 0x00, 0x00, 0x00, 0x09, 0x68, 0x01, 0x00, 0x00,
  0x04, 0x00, 0x00, 0x00, 0xff, 0xff, 0xff, 0xff, 0x0c, 0x00, 0x00, 0x00,
  0x0c, 0x00, 0x00, 0x00, 0x18, 0x00, 0x00, 0x00, 0x44, 0xdc, 0xff, 0xff,
  0x08, 0x00, 0x00, 0x00, 0x14, 0x00, 0x00, 0x00, 0x01, 0x00, 0x00, 0x00,
  0x80, 0xff, 0xff, 0xff, 0xff, 0xff, 0xff, 0xff, 0x00, 0x00, 0x00, 0x00,
  0x01, 0x00, 0x00, 0x00, 0x6d, 0xec, 0x62, 0x3a, 0x24, 0x01, 0x00, 0x00,
  0x66, 0x75, 0x6e, 0x63, 0x74, 0x69, 0x6f, 0x6e, 0x61, 0x6c, 0x5f, 0x31,
  0x5f, 0x31, 0x2f, 0x72, 0x65, 0x5f, 0x6c, 0x75, 0x5f, 0x35, 0x5f, 0x31,
  0x2f, 0x52, 0x65, 0x6c, 0x75, 0x36, 0x3b, 0x66, 0x75, 0x6e, 0x63, 0x74,
  0x69, 0x6f, 0x6e, 0x61, 0x6c, 0x5f, 0x31, 0x5f, 0x31, 0x2f, 0x62, 0x61,
  0x74, 0x63, 0x68, 0x5f, 0x6e, 0x6f, 0x72, 0x6d, 0x61, 0x6c, 0x69, 0x7a,
  0x61, 0x74, 0x69, 0x6f, 0x6e, 0x5f, 0x35, 0x5f, 0x31, 0x2f, 0x62, 0x61,
  0x74, 0x63, 0x68, 0x6e, 0x6f, 0x72, 0x6d, 0x2f, 0x61, 0x64, 0x64, 0x5f,
  0x31, 0x3b, 0x66, 0x75, 0x6e, 0x63, 0x74, 0x69, 0x6f, 0x6e, 0x61, 0x6c,
  0x5f, 0x31, 0x5f, 0x31, 0x2f, 0x62, 0x61, 0x74, 0x63, 0x68, 0x5f, 0x6e,
  0x6f, 0x72, 0x6d, 0x61, 0x6c, 0x69, 0x7a, 0x61, 0x74, 0x69, 0x6f, 0x6e,
  0x5f, 0x35, 0x5f, 0x31, 0x2f, 0x62, 0x61, 0x74, 0x63, 0x68, 0x6e, 0x6f,
  0x72, 0x6d, 0x2f, 0x6d, 0x75, 0x6c, 0x5f, 0x31, 0x3b, 0x66, 0x75, 0x6e,
  0x63, 0x74, 0x69, 0x6f, 0x6e, 0x61, 0x6c, 0x5f, 0x31, 0x5f, 0x31, 0x2f,
  0x64, 0x65, 0x70, 0x74, 0x68, 0x77, 0x69, 0x73, 0x65, 0x5f, 0x63, 0x6f,
  0x6e, 0x76, 0x32, 0x64, 0x5f, 0x32, 0x5f, 0x31, 0x2f, 0x64, 0x65, 0x70,
  0x74, 0x68, 0x77, 0x69, 0x73, 0x65, 0x3b, 0x66, 0x75, 0x6e, 0x63, 0x74,
  0x69, 0x6f, 0x6e, 0x61, 0x6c, 0x5f, 0x31, 0x5f, 0x31, 0x2f, 0x62, 0x61,
  0x74, 0x63, 0x68, 0x5f, 0x6e, 0x6f, 0x72, 0x6d, 0x61, 0x6c, 0x69, 0x7a,
  0x61, 0x74, 0x69, 0x6f, 0x6e, 0x5f, 0x35, 0x5f, 0x31, 0x2f, 0x62, 0x61,
  0x74, 0x63, 0x68, 0x6e, 0x6f, 0x72, 0x6d, 0x2f, 0x6d, 0x75, 0x6c, 0x3b,
  0x66, 0x75, 0x6e, 0x63, 0x74, 0x69, 0x6f, 0x6e, 0x61, 0x6c, 0x5f, 0x31,
  0x5f, 0x31, 0x2f, 0x62, 0x61, 0x74, 0x63, 0x68, 0x5f, 0x6e, 0x6f, 0x72,
  0x6d, 0x61, 0x6c, 0x69, 0x7a, 0x61, 0x74, 0x69, 0x6f, 0x6e, 0x5f, 0x35,
  0x5f, 0x31, 0x2f, 0x62, 0x61, 0x74, 0x63, 0x68, 0x6e, 0x6f, 0x72, 0x6d,
  0x2f, 0x73, 0x75, 0x62, 0x00, 0x00, 0x00, 0x00, 0x04, 0x00, 0x00, 0x00,
  0x01, 0x00, 0x00, 0x00, 0x0c, 0x00, 0x00, 0x00, 0x0c, 0x00, 0x00, 0x00,
  0x18, 0x00, 0x00, 0x00, 0xf2, 0xdd, 0xff, 0xff, 0x00, 0x00, 0x00, 0x01,
  0x18, 0x00, 0x00, 0x00, 0x28, 0x00, 0x00, 0x00, 0x44, 0x00, 0x00, 0x00,
  0x1b, 0x00, 0x00, 0x00, 0x00, 0x00, 0x00, 0x09, 0xf0, 0x00, 0x00, 0x00,
  0x04, 0x00, 0x00, 0x00, 0xff, 0xff, 0xff, 0xff, 0x18, 0x00, 0x00, 0x00,
  0x18, 0x00, 0x00, 0x00, 0x18, 0x00, 0x00, 0x00, 0xdc, 0xdd, 0xff, 0xff,
  0x08, 0x00, 0x00, 0x00, 0x10, 0x00, 0x00, 0x00, 0x01, 0x00, 0x00, 0x00,
  0x80, 0xff, 0xff, 0xff, 0xff, 0xff, 0xff, 0xff, 0x01, 0x00, 0x00, 0x00,
  0x55, 0x6e, 0x8d, 0x3a, 0xb0, 0x00, 0x00, 0x00, 0x66, 0x75, 0x6e, 0x63,
  0x74, 0x69, 0x6f, 0x6e, 0x61, 0x6c, 0x5f, 0x31, 0x5f, 0x31, 0x2f, 0x72,
  0x65, 0x5f, 0x6c, 0x75, 0x5f, 0x34, 0x5f, 0x31, 0x2f, 0x52, 0x65, 0x6c,
  0x75, 0x36, 0x3b, 0x66, 0x75, 0x6e, 0x63, 0x74, 0x69, 0x6f, 0x6e, 0x61,
  0x6c, 0x5f, 0x31, 0x5f, 0x31, 0x2f, 0x62, 0x61, 0x74, 0x63, 0x68, 0x5f,
  0x6e, 0x6f, 0x72, 0x6d, 0x61, 0x6c, 0x69, 0x7a, 0x61, 0x74, 0x69, 0x6f,
  0x6e, 0x5f, 0x34, 0x5f, 0x31, 0x2f, 0x62, 0x61, 0x74, 0x63, 0x68, 0x6e,
  0x6f, 0x72, 0x6d, 0x2f, 0x61, 0x64, 0x64, 0x5f, 0x31, 0x3b, 0x66, 0x75,
  0x6e, 0x63, 0x74, 0x69, 0x6f, 0x6e, 0x61, 0x6c, 0x5f, 0x31, 0x5f, 0x31,
  0x2f, 0x63, 0x6f, 0x6e, 0x76, 0x32, 0x64, 0x5f, 0x32, 0x5f, 0x31, 0x2f,
  0x63, 0x6f, 0x6e, 0x76, 0x6f, 0x6c, 0x75, 0x74, 0x69, 0x6f, 0x6e, 0x3b,
  0x66, 0x75, 0x6e, 0x63, 0x74, 0x69, 0x6f, 0x6e, 0x61, 0x6c, 0x5f, 0x31,
  0x5f, 0x31, 0x2f, 0x62, 0x61, 0x74, 0x63, 0x68, 0x5f, 0x6e, 0x6f, 0x72,
  0x6d, 0x61, 0x6c, 0x69, 0x7a, 0x61, 0x74, 0x69, 0x6f, 0x6e, 0x5f, 0x34,
  0x5f, 0x31, 0x2f, 0x62, 0x61, 0x74, 0x63, 0x68, 0x6e, 0x6f, 0x72, 0x6d,
  0x2f, 0x73, 0x75, 0x62, 0x00, 0x00, 0x00, 0x00, 0x04, 0x00, 0x00, 0x00,
  0x01, 0x00, 0x00, 0x00, 0x18, 0x00, 0x00, 0x00, 0x18, 0x00, 0x00, 0x00,
  0x18, 0x00, 0x00, 0x00, 0x12, 0xdf, 0xff, 0xff, 0x00, 0x00, 0x00, 0x01,
  0x18, 0x00, 0x00, 0x00, 0x28, 0x00, 0x00, 0x00, 0x48, 0x00, 0x00, 0x00,
  0x1a, 0x00, 0x00, 0x00, 0x00, 0x00, 0x00, 0x09, 0x68, 0x01, 0x00, 0x00,
  0x04, 0x00, 0x00, 0x00, 0xff, 0xff, 0xff, 0xff, 0x18, 0x00, 0x00, 0x00,
  0x18, 0x00, 0x00, 0x00, 0x10, 0x00, 0x00, 0x00, 0xfc, 0xde, 0xff, 0xff,
  0x08, 0x00, 0x00, 0x00, 0x14, 0x00, 0x00, 0x00, 0x01, 0x00, 0x00, 0x00,
  0x80, 0xff, 0xff, 0xff, 0xff, 0xff, 0xff, 0xff, 0x00, 0x00, 0x00, 0x00,
  0x01, 0x00, 0x00, 0x00, 0x7f, 0xf5, 0x4f, 0x3a, 0x24, 0x01, 0x00, 0x00,
  0x66, 0x75, 0x6e, 0x63, 0x74, 0x69, 0x6f, 0x6e, 0x61, 0x6c, 0x5f, 0x31,
  0x5f, 0x31, 0x2f, 0x72, 0x65, 0x5f, 0x6c, 0x75, 0x5f, 0x33, 0x5f, 0x31,
  0x2f, 0x52, 0x65, 0x6c, 0x75, 0x36, 0x3b, 0x66, 0x75, 0x6e, 0x63, 0x74,
  0x69, 0x6f, 0x6e, 0x61, 0x6c, 0x5f, 0x31, 0x5f, 0x31, 0x2f, 0x62, 0x61,
  0x74, 0x63, 0x68, 0x5f, 0x6e, 0x6f, 0x72, 0x6d, 0x61, 0x6c, 0x69, 0x7a,
  0x61, 0x74, 0x69, 0x6f, 0x6e, 0x5f, 0x33, 0x5f, 0x31, 0x2f, 0x62, 0x61,
  0x74, 0x63, 0x68, 0x6e, 0x6f, 0x72, 0x6d, 0x2f, 0x61, 0x64, 0x64, 0x5f,
  0x31, 0x3b, 0x66, 0x75, 0x6e, 0x63, 0x74, 0x69, 0x6f, 0x6e, 0x61, 0x6c,
  0x5f, 0x31, 0x5f, 0x31, 0x2f, 0x62, 0x61, 0x74, 0x63, 0x68, 0x5f, 0x6e,
  0x6f, 0x72, 0x6d, 0x61, 0x6c, 0x69, 0x7a, 0x61, 0x74, 0x69, 0x6f, 0x6e,
  0x5f, 0x33, 0x5f, 0x31, 0x2f, 0x62, 0x61, 0x74, 0x63, 0x68, 0x6e, 0x6f,
  0x72, 0x6d, 0x2f, 0x6d, 0x75, 0x6c, 0x5f, 0x31, 0x3b, 0x66, 0x75, 0x6e,
  0x63, 0x74, 0x69, 0x6f, 0x6e, 0x61, 0x6c, 0x5f, 0x31, 0x5f, 0x31, 0x2f,
  0x64, 0x65, 0x70, 0x74, 0x68, 0x77, 0x69, 0x73, 0x65, 0x5f, 0x63, 0x6f,
  0x6e, 0x76, 0x32, 0x64, 0x5f, 0x31, 0x5f, 0x32, 0x2f, 0x64, 0x65, 0x70,
  0x74, 0x68, 0x77, 0x69, 0x73, 0x65, 0x3b, 0x66, 0x75, 0x6e, 0x63, 0x74,
  0x69, 0x6f, 0x6e, 0x61, 0x6c, 0x5f, 0x31, 0x5f, 0x31, 0x2f, 0x62, 0x61,
  0x74, 0x63, 0x68, 0x5f, 0x6e, 0x6f, 0x72, 0x6d, 0x61, 0x6c, 0x69, 0x7a,
  0x61, 0x74, 0x69, 0x6f, 0x6e, 0x5f, 0x33, 0x5f, 0x31, 0x2f, 0x62, 0x61,
  0x74, 0x63, 0x68, 0x6e, 0x6f, 0x72, 0x6d, 0x2f, 0x6d, 0x75, 0x6c, 0x3b,
  0x66, 0x75, 0x6e, 0x63, 0x74, 0x69, 0x6f, 0x6e, 0x61, 0x6c, 0x5f, 0x31,
  0x5f, 0x31, 0x2f, 0x62, 0x61, 0x74, 0x63, 0x68, 0x5f, 0x6e, 0x6f, 0x72,
  0x6d, 0x61, 0x6c, 0x69, 0x7a, 0x61, 0x74, 0x69, 0x6f, 0x6e, 0x5f, 0x33,
  0x5f, 0x31, 0x2f, 0x62, 0x61, 0x74, 0x63, 0x68, 0x6e, 0x6f, 0x72, 0x6d,
  0x2f, 0x73, 0x75, 0x62, 0x00, 0x00, 0x00, 0x00, 0x04, 0x00, 0x00, 0x00,
  0x01, 0x00, 0x00, 0x00, 0x18, 0x00, 0x00, 0x00, 0x18, 0x00, 0x00, 0x00,
  0x10, 0x00, 0x00, 0x00, 0xaa, 0xe0, 0xff, 0xff, 0x00, 0x00, 0x00, 0x01,
  0x18, 0x00, 0x00, 0x00, 0x28, 0x00, 0x00, 0x00, 0x44, 0x00, 0x00, 0x00,
  0x19, 0x00, 0x00, 0x00, 0x00, 0x00, 0x00, 0x09, 0xf0, 0x00, 0x00, 0x00,
  0x04, 0x00, 0x00, 0x00, 0xff, 0xff, 0xff, 0xff, 0x30, 0x00, 0x00, 0x00,
  0x30, 0x00, 0x00, 0x00, 0x10, 0x00, 0x00, 0x00, 0x94, 0xe0, 0xff, 0xff,
  0x08, 0x00, 0x00, 0x00, 0x10, 0x00, 0x00, 0x00, 0x01, 0x00, 0x00, 0x00,
  0x80, 0xff, 0xff, 0xff, 0xff, 0xff, 0xff, 0xff, 0x01, 0x00, 0x00, 0x00,
  0x01, 0xdf, 0xf2, 0x3a, 0xb0, 0x00, 0x00, 0x00, 0x66, 0x75, 0x6e, 0x63,
  0x74, 0x69, 0x6f, 0x6e, 0x61, 0x6c, 0x5f, 0x31, 0x5f, 0x31, 0x2f, 0x72,
  0x65, 0x5f, 0x6c, 0x75, 0x5f, 0x32, 0x5f, 0x31, 0x2f, 0x52, 0x65, 0x6c,
  0x75, 0x36, 0x3b, 0x66, 0x75, 0x6e, 0x63, 0x74, 0x69, 0x6f, 0x6e, 0x61,
  0x6c, 0x5f, 0x31, 0x5f, 0x31, 0x2f, 0x62, 0x61, 0x74, 0x63, 0x68, 0x5f,
  0x6e, 0x6f, 0x72, 0x6d, 0x61, 0x6c, 0x69, 0x7a, 0x61, 0x74, 0x69, 0x6f,
  0x6e, 0x5f, 0x32, 0x5f, 0x31, 0x2f, 0x62, 0x61, 0x74, 0x63, 0x68, 0x6e,
  0x6f, 0x72, 0x6d, 0x2f, 0x61, 0x64, 0x64, 0x5f, 0x31, 0x3b, 0x66, 0x75,
  0x6e, 0x63, 0x74, 0x69, 0x6f, 0x6e, 0x61, 0x6c, 0x5f, 0x31, 0x5f, 0x31,
  0x2f, 0x63, 0x6f, 0x6e, 0x76, 0x32, 0x64, 0x5f, 0x31, 0x5f, 0x32, 0x2f,
  0x63, 0x6f, 0x6e, 0x76, 0x6f, 0x6c, 0x75, 0x74, 0x69, 0x6f, 0x6e, 0x3b,
  0x66, 0x75, 0x6e, 0x63, 0x74, 0x69, 0x6f, 0x6e, 0x61, 0x6c, 0x5f, 0x31,
  0x5f, 0x31, 0x2f, 0x62, 0x61, 0x74, 0x63, 0x68, 0x5f, 0x6e, 0x6f, 0x72,
  0x6d, 0x61, 0x6c, 0x69, 0x7a, 0x61, 0x74, 0x69, 0x6f, 0x6e, 0x5f, 0x32,
  0x5f, 0x31, 0x2f, 0x62, 0x61, 0x74, 0x63, 0x68, 0x6e, 0x6f, 0x72, 0x6d,
  0x2f, 0x73, 0x75, 0x62, 0x00, 0x00, 0x00, 0x00, 0x04, 0x00, 0x00, 0x00,
  0x01, 0x00, 0x00, 0x00, 0x30, 0x00, 0x00, 0x00, 0x30, 0x00, 0x00, 0x00,
  0x10, 0x00, 0x00, 0x00, 0xca, 0xe1, 0xff, 0xff, 0x00, 0x00, 0x00, 0x01,
  0x18, 0x00, 0x00, 0x00, 0x28, 0x00, 0x00, 0x00, 0x44, 0x00, 0x00, 0x00,
  0x18, 0x00, 0x00, 0x00, 0x00, 0x00, 0x00, 0x09, 0x60, 0x01, 0x00, 0x00,
  0x04, 0x00, 0x00, 0x00, 0xff, 0xff, 0xff, 0xff, 0x30, 0x00, 0x00, 0x00,
  0x30, 0x00, 0x00, 0x00, 0x08, 0x00, 0x00, 0x00, 0xb4, 0xe1, 0xff, 0xff,
  0x08, 0x00, 0x00, 0x00, 0x10, 0x00, 0x00, 0x00, 0x01, 0x00, 0x00, 0x00,
  0x80, 0xff, 0xff, 0xff, 0xff, 0xff, 0xff, 0xff, 0x01, 0x00, 0x00, 0x00,
  0xb9, 0x7d, 0x05, 0x3b, 0x22, 0x01, 0x00, 0x00, 0x66, 0x75, 0x6e, 0x63,
  0x74, 0x69, 0x6f, 0x6e, 0x61, 0x6c, 0x5f, 0x31, 0x5f, 0x31, 0x2f, 0x72,
  0x65, 0x5f, 0x6c, 0x75, 0x5f, 0x31, 0x5f, 0x32, 0x2f, 0x52, 0x65, 0x6c,
  0x75, 0x36, 0x3b, 0x66, 0x75, 0x6e, 0x63, 0x74, 0x69, 0x6f, 0x6e, 0x61,
  0x6c, 0x5f, 0x31, 0x5f, 0x31, 0x2f, 0x62, 0x61, 0x74, 0x63, 0x68, 0x5f,
  0x6e, 0x6f, 0x72, 0x6d, 0x61, 0x6c, 0x69, 0x7a, 0x61, 0x74, 0x69, 0x6f,
  0x6e, 0x5f, 0x31, 0x5f, 0x32, 0x2f, 0x62, 0x61, 0x74, 0x63, 0x68, 0x6e,
  0x6f, 0x72, 0x6d, 0x2f, 0x61, 0x64, 0x64, 0x5f, 0x31, 0x3b, 0x66, 0x75,
  0x6e, 0x63, 0x74, 0x69, 0x6f, 0x6e, 0x61, 0x6c, 0x5f, 0x31, 0x5f, 0x31,
  0x2f, 0x62, 0x61, 0x74, 0x63, 0x68, 0x5f, 0x6e, 0x6f, 0x72, 0x6d, 0x61,
  0x6c, 0x69, 0x7a, 0x61, 0x74, 0x69, 0x6f, 0x6e, 0x5f, 0x31, 0x5f, 0x32,
  0x2f, 0x62, 0x61, 0x74, 0x63, 0x68, 0x6e, 0x6f, 0x72, 0x6d, 0x2f, 0x6d,
  0x75, 0x6c, 0x5f, 0x31, 0x3b, 0x66, 0x75, 0x6e, 0x63, 0x74, 0x69, 0x6f,
  0x6e, 0x61, 0x6c, 0x5f, 0x31, 0x5f, 0x31, 0x2f, 0x64, 0x65, 0x70, 0x74,
  0x68, 0x77, 0x69, 0x73, 0x65, 0x5f, 0x63, 0x6f, 0x6e, 0x76, 0x32, 0x64,
  0x5f, 0x31, 0x2f, 0x64, 0x65, 0x70, 0x74, 0x68, 0x77, 0x69, 0x73, 0x65,
  0x3b, 0x66, 0x75, 0x6e, 0x63, 0x74, 0x69, 0x6f, 0x6e, 0x61, 0x6c, 0x5f,
  0x31, 0x5f, 0x31, 0x2f, 0x62, 0x61, 0x74, 0x63, 0x68, 0x5f, 0x6e, 0x6f,
  0x72, 0x6d, 0x61, 0x6c, 0x69, 0x7a, 0x61, 0x74, 0x69, 0x6f, 0x6e, 0x5f,
  0x31, 0x5f, 0x32, 0x2f, 0x62, 0x61, 0x74, 0x63, 0x68, 0x6e, 0x6f, 0x72,
  0x6d, 0x2f, 0x6d, 0x75, 0x6c, 0x3b, 0x66, 0x75, 0x6e, 0x63, 0x74, 0x69,
  0x6f, 0x6e, 0x61, 0x6c, 0x5f, 0x31, 0x5f, 0x31, 0x2f, 0x62, 0x61, 0x74,
  0x63, 0x68, 0x5f, 0x6e, 0x6f, 0x72, 0x6d, 0x61, 0x6c, 0x69, 0x7a, 0x61,
  0x74, 0x69, 0x6f, 0x6e, 0x5f, 0x31, 0x5f, 0x32, 0x2f, 0x62, 0x61, 0x74,
  0x63, 0x68, 0x6e, 0x6f, 0x72, 0x6d, 0x2f, 0x73, 0x75, 0x62, 0x00, 0x00,
  0x04, 0x00, 0x00, 0x00, 0x01, 0x00, 0x00, 0x00, 0x30, 0x00, 0x00, 0x00,
  0x30, 0x00, 0x00, 0x00, 0x08, 0x00, 0x00, 0x00, 0x5a, 0xe3, 0xff, 0xff,
  0x00, 0x00, 0x00, 0x01, 0x18, 0x00, 0x00, 0x00, 0x28, 0x00, 0x00, 0x00,
  0x44, 0x00, 0x00, 0x00, 0x17, 0x00, 0x00, 0x00, 0x00, 0x00, 0x00, 0x09,
  0xe8, 0x00, 0x00, 0x00, 0x04, 0x00, 0x00, 0x00, 0xff, 0xff, 0xff, 0xff,
  0x60, 0x00, 0x00, 0x00, 0x60, 0x00, 0x00, 0x00, 0x08, 0x00, 0x00, 0x00,
  0x44, 0xe3, 0xff, 0xff, 0x08, 0x00, 0x00, 0x00, 0x10, 0x00, 0x00, 0x00,
  0x01, 0x00, 0x00, 0x00, 0x80, 0xff, 0xff, 0xff, 0xff, 0xff, 0xff, 0xff,
  0x01, 0x00, 0x00, 0x00, 0xf0, 0x85, 0x88, 0x3b, 0xa9, 0x00, 0x00, 0x00,
  0x66, 0x75, 0x6e, 0x63, 0x74, 0x69, 0x6f, 0x6e, 0x61, 0x6c, 0x5f, 0x31,
  0x5f, 0x31, 0x2f, 0x72, 0x65, 0x5f, 0x6c, 0x75, 0x5f, 0x31, 0x2f, 0x52,
  0x65, 0x6c, 0x75, 0x36, 0x3b, 0x66, 0x75, 0x6e, 0x63, 0x74, 0x69, 0x6f,
  0x6e, 0x61, 0x6c, 0x5f, 0x31, 0x5f, 0x31, 0x2f, 0x62, 0x61, 0x74, 0x63,
  0x68, 0x5f, 0x6e, 0x6f, 0x72, 0x6d, 0x61, 0x6c, 0x69, 0x7a, 0x61, 0x74,
  0x69, 0x6f, 0x6e, 0x5f, 0x31, 0x2f, 0x62, 0x61, 0x74, 0x63, 0x68, 0x6e,
  0x6f, 0x72, 0x6d, 0x2f, 0x61, 0x64, 0x64, 0x5f, 0x31, 0x3b, 0x66, 0x75,
  0x6e, 0x63, 0x74, 0x69, 0x6f, 0x6e, 0x61, 0x6c, 0x5f, 0x31, 0x5f, 0x31,
  0x2f, 0x63, 0x6f, 0x6e, 0x76, 0x32, 0x64, 0x5f, 0x31, 0x2f, 0x63, 0x6f,
  0x6e, 0x76, 0x6f, 0x6c, 0x75, 0x74, 0x69, 0x6f, 0x6e, 0x3b, 0x66, 0x75,
  0x6e, 0x63, 0x74, 0x69, 0x6f, 0x6e, 0x61, 0x6c, 0x5f, 0x31, 0x5f, 0x31,
  0x2f, 0x62, 0x61, 0x74, 0x63, 0x68, 0x5f, 0x6e, 0x6f, 0x72, 0x6d, 0x61,
  0x6c, 0x69, 0x7a, 0x61, 0x74, 0x69, 0x6f, 0x6e, 0x5f, 0x31, 0x2f, 0x62,
  0x61, 0x74, 0x63, 0x68, 0x6e, 0x6f, 0x72, 0x6d, 0x2f, 0x73, 0x75, 0x62,
  0x31, 0x00, 0x00, 0x00, 0x04, 0x00, 0x00, 0x00, 0x01, 0x00, 0x00, 0x00,
  0x60, 0x00, 0x00, 0x00, 0x60, 0x00, 0x00, 0x00, 0x08, 0x00, 0x00, 0x00,
  0xca, 0xe4, 0xff, 0xff, 0x00, 0x00, 0x00, 0x01, 0x14, 0x00, 0x00, 0x00,
  0x88, 0x00, 0x00, 0x00, 0x16, 0x00, 0x00, 0x00, 0x00, 0x00, 0x00, 0x09,
  0x94, 0x00, 0x00, 0x00, 0x44, 0xe4, 0xff, 0xff, 0x08, 0x00, 0x00, 0x00,
  0x4c, 0x00, 0x00, 0x00, 0x08, 0x00, 0x00, 0x00, 0x00, 0x00, 0x00, 0x00,
  0x00, 0x00, 0x00, 0x00, 0x00, 0x00, 0x00, 0x00, 0x00, 0x00, 0x00, 0x00,
  0x00, 0x00, 0x00, 0x00, 0x00, 0x00, 0x00, 0x00, 0x00, 0x00, 0x00, 0x00,
  0x00, 0x00, 0x00, 0x00, 0x00, 0x00, 0x00, 0x00, 0x00, 0x00, 0x00, 0x00,
  0x00, 0x00, 0x00, 0x00, 0x00, 0x00, 0x00, 0x00, 0x00, 0x00, 0x00, 0x00,
  0x00, 0x00, 0x00, 0x00, 0x00, 0x00, 0x00, 0x00, 0x00, 0x00, 0x00, 0x00,
  0x00, 0x00, 0x00, 0x00, 0x08, 0x00, 0x00, 0x00, 0x86, 0xe9, 0x37, 0x3b,
  0xcf, 0xb7, 0x15, 0x3b, 0x2f, 0x36, 0x5a, 0x3b, 0xcc, 0x81, 0x4b, 0x3b,
  0x4e, 0x81, 0x4c, 0x3b, 0x99, 0x1a, 0x2c, 0x3b, 0x3a, 0x09, 0x49, 0x3b,
  0xdc, 0x4f, 0x4e, 0x3b, 0x13, 0x00, 0x00, 0x00, 0x74, 0x66, 0x6c, 0x2e,
  0x70, 0x73, 0x65, 0x75, 0x64, 0x6f, 0x5f, 0x71, 0x63, 0x6f, 0x6e, 0x73,
  0x74, 0x31, 0x39, 0x00, 0x04, 0x00, 0x00, 0x00, 0x08, 0x00, 0x00, 0x00,
  0x03, 0x00, 0x00, 0x00, 0x03, 0x00, 0x00, 0x00, 0x01, 0x00, 0x00, 0x00,
  0x8a, 0xe5, 0xff, 0xff, 0x00, 0x00, 0x00, 0x01, 0x14, 0x00, 0x00, 0x00,
  0x88, 0x00, 0x00, 0x00, 0x15, 0x00, 0x00, 0x00, 0x00, 0x00, 0x00, 0x02,
  0x94, 0x00, 0x00, 0x00, 0x04, 0xe5, 0xff, 0xff, 0x08, 0x00, 0x00, 0x00,
  0x4c, 0x00, 0x00, 0x00, 0x08, 0x00, 0x00, 0x00, 0x00, 0x00, 0x00, 0x00,
  0x00, 0x00, 0x00, 0x00, 0x00, 0x00, 0x00, 0x00, 0x00, 0x00, 0x00, 0x00,
  0x00, 0x00, 0x00, 0x00, 0x00, 0x00, 0x00, 0x00, 0x00, 0x00, 0x00, 0x00,
  0x00, 0x00, 0x00, 0x00, 0x00, 0x00, 0x00, 0x00, 0x00, 0x00, 0x00, 0x00,
  0x00, 0x00, 0x00, 0x00, 0x00, 0x00, 0x00, 0x00, 0x00, 0x00, 0x00, 0x00,
  0x00, 0x00, 0x00, 0x00, 0x00, 0x00, 0x00, 0x00, 0x00, 0x00, 0x00, 0x00,
  0x00, 0x00, 0x00, 0x00, 0x08, 0x00, 0x00, 0x00, 0x29, 0xa2, 0x38, 0x37,
  0x1e, 0x4e, 0x16, 0x37, 0x41, 0x11, 0x5b, 0x37, 0x1b, 0x4e, 0x4c, 0x37,
  0x9d, 0x4e, 0x4d, 0x37, 0x61, 0xc7, 0x2c, 0x37, 0x0e, 0xd3, 0x49, 0x37,
  0xfc, 0x1e, 0x4f, 0x37, 0x13, 0x00, 0x00, 0x00, 0x74, 0x66, 0x6c, 0x2e,
  0x70, 0x73, 0x65, 0x75, 0x64, 0x6f, 0x5f, 0x71, 0x63, 0x6f, 0x6e, 0x73,
  0x74, 0x31, 0x38, 0x00, 0x01, 0x00, 0x00, 0x00, 0x08, 0x00, 0x00, 0x00,
  0x3e, 0xe6, 0xff, 0xff, 0x00, 0x00, 0x00, 0x01, 0x14, 0x00, 0x00, 0x00,
  0x8c, 0x00, 0x00, 0x00, 0x14, 0x00, 0x00, 0x00, 0x00, 0x00, 0x00, 0x09,
  0x98, 0x00, 0x00, 0x00, 0x72, 0xf0, 0xff, 0xff, 0x03, 0x00, 0x00, 0x00,
  0x08, 0x00, 0x00, 0x00, 0x4c, 0x00, 0x00, 0x00, 0x08, 0x00, 0x00, 0x00,
  0x00, 0x00, 0x00, 0x00, 0x00, 0x00, 0x00, 0x00, 0x00, 0x00, 0x00, 0x00,
  0x00, 0x00, 0x00, 0x00, 0x00, 0x00, 0x00, 0x00, 0x00, 0x00, 0x00, 0x00,
  0x00, 0x00, 0x00, 0x00, 0x00, 0x00, 0x00, 0x00, 0x00, 0x00, 0x00, 0x00,
  0x00, 0x00, 0x00, 0x00, 0x00, 0x00, 0x00, 0x00, 0x00, 0x00, 0x00, 0x00,
  0x00, 0x00, 0x00, 0x00, 0x00, 0x00, 0x00, 0x00, 0x00, 0x00, 0x00, 0x00,
  0x00, 0x00, 0x00, 0x00, 0x00, 0x00, 0x00, 0x00, 0x08, 0x00, 0x00, 0x00,
  0xf1, 0xf5, 0x5a, 0x3b, 0x7f, 0x61, 0x41, 0x3b, 0x72, 0x00, 0x3c, 0x3b,
  0x14, 0x7d, 0x4d, 0x3b, 0x2b, 0x73, 0x3d, 0x3b, 0x8b, 0x6c, 0x52, 0x3b,
  0x2c, 0xe2, 0x2b, 0x3b, 0x5d, 0x8f, 0x4a, 0x3b, 0x13, 0x00, 0x00, 0x00,
  0x74, 0x66, 0x6c, 0x2e, 0x70, 0x73, 0x65, 0x75, 0x64, 0x6f, 0x5f, 0x71,
  0x63, 0x6f, 0x6e, 0x73, 0x74, 0x31, 0x37, 0x00, 0x04, 0x00, 0x00, 0x00,
  0x01, 0x00, 0x00, 0x00, 0x03, 0x00, 0x00, 0x00, 0x03, 0x00, 0x00, 0x00,
  0x08, 0x00, 0x00, 0x00, 0x02, 0xe7, 0xff, 0xff, 0x00, 0x00, 0x00, 0x01,
  0x14, 0x00, 0x00, 0x00, 0x84, 0x00, 0x00, 0x00, 0x13, 0x00, 0x00, 0x00,
  0x00, 0x00, 0x00, 0x02, 0x90, 0x00, 0x00, 0x00, 0x7c, 0xe6, 0xff, 0xff,
  0x08, 0x00, 0x00, 0x00, 0x48, 0x00, 0x00, 0x00, 0x08, 0x00, 0x00, 0x00,
  0x00, 0x00, 0x00, 0x00, 0x00, 0x00, 0x00, 0x00, 0x00, 0x00, 0x00, 0x00,
  0x00, 0x00, 0x00, 0x00, 0x00, 0x00, 0x00, 0x00, 0x00, 0x00, 0x00, 0x00,
  0x00, 0x00, 0x00, 0x00, 0x00, 0x00, 0x00, 0x00, 0x00, 0x00, 0x00, 0x00,
  0x00, 0x00, 0x00, 0x00, 0x00, 0x00, 0x00, 0x00, 0x00, 0x00, 0x00, 0x00,
  0x00, 0x00, 0x00, 0x00, 0x00, 0x00, 0x00, 0x00, 0x00, 0x00, 0x00, 0x00,
  0x00, 0x00, 0x00, 0x00, 0x08, 0x00, 0x00, 0x00, 0x6e, 0x8a, 0x69, 0x37,
  0xf1, 0x41, 0x4e, 0x37, 0x32, 0x85, 0x48, 0x37, 0xeb, 0x2b, 0x5b, 0x37,
  0x9b, 0x10, 0x4a, 0x37, 0x83, 0x6f, 0x60, 0x37, 0x2a, 0x54, 0x37, 0x37,
  0x48, 0x0c, 0x58, 0x37, 0x13, 0x00, 0x00, 0x00, 0x74, 0x66, 0x6c, 0x2e,
  0x70, 0x73, 0x65, 0x75, 0x64, 0x6f, 0x5f, 0x71, 0x63, 0x6f, 0x6e, 0x73,
  0x74, 0x31, 0x36, 0x00, 0x01, 0x00, 0x00, 0x00, 0x08, 0x00, 0x00, 0x00,
  0xb2, 0xe7, 0xff, 0xff, 0x00, 0x00, 0x00, 0x01, 0x14, 0x00, 0x00, 0x00,
  0xe8, 0x00, 0x00, 0x00, 0x12, 0x00, 0x00, 0x00, 0x00, 0x00, 0x00, 0x09,
  0xf4, 0x00, 0x00, 0x00, 0x2c, 0xe7, 0xff, 0xff, 0x08, 0x00, 0x00, 0x00,
  0x8c, 0x00, 0x00, 0x00, 0x10, 0x00, 0x00, 0x00, 0x00, 0x00, 0x00, 0x00,
  0x00, 0x00, 0x00, 0x00, 0x00, 0x00, 0x00, 0x00, 0x00, 0x00, 0x00, 0x00,
  0x00, 0x00, 0x00, 0x00, 0x00, 0x00, 0x00, 0x00, 0x00, 0x00, 0x00, 0x00,
  0x00, 0x00, 0x00, 0x00, 0x00, 0x00, 0x00, 0x00, 0x00, 0x00, 0x00, 0x00,
  0x00, 0x00, 0x00, 0x00, 0x00, 0x00, 0x00, 0x00, 0x00, 0x00, 0x00, 0x00,
  0x00, 0x00, 0x00, 0x00, 0x00, 0x00, 0x00, 0x00, 0x00, 0x00, 0x00, 0x00,
  0x00, 0x00, 0x00, 0x00, 0x00, 0x00, 0x00, 0x00, 0x00, 0x00, 0x00, 0x00,
  0x00, 0x00, 0x00, 0x00, 0x00, 0x00, 0x00, 0x00, 0x00, 0x00, 0x00, 0x00,
  0x00, 0x00, 0x00, 0x00, 0x00, 0x00, 0x00, 0x00, 0x00, 0x00, 0x00, 0x00,
  0x00, 0x00, 0x00, 0x00, 0x00, 0x00, 0x00, 0x00, 0x00, 0x00, 0x00, 0x00,
  0x00, 0x00, 0x00, 0x00, 0x00, 0x00, 0x00, 0x00, 0x00, 0x00, 0x00, 0x00,
  0x00, 0x00, 0x00, 0x00, 0x00, 0x00, 0x00, 0x00, 0x10, 0x00, 0x00, 0x00,
  0xfa, 0xd7, 0xa1, 0x3b, 0xad, 0x16, 0xb5, 0x3b, 0x86, 0x67, 0xb9, 0x3b,
  0x46, 0x85, 0x9b, 0x3b, 0x80, 0x1f, 0x9e, 0x3b, 0x65, 0x02, 0xae, 0x3b,
  0xc3, 0x0c, 0xb2, 0x3b, 0xbb, 0x4e, 0xa1, 0x3b, 0x9a, 0x21, 0xb2, 0x3b,
  0x1d, 0xe6, 0xa7, 0x3b, 0xf0, 0xc0, 0xab, 0x3b, 0xb1, 0x7f, 0xa6, 0x3b,
  0x74, 0x14, 0x86, 0x3b, 0x87, 0x59, 0x9a, 0x3b, 0xa0, 0x33, 0x80, 0x3b,
  0xbc, 0x4c, 0xa9, 0x3b, 0x13, 0x00, 0x00, 0x00, 0x74, 0x66, 0x6c, 0x2e,
  0x70, 0x73, 0x65, 0x75, 0x64, 0x6f, 0x5f, 0x71, 0x63, 0x6f, 0x6e, 0x73,
  0x74, 0x31, 0x35, 0x00, 0x04, 0x00, 0x00, 0x00, 0x10, 0x00, 0x00, 0x00,
  0x01, 0x00, 0x00, 0x00, 0x01, 0x00, 0x00, 0x00, 0x08, 0x00, 0x00, 0x00,
  0xd2, 0xe8, 0xff, 0xff, 0x00, 0x00, 0x00, 0x01, 0x14, 0x00, 0x00, 0x00,
  0xe8, 0x00, 0x00, 0x00, 0x11, 0x00, 0x00, 0x00, 0x00, 0x00, 0x00, 0x02,
  0xf4, 0x00, 0x00, 0x00, 0x4c, 0xe8, 0xff, 0xff, 0x08, 0x00, 0x00, 0x00,
  0x8c, 0x00, 0x00, 0x00, 0x10, 0x00, 0x00, 0x00, 0x00, 0x00, 0x00, 0x00,
  0x00, 0x00, 0x00, 0x00, 0x00, 0x00, 0x00, 0x00, 0x00, 0x00, 0x00, 0x00,
  0x00, 0x00, 0x00, 0x00, 0x00, 0x00, 0x00, 0x00, 0x00, 0x00, 0x00, 0x00,
  0x00, 0x00, 0x00, 0x00, 0x00, 0x00, 0x00, 0x00, 0x00, 0x00, 0x00, 0x00,
  0x00, 0x00, 0x00, 0x00, 0x00, 0x00, 0x00, 0x00, 0x00, 0x00, 0x00, 0x00,
  0x00, 0x00, 0x00, 0x00, 0x00, 0x00, 0x00, 0x00, 0x00, 0x00, 0x00, 0x00,
  0x00, 0x00, 0x00, 0x00, 0x00, 0x00, 0x00, 0x00, 0x00, 0x00, 0x00, 0x00,
  0x00, 0x00, 0x00, 0x00, 0x00, 0x00, 0x00, 0x00, 0x00, 0x00, 0x00, 0x00,
  0x00, 0x00, 0x00, 0x00, 0x00, 0x00, 0x00, 0x00, 0x00, 0x00, 0x00, 0x00,
  0x00, 0x00, 0x00, 0x00, 0x00, 0x00, 0x00, 0x00, 0x00, 0x00, 0x00, 0x00,
  0x00, 0x00, 0x00, 0x00, 0x00, 0x00, 0x00, 0x00, 0x00, 0x00, 0x00, 0x00,
  0x00, 0x00, 0x00, 0x00, 0x00, 0x00, 0x00, 0x00, 0x10, 0x00, 0x00, 0x00,
  0x61, 0xc9, 0x28, 0x37, 0x6e, 0xdb, 0x3c, 0x37, 0xac, 0x5b, 0x41, 0x37,
  0x3c, 0x31, 0x22, 0x37, 0x0a, 0xe8, 0x24, 0x37, 0x67, 0x79, 0x35, 0x37,
  0x24, 0xb0, 0x39, 0x37, 0x3e, 0x3a, 0x28, 0x37, 0xe0, 0xc5, 0x39, 0x37,
  0x04, 0x1a, 0x2f, 0x37, 0x2c, 0x1f, 0x33, 0x37, 0x37, 0xa4, 0x2d, 0x37,
  0xf2, 0xd4, 0x0b, 0x37, 0xa1, 0xf8, 0x20, 0x37, 0x90, 0xb3, 0x05, 0x37,
  0x05, 0x90, 0x30, 0x37, 0x13, 0x00, 0x00, 0x00, 0x74, 0x66, 0x6c, 0x2e,
  0x70, 0x73, 0x65, 0x75, 0x64, 0x6f, 0x5f, 0x71, 0x63, 0x6f, 0x6e, 0x73,
  0x74, 0x31, 0x34, 0x00, 0x01, 0x00, 0x00, 0x00, 0x10, 0x00, 0x00, 0x00,
  0xe6, 0xe9, 0xff, 0xff, 0x00, 0x00, 0x00, 0x01, 0x14, 0x00, 0x00, 0x00,
  0xec, 0x00, 0x00, 0x00, 0x10, 0x00, 0x00, 0x00, 0x00, 0x00, 0x00, 0x09,
  0xf8, 0x00, 0x00, 0x00, 0x1a, 0xf4, 0xff, 0xff, 0x03, 0x00, 0x00, 0x00,
  0x08, 0x00, 0x00, 0x00, 0x8c, 0x00, 0x00, 0x00, 0x10, 0x00, 0x00, 0x00,
  0x00, 0x00, 0x00, 0x00, 0x00, 0x00, 0x00, 0x00, 0x00, 0x00, 0x00, 0x00,
  0x00, 0x00, 0x00, 0x00, 0x00, 0x00, 0x00, 0x00, 0x00, 0x00, 0x00, 0x00,
  0x00, 0x00, 0x00, 0x00, 0x00, 0x00, 0x00, 0x00, 0x00, 0x00, 0x00, 0x00,
  0x00, 0x00, 0x00, 0x00, 0x00, 0x00, 0x00, 0x00, 0x00, 0x00, 0x00, 0x00,
  0x00, 0x00, 0x00, 0x00, 0x00, 0x00, 0x00, 0x00, 0x00, 0x00, 0x00, 0x00,
  0x00, 0x00, 0x00, 0x00, 0x00, 0x00, 0x00, 0x00, 0x00, 0x00, 0x00, 0x00,
  0x00, 0x00, 0x00, 0x00, 0x00, 0x00, 0x00, 0x00, 0x00, 0x00, 0x00, 0x00,
  0x00, 0x00, 0x00, 0x00, 0x00, 0x00, 0x00, 0x00, 0x00, 0x00, 0x00, 0x00,
  0x00, 0x00, 0x00, 0x00, 0x00, 0x00, 0x00, 0x00, 0x00, 0x00, 0x00, 0x00,
  0x00, 0x00, 0x00, 0x00, 0x00, 0x00, 0x00, 0x00, 0x00, 0x00, 0x00, 0x00,
  0x00, 0x00, 0x00, 0x00, 0x00, 0x00, 0x00, 0x00, 0x00, 0x00, 0x00, 0x00,
  0x10, 0x00, 0x00, 0x00, 0xd4, 0x60, 0x10, 0x3b, 0xc4, 0xe5, 0x18, 0x3b,
  0xb4, 0x77, 0x0d, 0x3b, 0x99, 0xda, 0x1d, 0x3b, 0xd2, 0x14, 0x0e, 0x3b,
  0x0a, 0x16, 0x11, 0x3b, 0x90, 0x7a, 0x18, 0x3b, 0x6f, 0xe7, 0xdb, 0x3a,
  0x3e, 0x7a, 0x2d, 0x3b, 0xf5, 0x6f, 0x25, 0x3b, 0xa8, 0xce, 0x01, 0x3b,
  0xb1, 0x2c, 0xf5, 0x3a, 0xf1, 0xc6, 0x0d, 0x3b, 0x99, 0x7a, 0x09, 0x3b,
  0xa6, 0xef, 0x0b, 0x3b, 0xd4, 0x44, 0x26, 0x3b, 0x13, 0x00, 0x00, 0x00,
  0x74, 0x66, 0x6c, 0x2e, 0x70, 0x73, 0x65, 0x75, 0x64, 0x6f, 0x5f, 0x71,
  0x63, 0x6f, 0x6e, 0x73, 0x74, 0x31, 0x33, 0x00, 0x04, 0x00, 0x00, 0x00,
  0x01, 0x00, 0x00, 0x00, 0x03, 0x00, 0x00, 0x00, 0x03, 0x00, 0x00, 0x00,
  0x10, 0x00, 0x00, 0x00, 0x0a, 0xeb, 0xff, 0xff, 0x00, 0x00, 0x00, 0x01,
  0x14, 0x00, 0x00, 0x00, 0xe4, 0x00, 0x00, 0x00, 0x0f, 0x00, 0x00, 0x00,
  0x00, 0x00, 0x00, 0x02, 0xf0, 0x00, 0x00, 0x00, 0x84, 0xea, 0xff, 0xff,
  0x08, 0x00, 0x00, 0x00, 0x88, 0x00, 0x00, 0x00, 0x10, 0x00, 0x00, 0x00,
  0x00, 0x00, 0x00, 0x00, 0x00, 0x00, 0x00, 0x00, 0x00, 0x00, 0x00, 0x00,
  0x00, 0x00, 0x00, 0x00, 0x00, 0x00, 0x00, 0x00, 0x00, 0x00, 0x00, 0x00,
  0x00, 0x00, 0x00, 0x00, 0x00, 0x00, 0x00, 0x00, 0x00, 0x00, 0x00, 0x00,
  0x00, 0x00, 0x00, 0x00, 0x00, 0x00, 0x00, 0x00, 0x00, 0x00, 0x00, 0x00,
  0x00, 0x00, 0x00, 0x00, 0x00, 0x00, 0x00, 0x00, 0x00, 0x00, 0x00, 0x00,
  0x00, 0x00, 0x00, 0x00, 0x00, 0x00, 0x00, 0x00, 0x00, 0x00, 0x00, 0x00,
  0x00, 0x00, 0x00, 0x00, 0x00, 0x00, 0x00, 0x00, 0x00, 0x00, 0x00, 0x00,
  0x00, 0x00, 0x00, 0x00, 0x00, 0x00, 0x00, 0x00, 0x00, 0x00, 0x00, 0x00,
  0x00, 0x00, 0x00, 0x00, 0x00, 0x00, 0x00, 0x00, 0x00, 0x00, 0x00, 0x00,
  0x00, 0x00, 0x00, 0x00, 0x00, 0x00, 0x00, 0x00, 0x00, 0x00, 0x00, 0x00,
  0x00, 0x00, 0x00, 0x00, 0x00, 0x00, 0x00, 0x00, 0x10, 0x00, 0x00, 0x00,
  0x4d, 0xf9, 0x88, 0x36, 0x64, 0x0e, 0x91, 0x36, 0x64, 0x36, 0x86, 0x36,
  0x27, 0xc2, 0x95, 0x36, 0x73, 0xcb, 0x86, 0x36, 0x38, 0xa5, 0x89, 0x36,
  0xaf, 0xa8, 0x90, 0x36, 0x56, 0xa0, 0x50, 0x36, 0xad, 0x94, 0xa4, 0x36,
  0xf3, 0xf3, 0x9c, 0x36, 0xdd, 0x4c, 0x76, 0x36, 0xd2, 0x99, 0x68, 0x36,
  0x91, 0x81, 0x86, 0x36, 0xa7, 0x6d, 0x82, 0x36, 0x71, 0xc2, 0x84, 0x36,
  0xe7, 0xbd, 0x9d, 0x36, 0x13, 0x00, 0x00, 0x00, 0x74, 0x66, 0x6c, 0x2e,
  0x70, 0x73, 0x65, 0x75, 0x64, 0x6f, 0x5f, 0x71, 0x63, 0x6f, 0x6e, 0x73,
  0x74, 0x31, 0x32, 0x00, 0x01, 0x00, 0x00, 0x00, 0x10, 0x00, 0x00, 0x00,
  0x1a, 0xec, 0xff, 0xff, 0x00, 0x00, 0x00, 0x01, 0x14, 0x00, 0x00, 0x00,
  0x48, 0x01, 0x00, 0x00, 0x0e, 0x00, 0x00, 0x00, 0x00, 0x00, 0x00, 0x09,
  0x54, 0x01, 0x00, 0x00, 0x94, 0xeb, 0xff, 0xff, 0x08, 0x00, 0x00, 0x00,
  0xcc, 0x00, 0x00, 0x00, 0x18, 0x00, 0x00, 0x00, 0x00, 0x00, 0x00, 0x00,
  0x00, 0x00, 0x00, 0x00, 0x00, 0x00, 0x00, 0x00, 0x00, 0x00, 0x00, 0x00,
  0x00, 0x00, 0x00, 0x00, 0x00, 0x00, 0x00, 0x00, 0x00, 0x00, 0x00, 0x00,
  0x00, 0x00, 0x00, 0x00, 0x00, 0x00, 0x00, 0x00, 0x00, 0x00, 0x00, 0x00,
  0x00, 0x00, 0x00, 0x00, 0x00, 0x00, 0x00, 0x00, 0x00, 0x00, 0x00, 0x00,
  0x00, 0x00, 0x00, 0x00, 0x00, 0x00, 0x00, 0x00, 0x00, 0x00, 0x00, 0x00,
  0x00, 0x00, 0x00, 0x00, 0x00, 0x00, 0x00, 0x00, 0x00, 0x00, 0x00, 0x00,
  0x00, 0x00, 0x00, 0x00, 0x00, 0x00, 0x00, 0x00, 0x00, 0x00, 0x00, 0x00,
  0x00, 0x00, 0x00, 0x00, 0x00, 0x00, 0x00, 0x00, 0x00, 0x00, 0x00, 0x00,
  0x00, 0x00, 0x00, 0x00, 0x00, 0x00, 0x00, 0x00, 0x00, 0x00, 0x00, 0x00,
  0x00, 0x00, 0x00, 0x00, 0x00, 0x00, 0x00, 0x00, 0x00, 0x00, 0x00, 0x00,
  0x00, 0x00, 0x00, 0x00, 0x00, 0x00, 0x00, 0x00, 0x00, 0x00, 0x00, 0x00,
  0x00, 0x00, 0x00, 0x00, 0x00, 0x00, 0x00, 0x00, 0x00, 0x00, 0x00, 0x00,
  0x00, 0x00, 0x00, 0x00, 0x00, 0x00, 0x00, 0x00, 0x00, 0x00, 0x00, 0x00,
  0x00, 0x00, 0x00, 0x00, 0x00, 0x00, 0x00, 0x00, 0x00, 0x00, 0x00, 0x00,
  0x00, 0x00, 0x00, 0x00, 0x00, 0x00, 0x00, 0x00, 0x00, 0x00, 0x00, 0x00,
  0x00, 0x00, 0x00, 0x00, 0x00, 0x00, 0x00, 0x00, 0x00, 0x00, 0x00, 0x00,
  0x18, 0x00, 0x00, 0x00, 0xfc, 0xed, 0x6f, 0x3b, 0xd1, 0x83, 0x82, 0x3b,
  0x83, 0x29, 0x7f, 0x3b, 0x58, 0x65, 0x82, 0x3b, 0xf8, 0x6c, 0x77, 0x3b,
  0x6d, 0x36, 0x69, 0x3b, 0x83, 0x64, 0x81, 0x3b, 0xa2, 0xb0, 0x57, 0x3b,
  0xe8, 0x60, 0x77, 0x3b, 0x1b, 0x54, 0x69, 0x3b, 0x91, 0xb0, 0x7f, 0x3b,
  0xf0, 0x1d, 0x6d, 0x3b, 0x9d, 0x0e, 0x81, 0x3b, 0xe6, 0x5e, 0x6e, 0x3b,
  0x5d, 0xf1, 0x71, 0x3b, 0x9b, 0xda, 0x76, 0x3b, 0x3c, 0x16, 0x6e, 0x3b,
  0x18, 0xfc, 0x91, 0x3b, 0x16, 0x35, 0x7f, 0x3b, 0x8d, 0x1a, 0x4a, 0x3b,
  0x6e, 0x0e, 0x7a, 0x3b, 0x44, 0x08, 0x6b, 0x3b, 0xf0, 0x88, 0x4d, 0x3b,
  0x26, 0x7b, 0x79, 0x3b, 0x13, 0x00, 0x00, 0x00, 0x74, 0x66, 0x6c, 0x2e,
  0x70, 0x73, 0x65, 0x75, 0x64, 0x6f, 0x5f, 0x71, 0x63, 0x6f, 0x6e, 0x73,
  0x74, 0x31, 0x31, 0x00, 0x04, 0x00, 0x00, 0x00, 0x18, 0x00, 0x00, 0x00,
  0x01, 0x00, 0x00, 0x00, 0x01, 0x00, 0x00, 0x00, 0x10, 0x00, 0x00, 0x00,
  0x9a, 0xed, 0xff, 0xff, 0x00, 0x00, 0x00, 0x01, 0x14, 0x00, 0x00, 0x00,
  0x48, 0x01, 0x00, 0x00, 0x0d, 0x00, 0x00, 0x00, 0x00, 0x00, 0x00, 0x02,
  0x54, 0x01, 0x00, 0x00, 0x14, 0xed, 0xff, 0xff, 0x08, 0x00, 0x00, 0x00,
  0xcc, 0x00, 0x00, 0x00, 0x18, 0x00, 0x00, 0x00, 0x00, 0x00, 0x00, 0x00,
  0x00, 0x00, 0x00, 0x00, 0x00, 0x00, 0x00, 0x00, 0x00, 0x00, 0x00, 0x00,
  0x00, 0x00, 0x00, 0x00, 0x00, 0x00, 0x00, 0x00, 0x00, 0x00, 0x00, 0x00,
  0x00, 0x00, 0x00, 0x00, 0x00, 0x00, 0x00, 0x00, 0x00, 0x00, 0x00, 0x00,
  0x00, 0x00, 0x00, 0x00, 0x00, 0x00, 0x00, 0x00, 0x00, 0x00, 0x00, 0x00,
  0x00, 0x00, 0x00, 0x00, 0x00, 0x00, 0x00, 0x00, 0x00, 0x00, 0x00, 0x00,
  0x00, 0x00, 0x00, 0x00, 0x00, 0x00, 0x00, 0x00, 0x00, 0x00, 0x00, 0x00,
  0x00, 0x00, 0x00, 0x00, 0x00, 0x00, 0x00, 0x00, 0x00, 0x00, 0x00, 0x00,
  0x00, 0x00, 0x00, 0x00, 0x00, 0x00, 0x00, 0x00, 0x00, 0x00, 0x00, 0x00,
  0x00, 0x00, 0x00, 0x00, 0x00, 0x00, 0x00, 0x00, 0x00, 0x00, 0x00, 0x00,
  0x00, 0x00, 0x00, 0x00, 0x00, 0x00, 0x00, 0x00, 0x00, 0x00, 0x00, 0x00,
  0x00, 0x00, 0x00, 0x00, 0x00, 0x00, 0x00, 0x00, 0x00, 0x00, 0x00, 0x00,
  0x00, 0x00, 0x00, 0x00, 0x00, 0x00, 0x00, 0x00, 0x00, 0x00, 0x00, 0x00,
  0x00, 0x00, 0x00, 0x00, 0x00, 0x00, 0x00, 0x00, 0x00, 0x00, 0x00, 0x00,
  0x00, 0x00, 0x00, 0x00, 0x00, 0x00, 0x00, 0x00, 0x00, 0x00, 0x00, 0x00,
  0x00, 0x00, 0x00, 0x00, 0x00, 0x00, 0x00, 0x00, 0x00, 0x00, 0x00, 0x00,
  0x00, 0x00, 0x00, 0x00, 0x00, 0x00, 0x00, 0x00, 0x00, 0x00, 0x00, 0x00,
  0x18, 0x00, 0x00, 0x00, 0x85, 0xe7, 0x42, 0x36, 0x7e, 0x0b, 0x54, 0x36,
  0x42, 0x47, 0x4f, 0x36, 0xfc, 0xd9, 0x53, 0x36, 0x63, 0xfe, 0x48, 0x36,
  0xa7, 0x72, 0x3d, 0x36, 0xb7, 0x38, 0x52, 0x36, 0xaa, 0x36, 0x2f, 0x36,
  0x96, 0xf4, 0x48, 0x36, 0xc3, 0x8a, 0x3d, 0x36, 0xf8, 0xb4, 0x4f, 0x36,
  0x98, 0x9e, 0x40, 0x36, 0x28, 0xad, 0x51, 0x36, 0x53, 0xa3, 0x41, 0x36,
  0x2e, 0x8a, 0x44, 0x36, 0x7d, 0x87, 0x48, 0x36, 0x4c, 0x68, 0x41, 0x36,
  0xac, 0x2d, 0x6d, 0x36, 0xa9, 0x50, 0x4f, 0x36, 0x48, 0x2d, 0x24, 0x36,
  0x77, 0x21, 0x4b, 0x36, 0x12, 0xed, 0x3e, 0x36, 0xd4, 0xf6, 0x26, 0x36,
  0xd2, 0xa9, 0x4a, 0x36, 0x13, 0x00, 0x00, 0x00, 0x74, 0x66, 0x6c, 0x2e,
  0x70, 0x73, 0x65, 0x75, 0x64, 0x6f, 0x5f, 0x71, 0x63, 0x6f, 0x6e, 0x73,
  0x74, 0x31, 0x30, 0x00, 0x01, 0x00, 0x00, 0x00, 0x18, 0x00, 0x00, 0x00,
  0x0e, 0xef, 0xff, 0xff, 0x00, 0x00, 0x00, 0x01, 0x14, 0x00, 0x00, 0x00,
  0x4c, 0x01, 0x00, 0x00, 0x0c, 0x00, 0x00, 0x00, 0x00, 0x00, 0x00, 0x09,
  0x58, 0x01, 0x00, 0x00, 0x42, 0xf9, 0xff, 0xff, 0x03, 0x00, 0x00, 0x00,
  0x08, 0x00, 0x00, 0x00, 0xcc, 0x00, 0x00, 0x00, 0x18, 0x00, 0x00, 0x00,
  0x00, 0x00, 0x00, 0x00, 0x00, 0x00, 0x00, 0x00, 0x00, 0x00, 0x00, 0x00,
  0x00, 0x00, 0x00, 0x00, 0x00, 0x00, 0x00, 0x00, 0x00, 0x00, 0x00, 0x00,
  0x00, 0x00, 0x00, 0x00, 0x00, 0x00, 0x00, 0x00, 0x00, 0x00, 0x00, 0x00,
  0x00, 0x00, 0x00, 0x00, 0x00, 0x00, 0x00, 0x00, 0x00, 0x00, 0x00, 0x00,
  0x00, 0x00, 0x00, 0x00, 0x00, 0x00, 0x00, 0x00, 0x00, 0x00, 0x00, 0x00,
  0x00, 0x00, 0x00, 0x00, 0x00, 0x00, 0x00, 0x00, 0x00, 0x00, 0x00, 0x00,
  0x00, 0x00, 0x00, 0x00, 0x00, 0x00, 0x00, 0x00, 0x00, 0x00, 0x00, 0x00,
  0x00, 0x00, 0x00, 0x00, 0x00, 0x00, 0x00, 0x00, 0x00, 0x00, 0x00, 0x00,
  0x00, 0x00, 0x00, 0x00, 0x00, 0x00, 0x00, 0x00, 0x00, 0x00, 0x00, 0x00,
  0x00, 0x00, 0x00, 0x00, 0x00, 0x00, 0x00, 0x00, 0x00, 0x00, 0x00, 0x00,
  0x00, 0x00, 0x00, 0x00, 0x00, 0x00, 0x00, 0x00, 0x00, 0x00, 0x00, 0x00,
  0x00, 0x00, 0x00, 0x00, 0x00, 0x00, 0x00, 0x00, 0x00, 0x00, 0x00, 0x00,
  0x00, 0x00, 0x00, 0x00, 0x00, 0x00, 0x00, 0x00, 0x00, 0x00, 0x00, 0x00,
  0x00, 0x00, 0x00, 0x00, 0x00, 0x00, 0x00, 0x00, 0x00, 0x00, 0x00, 0x00,
  0x00, 0x00, 0x00, 0x00, 0x00, 0x00, 0x00, 0x00, 0x00, 0x00, 0x00, 0x00,
  0x00, 0x00, 0x00, 0x00, 0x00, 0x00, 0x00, 0x00, 0x00, 0x00, 0x00, 0x00,
  0x00, 0x00, 0x00, 0x00, 0x18, 0x00, 0x00, 0x00, 0x30, 0x16, 0xa6, 0x3a,
  0x74, 0xb6, 0xf2, 0x3a, 0xa4, 0x08, 0xd9, 0x3a, 0x6a, 0x8f, 0xf0, 0x3a,
  0xe6, 0x87, 0xf4, 0x3a, 0xbb, 0x89, 0xc7, 0x3a, 0xad, 0xd3, 0xe9, 0x3a,
  0xf0, 0x46, 0xb9, 0x3a, 0xfb, 0x2b, 0xdc, 0x3a, 0xad, 0x68, 0xd2, 0x3a,
  0x10, 0xc1, 0x00, 0x3b, 0x25, 0x1c, 0xe5, 0x3a, 0x67, 0x3d, 0xff, 0x3a,
  0x16, 0xaf, 0x01, 0x3b, 0xa6, 0x61, 0x04, 0x3b, 0x1c, 0xa4, 0xf6, 0x3a,
  0x3c, 0xc7, 0x00, 0x3b, 0x35, 0xc0, 0x07, 0x3b, 0xc5, 0xe9, 0xd6, 0x3a,
  0x65, 0xa9, 0xd4, 0x3a, 0x18, 0x0a, 0x05, 0x3b, 0x21, 0x9e, 0xf8, 0x3a,
  0x66, 0x62, 0xe1, 0x3a, 0xcf, 0xc8, 0xfd, 0x3a, 0x12, 0x00, 0x00, 0x00,
  0x74, 0x66, 0x6c, 0x2e, 0x70, 0x73, 0x65, 0x75, 0x64, 0x6f, 0x5f, 0x71,
  0x63, 0x6f, 0x6e, 0x73, 0x74, 0x39, 0x00, 0x00, 0x04, 0x00, 0x00, 0x00,
  0x01, 0x00, 0x00, 0x00, 0x03, 0x00, 0x00, 0x00, 0x03, 0x00, 0x00, 0x00,
  0x18, 0x00, 0x00, 0x00, 0x92, 0xf0, 0xff, 0xff, 0x00, 0x00, 0x00, 0x01,
  0x14, 0x00, 0x00, 0x00, 0x44, 0x01, 0x00, 0x00, 0x0b, 0x00, 0x00, 0x00,
  0x00, 0x00, 0x00, 0x02, 0x50, 0x01, 0x00, 0x00, 0x0c, 0xf0, 0xff, 0xff,
  0x08, 0x00, 0x00, 0x00, 0xc8, 0x00, 0x00, 0x00, 0x18, 0x00, 0x00, 0x00,
  0x00, 0x00, 0x00, 0x00, 0x00, 0x00, 0x00, 0x00, 0x00, 0x00, 0x00, 0x00,
  0x00, 0x00, 0x00, 0x00, 0x00, 0x00, 0x00, 0x00, 0x00, 0x00, 0x00, 0x00,
  0x00, 0x00, 0x00, 0x00, 0x00, 0x00, 0x00, 0x00, 0x00, 0x00, 0x00, 0x00,
  0x00, 0x00, 0x00, 0x00, 0x00, 0x00, 0x00, 0x00, 0x00, 0x00, 0x00, 0x00,
  0x00, 0x00, 0x00, 0x00, 0x00, 0x00, 0x00, 0x00, 0x00, 0x00, 0x00, 0x00,
  0x00, 0x00, 0x00, 0x00, 0x00, 0x00, 0x00, 0x00, 0x00, 0x00, 0x00, 0x00,
  0x00, 0x00, 0x00, 0x00, 0x00, 0x00, 0x00, 0x00, 0x00, 0x00, 0x00, 0x00,
  0x00, 0x00, 0x00, 0x00, 0x00, 0x00, 0x00, 0x00, 0x00, 0x00, 0x00, 0x00,
  0x00, 0x00, 0x00, 0x00, 0x00, 0x00, 0x00, 0x00, 0x00, 0x00, 0x00, 0x00,
  0x00, 0x00, 0x00, 0x00, 0x00, 0x00, 0x00, 0x00, 0x00, 0x00, 0x00, 0x00,
  0x00, 0x00, 0x00, 0x00, 0x00, 0x00, 0x00, 0x00, 0x00, 0x00, 0x00, 0x00,
  0x00, 0x00, 0x00, 0x00, 0x00, 0x00, 0x00, 0x00, 0x00, 0x00, 0x00, 0x00,
  0x00, 0x00, 0x00, 0x00, 0x00, 0x00, 0x00, 0x00, 0x00, 0x00, 0x00, 0x00,
  0x00, 0x00, 0x00, 0x00, 0x00, 0x00, 0x00, 0x00, 0x00, 0x00, 0x00, 0x00,
  0x00, 0x00, 0x00, 0x00, 0x00, 0x00, 0x00, 0x00, 0x00, 0x00, 0x00, 0x00,
  0x00, 0x00, 0x00, 0x00, 0x00, 0x00, 0x00, 0x00, 0x00, 0x00, 0x00, 0x00,
  0x18, 0x00, 0x00, 0x00, 0x9a, 0x83, 0xb7, 0x35, 0x19, 0x17, 0x06, 0x36,
  0x98, 0xce, 0xef, 0x35, 0xab, 0xe6, 0x04, 0x36, 0x3d, 0x18, 0x07, 0x36,
  0xb7, 0x79, 0xdc, 0x35, 0x5d, 0x2e, 0x01, 0x36, 0xd8, 0xb7, 0xcc, 0x35,
  0x3a, 0x46, 0xf3, 0x35, 0xac, 0x7c, 0xe8, 0x35, 0xa7, 0x43, 0x0e, 0x36,
  0x7d, 0x26, 0xfd, 0x35, 0xd3, 0x02, 0x0d, 0x36, 0xa7, 0x4a, 0x0f, 0x36,
  0xad, 0x45, 0x12, 0x36, 0xb0, 0x42, 0x08, 0x36, 0x79, 0x4a, 0x0e, 0x36,
  0xbe, 0xfe, 0x15, 0x36, 0xc3, 0x76, 0xed, 0x35, 0xe8, 0xf9, 0xea, 0x35,
  0xcb, 0xff, 0x12, 0x36, 0x3f, 0x5a, 0x09, 0x36, 0xab, 0x08, 0xf9, 0x35,
  0xfb, 0x34, 0x0c, 0x36, 0x12, 0x00, 0x00, 0x00, 0x74, 0x66, 0x6c, 0x2e,
  0x70, 0x73, 0x65, 0x75, 0x64, 0x6f, 0x5f, 0x71, 0x63, 0x6f, 0x6e, 0x73,
  0x74, 0x38, 0x00, 0x00, 0x01, 0x00, 0x00, 0x00, 0x18, 0x00, 0x00, 0x00,
  0x02, 0xf2, 0xff, 0xff, 0x00, 0x00, 0x00, 0x01, 0x14, 0x00, 0x00, 0x00,
  0xa8, 0x01, 0x00, 0x00, 0x0a, 0x00, 0x00, 0x00, 0x00, 0x00, 0x00, 0x09,
  0xb4, 0x01, 0x00, 0x00, 0x7c, 0xf1, 0xff, 0xff, 0x08, 0x00, 0x00, 0x00,
  0x0c, 0x01, 0x00, 0x00, 0x20, 0x00, 0x00, 0x00, 0x00, 0x00, 0x00, 0x00,
  0x00, 0x00, 0x00, 0x00, 0x00, 0x00, 0x00, 0x00, 0x00, 0x00, 0x00, 0x00,
  0x00, 0x00, 0x00, 0x00, 0x00, 0x00, 0x00, 0x00, 0x00, 0x00, 0x00, 0x00,
  0x00, 0x00, 0x00, 0x00, 0x00, 0x00, 0x00, 0x00, 0x00, 0x00, 0x00, 0x00,
  0x00, 0x00, 0x00, 0x00, 0x00, 0x00, 0x00, 0x00, 0x00, 0x00, 0x00, 0x00,
  0x00, 0x00, 0x00, 0x00, 0x00, 0x00, 0x00, 0x00, 0x00, 0x00, 0x00, 0x00,
  0x00, 0x00, 0x00, 0x00, 0x00, 0x00, 0x00, 0x00, 0x00, 0x00, 0x00, 0x00,
  0x00, 0x00, 0x00, 0x00, 0x00, 0x00, 0x00, 0x00, 0x00, 0x00, 0x00, 0x00,
  0x00, 0x00, 0x00, 0x00, 0x00, 0x00, 0x00, 0x00, 0x00, 0x00, 0x00, 0x00,
  0x00, 0x00, 0x00, 0x00, 0x00, 0x00, 0x00, 0x00, 0x00, 0x00, 0x00, 0x00,
  0x00, 0x00, 0x00, 0x00, 0x00, 0x00, 0x00, 0x00, 0x00, 0x00, 0x00, 0x00,
  0x00, 0x00, 0x00, 0x00, 0x00, 0x00, 0x00, 0x00, 0x00, 0x00, 0x00, 0x00,
  0x00, 0x00, 0x00, 0x00, 0x00, 0x00, 0x00, 0x00, 0x00, 0x00, 0x00, 0x00,
  0x00, 0x00, 0x00, 0x00, 0x00, 0x00, 0x00, 0x00, 0x00, 0x00, 0x00, 0x00,
  0x00, 0x00, 0x00, 0x00, 0x00, 0x00, 0x00, 0x00, 0x00, 0x00, 0x00, 0x00,
  0x00, 0x00, 0x00, 0x00, 0x00, 0x00, 0x00, 0x00, 0x00, 0x00, 0x00, 0x00,
  0x00, 0x00, 0x00, 0x00, 0x00, 0x00, 0x00, 0x00, 0x00, 0x00, 0x00, 0x00,
  0x00, 0x00, 0x00, 0x00, 0x00, 0x00, 0x00, 0x00, 0x00, 0x00, 0x00, 0x00,
  0x00, 0x00, 0x00, 0x00, 0x00, 0x00, 0x00, 0x00, 0x00, 0x00, 0x00, 0x00,
  0x00, 0x00, 0x00, 0x00, 0x00, 0x00, 0x00, 0x00, 0x00, 0x00, 0x00, 0x00,
  0x00, 0x00, 0x00, 0x00, 0x00, 0x00, 0x00, 0x00, 0x00, 0x00, 0x00, 0x00,
  0x00, 0x00, 0x00, 0x00, 0x00, 0x00, 0x00, 0x00, 0x00, 0x00, 0x00, 0x00,
  0x00, 0x00, 0x00, 0x00, 0x20, 0x00, 0x00, 0x00, 0x5a, 0x32, 0x51, 0x3b,
  0xce, 0xdd, 0x5b, 0x3b, 0x9a, 0x20, 0x76, 0x3b, 0x5a, 0xc5, 0x64, 0x3b,
  0x33, 0x15, 0x4f, 0x3b, 0x7f, 0xe4, 0x5e, 0x3b, 0x5c, 0x66, 0x47, 0x3b,
  0xd3, 0x81, 0x61, 0x3b, 0x30, 0xd9, 0x5a, 0x3b, 0x1e, 0xd7, 0x47, 0x3b,
  0xac, 0x69, 0x70, 0x3b, 0x68, 0x00, 0x59, 0x3b, 0x5e, 0xf1, 0x60, 0x3b,
  0xd5, 0x42, 0x6e, 0x3b, 0x1e, 0x06, 0x83, 0x3b, 0x21, 0x0f, 0x61, 0x3b,
  0x82, 0xc2, 0x54, 0x3b, 0x0a, 0x3f, 0x47, 0x3b, 0x42, 0x99, 0x68, 0x3b,
  0xfe, 0x52, 0x6c, 0x3b, 0x3a, 0xc5, 0x39, 0x3b, 0xd7, 0xc2, 0x5a, 0x3b,
  0x3f, 0x9f, 0x63, 0x3b, 0xa2, 0xda, 0x33, 0x3b, 0x1b, 0xb1, 0x5c, 0x3b,
  0x82, 0x22, 0x57, 0x3b, 0x02, 0x17, 0x5a, 0x3b, 0x70, 0x76, 0x62, 0x3b,
  0x15, 0xba, 0x52, 0x3b, 0xab, 0xa0, 0x5d, 0x3b, 0xc5, 0x89, 0x62, 0x3b,
  0xd0, 0xbd, 0x6a, 0x3b, 0x12, 0x00, 0x00, 0x00, 0x74, 0x66, 0x6c, 0x2e,
  0x70, 0x73, 0x65, 0x75, 0x64, 0x6f, 0x5f, 0x71, 0x63, 0x6f, 0x6e, 0x73,
  0x74, 0x37, 0x00, 0x00, 0x04, 0x00, 0x00, 0x00, 0x20, 0x00, 0x00, 0x00,
  0x01, 0x00, 0x00, 0x00, 0x01, 0x00, 0x00, 0x00, 0x18, 0x00, 0x00, 0x00,
  0xe2, 0xf3, 0xff, 0xff, 0x00, 0x00, 0x00, 0x01, 0x14, 0x00, 0x00, 0x00,
  0xa4, 0x01, 0x00, 0x00, 0x09, 0x00, 0x00, 0x00, 0x00, 0x00, 0x00, 0x02,
  0xb0, 0x01, 0x00, 0x00, 0x5c, 0xf3, 0xff, 0xff, 0x08, 0x00, 0x00, 0x00,
  0x08, 0x01, 0x00, 0x00, 0x20, 0x00, 0x00, 0x00, 0x00, 0x00, 0x00, 0x00,
  0x00, 0x00, 0x00, 0x00, 0x00, 0x00, 0x00, 0x00, 0x00, 0x00, 0x00, 0x00,
  0x00, 0x00, 0x00, 0x00, 0x00, 0x00, 0x00, 0x00, 0x00, 0x00, 0x00, 0x00,
  0x00, 0x00, 0x00, 0x00, 0x00, 0x00, 0x00, 0x00, 0x00, 0x00, 0x00, 0x00,
  0x00, 0x00, 0x00, 0x00, 0x00, 0x00, 0x00, 0x00, 0x00, 0x00, 0x00, 0x00,
  0x00, 0x00, 0x00, 0x00, 0x00, 0x00, 0x00, 0x00, 0x00, 0x00, 0x00, 0x00,
  0x00, 0x00, 0x00, 0x00, 0x00, 0x00, 0x00, 0x00, 0x00, 0x00, 0x00, 0x00,
  0x00, 0x00, 0x00, 0x00, 0x00, 0x00, 0x00, 0x00, 0x00, 0x00, 0x00, 0x00,
  0x00, 0x00, 0x00, 0x00, 0x00, 0x00, 0x00, 0x00, 0x00, 0x00, 0x00, 0x00,
  0x00, 0x00, 0x00, 0x00, 0x00, 0x00, 0x00, 0x00, 0x00, 0x00, 0x00, 0x00,
  0x00, 0x00, 0x00, 0x00, 0x00, 0x00, 0x00, 0x00, 0x00, 0x00, 0x00, 0x00,
  0x00, 0x00, 0x00, 0x00, 0x00, 0x00, 0x00, 0x00, 0x00, 0x00, 0x00, 0x00,
  0x00, 0x00, 0x00, 0x00, 0x00, 0x00, 0x00, 0x00, 0x00, 0x00, 0x00, 0x00,
  0x00, 0x00, 0x00, 0x00, 0x00, 0x00, 0x00, 0x00, 0x00, 0x00, 0x00, 0x00,
  0x00, 0x00, 0x00, 0x00, 0x00, 0x00, 0x00, 0x00, 0x00, 0x00, 0x00, 0x00,
  0x00, 0x00, 0x00, 0x00, 0x00, 0x00, 0x00, 0x00, 0x00, 0x00, 0x00, 0x00,
  0x00, 0x00, 0x00, 0x00, 0x00, 0x00, 0x00, 0x00, 0x00, 0x00, 0x00, 0x00,
  0x00, 0x00, 0x00, 0x00, 0x00, 0x00, 0x00, 0x00, 0x00, 0x00, 0x00, 0x00,
  0x00, 0x00, 0x00, 0x00, 0x00, 0x00, 0x00, 0x00, 0x00, 0x00, 0x00, 0x00,
  0x00, 0x00, 0x00, 0x00, 0x00, 0x00, 0x00, 0x00, 0x00, 0x00, 0x00, 0x00,
  0x00, 0x00, 0x00, 0x00, 0x00, 0x00, 0x00, 0x00, 0x00, 0x00, 0x00, 0x00,
  0x00, 0x00, 0x00, 0x00, 0x00, 0x00, 0x00, 0x00, 0x00, 0x00, 0x00, 0x00,
  0x20, 0x00, 0x00, 0x00, 0xa7, 0x6f, 0x39, 0x36, 0xde, 0xe4, 0x42, 0x36,
  0x17, 0x2c, 0x5a, 0x36, 0x81, 0xc9, 0x4a, 0x36, 0xf7, 0x8f, 0x37, 0x36,
  0x92, 0x93, 0x45, 0x36, 0x84, 0xc0, 0x30, 0x36, 0xe0, 0xe4, 0x47, 0x36,
  0xda, 0xfd, 0x41, 0x36, 0x78, 0x24, 0x31, 0x36, 0x52, 0x1b, 0x55, 0x36,
  0xc5, 0x5a, 0x40, 0x36, 0xd3, 0x64, 0x47, 0x36, 0x0b, 0x33, 0x53, 0x36,
  0xd0, 0x48, 0x68, 0x36, 0x35, 0x7f, 0x47, 0x36, 0x35, 0x98, 0x3c, 0x36,
  0xaa, 0x9d, 0x30, 0x36, 0x1d, 0x2e, 0x4e, 0x36, 0x85, 0x7b, 0x51, 0x36,
  0xae, 0xab, 0x24, 0x36, 0x0b, 0xea, 0x41, 0x36, 0xcd, 0xc4, 0x49, 0x36,
  0x1d, 0x6d, 0x1f, 0x36, 0x2b, 0xa0, 0x43, 0x36, 0x26, 0xb3, 0x3e, 0x36,
  0xba, 0x51, 0x41, 0x36, 0xb4, 0xbd, 0x48, 0x36, 0xe4, 0xca, 0x3a, 0x36,
  0x85, 0x74, 0x44, 0x36, 0xd7, 0xce, 0x48, 0x36, 0x5d, 0x14, 0x50, 0x36,
  0x12, 0x00, 0x00, 0x00, 0x74, 0x66, 0x6c, 0x2e, 0x70, 0x73, 0x65, 0x75,
  0x64, 0x6f, 0x5f, 0x71, 0x63, 0x6f, 0x6e, 0x73, 0x74, 0x36, 0x00, 0x00,
  0x01, 0x00, 0x00, 0x00, 0x20, 0x00, 0x00, 0x00, 0x00, 0x00, 0x16, 0x00,
  0x1e, 0x00, 0x18, 0x00, 0x17, 0x00, 0x10, 0x00, 0x0c, 0x00, 0x08, 0x00,
  0x00, 0x00, 0x00, 0x00, 0x00, 0x00, 0x07, 0x00, 0x16, 0x00, 0x00, 0x00,
  0x00, 0x00, 0x00, 0x01, 0x28, 0x00, 0x00, 0x00, 0xc0, 0x01, 0x00, 0x00,
  0x08, 0x00, 0x00, 0x00, 0x00, 0x00, 0x00, 0x09, 0xcc, 0x01, 0x00, 0x00,
  0x00, 0x00, 0x12, 0x00, 0x10, 0x00, 0x00, 0x00, 0x00, 0x00, 0x0c, 0x00,
  0x08, 0x00, 0x00, 0x00, 0x00, 0x00, 0x04, 0x00, 0x12, 0x00, 0x00, 0x00,
  0x03, 0x00, 0x00, 0x00, 0x08, 0x00, 0x00, 0x00, 0x0c, 0x01, 0x00, 0x00,
  0x20, 0x00, 0x00, 0x00, 0x00, 0x00, 0x00, 0x00, 0x00, 0x00, 0x00, 0x00,
  0x00, 0x00, 0x00, 0x00, 0x00, 0x00, 0x00, 0x00, 0x00, 0x00, 0x00, 0x00,
  0x00, 0x00, 0x00, 0x00, 0x00, 0x00, 0x00, 0x00, 0x00, 0x00, 0x00, 0x00,
  0x00, 0x00, 0x00, 0x00, 0x00, 0x00, 0x00, 0x00, 0x00, 0x00, 0x00, 0x00,
  0x00, 0x00, 0x00, 0x00, 0x00, 0x00, 0x00, 0x00, 0x00, 0x00, 0x00, 0x00,
  0x00, 0x00, 0x00, 0x00, 0x00, 0x00, 0x00, 0x00, 0x00, 0x00, 0x00, 0x00,
  0x00, 0x00, 0x00, 0x00, 0x00, 0x00, 0x00, 0x00, 0x00, 0x00, 0x00, 0x00,
  0x00, 0x00, 0x00, 0x00, 0x00, 0x00, 0x00, 0x00, 0x00, 0x00, 0x00, 0x00,
  0x00, 0x00, 0x00, 0x00, 0x00, 0x00, 0x00, 0x00, 0x00, 0x00, 0x00, 0x00,
  0x00, 0x00, 0x00, 0x00, 0x00, 0x00, 0x00, 0x00, 0x00, 0x00, 0x00, 0x00,
  0x00, 0x00, 0x00, 0x00, 0x00, 0x00, 0x00, 0x00, 0x00, 0x00, 0x00, 0x00,
  0x00, 0x00, 0x00, 0x00, 0x00, 0x00, 0x00, 0x00, 0x00, 0x00, 0x00, 0x00,
  0x00, 0x00, 0x00, 0x00, 0x00, 0x00, 0x00, 0x00, 0x00, 0x00, 0x00, 0x00,
  0x00, 0x00, 0x00, 0x00, 0x00, 0x00, 0x00, 0x00, 0x00, 0x00, 0x00, 0x00,
  0x00, 0x00, 0x00, 0x00, 0x00, 0x00, 0x00, 0x00, 0x00, 0x00, 0x00, 0x00,
  0x00, 0x00, 0x00, 0x00, 0x00, 0x00, 0x00, 0x00, 0x00, 0x00, 0x00, 0x00,
  0x00, 0x00, 0x00, 0x00, 0x00, 0x00, 0x00, 0x00, 0x00, 0x00, 0x00, 0x00,
  0x00, 0x00, 0x00, 0x00, 0x00, 0x00, 0x00, 0x00, 0x00, 0x00, 0x00, 0x00,
  0x00, 0x00, 0x00, 0x00, 0x00, 0x00, 0x00, 0x00, 0x00, 0x00, 0x00, 0x00,
  0x00, 0x00, 0x00, 0x00, 0x00, 0x00, 0x00, 0x00, 0x00, 0x00, 0x00, 0x00,
  0x00, 0x00, 0x00, 0x00, 0x00, 0x00, 0x00, 0x00, 0x00, 0x00, 0x00, 0x00,
  0x00, 0x00, 0x00, 0x00, 0x00, 0x00, 0x00, 0x00, 0x00, 0x00, 0x00, 0x00,
  0x20, 0x00, 0x00, 0x00, 0x2d, 0x83, 0xd5, 0x3a, 0xfd, 0xe0, 0xd5, 0x3a,
  0xee, 0xba, 0xdb, 0x3a, 0xb9, 0x2e, 0xf8, 0x3a, 0xbb, 0x93, 0xf9, 0x3a,
  0x03, 0x18, 0xcc, 0x3a, 0xbd, 0x44, 0xc9, 0x3a, 0x79, 0x5b, 0xde, 0x3a,
  0x4a, 0x1c, 0xd9, 0x3a, 0xae, 0xc4, 0xf9, 0x3a, 0xdb, 0x3f, 0xcd, 0x3a,
  0xf9, 0x7d, 0xdf, 0x3a, 0xfb, 0x83, 0xac, 0x3a, 0x64, 0xe4, 0xa2, 0x3a,
  0xa7, 0x7e, 0xe5, 0x3a, 0x08, 0x49, 0xd5, 0x3a, 0x96, 0x94, 0xd7, 0x3a,
  0xd6, 0x1d, 0xba, 0x3a, 0xba, 0x50, 0xc7, 0x3a, 0x18, 0xa0, 0xd8, 0x3a,
  0xd9, 0x5f, 0xcb, 0x3a, 0x6b, 0xef, 0xff, 0x3a, 0x96, 0x83, 0xd4, 0x3a,
  0xff, 0xf7, 0xa7, 0x3a, 0xcf, 0x31, 0xcb, 0x3a, 0x9d, 0x38, 0xaa, 0x3a,
  0xf9, 0xca, 0xea, 0x3a, 0xc7, 0x10, 0xeb, 0x3a, 0x72, 0x80, 0xc2, 0x3a,
  0x4d, 0x95, 0xae, 0x3a, 0xf0, 0xa3, 0xfe, 0x3a, 0x23, 0x25, 0xf5, 0x3a,
  0x12, 0x00, 0x00, 0x00, 0x74, 0x66, 0x6c, 0x2e, 0x70, 0x73, 0x65, 0x75,
  0x64, 0x6f, 0x5f, 0x71, 0x63, 0x6f, 0x6e, 0x73, 0x74, 0x35, 0x00, 0x00,
  0x04, 0x00, 0x00, 0x00, 0x01, 0x00, 0x00, 0x00, 0x03, 0x00, 0x00, 0x00,
  0x03, 0x00, 0x00, 0x00, 0x20, 0x00, 0x00, 0x00, 0xc2, 0xf7, 0xff, 0xff,
  0x00, 0x00, 0x00, 0x01, 0x14, 0x00, 0x00, 0x00, 0xa4, 0x01, 0x00, 0x00,
  0x07, 0x00, 0x00, 0x00, 0x00, 0x00, 0x00, 0x02, 0xb0, 0x01, 0x00, 0x00,
  0x3c, 0xf7, 0xff, 0xff, 0x08, 0x00, 0x00, 0x00, 0x08, 0x01, 0x00, 0x00,
  0x20, 0x00, 0x00, 0x00, 0x00, 0x00, 0x00, 0x00, 0x00, 0x00, 0x00, 0x00,
  0x00, 0x00, 0x00, 0x00, 0x00, 0x00, 0x00, 0x00, 0x00, 0x00, 0x00, 0x00,
  0x00, 0x00, 0x00, 0x00, 0x00, 0x00, 0x00, 0x00, 0x00, 0x00, 0x00, 0x00,
  0x00, 0x00, 0x00, 0x00, 0x00, 0x00, 0x00, 0x00, 0x00, 0x00, 0x00, 0x00,
  0x00, 0x00, 0x00, 0x00, 0x00, 0x00, 0x00, 0x00, 0x00, 0x00, 0x00, 0x00,
  0x00, 0x00, 0x00, 0x00, 0x00, 0x00, 0x00, 0x00, 0x00, 0x00, 0x00, 0x00,
  0x00, 0x00, 0x00, 0x00, 0x00, 0x00, 0x00, 0x00, 0x00, 0x00, 0x00, 0x00,
  0x00, 0x00, 0x00, 0x00, 0x00, 0x00, 0x00, 0x00, 0x00, 0x00, 0x00, 0x00,
  0x00, 0x00, 0x00, 0x00, 0x00, 0x00, 0x00, 0x00, 0x00, 0x00, 0x00, 0x00,
  0x00, 0x00, 0x00, 0x00, 0x00, 0x00, 0x00, 0x00, 0x00, 0x00, 0x00, 0x00,
  0x00, 0x00, 0x00, 0x00, 0x00, 0x00, 0x00, 0x00, 0x00, 0x00, 0x00, 0x00,
  0x00, 0x00, 0x00, 0x00, 0x00, 0x00, 0x00, 0x00, 0x00, 0x00, 0x00, 0x00,
  0x00, 0x00, 0x00, 0x00, 0x00, 0x00, 0x00, 0x00, 0x00, 0x00, 0x00, 0x00,
  0x00, 0x00, 0x00, 0x00, 0x00, 0x00, 0x00, 0x00, 0x00, 0x00, 0x00, 0x00,
  0x00, 0x00, 0x00, 0x00, 0x00, 0x00, 0x00, 0x00, 0x00, 0x00, 0x00, 0x00,
  0x00, 0x00, 0x00, 0x00, 0x00, 0x00, 0x00, 0x00, 0x00, 0x00, 0x00, 0x00,
  0x00, 0x00, 0x00, 0x00, 0x00, 0x00, 0x00, 0x00, 0x00, 0x00, 0x00, 0x00,
  0x00, 0x00, 0x00, 0x00, 0x00, 0x00, 0x00, 0x00, 0x00, 0x00, 0x00, 0x00,
  0x00, 0x00, 0x00, 0x00, 0x00, 0x00, 0x00, 0x00, 0x00, 0x00, 0x00, 0x00,
  0x00, 0x00, 0x00, 0x00, 0x00, 0x00, 0x00, 0x00, 0x00, 0x00, 0x00, 0x00,
  0x00, 0x00, 0x00, 0x00, 0x00, 0x00, 0x00, 0x00, 0x00, 0x00, 0x00, 0x00,
  0x00, 0x00, 0x00, 0x00, 0x00, 0x00, 0x00, 0x00, 0x20, 0x00, 0x00, 0x00,
  0x61, 0x73, 0x25, 0x36, 0x13, 0xbc, 0x25, 0x36, 0xd4, 0x44, 0x2a, 0x36,
  0x0a, 0x51, 0x40, 0x36, 0xaf, 0x65, 0x41, 0x36, 0xf8, 0x26, 0x1e, 0x36,
  0x81, 0xf6, 0x1b, 0x36, 0xfc, 0x4d, 0x2c, 0x36, 0x27, 0x3d, 0x28, 0x36,
  0x9d, 0x8b, 0x41, 0x36, 0x38, 0x0c, 0x1f, 0x36, 0x17, 0x2f, 0x2d, 0x36,
  0xa8, 0xae, 0x05, 0x36, 0x3e, 0x73, 0xfc, 0x35, 0xdd, 0xd5, 0x31, 0x36,
  0x53, 0x46, 0x25, 0x36, 0x9f, 0x0d, 0x27, 0x36, 0xbf, 0x38, 0x10, 0x36,
  0x0c, 0x73, 0x1a, 0x36, 0xe9, 0xdc, 0x27, 0x36, 0x43, 0x98, 0x1d, 0x36,
  0xfb, 0x52, 0x46, 0x36, 0x53, 0xad, 0x24, 0x36, 0xaf, 0x28, 0x02, 0x36,
  0x96, 0x74, 0x1d, 0x36, 0x81, 0xe7, 0x03, 0x36, 0xe0, 0xf0, 0x35, 0x36,
  0xf8, 0x26, 0x36, 0x36, 0x27, 0xb8, 0x16, 0x36, 0xd4, 0x48, 0x07, 0x36,
  0x1d, 0x52, 0x45, 0x36, 0x7d, 0xf6, 0x3d, 0x36, 0x12, 0x00, 0x00, 0x00,
  0x74, 0x66, 0x6c, 0x2e, 0x70, 0x73, 0x65, 0x75, 0x64, 0x6f, 0x5f, 0x71,
  0x63, 0x6f, 0x6e, 0x73, 0x74, 0x34, 0x00, 0x00, 0x01, 0x00, 0x00, 0x00,
  0x20, 0x00, 0x00, 0x00, 0x92, 0xf9, 0xff, 0xff, 0x00, 0x00, 0x00, 0x01,
  0x14, 0x00, 0x00, 0x00, 0x68, 0x02, 0x00, 0x00, 0x06, 0x00, 0x00, 0x00,
  0x00, 0x00, 0x00, 0x09, 0x74, 0x02, 0x00, 0x00, 0x0c, 0xf9, 0xff, 0xff,
  0x08, 0x00, 0x00, 0x00, 0x8c, 0x01, 0x00, 0x00, 0x30, 0x00, 0x00, 0x00,
  0x00, 0x00, 0x00, 0x00, 0x00, 0x00, 0x00, 0x00, 0x00, 0x00, 0x00, 0x00,
  0x00, 0x00, 0x00, 0x00, 0x00, 0x00, 0x00, 0x00, 0x00, 0x00, 0x00, 0x00,
  0x00, 0x00, 0x00, 0x00, 0x00, 0x00, 0x00, 0x00, 0x00, 0x00, 0x00, 0x00,
  0x00, 0x00, 0x00, 0x00, 0x00, 0x00, 0x00, 0x00, 0x00, 0x00, 0x00, 0x00,
  0x00, 0x00, 0x00, 0x00, 0x00, 0x00, 0x00, 0x00, 0x00, 0x00, 0x00, 0x00,
  0x00, 0x00, 0x00, 0x00, 0x00, 0x00, 0x00, 0x00, 0x00, 0x00, 0x00, 0x00,
  0x00, 0x00, 0x00, 0x00, 0x00, 0x00, 0x00, 0x00, 0x00, 0x00, 0x00, 0x00,
  0x00, 0x00, 0x00, 0x00, 0x00, 0x00, 0x00, 0x00, 0x00, 0x00, 0x00, 0x00,
  0x00, 0x00, 0x00, 0x00, 0x00, 0x00, 0x00, 0x00, 0x00, 0x00, 0x00, 0x00,
  0x00, 0x00, 0x00, 0x00, 0x00, 0x00, 0x00, 0x00, 0x00, 0x00, 0x00, 0x00,
  0x00, 0x00, 0x00, 0x00, 0x00, 0x00, 0x00, 0x00, 0x00, 0x00, 0x00, 0x00,
  0x00, 0x00, 0x00, 0x00, 0x00, 0x00, 0x00, 0x00, 0x00, 0x00, 0x00, 0x00,
  0x00, 0x00, 0x00, 0x00, 0x00, 0x00, 0x00, 0x00, 0x00, 0x00, 0x00, 0x00,
  0x00, 0x00, 0x00, 0x00, 0x00, 0x00, 0x00, 0x00, 0x00, 0x00, 0x00, 0x00,
  0x00, 0x00, 0x00, 0x00, 0x00, 0x00, 0x00, 0x00, 0x00, 0x00, 0x00, 0x00,
  0x00, 0x00, 0x00, 0x00, 0x00, 0x00, 0x00, 0x00, 0x00, 0x00, 0x00, 0x00,
  0x00, 0x00, 0x00, 0x00, 0x00, 0x00, 0x00, 0x00, 0x00, 0x00, 0x00, 0x00,
  0x00, 0x00, 0x00, 0x00, 0x00, 0x00, 0x00, 0x00, 0x00, 0x00, 0x00, 0x00,
  0x00, 0x00, 0x00, 0x00, 0x00, 0x00, 0x00, 0x00, 0x00, 0x00, 0x00, 0x00,
  0x00, 0x00, 0x00, 0x00, 0x00, 0x00, 0x00, 0x00, 0x00, 0x00, 0x00, 0x00,
  0x00, 0x00, 0x00, 0x00, 0x00, 0x00, 0x00, 0x00, 0x00, 0x00, 0x00, 0x00,
  0x00, 0x00, 0x00, 0x00, 0x00, 0x00, 0x00, 0x00, 0x00, 0x00, 0x00, 0x00,
  0x00, 0x00, 0x00, 0x00, 0x00, 0x00, 0x00, 0x00, 0x00, 0x00, 0x00, 0x00,
  0x00, 0x00, 0x00, 0x00, 0x00, 0x00, 0x00, 0x00, 0x00, 0x00, 0x00, 0x00,
  0x00, 0x00, 0x00, 0x00, 0x00, 0x00, 0x00, 0x00, 0x00, 0x00, 0x00, 0x00,
  0x00, 0x00, 0x00, 0x00, 0x00, 0x00, 0x00, 0x00, 0x00, 0x00, 0x00, 0x00,
  0x00, 0x00, 0x00, 0x00, 0x00, 0x00, 0x00, 0x00, 0x00, 0x00, 0x00, 0x00,
  0x00, 0x00, 0x00, 0x00, 0x00, 0x00, 0x00, 0x00, 0x00, 0x00, 0x00, 0x00,
  0x00, 0x00, 0x00, 0x00, 0x00, 0x00, 0x00, 0x00, 0x00, 0x00, 0x00, 0x00,
  0x00, 0x00, 0x00, 0x00, 0x00, 0x00, 0x00, 0x00, 0x00, 0x00, 0x00, 0x00,
  0x00, 0x00, 0x00, 0x00, 0x00, 0x00, 0x00, 0x00, 0x00, 0x00, 0x00, 0x00,
  0x00, 0x00, 0x00, 0x00, 0x00, 0x00, 0x00, 0x00, 0x00, 0x00, 0x00, 0x00,
  0x00, 0x00, 0x00, 0x00, 0x30, 0x00, 0x00, 0x00, 0x3a, 0xc5, 0x38, 0x3b,
  0x52, 0xd6, 0x33, 0x3b, 0x43, 0x46, 0x1f, 0x3b, 0xff, 0x34, 0x3d, 0x3b,
  0xb8, 0x7f, 0x3f, 0x3b, 0xe1, 0x05, 0x39, 0x3b, 0x74, 0x9a, 0x36, 0x3b,
  0x61, 0x58, 0x3c, 0x3b, 0x1b, 0x95, 0x40, 0x3b, 0x71, 0x14, 0x44, 0x3b,
  0x4a, 0x41, 0x40, 0x3b, 0xa8, 0x85, 0x35, 0x3b, 0x36, 0x36, 0x42, 0x3b,
  0x6c, 0x60, 0x3a, 0x3b, 0x55, 0xb1, 0x3c, 0x3b, 0x6e, 0xb6, 0x42, 0x3b,
  0xa5, 0x90, 0x35, 0x3b, 0x7e, 0xc2, 0x4e, 0x3b, 0xc4, 0xde, 0x39, 0x3b,
  0x75, 0x6e, 0x52, 0x3b, 0x42, 0xef, 0x3c, 0x3b, 0xb7, 0x50, 0x32, 0x3b,
  0x9e, 0x89, 0x47, 0x3b, 0xb4, 0xc9, 0x2c, 0x3b, 0x21, 0x0b, 0x36, 0x3b,
  0x33, 0x01, 0x33, 0x3b, 0x0d, 0x9a, 0x32, 0x3b, 0xea, 0x7d, 0x4f, 0x3b,
  0x85, 0xc9, 0x49, 0x3b, 0x96, 0x3d, 0x44, 0x3b, 0x05, 0xf0, 0x2d, 0x3b,
  0x20, 0x6c, 0x45, 0x3b, 0x10, 0x86, 0x3b, 0x3b, 0x96, 0x9e, 0x44, 0x3b,
  0x0a, 0x1a, 0x49, 0x3b, 0x6b, 0x9c, 0x42, 0x3b, 0x80, 0x3c, 0x39, 0x3b,
